<unk>	0
<s>	0
</s>	0
▁c	-0
▁e	-1
de	-2
▁y	-3
▁m	-4
on	-5
en	-6
▁el	-7
▁p	-8
ta	-9
▁a	-10
▁s	-11
▁ma	-12
ga	-13
te	-14
▁con	-15
la	-16
ra	-17
ue	-18
▁de	-19
▁ya	-20
▁d	-21
▁n	-22
▁ta	-23
le	-24
▁si	-25
▁maga	-26
▁q	-27
us	-28
re	-29
os	-30
▁h	-31
▁di	-32
▁pa	-33
da	-34
▁ca	-35
ien	-36
to	-37
er	-38
es	-39
▁na	-40
do	-41
▁us	-42
▁ha	-43
▁que	-44
▁uste	-45
▁es	-46
ri	-47
▁D	-48
▁del	-49
des	-50
un	-51
▁t	-52
▁ay	-53
ci	-54
▁ustedes	-55
or	-56
▁g	-57
yo	-58
ua	-59
▁para	-60
ente	-61
▁le	-62
▁J	-63
▁b	-64
ro	-65
mo	-66
ca	-67
ios	-68
▁Dios	-69
▁qu	-70
▁man	-71
in	-72
▁o	-73
▁gente	-74
▁ga	-75
▁mi	-76
ce	-77
bla	-78
▁yo	-79
▁sila	-80
▁su	-81
▁v	-82
▁habla	-83
▁P	-84
▁l	-85
▁quien	-86
▁ele	-87
ila	-88
▁S	-89
ale	-90
yot	-91
▁gayot	-92
▁an	-93
▁en	-94
▁Jes	-95
sa	-96
lo	-97
di	-98
▁E	-99
▁un	-100
ig	-101
▁Y	-102
▁co	-103
▁ese	-104
ende	-105
▁"	-106
an	-107
ero	-108
men	-109
▁re	-110
▁can	-111
osa	-112
ita	-113
mp	-114
▁hace	-115
▁pue	-116
ti	-117
▁tamen	-118
▁la	-119
iene	-120
▁f	-121
ie	-122
▁cosa	-123
be	-124
▁to	-125
▁cay	-126
▁hende	-127
▁puede	-128
▁suyo	-129
que	-130
uan	-131
ues	-132
ton	-133
ui	-134
▁sa	-135
ma	-136
▁dale	-137
▁Jesus	-138
pues	-139
▁todo	-140
igo	-141
▁A	-142
▁C	-143
uay	-144
cri	-145
tra	-146
me	-147
▁por	-148
uen	-149
ba	-150
ces	-151
ng	-152
▁tiene	-153
cion	-154
▁queda	-155
ene	-156
dio	-157
▁no	-158
tro	-159
."	-160
▁lang	-161
bi	-162
▁canila	-163
▁al	-164
se	-165
▁nuay	-166
res	-167
cia	-168
▁Des	-169
li	-170
za	-171
▁mas	-172
dad	-173
▁vi	-174
uando	-175
sto	-176
▁Despues	-177
migo	-178
quel	-179
ho	-180
▁ac	-181
sta	-182
▁ila	-183
▁amo	-184
▁k	-185
▁T	-186
uer	-187
▁ba	-188
▁como	-189
▁kita	-190
▁este	-191
▁j	-192
▁conmigo	-193
▁mu	-194
▁lle	-195
▁aquel	-196
▁bien	-197
▁mira	-198
▁Pero	-199
ucri	-200
ucristo	-201
▁Jesucristo	-202
▁M	-203
jo	-204
▁tene	-205
erca	-206
mb	-207
ina	-208
▁des	-209
as	-210
▁Ya	-211
ura	-212
co	-213
▁manda	-214
▁cre	-215
▁pero	-216
ensa	-217
vi	-218
▁pe	-219
usa	-220
eñ	-221
▁po	-222
▁mio	-223
▁Pa	-224
va	-225
je	-226
▁anda	-227
▁N	-228
eñor	-229
▁came	-230
▁acerca	-231
smo	-232
udio	-233
▁otro	-234
mon	-235
▁pre	-236
▁buen	-237
gar	-238
▁sabe	-239
pa	-240
▁Es	-241
▁mismo	-242
iere	-243
▁sale	-244
bra	-245
ia	-246
▁Si	-247
▁tu	-248
ja	-249
no	-250
▁causa	-251
▁tra	-252
▁me	-253
▁cuando	-254
tonces	-255
eces	-256
gui	-257
▁cosas	-258
▁cana	-259
▁pro	-260
reso	-261
hora	-262
▁Señor	-263
▁Sa	-264
▁H	-265
qui	-266
ran	-267
▁fe	-268
gun	-269
▁ig	-270
na	-271
▁peca	-272
▁quiere	-273
iento	-274
cip	-275
▁lu	-276
uin	-277
▁El	-278
▁sigui	-279
mbre	-280
▁Judio	-281
mi	-282
uda	-283
ay	-284
po	-285
▁medio	-286
ul	-287
nte	-288
unto	-289
▁per	-290
▁mun	-291
miento	-292
▁oi	-293
quin	-294
▁traba	-295
cho	-296
▁En	-297
▁ent	-298
▁neces	-299
▁junto	-300
man	-301
onde	-302
▁hasta	-303
▁llega	-304
▁lugar	-305
▁B	-306
▁aton	-307
tu	-308
▁mundo	-309
les	-310
▁pecado	-311
▁uno	-312
▁Cuando	-313
▁i	-314
ve	-315
yente	-316
▁vida	-317
dre	-318
▁Ta	-319
mpo	-320
▁Entonces	-321
sina	-322
fi	-323
▁creyente	-324
ol	-325
der	-326
los	-327
▁donde	-328
▁casa	-329
▁alla	-330
▁gran	-331
▁necesita	-332
ria	-333
▁pensa	-334
▁bueno	-335
ual	-336
lla	-337
▁masquin	-338
ch	-339
pi	-340
tes	-341
▁sie	-342
▁res	-343
▁ense	-344
▁pi	-345
▁cont	-346
vo	-347
▁cuer	-348
▁reci	-349
▁tie	-350
▁tiempo	-351
▁dia	-352
▁recibi	-353
blo	-354
▁cuerpo	-355
ña	-356
▁cla	-357
▁li	-358
▁her	-359
▁aqui	-360
▁trabajo	-361
▁sino	-362
dor	-363
enta	-364
is	-365
▁igual	-366
ru	-367
▁No	-368
am	-369
mano	-370
▁ver	-371
pe	-372
▁fa	-373
uera	-374
▁dicip	-375
▁pon	-376
▁muer	-377
▁pri	-378
▁in	-379
▁ni	-380
▁canaton	-381
jer	-382
ak	-383
▁pala	-384
▁mujer	-385
piri	-386
▁come	-387
▁ayuda	-388
▁lleva	-389
ulo	-390
▁anak	-391
▁ansina	-392
▁dicipulo	-393
▁mal	-394
▁ap	-395
▁ve	-396
▁poder	-397
▁aquellos	-398
▁se	-399
▁te	-400
▁antes	-401
▁ahora	-402
▁esta	-403
▁palabra	-404
▁cam	-405
oreso	-406
testa	-407
mpre	-408
piritu	-409
tr	-410
ielo	-411
▁Padre	-412
io	-413
▁contesta	-414
ino	-415
go	-416
anza	-417
▁Poreso	-418
▁despues	-419
fe	-420
so	-421
▁cielo	-422
?"	-423
▁Tiene	-424
▁'	-425
▁vez	-426
▁hermano	-427
▁R	-428
▁San	-429
▁pone	-430
▁dos	-431
▁sal	-432
ijo	-433
▁siempre	-434
▁Espiritu	-435
▁pati	-436
ne	-437
mplo	-438
bede	-439
▁ar	-440
▁ley	-441
ona	-442
tura	-443
▁grande	-444
el	-445
tras	-446
▁muri	-447
▁mucho	-448
▁Ma	-449
▁mensa	-450
▁pasa	-451
lama	-452
▁vene	-453
ste	-454
bedece	-455
▁Santo	-456
gra	-457
dro	-458
▁ale	-459
▁car	-460
▁Pablo	-461
▁tata	-462
▁llama	-463
▁debe	-464
▁obedece	-465
▁contra	-466
▁entre	-467
edro	-468
▁ama	-469
▁or	-470
▁cree	-471
▁jus	-472
▁poreso	-473
▁canamon	-474
ientras	-475
si	-476
▁Pedro	-477
ridad	-478
▁nombre	-479
▁Hijo	-480
cribi	-481
▁Ahora	-482
ticia	-483
▁esos	-484
▁entra	-485
▁mensaje	-486
seo	-487
raz	-488
▁aleg	-489
!"	-490
oso	-491
razon	-492
▁corazon	-493
gunta	-494
▁vivi	-495
▁pregunta	-496
▁alli	-497
encia	-498
▁gane	-499
▁escribi	-500
vera	-501
esa	-502
dica	-503
▁salva	-504
▁bi	-505
▁ra	-506
▁enseña	-507
ois	-508
oises	-509
▁Moises	-510
▁ang	-511
▁malo	-512
▁prin	-513
▁aca	-514
coje	-515
▁Cay	-516
fri	-517
▁ci	-518
▁Buen	-519
▁Juan	-520
▁sufri	-521
▁Re	-522
▁ho	-523
orta	-524
▁princip	-525
gunos	-526
.'	-527
oce	-528
sti	-529
▁ani	-530
▁ag	-531
inua	-532
▁par	-533
mor	-534
bia	-535
vor	-536
▁predica	-537
▁mano	-538
cha	-539
▁imp	-540
endi	-541
ble	-542
con	-543
▁pla	-544
lesia	-545
▁conv	-546
▁muerte	-547
▁Noticia	-548
▁iglesia	-549
buen	-550
amente	-551
iencia	-552
▁enbuen	-553
▁enbuenamente	-554
▁verdad	-555
▁U	-556
▁amor	-557
▁Sagra	-558
▁cu	-559
▁mie	-560
▁continua	-561
ya	-562
▁hon	-563
▁profe	-564
▁ala	-565
▁I	-566
▁ro	-567
estro	-568
dero	-569
▁otra	-570
▁fuera	-571
▁entende	-572
tros	-573
udad	-574
▁Jer	-575
▁Este	-576
▁comp	-577
▁espe	-578
▁reza	-579
para	-580
▁fuer	-581
▁ciudad	-582
▁profeta	-583
▁da	-584
ayun	-585
▁sin	-586
▁dayun	-587
al	-588
▁mata	-589
odo	-590
alem	-591
san	-592
▁An	-593
▁deci	-594
▁G	-595
anta	-596
usalem	-597
▁favor	-598
▁otros	-599
verasan	-600
▁Jerusalem	-601
▁pensamiento	-602
modo	-603
monio	-604
▁talla	-605
▁acaba	-606
▁contigo	-607
ang	-608
ter	-609
▁nin	-610
eles	-611
▁resu	-612
▁clase	-613
▁ab	-614
▁sir	-615
▁Escri	-616
▁Escritura	-617
▁Aquel	-618
▁Sagrada	-619
▁ningunos	-620
▁principia	-621
rio	-622
ñanza	-623
▁enseñanza	-624
cio	-625
uti	-626
▁escoje	-627
▁demonio	-628
Si	-629
▁af	-630
▁dol	-631
▁pres	-632
quemodo	-633
lidad	-634
▁ole	-635
▁amon	-636
ier	-637
▁bu	-638
dona	-639
▁bata	-640
▁senta	-641
▁muerto	-642
▁cos	-643
▁parte	-644
▁entonces	-645
per	-646
ron	-647
▁templo	-648
tero	-649
fer	-650
rece	-651
▁Cri	-652
▁saca	-653
tan	-654
▁pidi	-655
▁tuyo	-656
▁claro	-657
▁importa	-658
▁afuera	-659
den	-660
▁Por	-661
▁Nuay	-662
▁bira	-663
▁cala	-664
▁Cristo	-665
cura	-666
▁deja	-667
▁miedo	-668
dia	-669
▁paquemodo	-670
▁L	-671
dao	-672
Judio	-673
▁cuen	-674
▁nada	-675
▁sirvi	-676
uto	-677
unca	-678
▁anay	-679
▁auto	-680
▁autoridad	-681
▁importante	-682
cu	-683
uar	-684
cita	-685
▁eje	-686
▁ejemplo	-687
▁resucita	-688
▁presencia	-689
mas	-690
mbra	-691
osto	-692
▁cerca	-693
▁aposto	-694
▁pueblo	-695
▁alegria	-696
▁Ese	-697
▁cor	-698
▁so	-699
▁mane	-700
▁camina	-701
▁nacion	-702
▁u	-703
dora	-704
▁maestro	-705
orda	-706
iente	-707
▁trabaja	-708
▁ce	-709
▁nue	-710
trola	-711
▁angel	-712
▁cuento	-713
▁controla	-714
▁cru	-715
▁entero	-716
▁ri	-717
▁rey	-718
▁pers	-719
▁deverasan	-720
ada	-721
cial	-722
dadero	-723
▁nunca	-724
ber	-725
ham	-726
jos	-727
▁uni	-728
▁Abra	-729
▁jusga	-730
▁Abraham	-731
▁mientras	-732
rmi	-733
▁Na	-734
ulta	-735
▁cen	-736
▁padre	-737
Qu	-738
ño	-739
cido	-740
▁Todo	-741
▁conoce	-742
st	-743
▁dere	-744
▁verdadero	-745
du	-746
ali	-747
encion	-748
▁adora	-749
▁fuerte	-750
▁manera	-751
▁precura	-752
▁mandamiento	-753
▁nana	-754
cto	-755
mal	-756
▁honor	-757
▁fal	-758
▁mar	-759
▁destr	-760
▁nuevo	-761
ciencia	-762
▁O	-763
cla	-764
▁ex	-765
idad	-766
▁eter	-767
El	-768
olve	-769
▁sol	-770
riseo	-771
vanta	-772
▁sang	-773
contra	-774
▁eterna	-775
▁Pariseo	-776
▁encontra	-777
▁Ay	-778
▁usa	-779
can	-780
cer	-781
rga	-782
▁Hende	-783
▁deseo	-784
▁of	-785
▁Mas	-786
▁bar	-787
▁reina	-788
24	-789
▁bus	-790
tencion	-791
▁Mientras	-792
▁destrosa	-793
2;	-794
242;	-795
▁gra	-796
▁gru	-797
▁suce	-798
▁era	-799
▁ser	-800
bilidad	-801
▁animal	-802
▁perdona	-803
dra	-804
mba	-805
▁cada	-806
▁pu	-807
mida	-808
Señor	-809
▁tres	-810
▁comida	-811
jan	-812
▁grupo	-813
dena	-814
▁agua	-815
▁sucede	-816
beza	-817
▁arri	-818
urante	-819
▁apostoles	-820
oz	-821
rta	-822
▁dias	-823
▁toma	-824
▁ayudante	-825
lea	-826
fica	-827
mpli	-828
▁ofi	-829
▁pie	-830
▁voz	-831
▁cara	-832
stedes	-833
▁piedra	-834
▁persona	-835
for	-836
▁ropa	-837
▁busca	-838
▁enfer	-839
rita	-840
ccion	-841
mento	-842
▁cumpli	-843
lag	-844
▁vis	-845
▁desde	-846
▁manada	-847
▁oficial	-848
lan	-849
pin	-850
gaña	-851
lebra	-852
▁hora	-853
▁prim	-854
▁justo	-855
▁Ansina	-856
▁levanta	-857
▁prepara	-858
ara	-859
tanas	-860
▁Sabe	-861
▁Is	-862
▁servi	-863
▁llegar	-864
▁Satanas	-865
No	-866
▁pan	-867
▁decir	-868
▁grita	-869
▁acorda	-870
▁cabeza	-871
▁du	-872
▁cui	-873
▁esp	-874
▁conver	-875
▁bo	-876
▁Ele	-877
▁Rey	-878
uanto	-879
▁atra	-880
▁lasti	-881
▁hombre	-882
▁Reino	-883
▁alegre	-884
ion	-885
dores	-886
ierra	-887
mente	-888
▁acusa	-889
▁milag	-890
▁tierra	-891
▁lastima	-892
▁sufrimiento	-893
Ta	-894
lica	-895
▁gaja	-896
▁limp	-897
▁cuanto	-898
che	-899
▁Da	-900
▁crea	-901
▁gale	-902
▁mari	-903
▁vivo	-904
▁rabia	-905
▁siguidores	-906
bre	-907
cias	-908
▁aba	-909
▁dis	-910
▁atraca	-911
▁milagro	-912
▁De	-913
▁cri	-914
▁dao	-915
▁cruz	-916
▁camino	-917
▁comete	-918
▁porque	-919
▁gracias	-920
Ma	-921
gul	-922
uego	-923
▁est	-924
▁guar	-925
tumbre	-926
▁vista	-927
▁volve	-928
▁conversa	-929
▁costumbre	-930
cre	-931
son	-932
tao	-933
▁Ho	-934
▁ad	-935
rael	-936
▁paz	-937
▁tri	-938
ranza	-939
diente	-940
▁bauti	-941
▁lider	-942
▁quere	-943
▁Hombre	-944
▁Israel	-945
▁esperanza	-946
uya	-947
tial	-948
▁una	-949
rab	-950
uelo	-951
▁cae	-952
▁animo	-953
▁bendi	-954
▁servidor	-955
ver	-956
dera	-957
▁poco	-958
▁angeles	-959
miti	-960
▁reg	-961
▁bula	-962
lacion	-963
▁fuego	-964
elestial	-965
ji	-966
▁lao	-967
▁solo	-968
▁noche	-969
▁siete	-970
▁salvacion	-971
ena	-972
▁Ti	-973
▁Un	-974
▁is	-975
▁apa	-976
▁lin	-977
▁ter	-978
banza	-979
▁Gali	-980
sidera	-981
vita	-982
▁Hero	-983
▁alto	-984
▁Ustedes	-985
▁durante	-986
▁abilidad	-987
▁considera	-988
▁Qu	-989
▁pes	-990
▁rep	-991
▁pies	-992
▁prom	-993
▁Maria	-994
▁carta	-995
▁sangre	-996
ilato	-997
▁orgul	-998
▁taqui	-999
▁Pilato	-1000
lu	-1001
stigo	-1002
▁cambia	-1003
▁natura	-1004
▁castigo	-1005
▁relacion	-1006
ban	-1007
gua	-1008
llo	-1009
rias	-1010
pinti	-1011
▁estra	-1012
▁quita	-1013
uk	-1014
ut	-1015
das	-1016
▁Ca	-1017
nero	-1018
▁due	-1019
engua	-1020
▁enca	-1021
▁pirmi	-1022
▁engaña	-1023
▁querer	-1024
▁Galilea	-1025
▁entrega	-1026
ior	-1027
▁as	-1028
uanta	-1029
▁aden	-1030
perior	-1031
rabuelo	-1032
▁adentro	-1033
▁resulta	-1034
▁tatarabuelo	-1035
iel	-1036
▁ul	-1037
lora	-1038
▁Con	-1039
▁boca	-1040
▁plan	-1041
▁Simon	-1042
▁amigo	-1043
▁descan	-1044
▁visita	-1045
▁promesa	-1046
Por	-1047
vid	-1048
▁Su	-1049
▁ase	-1050
▁doce	-1051
▁David	-1052
▁respe	-1053
▁soldao	-1054
▁bautisa	-1055
▁Celestial	-1056
▁paciencia	-1057
ntes	-1058
▁ene	-1059
▁cura	-1060
▁ojos	-1061
▁tumba	-1062
▁aguanta	-1063
▁derecho	-1064
▁enemigo	-1065
▁arripinti	-1066
ficio	-1067
▁lengua	-1068
▁primer	-1069
▁puerta	-1070
▁Masquin	-1071
lebracion	-1072
▁conviene	-1073
stiga	-1074
▁bajo	-1075
▁isla	-1076
▁sabi	-1077
▁marido	-1078
▁sentao	-1079
▁castiga	-1080
cen	-1081
Este	-1082
clavo	-1083
▁maldad	-1084
▁separa	-1085
▁Herodes	-1086
▁Superior	-1087
Que	-1088
ana	-1089
inta	-1090
mete	-1091
▁tes	-1092
▁Juda	-1093
▁Maga	-1094
▁ulti	-1095
▁esclavo	-1096
▁alabanza	-1097
lug	-1098
uia	-1099
▁os	-1100
leza	-1101
onte	-1102
▁Jos	-1103
▁cin	-1104
▁bilug	-1105
▁espera	-1106
▁limpio	-1107
▁ultimo	-1108
▁necesidad	-1109
▁naturaleza	-1110
gura	-1111
▁ins	-1112
▁lib	-1113
▁algun	-1114
▁rason	-1115
▁decidi	-1116
▁carnero	-1117
▁go	-1118
▁cul	-1119
▁libro	-1120
▁accion	-1121
▁cuidao	-1122
▁planta	-1123
▁entendi	-1124
▁Ju	-1125
Cosa	-1126
boso	-1127
▁cua	-1128
▁mil	-1129
▁tar	-1130
▁fiel	-1131
▁arres	-1132
▁bulak	-1133
▁veces	-1134
mao	-1135
isti	-1136
▁val	-1137
▁Antes	-1138
▁falta	-1139
▁unido	-1140
▁promete	-1141
▁calaboso	-1142
▁Ba	-1143
forme	-1144
▁oscu	-1145
▁orden	-1146
▁pobre	-1147
efe	-1148
mbus	-1149
▁devo	-1150
▁decen	-1151
▁dueño	-1152
▁llora	-1153
▁perde	-1154
▁Quiere	-1155
▁comple	-1156
▁lenguaje	-1157
▁decendiente	-1158
cao	-1159
lig	-1160
por	-1161
▁Ro	-1162
jala	-1163
milla	-1164
uinda	-1165
▁Jose	-1166
▁jefe	-1167
▁tapa	-1168
Porque	-1169
▁sacri	-1170
▁guinda	-1171
▁ofrece	-1172
▁enfermo	-1173
▁entendimiento	-1174
ias	-1175
lia	-1176
▁apr	-1177
duria	-1178
garra	-1179
▁alma	-1180
▁culpa	-1181
resenta	-1182
▁aprende	-1183
▁sabiduria	-1184
▁representa	-1185
dea	-1186
oni	-1187
osi	-1188
▁he	-1189
ncia	-1190
▁apro	-1191
fianza	-1192
▁alaba	-1193
▁cuatro	-1194
▁triste	-1195
▁similla	-1196
▁atencion	-1197
▁bendicion	-1198
▁confianza	-1199
ida	-1200
uta	-1201
▁Ja	-1202
daso	-1203
▁rico	-1204
▁corre	-1205
▁falso	-1206
▁agarra	-1207
▁fuerza	-1208
▁pedaso	-1209
▁arresta	-1210
▁permiti	-1211
pre	-1212
▁Be	-1213
gasa	-1214
rono	-1215
unta	-1216
▁Judea	-1217
▁secre	-1218
▁trono	-1219
▁controlao	-1220
▁sacrificio	-1221
don	-1222
len	-1223
pta	-1224
ven	-1225
unda	-1226
▁Eli	-1227
▁men	-1228
▁guer	-1229
▁paga	-1230
▁resp	-1231
▁regla	-1232
ecesita	-1233
▁salvao	-1234
▁reglamento	-1235
Ya	-1236
.'"	-1237
bli	-1238
eli	-1239
jero	-1240
▁lar	-1241
▁luz	-1242
berna	-1243
queza	-1244
▁gana	-1245
▁hijo	-1246
▁palo	-1247
▁vino	-1248
▁hacer	-1249
▁vinta	-1250
▁estaba	-1251
▁orgullo	-1252
▁riqueza	-1253
gi	-1254
▁Ha	-1255
dido	-1256
tido	-1257
▁las	-1258
▁jura	-1259
▁espanta	-1260
▁poderoso	-1261
▁celebracion	-1262
yat	-1263
▁aj	-1264
ruta	-1265
sion	-1266
usto	-1267
▁Cor	-1268
▁abri	-1269
▁acce	-1270
▁embus	-1271
▁fruta	-1272
▁lejos	-1273
▁libra	-1274
▁valor	-1275
▁calayat	-1276
▁derecha	-1277
▁conforme	-1278
!'	-1279
erno	-1280
rgao	-1281
uede	-1282
ñana	-1283
▁Isa	-1284
▁sen	-1285
Tiene	-1286
▁uban	-1287
▁Judas	-1288
▁exper	-1289
▁largo	-1290
▁parao	-1291
▁compara	-1292
▁pecador	-1293
▁ol	-1294
echa	-1295
quia	-1296
▁sup	-1297
ierto	-1298
menta	-1299
▁Sila	-1300
▁conf	-1301
▁icha	-1302
▁pono	-1303
▁Ojala	-1304
▁barco	-1305
▁aproba	-1306
▁accepta	-1307
▁asegura	-1308
▁cosecha	-1309
▁respeto	-1310
▁claridad	-1311
▁desierto	-1312
Na	-1313
ira	-1314
sia	-1315
tia	-1316
tun	-1317
ños	-1318
▁años	-1319
guidas	-1320
▁abaja	-1321
▁tarda	-1322
▁mañana	-1323
▁lingasa	-1324
▁experiencia	-1325
:"	-1326
ego	-1327
ibi	-1328
rra	-1329
▁Al	-1330
bado	-1331
dolo	-1332
▁idolo	-1333
▁islam	-1334
▁segun	-1335
▁Sabado	-1336
▁Necesita	-1337
▁encargao	-1338
mbro	-1339
utay	-1340
Hende	-1341
▁dala	-1342
▁demas	-1343
▁plano	-1344
▁diutay	-1345
▁guarda	-1346
▁conciencia	-1347
Ay	-1348
mos	-1349
cuen	-1350
hibi	-1351
▁Ber	-1352
▁cuar	-1353
▁esti	-1354
▁reco	-1355
▁trata	-1356
▁invita	-1357
▁recoje	-1358
Nuay	-1359
▁lee	-1360
▁los	-1361
▁sig	-1362
▁guia	-1363
▁cinco	-1364
▁monte	-1365
▁sinti	-1366
▁suena	-1367
▁goberna	-1368
▁prohibi	-1369
▁intencion	-1370
lon	-1371
teo	-1372
tor	-1373
via	-1374
▁duro	-1375
▁test	-1376
cifica	-1377
▁mando	-1378
Maestro	-1379
▁confia	-1380
▁hambre	-1381
▁omenta	-1382
▁miembro	-1383
um	-1384
gip	-1385
mpe	-1386
ren	-1387
▁jo	-1388
nabe	-1389
pita	-1390
sejo	-1391
▁Sal	-1392
▁ven	-1393
medad	-1394
milia	-1395
rente	-1396
▁Cesa	-1397
▁Egip	-1398
▁aban	-1399
▁difi	-1400
▁nace	-1401
▁joven	-1402
▁ordena	-1403
▁rabiao	-1404
▁Bernabe	-1405
▁familia	-1406
▁abandona	-1407
▁oscuridad	-1408
▁enfermedad	-1409
ano	-1410
cil	-1411
▁Ala	-1412
▁Que	-1413
▁oro	-1414
veras	-1415
▁dies	-1416
▁casao	-1417
▁menos	-1418
endicido	-1419
▁algunos	-1420
▁secreto	-1421
▁segundo	-1422
▁destrosao	-1423
▁fin	-1424
▁hin	-1425
aliza	-1426
blico	-1427
elipe	-1428
ronto	-1429
▁Bien	-1430
▁basi	-1431
▁carga	-1432
▁corta	-1433
▁saber	-1434
▁barrio	-1435
▁pronto	-1436
▁viento	-1437
▁condena	-1438
▁guardia	-1439
▁publico	-1440
▁realiza	-1441
▁descanso	-1442
▁mensajero	-1443
De	-1444
leno	-1445
mana	-1446
mora	-1447
▁cal	-1448
▁via	-1449
blano	-1450
vecho	-1451
▁buta	-1452
▁opor	-1453
▁compo	-1454
▁difer	-1455
▁hinca	-1456
▁lleno	-1457
tunidad	-1458
▁existi	-1459
▁pescao	-1460
▁estraña	-1461
▁suplica	-1462
▁provecho	-1463
▁compoblano	-1464
▁oportunidad	-1465
Yo	-1466
ni	-1467
dos	-1468
asso	-1469
rede	-1470
▁Saul	-1471
▁trai	-1472
▁Passo	-1473
▁preso	-1474
▁sagra	-1475
▁tenta	-1476
▁viuda	-1477
rededor	-1478
▁Egipto	-1479
▁alguna	-1480
▁Aquellos	-1481
▁Passover	-1482
▁principio	-1483
rca	-1484
tar	-1485
▁do	-1486
▁mo	-1487
▁tal	-1488
▁Cosa	-1489
▁huya	-1490
mpensa	-1491
▁durmi	-1492
▁estos	-1493
▁imora	-1494
▁nombra	-1495
▁sembra	-1496
▁Cordero	-1497
▁aparece	-1498
▁estimao	-1499
▁insulta	-1500
▁preparao	-1501
▁escribido	-1502
▁recompensa	-1503
qu	-1504
tos	-1505
▁Yo	-1506
▁lo	-1507
Dios	-1508
▁tro	-1509
Ahora	-1510
ciona	-1511
renda	-1512
rible	-1513
uesto	-1514
▁subi	-1515
osible	-1516
▁Puede	-1517
▁crici	-1518
▁Romano	-1519
▁devoto	-1520
▁ofrenda	-1521
▁creacion	-1522
▁impuesto	-1523
▁terrible	-1524
▁alrededor	-1525
ea	-1526
vida	-1527
moteo	-1528
ocido	-1529
▁esca	-1530
▁espa	-1531
▁envia	-1532
▁perfe	-1533
▁quema	-1534
▁ajunta	-1535
▁compra	-1536
▁saluda	-1537
▁Timoteo	-1538
▁testigo	-1539
zo	-1540
rib	-1541
▁Lu	-1542
▁año	-1543
▁for	-1544
▁mes	-1545
▁rec	-1546
▁señ	-1547
manda	-1548
▁blan	-1549
▁deso	-1550
terias	-1551
▁dolor	-1552
▁viaje	-1553
▁descon	-1554
▁despre	-1555
▁guerra	-1556
▁olvida	-1557
▁crucifica	-1558
▁embusterias	-1559
ze	-1560
cob	-1561
rea	-1562
vio	-1563
▁La	-1564
chas	-1565
jido	-1566
llas	-1567
demas	-1568
▁Sino	-1569
▁infi	-1570
▁lava	-1571
nifica	-1572
tencia	-1573
▁Jacob	-1574
▁abajo	-1575
▁abuya	-1576
▁estre	-1577
▁suces	-1578
▁dalaga	-1579
▁esplica	-1580
▁espantao	-1581
▁infierno	-1582
▁desprecia	-1583
▁significa	-1584
An	-1585
jor	-1586
rto	-1587
una	-1588
▁Co	-1589
▁ki	-1590
tiago	-1591
▁disc	-1592
▁enci	-1593
▁odia	-1594
▁Elias	-1595
▁mejor	-1596
▁blanco	-1597
▁espada	-1598
▁merece	-1599
▁sagrao	-1600
▁suceso	-1601
mandante	-1602
▁resplan	-1603
▁Santiago	-1604
▁estrellas	-1605
▁imoralidad	-1606
aca	-1607
ing	-1608
jas	-1609
nea	-1610
tua	-1611
▁hu	-1612
igui	-1613
mina	-1614
tiga	-1615
▁esc	-1616
▁sab	-1617
blema	-1618
pitan	-1619
▁desa	-1620
frente	-1621
▁forma	-1622
▁linea	-1623
▁relig	-1624
cuentro	-1625
reccion	-1626
tamente	-1627
▁planea	-1628
▁siembra	-1629
▁completo	-1630
▁descansa	-1631
▁problema	-1632
▁encuentro	-1633
▁trabajador	-1634
eso	-1635
ret	-1636
rue	-1637
▁Mi	-1638
▁at	-1639
cate	-1640
tual	-1641
▁oto	-1642
▁Alla	-1643
▁dese	-1644
▁rezo	-1645
mbarca	-1646
racion	-1647
▁cuida	-1648
▁estor	-1649
▁honra	-1650
▁vende	-1651
▁visti	-1652
▁espiri	-1653
▁otorga	-1654
▁sangga	-1655
▁capitan	-1656
▁dificil	-1657
▁enfrente	-1658
▁espiritual	-1659
▁gobernador	-1660
▁resplandor	-1661
?'	-1662
Pa	-1663
reg	-1664
Anda	-1665
anda	-1666
ctor	-1667
orde	-1668
▁com	-1669
▁ori	-1670
▁Naza	-1671
▁lamp	-1672
▁mesa	-1673
▁prop	-1674
▁Talla	-1675
▁altar	-1676
▁arreg	-1677
▁prote	-1678
▁union	-1679
▁arriba	-1680
▁apostol	-1681
▁noticia	-1682
▁Bendicido	-1683
▁sentencia	-1684
▁traiciona	-1685
▁comandante	-1686
▁plantacion	-1687
▁resureccion	-1688
bed	-1689
rep	-1690
tio	-1691
uel	-1692
vin	-1693
▁Le	-1694
▁Mu	-1695
▁za	-1696
Maga	-1697
erto	-1698
esto	-1699
roso	-1700
tica	-1701
ulte	-1702
▁bul	-1703
rueba	-1704
▁cons	-1705
▁cuji	-1706
▁gene	-1707
▁maca	-1708
▁pago	-1709
▁roba	-1710
utista	-1711
vincia	-1712
▁Salva	-1713
▁funda	-1714
repente	-1715
ulterio	-1716
▁encima	-1717
▁prueba	-1718
▁zacate	-1719
▁primero	-1720
▁Bautista	-1721
▁acusacion	-1722
▁adulterio	-1723
▁diferente	-1724
▁fundacion	-1725
▁provincia	-1726
▁generacion	-1727
En	-1728
bri	-1729
dron	-1730
erra	-1731
laya	-1732
loso	-1733
orra	-1734
▁Mar	-1735
▁glo	-1736
lante	-1737
midad	-1738
uncia	-1739
▁alsa	-1740
▁asno	-1741
▁esco	-1742
▁tela	-1743
▁Lugar	-1744
▁cerra	-1745
▁evita	-1746
▁hecho	-1747
▁aplaya	-1748
▁conven	-1749
▁escapa	-1750
▁puesto	-1751
▁Nazaret	-1752
▁separao	-1753
▁tristeza	-1754
▁calamidad	-1755
ha	-1756
▁Ef	-1757
Mira	-1758
Uste	-1759
enas	-1760
ujan	-1761
▁tor	-1762
cedon	-1763
iedad	-1764
▁divi	-1765
▁victo	-1766
cedonia	-1767
creyente	-1768
▁esconde	-1769
▁Salvador	-1770
▁escojido	-1771
▁religion	-1772
▁propiedad	-1773
▁enseguidas	-1774
▁desconocido	-1775
gon	-1776
yor	-1777
dano	-1778
sias	-1779
▁ves	-1780
terra	-1781
▁daan	-1782
▁pisa	-1783
▁rama	-1784
▁salu	-1785
cucion	-1786
▁Antio	-1787
▁Efeso	-1788
▁adver	-1789
▁laman	-1790
▁mayor	-1791
▁sirve	-1792
▁unico	-1793
▁visia	-1794
ruccion	-1795
udadano	-1796
▁Sagrao	-1797
▁amarra	-1798
▁ansias	-1799
▁ladron	-1800
▁anuncia	-1801
▁enterra	-1802
▁lampara	-1803
▁asegurao	-1804
▁Antioquia	-1805
▁Deverasan	-1806
▁Macedonia	-1807
ac	-1808
bo	-1809
lao	-1810
nto	-1811
vas	-1812
▁ti	-1813
zaro	-1814
aleja	-1815
onito	-1816
▁Amen	-1817
▁Ense	-1818
▁arde	-1819
▁here	-1820
▁rega	-1821
▁uvas	-1822
▁desea	-1823
▁Isaias	-1824
▁abunda	-1825
▁acorde	-1826
▁tercer	-1827
▁embarca	-1828
▁hermana	-1829
bediencia	-1830
▁ciudadano	-1831
▁abundancia	-1832
Mas	-1833
rco	-1834
▁Ci	-1835
▁ne	-1836
ener	-1837
lina	-1838
livo	-1839
stor	-1840
▁def	-1841
▁dep	-1842
Quien	-1843
ballo	-1844
ngero	-1845
▁alas	-1846
▁Isaac	-1847
▁celos	-1848
▁escon	-1849
▁talli	-1850
▁tener	-1851
▁Lazaro	-1852
▁muchas	-1853
▁recuer	-1854
▁regaña	-1855
Entonces	-1856
▁caballo	-1857
▁vestido	-1858
▁desaleja	-1859
▁especial	-1860
▁perfecto	-1861
▁escondido	-1862
▁estrangero	-1863
Ha	-1864
chi	-1865
tico	-1866
▁Bet	-1867
▁Gri	-1868
▁abi	-1869
▁cue	-1870
▁ich	-1871
▁sus	-1872
▁Sama	-1873
▁cole	-1874
▁gang	-1875
▁igno	-1876
▁inst	-1877
▁nego	-1878
▁pelo	-1879
▁puro	-1880
▁Silas	-1881
▁basia	-1882
▁borra	-1883
▁carne	-1884
▁larga	-1885
▁situa	-1886
Ustedes	-1887
▁Griego	-1888
▁Porque	-1889
▁admiti	-1890
▁bonito	-1891
▁ichura	-1892
▁posible	-1893
▁colector	-1894
▁orgulloso	-1895
▁situacion	-1896
▁tentacion	-1897
▁significacion	-1898
lda	-1899
nan	-1900
ndo	-1901
uez	-1902
▁Jo	-1903
avor	-1904
jaro	-1905
lena	-1906
onsa	-1907
▁Mel	-1908
▁bri	-1909
▁der	-1910
▁dra	-1911
▁edad	-1912
▁juez	-1913
nancia	-1914
▁alcan	-1915
▁ayuna	-1916
▁esfor	-1917
▁libre	-1918
▁pelea	-1919
▁proba	-1920
▁rompe	-1921
▁sobra	-1922
▁Ademas	-1923
▁alerto	-1924
▁asegun	-1925
▁dragon	-1926
▁gloria	-1927
▁pajaro	-1928
▁quebra	-1929
▁Durante	-1930
▁abierto	-1931
▁adverti	-1932
▁consejo	-1933
▁discuti	-1934
▁ignoran	-1935
▁bautisao	-1936
▁condenao	-1937
▁devocion	-1938
▁ganancia	-1939
▁perdonao	-1940
▁prohibido	-1941
▁recuerdos	-1942
▁derrepente	-1943
,"	-1944
Sa	-1945
fa	-1946
fu	-1947
cta	-1948
dina	-1949
ueso	-1950
▁env	-1951
▁buga	-1952
▁cien	-1953
▁copa	-1954
▁cria	-1955
▁poso	-1956
▁ulan	-1957
▁Cesar	-1958
▁marca	-1959
▁pelig	-1960
▁perfu	-1961
dinario	-1962
▁detras	-1963
▁limpia	-1964
▁maltra	-1965
▁pastor	-1966
▁regalo	-1967
▁Cesarea	-1968
▁critica	-1969
▁ganguia	-1970
▁criatura	-1971
▁cuarenta	-1972
▁responsa	-1973
▁tormento	-1974
▁Enseguidas	-1975
dan	-1976
gri	-1977
tad	-1978
▁Ac	-1979
ando	-1980
cero	-1981
miso	-1982
▁ata	-1983
▁pos	-1984
mpeta	-1985
quila	-1986
▁Asia	-1987
▁Came	-1988
▁Hace	-1989
▁Levi	-1990
▁Tito	-1991
▁cena	-1992
▁duda	-1993
▁nega	-1994
▁pari	-1995
▁sali	-1996
▁vale	-1997
▁atras	-1998
▁canta	-1999
▁corte	-2000
▁corto	-2001
▁parti	-2002
▁plata	-2003
▁tolda	-2004
Masquin	-2005
▁apujan	-2006
bediente	-2007
▁Consejo	-2008
▁contrib	-2009
▁trompeta	-2010
▁casamiento	-2011
▁instruccion	-2012
,'	-2013
gu	-2014
lis	-2015
lor	-2016
▁Ce	-2017
▁Ga	-2018
laje	-2019
naum	-2020
▁hig	-2021
▁lep	-2022
▁mon	-2023
onido	-2024
porsi	-2025
ucion	-2026
ustao	-2027
▁Adan	-2028
▁Cada	-2029
▁dist	-2030
▁opin	-2031
▁rede	-2032
litico	-2033
▁Caper	-2034
▁Desde	-2035
▁Monte	-2036
▁Mucho	-2037
▁canda	-2038
▁hondo	-2039
▁produ	-2040
acarias	-2041
▁celaje	-2042
▁desapa	-2043
▁latiga	-2044
▁puerco	-2045
▁sonido	-2046
▁Esteban	-2047
▁arregla	-2048
▁deveras	-2049
▁guerria	-2050
▁higuera	-2051
▁opinion	-2052
▁permiso	-2053
▁sentido	-2054
▁convence	-2055
▁Capernaum	-2056
▁diciplina	-2057
▁ordinario	-2058
▁paralitico	-2059
▁responsabilidad	-2060
Con	-2061
dek	-2062
fas	-2063
ico	-2064
pia	-2065
rla	-2066
▁hi	-2067
ento	-2068
erva	-2069
guro	-2070
reta	-2071
util	-2072
▁Jai	-2073
▁pur	-2074
chize	-2075
monia	-2076
rioso	-2077
▁Dale	-2078
▁reis	-2079
▁roga	-2080
▁toca	-2081
ricion	-2082
▁decla	-2083
▁meses	-2084
▁novio	-2085
▁pesos	-2086
▁reino	-2087
▁salir	-2088
▁venta	-2089
▁asunto	-2090
▁inutil	-2091
▁venida	-2092
chizedek	-2093
▁culebra	-2094
▁estorba	-2095
▁perfume	-2096
Deverasan	-2097
▁culpable	-2098
▁aparicion	-2099
▁ignorante	-2100
▁aprobacion	-2101
▁desaparece	-2102
▁Melchizedek	-2103
▁completamente	-2104
bel	-2105
mbu	-2106
ung	-2107
▁Ap	-2108
▁Se	-2109
Sabe	-2110
guen	-2111
mbla	-2112
▁inc	-2113
▁vie	-2114
china	-2115
istra	-2116
masco	-2117
▁Esta	-2118
▁dios	-2119
▁peor	-2120
guenza	-2121
▁Pensa	-2122
▁Taqui	-2123
▁basta	-2124
▁cargo	-2125
▁conta	-2126
▁despi	-2127
▁manta	-2128
▁media	-2129
▁sabut	-2130
▁tason	-2131
▁corona	-2132
▁cuarto	-2133
▁quedar	-2134
▁Damasco	-2135
▁Deveras	-2136
▁Samaria	-2137
▁declara	-2138
▁delante	-2139
▁esforsa	-2140
▁semente	-2141
▁herencia	-2142
▁porquerias	-2143
▁Celebracion	-2144
Es	-2145
Des	-2146
lio	-2147
olo	-2148
ora	-2149
▁Ig	-2150
▁To	-2151
Pero	-2152
ante	-2153
mera	-2154
onas	-2155
usta	-2156
▁Apo	-2157
▁ade	-2158
▁agu	-2159
▁alu	-2160
forma	-2161
habla	-2162
lores	-2163
mpesa	-2164
recia	-2165
rrama	-2166
tania	-2167
▁Roma	-2168
▁Tene	-2169
▁gobi	-2170
▁modo	-2171
▁orig	-2172
bertad	-2173
iempre	-2174
▁Igual	-2175
▁señal	-2176
▁sucio	-2177
▁testi	-2178
▁vivir	-2179
▁Acorda	-2180
▁oscuro	-2181
▁perman	-2182
▁region	-2183
▁sequia	-2184
▁tembla	-2185
▁Betania	-2186
▁alumbra	-2187
▁bendici	-2188
▁derrama	-2189
▁respeta	-2190
▁contento	-2191
▁espiritu	-2192
▁gobierno	-2193
▁libertad	-2194
▁malhabla	-2195
▁persigui	-2196
▁trompesa	-2197
▁discucion	-2198
▁embustero	-2199
▁desobedece	-2200
▁obediencia	-2201
▁contribucion	-2202
lv	-2203
las	-2204
tal	-2205
▁Ar	-2206
gran	-2207
lace	-2208
lome	-2209
tivo	-2210
▁avi	-2211
▁den	-2212
▁pal	-2213
gurao	-2214
ordan	-2215
▁estu	-2216
▁mala	-2217
▁mole	-2218
Quiere	-2219
tancia	-2220
▁Marta	-2221
▁Quien	-2222
▁buluk	-2223
▁comun	-2224
▁resca	-2225
mbulica	-2226
segurao	-2227
▁Jordan	-2228
▁amable	-2229
▁hablar	-2230
cimiento	-2231
▁defende	-2232
▁informa	-2233
▁perdido	-2234
▁complace	-2235
▁encadena	-2236
▁hablando	-2237
▁heredero	-2238
▁pariente	-2239
▁sementera	-2240
▁sustancia	-2241
▁trambulica	-2242
bas	-2243
bet	-2244
cin	-2245
gre	-2246
lui	-2247
tub	-2248
▁Li	-2249
Tene	-2250
Todo	-2251
dres	-2252
duce	-2253
ifas	-2254
jada	-2255
misa	-2256
rlat	-2257
▁edi	-2258
▁ore	-2259
▁sue	-2260
Padre	-2261
amina	-2262
ducta	-2263
mblor	-2264
sabet	-2265
▁Bara	-2266
▁Para	-2267
▁agra	-2268
▁atub	-2269
▁inte	-2270
▁ocho	-2271
mostra	-2272
▁bugal	-2273
▁limos	-2274
▁munta	-2275
▁palma	-2276
▁tanto	-2277
▁tarde	-2278
▁Andres	-2279
▁Caifas	-2280
▁Saduce	-2281
▁brilla	-2282
▁camisa	-2283
▁dedica	-2284
▁engran	-2285
▁inclui	-2286
▁kirlat	-2287
▁orejas	-2288
▁semana	-2289
▁Siempre	-2290
▁alcansa	-2291
▁atubang	-2292
▁cancion	-2293
▁despidi	-2294
▁distrib	-2295
▁durmido	-2296
▁proteje	-2297
▁temblor	-2298
▁Elisabet	-2299
▁bautismo	-2300
▁conducta	-2301
▁edificio	-2302
▁victoria	-2303
▁verguenza	-2304
▁especialmente	-2305
bor	-2306
cos	-2307
min	-2308
one	-2309
ves	-2310
▁Go	-2311
▁ob	-2312
▁tr	-2313
▁uy	-2314
blon	-2315
ulto	-2316
▁Ale	-2317
▁Rio	-2318
▁rio	-2319
▁tub	-2320
Donde	-2321
Puede	-2322
Taqui	-2323
brito	-2324
cioso	-2325
lonia	-2326
quier	-2327
ricto	-2328
tidad	-2329
tinua	-2330
▁Como	-2331
▁Mata	-2332
▁atre	-2333
▁caso	-2334
▁ofre	-2335
▁pija	-2336
cuenta	-2337
dicion	-2338
▁Bueno	-2339
▁Habla	-2340
▁Hasta	-2341
▁andar	-2342
▁arria	-2343
▁avisa	-2344
▁canto	-2345
▁comer	-2346
▁dista	-2347
▁duele	-2348
▁gasta	-2349
▁inves	-2350
▁pasao	-2351
▁trigo	-2352
▁acabar	-2353
▁atende	-2354
▁buling	-2355
▁dentro	-2356
▁mescla	-2357
▁orilla	-2358
▁tablon	-2359
▁Saduceo	-2360
▁cabrito	-2361
▁honesto	-2362
▁insulto	-2363
▁leproso	-2364
▁palacio	-2365
▁primera	-2366
▁produci	-2367
▁rescata	-2368
▁sincero	-2369
▁ventaja	-2370
▁cantidad	-2371
▁castigao	-2372
▁demostra	-2373
▁estricto	-2374
▁maltrata	-2375
▁presenta	-2376
▁cincuenta	-2377
▁distancia	-2378
▁distribui	-2379
▁proteccion	-2380
▁informacion	-2381
▁secretamente	-2382
:'	-2383
Al	-2384
su	-2385
Ese	-2386
cua	-2387
nca	-2388
nza	-2389
sfa	-2390
var	-2391
yan	-2392
▁Pi	-2393
elix	-2394
iete	-2395
igos	-2396
inti	-2397
ston	-2398
ñada	-2399
▁ace	-2400
▁num	-2401
▁obs	-2402
▁pas	-2403
▁tre	-2404
anias	-2405
bedeo	-2406
ciano	-2407
licia	-2408
minal	-2409
sucan	-2410
tisfa	-2411
▁Anda	-2412
▁Jope	-2413
▁Mira	-2414
▁Solo	-2415
▁avar	-2416
▁caro	-2417
▁humo	-2418
▁pesa	-2419
▁vano	-2420
ebedeo	-2421
mosura	-2422
quiere	-2423
▁calla	-2424
▁cuero	-2425
▁olivo	-2426
▁patio	-2427
▁punta	-2428
▁viejo	-2429
bilonia	-2430
quilaya	-2431
▁humano	-2432
▁maluya	-2433
▁numero	-2434
chinadas	-2435
▁Barabas	-2436
▁anciano	-2437
▁insisti	-2438
▁molesta	-2439
▁observa	-2440
▁peligro	-2441
▁prision	-2442
▁reporta	-2443
▁saludos	-2444
▁satisfa	-2445
▁treinta	-2446
▁Continua	-2447
▁criminal	-2448
▁engranda	-2449
▁estorbao	-2450
▁palmadia	-2451
▁avariento	-2452
▁dalasucan	-2453
▁engañador	-2454
▁hermosura	-2455
▁investiga	-2456
▁cuchinadas	-2457
▁victorioso	-2458
Tu	-2459
uf	-2460
bul	-2461
cut	-2462
ece	-2463
ite	-2464
mpa	-2465
nes	-2466
vao	-2467
▁am	-2468
Dale	-2469
cter	-2470
dici	-2471
dura	-2472
endo	-2473
lvos	-2474
onra	-2475
riga	-2476
ueno	-2477
vesa	-2478
▁Der	-2479
▁Dia	-2480
▁Noe	-2481
▁Pan	-2482
▁ami	-2483
▁ban	-2484
▁gul	-2485
▁jui	-2486
culta	-2487
iendo	-2488
lorao	-2489
▁Esos	-2490
▁Tiro	-2491
▁alat	-2492
▁cere	-2493
▁cual	-2494
▁loco	-2495
▁olor	-2496
▁pijo	-2497
▁piso	-2498
▁reve	-2499
▁sumi	-2500
cultad	-2501
▁Olivo	-2502
▁Sidon	-2503
▁Siria	-2504
▁Tomas	-2505
▁ataca	-2506
▁husto	-2507
▁lucut	-2508
▁menor	-2509
▁perse	-2510
Escribi	-2511
quierda	-2512
▁Grecia	-2513
▁Herodi	-2514
▁Seguro	-2515
▁ademas	-2516
▁afavor	-2517
▁atrebe	-2518
▁bienes	-2519
▁cuenta	-2520
▁desata	-2521
▁flores	-2522
▁herida	-2523
▁juicio	-2524
▁muntao	-2525
▁perdon	-2526
▁polvos	-2527
▁siendo	-2528
▁siguir	-2529
▁Solomon	-2530
▁asustao	-2531
▁cientos	-2532
▁colorao	-2533
▁depende	-2534
▁deporsi	-2535
▁estorbo	-2536
▁origina	-2537
▁travesa	-2538
Bendicido	-2539
▁Asegurao	-2540
▁bastante	-2541
▁caracter	-2542
▁consinti	-2543
▁decision	-2544
▁division	-2545
▁marijada	-2546
▁Babilonia	-2547
▁ceremonia	-2548
▁imposible	-2549
▁isquierda	-2550
▁testifica	-2551
▁dificultad	-2552
▁nacimiento	-2553
▁perfeccion	-2554
Le	-2555
em	-2556
bio	-2557
gao	-2558
gda	-2559
hem	-2560
leg	-2561
mis	-2562
mus	-2563
ppa	-2564
sao	-2565
Hace	-2566
inte	-2567
lara	-2568
lero	-2569
mpra	-2570
ondo	-2571
tene	-2572
ting	-2573
▁Ara	-2574
▁Ari	-2575
▁Pri	-2576
▁bos	-2577
cueso	-2578
lehem	-2579
nelio	-2580
odoma	-2581
rabes	-2582
tesco	-2583
uello	-2584
uelto	-2585
vando	-2586
▁Agri	-2587
▁Debe	-2588
▁Sime	-2589
▁baca	-2590
▁escu	-2591
▁hier	-2592
▁luna	-2593
▁obli	-2594
▁seis	-2595
▁sigu	-2596
Cuando	-2597
▁Magda	-2598
▁Pirmi	-2599
▁cueva	-2600
▁gallo	-2601
▁grave	-2602
▁lumus	-2603
▁tapao	-2604
▁venga	-2605
Levanta	-2606
ceridad	-2607
▁Sodoma	-2608
▁aceite	-2609
▁aclara	-2610
▁cambio	-2611
▁diente	-2612
▁frente	-2613
▁miting	-2614
▁trueno	-2615
▁Agrippa	-2616
▁Ananias	-2617
▁barriga	-2618
▁celebra	-2619
▁envolve	-2620
▁examina	-2621
▁natural	-2622
▁preñada	-2623
▁reclama	-2624
▁Betlehem	-2625
▁Herodias	-2626
▁adelante	-2627
▁borracho	-2628
▁envuelto	-2629
▁estrabia	-2630
▁estrañao	-2631
▁llevando	-2632
▁montesco	-2633
▁pescueso	-2634
▁precioso	-2635
▁resuello	-2636
▁sabiondo	-2637
▁Magdalena	-2638
▁adoracion	-2639
▁bendicido	-2640
▁celestial	-2641
▁encadenao	-2642
▁juramento	-2643
▁obediente	-2644
▁paquilaya	-2645
▁siguiente	-2646
▁diferencia	-2647
▁sinceridad	-2648
▁preguntajan	-2649
▁-	-2650
asi	-2651
pla	-2652
red	-2653
tre	-2654
usi	-2655
▁fi	-2656
ason	-2657
lias	-2658
tres	-2659
▁Amo	-2660
▁Tro	-2661
▁Uno	-2662
▁aga	-2663
▁dul	-2664
▁sur	-2665
cario	-2666
cente	-2667
cinos	-2668
curas	-2669
gusto	-2670
honra	-2671
onica	-2672
osito	-2673
rinto	-2674
siete	-2675
solao	-2676
tende	-2677
untao	-2678
▁Abel	-2679
▁Basi	-2680
▁Nico	-2681
▁Reza	-2682
▁acto	-2683
▁aman	-2684
▁aven	-2685
▁dedo	-2686
▁desn	-2687
▁equi	-2688
▁lodo	-2689
grimas	-2690
▁Jairo	-2691
▁busuk	-2692
▁carre	-2693
▁cucho	-2694
▁discu	-2695
▁doble	-2696
▁facil	-2697
▁gusta	-2698
▁nueve	-2699
▁pesao	-2700
▁pesca	-2701
▁sanda	-2702
▁sello	-2703
cariote	-2704
enciona	-2705
lometro	-2706
▁Alejan	-2707
▁Apenas	-2708
▁Marcos	-2709
▁Muchas	-2710
▁adorar	-2711
▁amigos	-2712
▁apenas	-2713
▁cuerno	-2714
▁hereda	-2715
▁paloma	-2716
▁pepita	-2717
▁perlas	-2718
▁postra	-2719
▁purpia	-2720
▁veinte	-2721
▁Corinto	-2722
▁Maestro	-2723
▁acatres	-2724
▁avenida	-2725
▁cambiao	-2726
▁estudia	-2727
▁invitao	-2728
▁limosna	-2729
▁locuras	-2730
▁quemodo	-2731
▁vecinos	-2732
▁acasiete	-2733
▁acusador	-2734
▁completa	-2735
▁deposito	-2736
▁deshonra	-2737
▁lagrimas	-2738
▁menciona	-2739
▁ofrecido	-2740
▁siguidor	-2741
▁Iscariote	-2742
▁contrario	-2743
▁debilidad	-2744
▁kilometro	-2745
▁resucitar	-2746
▁sandalias	-2747
▁satisface	-2748
▁estrañable	-2749
▁importancia	-2750
▁persecucion	-2751
▁desobediente	-2752
▁representante	-2753
Un	-2754
ik	-2755
it	-2756
!'"	-2757
Ele	-2758
Pre	-2759
ire	-2760
jon	-2761
pos	-2762
rac	-2763
ras	-2764
ril	-2765
udo	-2766
▁Do	-2767
▁Ni	-2768
▁ru	-2769
Sale	-2770
edad	-2771
elze	-2772
esal	-2773
gaño	-2774
llon	-2775
mpuk	-2776
once	-2777
pura	-2778
stad	-2779
trio	-2780
uran	-2781
▁Per	-2782
▁Ser	-2783
▁gar	-2784
▁gor	-2785
▁ino	-2786
▁plo	-2787
▁reb	-2788
Antes	-2789
Simon	-2790
clamo	-2791
dable	-2792
labra	-2793
perta	-2794
saida	-2795
ueldo	-2796
▁Cana	-2797
▁Sara	-2798
▁abia	-2799
▁cari	-2800
▁corr	-2801
▁dest	-2802
▁invi	-2803
▁masa	-2804
▁posi	-2805
▁rato	-2806
▁raza	-2807
▁tupa	-2808
ciante	-2809
mprano	-2810
▁Cipre	-2811
▁Jaime	-2812
▁Jonas	-2813
▁Tesal	-2814
▁ambus	-2815
▁ancho	-2816
▁armas	-2817
▁baila	-2818
▁banda	-2819
▁clava	-2820
▁duyan	-2821
▁extra	-2822
▁gulut	-2823
▁hojas	-2824
▁llena	-2825
▁matar	-2826
▁mirar	-2827
▁murir	-2828
▁obede	-2829
▁ojala	-2830
▁pader	-2831
▁palay	-2832
▁pecho	-2833
▁plaza	-2834
▁sabor	-2835
▁vener	-2836
Despues	-2837
elzebul	-2838
▁Simeon	-2839
▁baston	-2840
▁costao	-2841
▁crimen	-2842
▁domina	-2843
▁engaño	-2844
▁equivo	-2845
▁maneja	-2846
▁motivo	-2847
▁nacido	-2848
▁pasada	-2849
▁saludo	-2850
▁sueldo	-2851
▁tumpuk	-2852
bernador	-2853
rucifica	-2854
▁Palabra	-2855
▁ajuntao	-2856
▁amistad	-2857
▁borrach	-2858
▁calenta	-2859
▁carrera	-2860
▁dedicao	-2861
▁defensa	-2862
▁estatua	-2863
▁negocio	-2864
▁rebenta	-2865
▁recibir	-2866
▁reclamo	-2867
▁tuburan	-2868
Paquemodo	-2869
▁Alabanza	-2870
▁Betsaida	-2871
▁Conforme	-2872
▁Cornelio	-2873
▁consuelo	-2874
▁creencia	-2875
▁dividido	-2876
▁inocente	-2877
▁peleajan	-2878
▁personal	-2879
▁predicar	-2880
▁profecia	-2881
▁servicio	-2882
▁temprano	-2883
▁valiente	-2884
▁Beelzebul	-2885
▁peligroso	-2886
▁Gobernador	-2887
▁Tesalonica	-2888
▁discutijan	-2889
▁mantencion	-2890
▁negociante	-2891
▁permanente	-2892
▁contestacion	-2893
▁desobediencia	-2894
Mi	-2895
Oi	-2896
ic	-2897
id	-2898
rd	-2899
Ala	-2900
bil	-2901
gut	-2902
ili	-2903
mio	-2904
oto	-2905
paf	-2906
rso	-2907
▁Di	-2908
▁Lo	-2909
▁Oi	-2910
▁az	-2911
▁ja	-2912
Bien	-2913
ciao	-2914
cipa	-2915
debe	-2916
dega	-2917
ding	-2918
fuer	-2919
igid	-2920
leva	-2921
maic	-2922
mita	-2923
olpe	-2924
piti	-2925
rido	-2926
rito	-2927
rusa	-2928
ufre	-2929
uvio	-2930
yung	-2931
▁Dol	-2932
▁Usa	-2933
▁bun	-2934
▁efe	-2935
▁har	-2936
▁mol	-2937
▁	-2938
a	-2939
e	-2940
o	-2941
n	-2942
i	-2943
s	-2944
l	-2945
t	-2946
d	-2947
u	-2948
r	-2949
c	-2950
m	-2951
y	-2952
g	-2953
p	-2954
,	-2955
b	-2956
q	-2957
.	-2958
h	-2959
v	-2960
D	-2961
j	-2962
"	-2963
J	-2964
f	-2965
P	-2966
S	-2967
E	-2968
Y	-2969
z	-2970
k	-2971
A	-2972
ñ	-2973
C	-2974
T	-2975
M	-2976
N	-2977
?	-2978
!	-2979
H	-2980
'	-2981
B	-2982
R	-2983
U	-2984
2	-2985
-	-2986
Q	-2987
I	-2988
:	-2989
G	-2990
L	-2991
;	-2992
O	-2993
x	-2994
4	-2995
#	-2996
