<unk>	0
<s>	0
</s>	0
an	-0
▁n	-1
▁s	-2
in	-3
▁k	-4
▁sa	-5
▁m	-6
ag	-7
▁na	-8
on	-9
ang	-10
▁an	-11
ga	-12
▁a	-13
▁p	-14
da	-15
▁ka	-16
ta	-17
▁nin	-18
iy	-19
▁mga	-20
ra	-21
ong	-22
ka	-23
▁ma	-24
▁kan	-25
ha	-26
▁d	-27
la	-28
▁b	-29
▁nag	-30
os	-31
▁i	-32
sin	-33
ina	-34
▁pa	-35
sa	-36
▁asin	-37
ot	-38
▁t	-39
iya	-40
og	-41
aga	-42
ing	-43
li	-44
▁da	-45
▁ta	-46
ko	-47
ba	-48
▁si	-49
pa	-50
ini	-51
▁mag	-52
ya	-53
wa	-54
ki	-55
▁pag	-56
▁ha	-57
do	-58
▁h	-59
bo	-60
ur	-61
un	-62
▁g	-63
ri	-64
ma	-65
angan	-66
▁ni	-67
han	-68
bi	-69
▁sain	-70
iyang	-71
mo	-72
en	-73
ro	-74
▁j	-75
▁dai	-76
urang	-77
▁kag	-78
▁sin	-79
▁ga	-80
nan	-81
▁al	-82
urangnan	-83
▁kagurangnan	-84
▁di	-85
to	-86
il	-87
▁la	-88
di	-89
▁niya	-90
▁ko	-91
yo	-92
man	-93
▁siya	-94
agad	-95
▁man	-96
es	-97
▁hu	-98
rong	-99
ul	-100
▁sinda	-101
▁mo	-102
▁saiyang	-103
ana	-104
▁dios	-105
dang	-106
▁ba	-107
▁saka	-108
le	-109
▁ako	-110
▁iy	-111
tu	-112
im	-113
▁ini	-114
▁taw	-115
▁sarong	-116
de	-117
hay	-118
▁huli	-119
▁o	-120
▁l	-121
bos	-122
▁kun	-123
is	-124
▁gabos	-125
▁alagad	-126
el	-127
▁dangan	-128
kong	-129
▁kamo	-130
▁ki	-131
ol	-132
kan	-133
▁nindo	-134
dan	-135
ug	-136
▁ninda	-137
hon	-138
us	-139
tan	-140
▁para	-141
ram	-142
gi	-143
bang	-144
▁tawo	-145
▁kaya	-146
od	-147
▁kam	-148
▁kai	-149
er	-150
▁lala	-151
▁is	-152
lo	-153
yon	-154
▁du	-155
bot	-156
it	-157
ring	-158
rog	-159
anganing	-160
▁e	-161
▁gi	-162
▁saindang	-163
▁tanganing	-164
▁saim	-165
▁saimong	-166
▁iyan	-167
ku	-168
▁bu	-169
uda	-170
kod	-171
kaka	-172
daw	-173
om	-174
▁sakong	-175
sabi	-176
▁daga	-177
du	-178
yan	-179
▁ban	-180
▁hade	-181
▁sina	-182
▁isra	-183
as	-184
▁gini	-185
iling	-186
ban	-187
dong	-188
eng	-189
▁bil	-190
mp	-191
▁iyo	-192
ig	-193
▁pina	-194
▁mara	-195
hiling	-196
▁lalaki	-197
re	-198
▁sako	-199
▁saiya	-200
bu	-201
tang	-202
▁mayo	-203
kul	-204
hi	-205
ho	-206
▁aki	-207
lang	-208
▁may	-209
si	-210
wan	-211
taram	-212
▁sag	-213
▁kap	-214
▁ng	-215
ti	-216
▁banwa	-217
▁sagkod	-218
▁siring	-219
▁ip	-220
▁aldaw	-221
inu	-222
king	-223
po	-224
▁nang	-225
▁sy	-226
lan	-227
▁saindong	-228
▁pagka	-229
gar	-230
era	-231
tong	-232
ero	-233
▁duman	-234
inag	-235
▁li	-236
▁sainda	-237
▁it	-238
▁israel	-239
▁mas	-240
imo	-241
id	-242
syon	-243
agadan	-244
▁saindo	-245
▁jes	-246
gibo	-247
um	-248
▁saimo	-249
▁banwaan	-250
▁ika	-251
▁mina	-252
say	-253
▁niyang	-254
otan	-255
▁hale	-256
ogon	-257
ob	-258
kaw	-259
▁aking	-260
▁jesus	-261
iyan	-262
▁baba	-263
▁marahay	-264
▁ginibo	-265
tak	-266
▁lu	-267
bag	-268
▁syuda	-269
▁itina	-270
ron	-271
▁lam	-272
▁syudad	-273
agi	-274
pi	-275
osog	-276
▁nagpa	-277
pon	-278
yari	-279
▁tina	-280
▁sinabi	-281
▁nagka	-282
▁nags	-283
▁ig	-284
▁kasa	-285
san	-286
▁te	-287
te	-288
pu	-289
▁dakul	-290
▁bilang	-291
lu	-292
▁saro	-293
▁ama	-294
dara	-295
▁nasa	-296
ano	-297
▁ina	-298
▁kaiba	-299
▁paka	-300
▁ano	-301
ura	-302
▁naka	-303
▁pana	-304
▁nagsabi	-305
▁tawong	-306
pat	-307
isay	-308
pos	-309
tao	-310
gta	-311
dad	-312
dto	-313
diri	-314
▁kat	-315
oon	-316
unyan	-317
▁naga	-318
anga	-319
▁iba	-320
▁ngunyan	-321
▁sana	-322
bod	-323
▁igwa	-324
▁maa	-325
▁bilog	-326
mi	-327
▁arog	-328
▁panahon	-329
deng	-330
duman	-331
boot	-332
eru	-333
▁gibo	-334
▁kaiyan	-335
mba	-336
▁kami	-337
angg	-338
sala	-339
▁buhay	-340
wal	-341
oot	-342
▁es	-343
▁temp	-344
▁dav	-345
▁david	-346
et	-347
▁in	-348
don	-349
▁tu	-350
▁juda	-351
▁siisay	-352
hu	-353
lem	-354
▁templo	-355
ip	-356
▁maka	-357
▁jeru	-358
▁jerusa	-359
▁jerusalem	-360
▁c	-361
igin	-362
▁kaini	-363
wang	-364
▁sam	-365
erok	-366
▁babae	-367
▁lugar	-368
dangog	-369
bong	-370
lik	-371
▁pinag	-372
was	-373
▁ipina	-374
▁tol	-375
▁ju	-376
tapos	-377
▁sinabihan	-378
▁sol	-379
▁kina	-380
▁padi	-381
imbag	-382
mon	-383
▁tug	-384
maw	-385
▁mapa	-386
agay	-387
▁kong	-388
▁taga	-389
▁makaka	-390
eli	-391
ugo	-392
raman	-393
ub	-394
dag	-395
▁nagsa	-396
hale	-397
▁boot	-398
▁maski	-399
ani	-400
we	-401
▁lambang	-402
▁bakong	-403
pot	-404
▁nakaka	-405
▁mi	-406
▁pang	-407
lag	-408
he	-409
oo	-410
▁maraot	-411
hel	-412
botan	-413
agom	-414
▁sadiri	-415
gad	-416
▁magigin	-417
gtas	-418
▁nasyon	-419
▁bagay	-420
so	-421
▁harong	-422
▁mois	-423
▁moises	-424
▁mak	-425
ogma	-426
rang	-427
garan	-428
ling	-429
pis	-430
unod	-431
▁israeli	-432
na	-433
▁huk	-434
rara	-435
▁atu	-436
orog	-437
ongan	-438
▁israelita	-439
tanos	-440
▁u	-441
angyari	-442
▁kasalan	-443
balik	-444
▁ngaran	-445
▁hukbo	-446
anal	-447
▁tugang	-448
pod	-449
▁kaiwal	-450
gip	-451
▁egip	-452
▁mong	-453
▁magin	-454
ago	-455
▁nagsimbag	-456
anay	-457
ris	-458
▁kita	-459
lon	-460
▁taon	-461
▁itinao	-462
za	-463
gdi	-464
▁nagta	-465
▁kwa	-466
rop	-467
▁kar	-468
▁hina	-469
rom	-470
yop	-471
eo	-472
▁idto	-473
hade	-474
▁maga	-475
▁dina	-476
▁nagtaram	-477
las	-478
▁nagin	-479
kay	-480
▁agom	-481
tubod	-482
kua	-483
▁hayop	-484
ripon	-485
inga	-486
▁aram	-487
iba	-488
▁je	-489
▁le	-490
▁laog	-491
▁nahiling	-492
kop	-493
▁nanggad	-494
yog	-495
▁mantang	-496
▁pwe	-497
siring	-498
▁hadeng	-499
▁kinaban	-500
inan	-501
▁gadan	-502
raha	-503
▁judi	-504
enot	-505
▁paagi	-506
ind	-507
or	-508
rig	-509
tar	-510
▁magka	-511
dusa	-512
ias	-513
▁duwang	-514
▁siyang	-515
eta	-516
kdo	-517
puhan	-518
▁papa	-519
▁ar	-520
▁kara	-521
olot	-522
▁kaipuhan	-523
ugtak	-524
bangan	-525
▁sorog	-526
▁sorogoon	-527
ili	-528
▁ipa	-529
takot	-530
▁magpa	-531
▁banal	-532
▁egipto	-533
igwa	-534
▁nagla	-535
▁satong	-536
raray	-537
▁nindang	-538
yaon	-539
▁gina	-540
▁re	-541
indog	-542
▁kundi	-543
inig	-544
▁giraray	-545
ligtas	-546
▁ib	-547
▁sabi	-548
▁mayong	-549
buhay	-550
▁pan	-551
tug	-552
agara	-553
mang	-554
▁samong	-555
otoo	-556
lot	-557
▁ku	-558
▁san	-559
▁daw	-560
▁kwar	-561
uga	-562
▁pam	-563
▁mata	-564
▁kaho	-565
hera	-566
risto	-567
▁ja	-568
▁matanos	-569
▁pagsa	-570
▁ab	-571
ia	-572
▁dapat	-573
▁nagha	-574
▁y	-575
▁judio	-576
angyarihan	-577
▁kapangyarihan	-578
piri	-579
urat	-580
▁pagboot	-581
unga	-582
▁yaon	-583
▁ita	-584
una	-585
ita	-586
taramon	-587
▁lang	-588
▁prop	-589
▁tataramon	-590
pit	-591
▁aa	-592
▁se	-593
▁pus	-594
big	-595
ogod	-596
▁logod	-597
▁ibang	-598
ria	-599
tok	-600
▁jos	-601
▁dolot	-602
disyon	-603
▁r	-604
dok	-605
ogonan	-606
yal	-607
lawan	-608
▁katogonan	-609
▁pin	-610
luwas	-611
▁bako	-612
yang	-613
▁kala	-614
▁lina	-615
kian	-616
raba	-617
▁paga	-618
▁digdi	-619
▁dakulang	-620
dagos	-621
ubing	-622
▁akong	-623
kitan	-624
▁bang	-625
baya	-626
▁altar	-627
eerok	-628
▁kamot	-629
▁pasiring	-630
▁sindang	-631
kanan	-632
▁naki	-633
▁nagduman	-634
dados	-635
▁pagpa	-636
laga	-637
▁soldados	-638
▁karn	-639
mit	-640
ipan	-641
▁tri	-642
no	-643
rak	-644
tukdo	-645
▁garo	-646
▁maha	-647
mibi	-648
▁espiri	-649
▁be	-650
poon	-651
▁ben	-652
ulo	-653
▁gibohon	-654
tos	-655
▁langit	-656
▁f	-657
langkaw	-658
moot	-659
yn	-660
gibohon	-661
▁bul	-662
hayag	-663
▁bulawan	-664
▁il	-665
anda	-666
dolot	-667
▁pakatapos	-668
▁opis	-669
▁opisyal	-670
mayo	-671
▁sal	-672
▁nam	-673
tayan	-674
▁ginikanan	-675
▁mada	-676
▁ipinag	-677
▁kapagara	-678
herak	-679
▁kapagarakian	-680
▁mang	-681
lat	-682
tol	-683
▁laban	-684
▁tubig	-685
kula	-686
▁gigibohon	-687
▁espiritu	-688
▁danay	-689
bat	-690
ilya	-691
▁puso	-692
▁kahoy	-693
▁tribu	-694
sip	-695
▁masa	-696
bon	-697
▁bina	-698
▁propeta	-699
▁lalaking	-700
▁to	-701
ulag	-702
▁atubang	-703
▁nindong	-704
▁ra	-705
ad	-706
▁pagkakan	-707
kom	-708
▁cristo	-709
laban	-710
▁nageerok	-711
▁kinu	-712
▁kaidto	-713
▁kas	-714
▁eli	-715
▁nagda	-716
▁pat	-717
▁gubing	-718
▁sosog	-719
romdo	-720
▁nagt	-721
▁taka	-722
▁pwedeng	-723
am	-724
ed	-725
▁pamilya	-726
lay	-727
onin	-728
pag	-729
▁orog	-730
omaw	-731
olong	-732
lingkod	-733
erna	-734
▁mal	-735
▁dara	-736
▁kada	-737
▁pinaka	-738
▁kamong	-739
▁z	-740
ona	-741
dios	-742
ulog	-743
araman	-744
▁as	-745
rahay	-746
▁maki	-747
dusahan	-748
kit	-749
▁sala	-750
▁mil	-751
▁saen	-752
▁tadaw	-753
▁karatan	-754
idbi	-755
▁sinasabi	-756
▁samo	-757
ros	-758
laog	-759
▁jo	-760
▁dag	-761
▁tinu	-762
▁pla	-763
wanag	-764
▁nata	-765
▁dapit	-766
▁nagadan	-767
▁ang	-768
▁dinara	-769
▁pinapa	-770
▁diosdios	-771
omon	-772
reta	-773
hihiling	-774
yong	-775
wit	-776
▁mahiling	-777
▁kadon	-778
▁karnero	-779
kid	-780
kanon	-781
hadean	-782
▁kadonongan	-783
ab	-784
▁nagtu	-785
▁ginigibo	-786
anggot	-787
tor	-788
▁syen	-789
rabaho	-790
▁kasakitan	-791
▁nagpapa	-792
▁dos	-793
bilon	-794
▁babilon	-795
▁magadan	-796
uhay	-797
▁kamag	-798
▁kalang	-799
▁sim	-800
▁saul	-801
der	-802
oso	-803
▁lamang	-804
dor	-805
▁tipan	-806
bul	-807
▁bago	-808
▁baka	-809
▁isin	-810
lakaw	-811
▁sanang	-812
baw	-813
▁kata	-814
▁napa	-815
▁ne	-816
libot	-817
samba	-818
▁ginadan	-819
urawa	-820
anggotan	-821
▁kab	-822
▁anghel	-823
▁pagkamoot	-824
▁jac	-825
kahan	-826
▁enot	-827
rani	-828
▁lider	-829
wara	-830
pan	-831
enta	-832
▁jacob	-833
▁tolong	-834
▁bulan	-835
▁par	-836
▁makosog	-837
▁trang	-838
pog	-839
▁dalan	-840
▁trangkahan	-841
▁atubangan	-842
▁anoman	-843
▁namo	-844
be	-845
▁atang	-846
▁bukid	-847
▁lev	-848
▁mat	-849
▁kaanggotan	-850
▁kad	-851
▁pags	-852
▁kahadean	-853
ontok	-854
▁gapo	-855
ras	-856
al	-857
▁tata	-858
▁nagku	-859
▁nagkapi	-860
gan	-861
▁disip	-862
▁salog	-863
▁tab	-864
▁poon	-865
▁dagat	-866
▁mam	-867
ran	-868
▁sato	-869
▁dahel	-870
oma	-871
ongod	-872
pay	-873
wak	-874
dulag	-875
▁pini	-876
imbod	-877
otob	-878
maha	-879
ru	-880
▁plata	-881
▁am	-882
▁tinawan	-883
▁kalayo	-884
lok	-885
▁maabot	-886
▁aaron	-887
▁disipulo	-888
bas	-889
tay	-890
▁paki	-891
▁magagadan	-892
kal	-893
otoohan	-894
▁saku	-895
▁diyan	-896
laen	-897
▁naghi	-898
idbid	-899
ogmahan	-900
▁pamayo	-901
▁kaogmahan	-902
yes	-903
▁su	-904
hulog	-905
▁nagkaka	-906
▁pu	-907
▁hara	-908
▁pit	-909
▁payo	-910
▁itatao	-911
▁katapos	-912
▁katonin	-913
▁katoninongan	-914
▁hawak	-915
▁tawohan	-916
▁kataposan	-917
se	-918
law	-919
mpa	-920
ensa	-921
▁oripon	-922
yu	-923
kot	-924
▁pitong	-925
▁magduman	-926
▁id	-927
▁gadanon	-928
▁tum	-929
rahaw	-930
▁magi	-931
hana	-932
▁manongod	-933
▁babilonia	-934
isi	-935
▁kakanon	-936
bal	-937
kina	-938
▁magkaka	-939
▁kapa	-940
▁babaeng	-941
▁bi	-942
tood	-943
etros	-944
▁gera	-945
▁maimbod	-946
dit	-947
mondo	-948
co	-949
▁sak	-950
▁sabihan	-951
▁kaibahan	-952
teo	-953
▁pagtubod	-954
bilang	-955
tiripon	-956
▁solomon	-957
▁dayu	-958
ino	-959
▁nama	-960
yayari	-961
▁hi	-962
agadanan	-963
▁sakuyang	-964
▁he	-965
abot	-966
isyon	-967
takan	-968
▁nangyari	-969
▁matu	-970
▁dayuhan	-971
▁tinapay	-972
▁togon	-973
ugtakan	-974
▁kagadanan	-975
lagan	-976
go	-977
kon	-978
lit	-979
▁arak	-980
▁magpoon	-981
▁syentos	-982
▁kamurawa	-983
sag	-984
▁kaba	-985
▁kamurawayan	-986
▁beyn	-987
▁hil	-988
▁dugo	-989
anakan	-990
▁tolos	-991
▁nagabot	-992
▁kamaganakan	-993
▁de	-994
laom	-995
▁pas	-996
raham	-997
▁hinapot	-998
mat	-999
▁jose	-1000
▁nagerok	-1001
his	-1002
▁abraham	-1003
▁nadangog	-1004
▁kaa	-1005
▁kabtang	-1006
▁nas	-1007
▁sing	-1008
aram	-1009
▁fili	-1010
yaman	-1011
uri	-1012
▁ibin	-1013
▁dagang	-1014
▁palibot	-1015
zar	-1016
apod	-1017
bubuhay	-1018
▁pagabot	-1019
▁katotoohan	-1020
▁kabu	-1021
▁kinua	-1022
▁levita	-1023
▁nagbalik	-1024
udal	-1025
mahala	-1026
▁filis	-1027
puli	-1028
hagad	-1029
▁banggi	-1030
▁nagi	-1031
bugtak	-1032
▁kudal	-1033
ke	-1034
pisyo	-1035
taman	-1036
▁ibinugtak	-1037
▁pinili	-1038
▁nan	-1039
▁sir	-1040
▁halaga	-1041
ar	-1042
mpo	-1043
▁kosog	-1044
kuyog	-1045
motan	-1046
▁harani	-1047
▁maninig	-1048
▁halangkaw	-1049
itis	-1050
▁jona	-1051
ulu	-1052
wat	-1053
▁abi	-1054
inaga	-1055
▁lalaw	-1056
▁ri	-1057
▁mags	-1058
hona	-1059
donong	-1060
salakay	-1061
kad	-1062
mas	-1063
umpa	-1064
▁nagkaigwa	-1065
▁map	-1066
andam	-1067
ernakul	-1068
▁dakula	-1069
▁inapod	-1070
▁tabernakul	-1071
▁tabernakulo	-1072
kias	-1073
▁bag	-1074
▁isa	-1075
▁kaga	-1076
kha	-1077
lano	-1078
▁arin	-1079
tugdok	-1080
▁nagkapirang	-1081
ue	-1082
hag	-1083
tom	-1084
kosog	-1085
torog	-1086
▁kahi	-1087
▁bet	-1088
▁kadi	-1089
▁judas	-1090
▁sirangan	-1091
▁nagsasabi	-1092
klo	-1093
res	-1094
disyonan	-1095
▁pwede	-1096
▁maaraman	-1097
▁on	-1098
▁nada	-1099
▁samu	-1100
▁panuga	-1101
ilihan	-1102
▁katood	-1103
dolok	-1104
▁tama	-1105
▁magha	-1106
▁paano	-1107
▁simbag	-1108
▁namomotan	-1109
ranga	-1110
▁kaban	-1111
▁mis	-1112
liwanag	-1113
haw	-1114
yaan	-1115
▁naa	-1116
▁kapwa	-1117
▁nakiki	-1118
ca	-1119
▁mapapa	-1120
▁madonong	-1121
kas	-1122
ding	-1123
bayaan	-1124
▁ipapa	-1125
▁pagomaw	-1126
tawa	-1127
inug	-1128
▁mensa	-1129
ez	-1130
yam	-1131
oton	-1132
▁nagtataram	-1133
tog	-1134
▁pab	-1135
▁itao	-1136
ripisyo	-1137
▁ibabaw	-1138
▁padagos	-1139
▁pi	-1140
oro	-1141
▁kang	-1142
▁pablo	-1143
▁palas	-1144
▁filisteo	-1145
itan	-1146
manan	-1147
▁apat	-1148
▁beynte	-1149
▁sinugo	-1150
lasan	-1151
▁duwa	-1152
▁pinto	-1153
oben	-1154
▁hoben	-1155
hanap	-1156
▁anda	-1157
▁palasyo	-1158
▁mar	-1159
▁lana	-1160
▁dahelan	-1161
laan	-1162
▁pano	-1163
▁dukha	-1164
▁tinaraman	-1165
kodan	-1166
▁josue	-1167
▁nagba	-1168
▁naggibo	-1169
fa	-1170
▁kapan	-1171
▁sara	-1172
▁tini	-1173
▁ining	-1174
▁ti	-1175
teng	-1176
ongis	-1177
tadan	-1178
▁bunga	-1179
▁kadakul	-1180
▁kayamanan	-1181
▁nagkasala	-1182
▁bin	-1183
linga	-1184
▁oras	-1185
uratan	-1186
▁tinutong	-1187
tana	-1188
▁espa	-1189
▁kalangtadan	-1190
sabot	-1191
▁daing	-1192
▁pagha	-1193
loy	-1194
pok	-1195
▁ef	-1196
utom	-1197
wahe	-1198
▁hin	-1199
▁kapantayan	-1200
▁nahihiling	-1201
bog	-1202
mag	-1203
▁lib	-1204
▁kaoma	-1205
tukdoan	-1206
▁bareta	-1207
▁tumang	-1208
sya	-1209
bakal	-1210
▁tanda	-1211
▁kabotan	-1212
raot	-1213
▁naghale	-1214
▁madangog	-1215
ibaad	-1216
▁tibaad	-1217
uru	-1218
▁me	-1219
gtasan	-1220
inom	-1221
tuya	-1222
▁habo	-1223
wag	-1224
▁za	-1225
hukom	-1226
tindog	-1227
usurat	-1228
▁aha	-1229
elang	-1230
▁jor	-1231
▁paggibo	-1232
▁linalang	-1233
ena	-1234
lagang	-1235
▁ikina	-1236
▁ilini	-1237
▁tahaw	-1238
▁jordan	-1239
▁pinagbotan	-1240
▁ting	-1241
eda	-1242
▁ro	-1243
eses	-1244
▁ami	-1245
▁nya	-1246
▁kali	-1247
▁pare	-1248
iti	-1249
edro	-1250
uring	-1251
▁pedro	-1252
▁tingog	-1253
▁karahay	-1254
▁ipinagboot	-1255
lea	-1256
sab	-1257
asin	-1258
oron	-1259
▁asi	-1260
▁bitis	-1261
rat	-1262
baga	-1263
▁giromdo	-1264
uno	-1265
dero	-1266
▁omaw	-1267
▁katanos	-1268
▁magkakan	-1269
isip	-1270
riba	-1271
yesta	-1272
▁jeho	-1273
entang	-1274
▁sunod	-1275
▁beses	-1276
▁tabang	-1277
▁bantayan	-1278
mpag	-1279
▁bar	-1280
▁oma	-1281
digdi	-1282
▁dang	-1283
▁amihan	-1284
▁omawon	-1285
agadanon	-1286
▁katanosan	-1287
ze	-1288
▁isip	-1289
▁nagd	-1290
▁pagga	-1291
▁pintoan	-1292
▁gagadanon	-1293
▁uya	-1294
▁takot	-1295
tabang	-1296
▁nagli	-1297
▁espada	-1298
mga	-1299
pas	-1300
▁ins	-1301
▁kampo	-1302
▁luwas	-1303
▁bangkay	-1304
kol	-1305
▁ikaka	-1306
▁dadara	-1307
▁magkakaigwa	-1308
tro	-1309
ulot	-1310
anggana	-1311
▁metros	-1312
▁juan	-1313
bel	-1314
sam	-1315
seng	-1316
ting	-1317
kayon	-1318
mitan	-1319
▁edad	-1320
langan	-1321
▁gikan	-1322
▁bagong	-1323
▁lolong	-1324
▁sakripisyo	-1325
ingo	-1326
olog	-1327
reyn	-1328
undag	-1329
maherak	-1330
mpolong	-1331
▁kwarta	-1332
▁sinala	-1333
▁dor	-1334
sarig	-1335
▁naghapot	-1336
▁mangyayari	-1337
ok	-1338
wi	-1339
ele	-1340
hulit	-1341
▁matakot	-1342
▁karahayan	-1343
aba	-1344
hid	-1345
yogon	-1346
kagadan	-1347
salamat	-1348
trabaho	-1349
▁nagluwas	-1350
tukaw	-1351
▁liwat	-1352
▁itinaram	-1353
agibo	-1354
▁ilinu	-1355
▁ipinapa	-1356
▁mensahe	-1357
hat	-1358
aning	-1359
rasan	-1360
▁rega	-1361
▁tano	-1362
▁andam	-1363
endisyonan	-1364
mot	-1365
uran	-1366
▁lan	-1367
tubang	-1368
wilihan	-1369
▁paglaom	-1370
▁nasusurat	-1371
enso	-1372
▁pinakama	-1373
has	-1374
pili	-1375
▁naggi	-1376
▁kiisay	-1377
non	-1378
▁pala	-1379
▁pagano	-1380
▁magayon	-1381
inon	-1382
▁sab	-1383
▁tuna	-1384
▁doros	-1385
▁totoo	-1386
▁asiria	-1387
▁dadarahon	-1388
▁papadusahan	-1389
▁sinasabihan	-1390
ere	-1391
tio	-1392
rono	-1393
▁kor	-1394
▁bron	-1395
dadanay	-1396
▁kanding	-1397
▁nganing	-1398
yag	-1399
liba	-1400
▁pyesta	-1401
bagat	-1402
manwa	-1403
▁tang	-1404
hulogan	-1405
▁ginaga	-1406
▁pamibi	-1407
abawa	-1408
miton	-1409
▁treyn	-1410
▁liwanag	-1411
▁simon	-1412
▁bantay	-1413
▁malinig	-1414
▁mayaman	-1415
▁katukdoan	-1416
jam	-1417
io	-1418
uma	-1419
yer	-1420
▁um	-1421
arog	-1422
▁gru	-1423
▁katu	-1424
▁trono	-1425
rarom	-1426
▁maati	-1427
▁habagat	-1428
▁pagsadiri	-1429
▁panga	-1430
▁patin	-1431
▁benjam	-1432
▁darahon	-1433
▁ot	-1434
luya	-1435
inang	-1436
▁ikadu	-1437
bin	-1438
ngan	-1439
▁kaayon	-1440
▁pangan	-1441
▁kagamitan	-1442
wawara	-1443
▁kalangitan	-1444
lihis	-1445
rangay	-1446
oga	-1447
bath	-1448
▁lul	-1449
koman	-1450
kulog	-1451
ritor	-1452
▁asno	-1453
▁tawan	-1454
▁sabbath	-1455
▁teritor	-1456
▁trabaho	-1457
dawan	-1458
▁sang	-1459
▁regalo	-1460
▁itinatao	-1461
sak	-1462
long	-1463
rias	-1464
▁nao	-1465
sakop	-1466
ubngan	-1467
▁kabang	-1468
▁lulubngan	-1469
▁nagtindog	-1470
▁gil	-1471
▁gob	-1472
▁kaka	-1473
▁mako	-1474
▁kabayo	-1475
romp	-1476
▁sus	-1477
linig	-1478
▁binu	-1479
▁hilinga	-1480
mgam	-1481
▁namum	-1482
▁gamgam	-1483
▁kwarto	-1484
▁magbalik	-1485
▁magkaigwa	-1486
▁mahihiling	-1487
ton	-1488
▁emp	-1489
uswag	-1490
▁gaga	-1491
▁jesu	-1492
erador	-1493
▁mismo	-1494
▁emperador	-1495
▁teritoryo	-1496
dal	-1497
isog	-1498
kwal	-1499
▁edo	-1500
makan	-1501
▁grupo	-1502
▁ibina	-1503
▁plano	-1504
▁magta	-1505
▁tolda	-1506
▁magtaram	-1507
▁naaraman	-1508
▁maaaraman	-1509
sing	-1510
▁kadugo	-1511
hob	-1512
▁des	-1513
▁hig	-1514
itaas	-1515
kidan	-1516
▁nagp	-1517
banggi	-1518
▁kabukidan	-1519
ir	-1520
zias	-1521
tugot	-1522
▁moab	-1523
enotan	-1524
▁kasuratan	-1525
th	-1526
bok	-1527
uni	-1528
▁mad	-1529
hinan	-1530
▁nebu	-1531
▁maninigo	-1532
▁pagsamba	-1533
▁tim	-1534
danga	-1535
▁sama	-1536
▁minas	-1537
▁surat	-1538
▁kordero	-1539
uu	-1540
boam	-1541
ugol	-1542
▁joab	-1543
▁nagma	-1544
▁katong	-1545
▁padusa	-1546
▁ladawan	-1547
▁nabubuhay	-1548
ac	-1549
ung	-1550
mana	-1551
tios	-1552
▁kamon	-1553
hinanyog	-1554
▁insenso	-1555
▁katongdan	-1556
▁sinalakay	-1557
▁panganoron	-1558
doan	-1559
▁per	-1560
▁pro	-1561
▁maku	-1562
▁isaac	-1563
▁ilinigtas	-1564
▁nagpadara	-1565
ibo	-1566
pano	-1567
nopan	-1568
▁oliba	-1569
▁pagdo	-1570
▁sasabi	-1571
▁kahirasan	-1572
▁kamondoan	-1573
▁lalawogon	-1574
▁tres	-1575
agihan	-1576
kasala	-1577
▁gutom	-1578
libotan	-1579
▁mabuhay	-1580
▁ze	-1581
ases	-1582
▁kon	-1583
▁inako	-1584
▁tunay	-1585
▁manases	-1586
▁nagdara	-1587
▁naghaha	-1588
▁paghahade	-1589
wo	-1590
▁heb	-1591
▁pak	-1592
hinga	-1593
▁balo	-1594
▁ipag	-1595
▁mama	-1596
▁trig	-1597
hingalo	-1598
▁harayo	-1599
▁binayaan	-1600
▁salakayon	-1601
mak	-1602
bulos	-1603
lihid	-1604
mawot	-1605
▁leon	-1606
▁helang	-1607
▁karwahe	-1608
kw	-1609
▁kil	-1610
lonan	-1611
▁elis	-1612
cristo	-1613
▁siria	-1614
▁samuel	-1615
▁kahulogan	-1616
▁sugo	-1617
tangis	-1618
▁napapa	-1619
▁tinata	-1620
▁dangoga	-1621
▁nanganga	-1622
st	-1623
cio	-1624
▁naha	-1625
inanom	-1626
▁elias	-1627
▁pakasabot	-1628
son	-1629
▁kua	-1630
▁tobi	-1631
haleon	-1632
kloman	-1633
▁trigo	-1634
▁eliseo	-1635
▁sampolong	-1636
esa	-1637
lid	-1638
hong	-1639
tago	-1640
▁ngoso	-1641
▁gurang	-1642
▁namibi	-1643
▁solnopan	-1644
bay	-1645
▁so	-1646
agid	-1647
lubo	-1648
inibo	-1649
kasan	-1650
▁nagdu	-1651
▁limang	-1652
▁makuri	-1653
▁midbid	-1654
laenlaen	-1655
▁naanggot	-1656
▁jesucristo	-1657
▁manlaenlaen	-1658
bra	-1659
ead	-1660
▁bulod	-1661
▁ipinan	-1662
▁kaming	-1663
▁naglaog	-1664
halangkaw	-1665
▁giromdoma	-1666
▁kadikloman	-1667
kat	-1668
than	-1669
sagin	-1670
▁nanga	-1671
ernador	-1672
▁igwang	-1673
▁magerok	-1674
▁jonathan	-1675
▁naggigibo	-1676
▁aro	-1677
podon	-1678
▁biya	-1679
▁hapot	-1680
▁kataed	-1681
▁nagkurahaw	-1682
nez	-1683
▁gum	-1684
bangon	-1685
ingowa	-1686
kadnez	-1687
▁sadit	-1688
kadnezzar	-1689
▁nebukadnezzar	-1690
lak	-1691
▁ibong	-1692
sakitan	-1693
▁inaapod	-1694
▁nagboot	-1695
▁tatawan	-1696
▁gobernador	-1697
ib	-1698
anong	-1699
enera	-1700
otobon	-1701
▁antio	-1702
agal	-1703
▁pur	-1704
▁kaha	-1705
▁egipcio	-1706
▁samaria	-1707
▁paghukom	-1708
angganahan	-1709
▁naglalakaw	-1710
boy	-1711
dokeo	-1712
▁hare	-1713
▁ubas	-1714
midbid	-1715
tutong	-1716
unidad	-1717
▁nakua	-1718
▁ngona	-1719
▁benjamin	-1720
▁mardokeo	-1721
▁kapangganahan	-1722
olo	-1723
raim	-1724
▁sinam	-1725
oninong	-1726
▁henera	-1727
▁sabihon	-1728
▁kaomawan	-1729
dorog	-1730
▁peda	-1731
kagara	-1732
▁ammon	-1733
▁patyo	-1734
▁bisyon	-1735
▁tamang	-1736
lingawan	-1737
hoban	-1738
▁edom	-1739
▁sion	-1740
sadiri	-1741
▁armas	-1742
▁hinan	-1743
▁libro	-1744
▁pinap	-1745
angalas	-1746
▁doseng	-1747
▁parteng	-1748
▁makuring	-1749
won	-1750
▁aga	-1751
bayad	-1752
diring	-1753
yaring	-1754
▁kalag	-1755
▁magma	-1756
torogan	-1757
urangan	-1758
▁irarom	-1759
▁minapa	-1760
▁maggibo	-1761
▁pakalihis	-1762
▁pagkaherak	-1763
sopog	-1764
▁bini	-1765
▁paha	-1766
▁hukom	-1767
▁koron	-1768
▁parte	-1769
▁biyaya	-1770
▁treynta	-1771
▁maglingkod	-1772
rin	-1773
▁uba	-1774
aging	-1775
erokan	-1776
▁singkw	-1777
mpalasan	-1778
romdoman	-1779
▁maghale	-1780
dangadang	-1781
bes	-1782
▁asa	-1783
▁lin	-1784
kawan	-1785
▁onra	-1786
▁poro	-1787
▁santo	-1788
kurahaw	-1789
▁makang	-1790
▁kaligtasan	-1791
lulu	-1792
▁eze	-1793
▁sini	-1794
▁uran	-1795
umbong	-1796
▁ipinadara	-1797
▁pagdolonan	-1798
▁pagkatakot	-1799
kla	-1800
osop	-1801
yoga	-1802
▁she	-1803
▁ahab	-1804
▁mahi	-1805
▁karne	-1806
▁pagma	-1807
▁desyer	-1808
▁makakam	-1809
▁paladan	-1810
▁ipinanuga	-1811
▁jehoia	-1812
▁nagtao	-1813
▁sadiring	-1814
▁ilinubong	-1815
hod	-1816
laki	-1817
▁set	-1818
▁pama	-1819
▁tromp	-1820
▁efraim	-1821
▁ubasan	-1822
dro	-1823
anan	-1824
daog	-1825
unad	-1826
usta	-1827
▁hini	-1828
▁bilanggo	-1829
▁trompeta	-1830
▁nagpadagos	-1831
lom	-1832
sang	-1833
▁imp	-1834
walat	-1835
▁sanga	-1836
▁maogma	-1837
▁nganga	-1838
kag	-1839
osa	-1840
oto	-1841
ther	-1842
toon	-1843
▁cana	-1844
▁esther	-1845
▁ezekias	-1846
▁naglala	-1847
▁desyerto	-1848
▁ipinahiling	-1849
dea	-1850
uar	-1851
erak	-1852
▁dum	-1853
gtaan	-1854
▁hinu	-1855
inabot	-1856
▁dikit	-1857
▁kuahon	-1858
abawabaw	-1859
agrangay	-1860
▁ikinaka	-1861
▁magsabi	-1862
kagaradan	-1863
▁uminabot	-1864
eryo	-1865
aldaw	-1866
yohan	-1867
▁awit	-1868
buldan	-1869
isipan	-1870
tolong	-1871
▁herak	-1872
▁judea	-1873
▁madali	-1874
▁kuyogon	-1875
▁nagpoon	-1876
▁natakot	-1877
▁nakaabot	-1878
▁namundag	-1879
▁hinanyoga	-1880
▁naaaraman	-1881
▁kabubuldan	-1882
lean	-1883
mate	-1884
▁inaa	-1885
▁seis	-1886
kulang	-1887
▁mahal	-1888
▁pagba	-1889
lakihan	-1890
▁gilead	-1891
▁tinampo	-1892
▁parehong	-1893
▁mabubuhay	-1894
▁maninigong	-1895
▁nagtiripon	-1896
▁parakasala	-1897
▁kalalakihan	-1898
uarin	-1899
▁inag	-1900
▁simba	-1901
▁canaan	-1902
sambahan	-1903
▁magabot	-1904
▁maldisyon	-1905
▁padusahan	-1906
pe	-1907
mpi	-1908
olay	-1909
▁ahi	-1910
▁tan	-1911
belde	-1912
▁ngani	-1913
dodolot	-1914
▁aroaldaw	-1915
▁simbahan	-1916
▁sasabihon	-1917
▁kom	-1918
ining	-1919
▁hari	-1920
▁nawi	-1921
▁hatol	-1922
▁pagta	-1923
▁jonatan	-1924
▁namomoot	-1925
▁tampalasan	-1926
▁kamagurangan	-1927
los	-1928
reo	-1929
▁ili	-1930
salom	-1931
▁gali	-1932
otoong	-1933
▁itinu	-1934
▁absalom	-1935
▁tabangan	-1936
▁nakahiling	-1937
▁pinakamarahay	-1938
hok	-1939
agas	-1940
kete	-1941
▁baal	-1942
▁anong	-1943
▁nagtubod	-1944
ent	-1945
yen	-1946
isya	-1947
esiya	-1948
kakan	-1949
▁magd	-1950
▁mali	-1951
▁haman	-1952
▁lakaw	-1953
▁madya	-1954
▁nagbu	-1955
▁tinug	-1956
▁masabi	-1957
▁natada	-1958
▁kadikit	-1959
▁totoong	-1960
▁itinapok	-1961
▁kaisipan	-1962
▁mangyari	-1963
▁nagkakan	-1964
▁ikaduwang	-1965
▁nagbugtak	-1966
▁henerasyon	-1967
▁magdadanay	-1968
dol	-1969
aniel	-1970
likod	-1971
sagra	-1972
▁mahe	-1973
pitong	-1974
postol	-1975
▁nagaa	-1976
▁maduman	-1977
▁tinanom	-1978
▁pagsalakay	-1979
▁em	-1980
▁fa	-1981
daya	-1982
lawig	-1983
▁jero	-1984
▁buhok	-1985
▁demon	-1986
▁itaas	-1987
▁amo	-1988
▁kapu	-1989
urulag	-1990
darahan	-1991
▁nagsus	-1992
▁galilea	-1993
▁magurang	-1994
▁nagtatao	-1995
▁ikatolong	-1996
elo	-1997
eret	-1998
raro	-1999
▁kal	-2000
▁kur	-2001
▁ses	-2002
kumba	-2003
▁buta	-2004
bantay	-2005
romdom	-2006
▁bitoon	-2007
▁daniel	-2008
▁ligtas	-2009
▁syento	-2010
▁apostol	-2011
▁kaining	-2012
▁magdolot	-2013
▁pakaaram	-2014
▁ngangalasan	-2015
yna	-2016
▁uz	-2017
▁tig	-2018
bihag	-2019
▁kari	-2020
▁naba	-2021
hohona	-2022
osopgan	-2023
▁harigi	-2024
▁mapasa	-2025
▁nagdolok	-2026
balos	-2027
hidan	-2028
▁gawe	-2029
garing	-2030
tugotan	-2031
▁manang	-2032
▁paraha	-2033
▁parapa	-2034
▁nagdadangadang	-2035
gul	-2036
lig	-2037
rio	-2038
▁ru	-2039
koms	-2040
▁esa	-2041
▁anom	-2042
▁bura	-2043
▁idin	-2044
▁makoa	-2045
▁magibo	-2046
▁demonyo	-2047
▁iligtas	-2048
komsisyon	-2049
▁mawawara	-2050
▁paggadan	-2051
▁ikapitong	-2052
▁paratukdo	-2053
▁pangatorogan	-2054
kwa	-2055
ril	-2056
tik	-2057
▁og	-2058
ranan	-2059
tanom	-2060
uuyam	-2061
▁kurt	-2062
▁faris	-2063
▁haloy	-2064
▁kamaw	-2065
▁sakop	-2066
▁pagsus	-2067
▁magogma	-2068
▁naglakaw	-2069
▁bendisyon	-2070
▁kamawotan	-2071
▁nagkapira	-2072
kos	-2073
▁ca	-2074
▁maba	-2075
▁magsa	-2076
▁reyna	-2077
likodan	-2078
▁dating	-2079
▁burabod	-2080
▁makukua	-2081
den	-2082
imi	-2083
▁inu	-2084
▁laen	-2085
▁buhis	-2086
▁magda	-2087
▁makua	-2088
▁nyato	-2089
▁agihan	-2090
▁kutana	-2091
▁madara	-2092
▁fariseo	-2093
▁ralaban	-2094
▁ipinahayag	-2095
▁kasosopgan	-2096
mbag	-2097
gulyo	-2098
tawad	-2099
undon	-2100
▁esau	-2101
▁embes	-2102
tawadon	-2103
▁bronse	-2104
▁nuarin	-2105
▁tobias	-2106
▁makoapo	-2107
▁jeroboam	-2108
▁nagontok	-2109
▁nakakaagid	-2110
yaw	-2111
osip	-2112
pong	-2113
▁big	-2114
▁pes	-2115
▁sug	-2116
▁elea	-2117
▁rina	-2118
▁idtong	-2119
▁kaputi	-2120
▁makiki	-2121
▁matata	-2122
▁pastor	-2123
▁gagamiton	-2124
▁pagkagadan	-2125
▁pagsusundon	-2126
hiy	-2127
kre	-2128
rabi	-2129
▁min	-2130
▁sent	-2131
▁deret	-2132
▁magaga	-2133
▁ginamit	-2134
▁idinolot	-2135
a	-2136
▁	-2137
n	-2138
i	-2139
g	-2140
o	-2141
s	-2142
k	-2143
m	-2144
d	-2145
t	-2146
l	-2147
r	-2148
b	-2149
u	-2150
p	-2151
y	-2152
e	-2153
h	-2154
w	-2155
j	-2156
c	-2157
z	-2158
v	-2159
f	-2160
