<unk>	0
<s>	0
</s>	0
an	-0
▁n	-1
in	-2
▁s	-3
▁sa	-4
ag	-5
▁m	-6
▁k	-7
on	-8
ang	-9
▁na	-10
▁an	-11
ga	-12
ak	-13
as	-14
▁p	-15
▁nin	-16
al	-17
da	-18
iy	-19
▁mga	-20
▁ka	-21
ta	-22
ong	-23
ra	-24
▁kan	-25
ay	-26
os	-27
ad	-28
▁b	-29
ab	-30
▁nag	-31
asin	-32
▁asin	-33
ot	-34
▁d	-35
iya	-36
og	-37
▁h	-38
ing	-39
▁t	-40
▁K	-41
▁i	-42
am	-43
ul	-44
▁l	-45
ar	-46
▁ta	-47
▁A	-48
at	-49
ah	-50
▁sak	-51
▁D	-52
▁si	-53
ib	-54
▁mag	-55
il	-56
▁pag	-57
ara	-58
ap	-59
do	-60
ur	-61
un	-62
▁da	-63
angan	-64
▁sin	-65
is	-66
▁ak	-67
im	-68
▁ni	-69
▁sain	-70
ini	-71
iyang	-72
od	-73
en	-74
▁J	-75
aw	-76
▁S	-77
▁kam	-78
▁g	-79
urang	-80
nan	-81
om	-82
agurang	-83
agurangnan	-84
▁N	-85
er	-86
▁Kagurangnan	-87
▁"	-88
it	-89
ig	-90
▁M	-91
▁ga	-92
▁niya	-93
ios	-94
▁ko	-95
▁siya	-96
agad	-97
▁man	-98
ol	-99
um	-100
es	-101
han	-102
▁I	-103
▁saiyang	-104
el	-105
▁sar	-106
▁sinda	-107
▁dai	-108
ir	-109
us	-110
▁saka	-111
ub	-112
▁An	-113
or	-114
ip	-115
uli	-116
ibo	-117
▁al	-118
▁Dios	-119
▁ako	-120
dang	-121
uk	-122
▁iy	-123
wa	-124
to	-125
▁mo	-126
▁taw	-127
▁sarong	-128
▁ini	-129
id	-130
▁saim	-131
ug	-132
▁gab	-133
▁gabos	-134
abi	-135
hay	-136
ayo	-137
▁Nag	-138
▁H	-139
▁P	-140
▁kamo	-141
aga	-142
▁ki	-143
▁nindo	-144
alak	-145
▁ninda	-146
ale	-147
▁huli	-148
ya	-149
."	-150
▁pin	-151
ik	-152
▁T	-153
▁pa	-154
▁tawo	-155
▁mak	-156
ade	-157
▁ma	-158
ina	-159
▁B	-160
▁kun	-161
▁ban	-162
op	-163
▁para	-164
▁Is	-165
anganing	-166
uman	-167
▁saindang	-168
▁tanganing	-169
▁E	-170
▁saimong	-171
▁lalak	-172
oot	-173
aya	-174
▁nak	-175
▁iyan	-176
iling	-177
dad	-178
▁Da	-179
ok	-180
daw	-181
▁sakong	-182
kod	-183
ram	-184
yo	-185
rael	-186
▁Israel	-187
ahan	-188
akul	-189
▁dangan	-190
bang	-191
eng	-192
aka	-193
dong	-194
akan	-195
ob	-196
otan	-197
▁hade	-198
▁bil	-199
▁lalaki	-200
▁nas	-201
▁saiya	-202
yon	-203
▁Al	-204
▁kap	-205
ut	-206
▁daga	-207
ana	-208
▁ip	-209
▁sako	-210
▁mara	-211
aban	-212
▁nags	-213
hon	-214
▁alagad	-215
uhay	-216
di	-217
▁Alagad	-218
▁pagk	-219
▁iyo	-220
taram	-221
em	-222
▁gin	-223
▁G	-224
▁Ju	-225
dan	-226
▁pan	-227
oon	-228
gar	-229
▁may	-230
▁banwa	-231
▁sag	-232
▁sir	-233
▁ar	-234
yan	-235
▁mas	-236
▁aldaw	-237
▁nagk	-238
▁Kaya	-239
ala	-240
▁sagkod	-241
ura	-242
▁ib	-243
iba	-244
▁kas	-245
▁saindong	-246
▁sy	-247
iw	-248
▁nang	-249
aba	-250
▁ng	-251
aram	-252
▁ik	-253
ari	-254
uw	-255
▁Dangan	-256
abot	-257
▁sainda	-258
▁aki	-259
lo	-260
▁Sa	-261
▁saindo	-262
▁Jes	-263
▁o	-264
▁siring	-265
▁kat	-266
angg	-267
ed	-268
▁tin	-269
▁in	-270
ki	-271
▁mayo	-272
▁duman	-273
▁saimo	-274
et	-275
ahon	-276
▁nagp	-277
ita	-278
▁it	-279
▁niyang	-280
iri	-281
▁banwaan	-282
adan	-283
ogon	-284
imb	-285
▁Dai	-286
ma	-287
▁tr	-288
alan	-289
iyan	-290
▁aking	-291
▁Jesus	-292
▁mat	-293
▁lam	-294
la	-295
▁kal	-296
angk	-297
orog	-298
anan	-299
udad	-300
uy	-301
tang	-302
▁bag	-303
▁Nags	-304
ro	-305
osog	-306
▁mah	-307
▁syudad	-308
▁pad	-309
▁kin	-310
▁har	-311
abihan	-312
▁sam	-313
▁hale	-314
▁Kan	-315
▁dakul	-316
ias	-317
▁kah	-318
eb	-319
ih	-320
ano	-321
▁nagh	-322
▁pam	-323
▁Jer	-324
▁baba	-325
▁nam	-326
awan	-327
▁marahay	-328
inig	-329
▁kab	-330
dara	-331
▁at	-332
isay	-333
▁ipin	-334
▁min	-335
▁L	-336
▁kaya	-337
▁tawong	-338
▁ginibo	-339
tao	-340
alik	-341
emp	-342
▁Kun	-343
▁map	-344
▁saro	-345
erok	-346
unyan	-347
▁sana	-348
gwa	-349
asan	-350
tap	-351
angy	-352
▁am	-353
▁bilang	-354
tong	-355
▁panahon	-356
▁kad	-357
▁bak	-358
iring	-359
eh	-360
▁kaiyan	-361
▁bilog	-362
eo	-363
▁nagt	-364
agadan	-365
agi	-366
▁pags	-367
▁r	-368
ua	-369
▁kami	-370
▁buhay	-371
▁sad	-372
vid	-373
itan	-374
▁David	-375
▁magk	-376
imbag	-377
pa	-378
▁lu	-379
▁nagl	-380
eta	-381
olong	-382
emplo	-383
igin	-384
▁Mo	-385
alem	-386
usalem	-387
▁Jerusalem	-388
▁gibo	-389
ira	-390
▁C	-391
▁arog	-392
ugt	-393
▁kaini	-394
▁huk	-395
▁id	-396
▁pagb	-397
era	-398
tan	-399
▁Mag	-400
▁babae	-401
tapos	-402
▁pang	-403
▁Sin	-404
ipon	-405
▁bul	-406
ahiling	-407
▁par	-408
po	-409
▁mad	-410
▁ngunyan	-411
▁kong	-412
uhan	-413
▁kar	-414
▁pas	-415
ugo	-416
▁nah	-417
bo	-418
igt	-419
▁lugar	-420
agom	-421
▁taga	-422
▁dap	-423
▁kaiba	-424
uwas	-425
akot	-426
duman	-427
▁lambang	-428
▁la	-429
▁Templo	-430
ugang	-431
araman	-432
▁O	-433
ihan	-434
▁pak	-435
▁Huli	-436
▁maraot	-437
gad	-438
▁bagay	-439
▁itina	-440
▁nasyon	-441
▁nagb	-442
▁R	-443
iwal	-444
isyon	-445
angyari	-446
amb	-447
▁igwa	-448
▁pinag	-449
▁sadiri	-450
▁hin	-451
ises	-452
▁Moises	-453
▁nasa	-454
▁magp	-455
▁ama	-456
garan	-457
agan	-458
ayon	-459
anos	-460
▁harong	-461
An	-462
▁Juda	-463
unod	-464
▁padi	-465
ongan	-466
▁atub	-467
▁pr	-468
▁magigin	-469
▁Israelita	-470
▁kasalan	-471
?"	-472
oman	-473
▁Ab	-474
▁siisay	-475
▁Si	-476
oy	-477
▁hukbo	-478
▁ngaran	-479
▁dios	-480
▁Eg	-481
ia	-482
apot	-483
▁boot	-484
dol	-485
uwang	-486
▁kaiwal	-487
!"	-488
aki	-489
hel	-490
▁il	-491
▁Egip	-492
▁mong	-493
▁tugang	-494
▁nagsabi	-495
uga	-496
▁is	-497
ayan	-498
▁pal	-499
tar	-500
▁'	-501
igdi	-502
asabi	-503
apod	-504
▁kita	-505
▁mab	-506
ani	-507
ac	-508
▁kw	-509
inga	-510
ubod	-511
ero	-512
▁taon	-513
▁mal	-514
ibi	-515
▁hal	-516
igtas	-517
▁pagt	-518
oto	-519
▁idto	-520
▁agom	-521
akop	-522
ayop	-523
olot	-524
uh	-525
▁lin	-526
▁hayop	-527
▁bakong	-528
ko	-529
isip	-530
aman	-531
▁laog	-532
▁maski	-533
▁iba	-534
▁sol	-535
▁nanggad	-536
ata	-537
wed	-538
▁kinaban	-539
adeng	-540
▁bin	-541
igibo	-542
▁dag	-543
▁makak	-544
▁paagi	-545
▁mags	-546
▁siyang	-547
urat	-548
ray	-549
▁mam	-550
ind	-551
▁Pin	-552
ipuhan	-553
enot	-554
ugtak	-555
ukdo	-556
▁duwang	-557
ris	-558
angog	-559
▁nagin	-560
▁pat	-561
orogoon	-562
te	-563
▁El	-564
apat	-565
▁nakak	-566
anay	-567
▁kara	-568
▁Egipto	-569
▁satong	-570
▁magh	-571
▁or	-572
igwa	-573
inik	-574
▁pagp	-575
▁nindang	-576
▁magin	-577
ai	-578
eerok	-579
▁gira	-580
▁Hadeng	-581
▁sorogoon	-582
▁Z	-583
▁pagh	-584
▁mi	-585
▁y	-586
▁giraray	-587
▁Nagsimbag	-588
indog	-589
omaw	-590
otoo	-591
▁samong	-592
▁itinao	-593
▁Judi	-594
▁es	-595
ako	-596
▁gadan	-597
ey	-598
▁daw	-599
eyn	-600
gibo	-601
▁itin	-602
▁ina	-603
▁kundi	-604
▁ika	-605
▁In	-606
risto	-607
erak	-608
▁kwar	-609
ens	-610
▁din	-611
asala	-612
▁Judio	-613
▁ano	-614
▁pagboot	-615
angyarihan	-616
rab	-617
▁kapangyarihan	-618
irit	-619
unga	-620
ha	-621
▁banal	-622
angkaw	-623
taramon	-624
▁matanos	-625
ili	-626
▁Es	-627
ayag	-628
ogod	-629
▁logod	-630
yaon	-631
▁ibang	-632
▁tol	-633
▁pus	-634
▁sinabihan	-635
▁tataramon	-636
haw	-637
▁Jos	-638
▁dolot	-639
disyon	-640
▁As	-641
ogonan	-642
▁Pag	-643
ubig	-644
▁pwed	-645
yal	-646
agos	-647
ka	-648
▁magt	-649
akian	-650
ubing	-651
▁sab	-652
abaw	-653
ern	-654
▁akong	-655
apas	-656
▁op	-657
▁altar	-658
▁kamot	-659
▁pagl	-660
▁nagta	-661
▁sindang	-662
▁pasiring	-663
dam	-664
dados	-665
pirit	-666
▁soldados	-667
▁prop	-668
akitan	-669
▁dapat	-670
▁karn	-671
▁lang	-672
▁kaipuhan	-673
alang	-674
mb	-675
▁mayong	-676
▁sal	-677
▁pap	-678
▁yaon	-679
dok	-680
ron	-681
▁dakulang	-682
▁mata	-683
ogma	-684
▁digdi	-685
▁kapag	-686
ulo	-687
▁ginik	-688
ukid	-689
ulog	-690
▁langit	-691
ipan	-692
amba	-693
akatapos	-694
▁nap	-695
tok	-696
omon	-697
ahal	-698
▁opis	-699
▁opisyal	-700
▁bulawan	-701
▁mantang	-702
akal	-703
tayan	-704
▁ginikanan	-705
uya	-706
▁trib	-707
▁pagkam	-708
▁nahiling	-709
▁Nagsabi	-710
agb	-711
ea	-712
dom	-713
arakian	-714
ago	-715
ek	-716
dangog	-717
▁kapagarakian	-718
igibohon	-719
▁nagd	-720
▁kahoy	-721
atan	-722
piritu	-723
▁tubig	-724
▁tribu	-725
▁puso	-726
ud	-727
▁pinak	-728
.'	-729
▁lalaking	-730
rabah	-731
Dai	-732
ayaan	-733
▁nindong	-734
▁kaid	-735
▁atubang	-736
ahayag	-737
▁pagkakan	-738
▁gibohon	-739
▁Mayo	-740
▁Cristo	-741
▁kag	-742
▁Am	-743
ent	-744
ilya	-745
▁magl	-746
▁nagtaram	-747
arahay	-748
▁gubing	-749
ulag	-750
▁san	-751
uyang	-752
dolot	-753
apa	-754
▁hab	-755
▁ita	-756
onin	-757
▁pamilya	-758
abil	-759
ahale	-760
▁aram	-761
ev	-762
adus	-763
▁taka	-764
▁sosog	-765
wan	-766
▁ibin	-767
ihiling	-768
ahe	-769
▁propeta	-770
ti	-771
▁Jud	-772
▁Kat	-773
▁ginig	-774
bid	-775
uyog	-776
▁kaidto	-777
itong	-778
ez	-779
▁karatan	-780
▁bako	-781
▁samo	-782
ogm	-783
iwan	-784
idbid	-785
▁laban	-786
▁nagduman	-787
irom	-788
▁Sinabihan	-789
arong	-790
▁mil	-791
▁garo	-792
asa	-793
alakay	-794
dios	-795
▁pwedeng	-796
ibot	-797
▁pinap	-798
▁dapit	-799
arig	-800
uraw	-801
ibahan	-802
▁kamong	-803
▁magb	-804
akanon	-805
onongan	-806
▁Na	-807
umin	-808
▁Sam	-809
adean	-810
▁karnero	-811
▁danay	-812
▁mahiling	-813
alaw	-814
▁nab	-815
imbod	-816
abilon	-817
▁Ako	-818
▁nata	-819
rabaho	-820
▁kasakitan	-821
▁Saul	-822
▁Babilon	-823
▁magadan	-824
▁Mas	-825
areta	-826
utong	-827
▁lamang	-828
aron	-829
▁kalang	-830
▁ang	-831
▁sanang	-832
▁gigibohon	-833
▁Jeh	-834
▁Man	-835
anggotan	-836
▁Katogonan	-837
ider	-838
iwanag	-839
▁pagkamoot	-840
anggot	-841
▁anghel	-842
▁ginigibo	-843
akaw	-844
▁baka	-845
▁orog	-846
▁simb	-847
acob	-848
▁Gin	-849
▁dos	-850
▁lider	-851
ibong	-852
etr	-853
uwa	-854
amit	-855
enta	-856
ingk	-857
▁Jacob	-858
mp	-859
angkahan	-860
▁saen	-861
ingkod	-862
▁atubangan	-863
▁mina	-864
endisyon	-865
▁Ip	-866
▁Hin	-867
▁Jo	-868
▁atang	-869
▁Lev	-870
▁kaanggotan	-871
ondo	-872
▁anoman	-873
▁Pakatapos	-874
adiri	-875
ist	-876
anga	-877
alangkaw	-878
▁Tin	-879
▁enot	-880
anggi	-881
alag	-882
amp	-883
und	-884
ikan	-885
▁dalan	-886
▁disip	-887
uta	-888
▁sato	-889
yam	-890
▁bulan	-891
▁nangy	-892
ongod	-893
iripon	-894
urahaw	-895
aigwa	-896
▁sinabi	-897
ukaw	-898
ontok	-899
▁nagkap	-900
▁makosog	-901
awit	-902
ipis	-903
▁pla	-904
▁tolong	-905
rog	-906
▁gapo	-907
,"	-908
eon	-909
az	-910
Kun	-911
aro	-912
onan	-913
umb	-914
aherak	-915
▁dara	-916
▁kata	-917
adagos	-918
▁dahel	-919
▁Aaron	-920
▁kalayo	-921
adusahan	-922
▁nagadan	-923
▁disipulo	-924
otoohan	-925
up	-926
amat	-927
▁haw	-928
oron	-929
▁bit	-930
▁bago	-931
ula	-932
ogmahan	-933
yes	-934
entos	-935
adangog	-936
▁kaogmahan	-937
no	-938
▁pamayo	-939
tay	-940
▁payo	-941
▁plata	-942
taposan	-943
▁trangkahan	-944
iria	-945
▁Nagh	-946
▁diyan	-947
▁hawak	-948
▁tawohan	-949
oninongan	-950
ugdok	-951
▁namom	-952
▁kataposan	-953
▁tan	-954
▁oripon	-955
▁dinara	-956
▁ginadan	-957
▁katoninongan	-958
Mag	-959
▁Bet	-960
ubuhay	-961
▁Ma	-962
▁Sol	-963
alaog	-964
irang	-965
▁Babilonia	-966
oro	-967
etros	-968
▁babaeng	-969
ato	-970
▁kakanon	-971
alo	-972
▁naw	-973
na	-974
apay	-975
▁pitong	-976
▁manongod	-977
▁pagtubod	-978
umang	-979
▁nagda	-980
▁Solomon	-981
gan	-982
▁sabi	-983
▁Siring	-984
ham	-985
otob	-986
awara	-987
agadanan	-988
oma	-989
▁Ama	-990
▁Mak	-991
rom	-992
▁as	-993
ayari	-994
▁sakuyang	-995
▁Jon	-996
▁day	-997
▁Tab	-998
elang	-999
man	-1000
ukdoan	-1001
▁kaibahan	-1002
io	-1003
ump	-1004
zar	-1005
ugtakan	-1006
▁poon	-1007
▁arak	-1008
▁maimbod	-1009
▁Aki	-1010
▁kadonongan	-1011
▁e	-1012
agat	-1013
ugot	-1014
▁dayuhan	-1015
▁gadanon	-1016
▁syentos	-1017
ilang	-1018
▁gera	-1019
urawayan	-1020
inom	-1021
▁Iyo	-1022
ic	-1023
▁Ben	-1024
ali	-1025
abotan	-1026
iromdom	-1027
aganakan	-1028
▁kamaganakan	-1029
▁kamurawayan	-1030
udal	-1031
▁dugo	-1032
ipag	-1033
laen	-1034
ahala	-1035
raham	-1036
▁tolos	-1037
▁kabtang	-1038
▁Abraham	-1039
ikl	-1040
edro	-1041
rang	-1042
▁Jose	-1043
abayaan	-1044
▁tinapay	-1045
re	-1046
▁Ah	-1047
▁palibot	-1048
▁Sim	-1049
ugotan	-1050
▁sinas	-1051
▁magagadan	-1052
▁gam	-1053
angal	-1054
▁Igwa	-1055
▁bangk	-1056
aaraman	-1057
▁dagang	-1058
▁nagpap	-1059
▁Levita	-1060
▁Nagtaram	-1061
▁kagadanan	-1062
▁tab	-1063
adaw	-1064
eynte	-1065
▁kudal	-1066
▁nakaka	-1067
akula	-1068
▁togon	-1069
ipisyo	-1070
▁Espiritu	-1071
▁katotoohan	-1072
sa	-1073
▁tata	-1074
onong	-1075
▁dagat	-1076
▁kosog	-1077
▁halaga	-1078
▁ub	-1079
▁Sal	-1080
▁banggi	-1081
le	-1082
▁a	-1083
▁It	-1084
oton	-1085
▁mang	-1086
▁padus	-1087
inan	-1088
▁Mga	-1089
▁lalaw	-1090
ablo	-1091
umpa	-1092
▁naka	-1093
▁hara	-1094
si	-1095
hona	-1096
omawon	-1097
ung	-1098
atol	-1099
ernakul	-1100
agibo	-1101
abalik	-1102
atakot	-1103
▁maabot	-1104
ernakulo	-1105
ati	-1106
▁pl	-1107
andam	-1108
▁Ka	-1109
ukha	-1110
▁Ini	-1111
▁Nagk	-1112
▁Tabernakulo	-1113
asal	-1114
laog	-1115
▁makur	-1116
▁magduman	-1117
olay	-1118
▁sas	-1119
▁Judas	-1120
▁Sarong	-1121
ilaban	-1122
kias	-1123
opog	-1124
yong	-1125
alakaw	-1126
endisyonan	-1127
mo	-1128
ilist	-1129
▁itatao	-1130
▁Nak	-1131
ilihan	-1132
ulogan	-1133
▁tinawan	-1134
▁maaraman	-1135
▁sirangan	-1136
▁May	-1137
▁ilin	-1138
▁Nagp	-1139
▁panuga	-1140
iro	-1141
daog	-1142
asyon	-1143
ikit	-1144
atorog	-1145
gunyan	-1146
▁kapwa	-1147
▁nangyari	-1148
▁kato	-1149
▁nagsas	-1150
▁maninig	-1151
▁parat	-1152
uel	-1153
▁isin	-1154
▁mens	-1155
▁nagm	-1156
akasala	-1157
antayan	-1158
▁harani	-1159
▁madonong	-1160
abat	-1161
▁ipinagb	-1162
wal	-1163
iseo	-1164
ubong	-1165
▁simbag	-1166
▁magpoon	-1167
▁nagkapirang	-1168
ons	-1169
ukad	-1170
ripisyo	-1171
▁ibabaw	-1172
asyo	-1173
oben	-1174
▁Kah	-1175
▁magd	-1176
▁kahadean	-1177
ue	-1178
gam	-1179
▁kang	-1180
▁Pablo	-1181
ilisteo	-1182
▁nagbalik	-1183
▁Nagt	-1184
▁arin	-1185
▁tipan	-1186
▁paggibo	-1187
ins	-1188
▁pinto	-1189
▁Ginibo	-1190
▁mar	-1191
▁Kaban	-1192
ampo	-1193
iwat	-1194
▁Aram	-1195
▁nagtut	-1196
▁palasyo	-1197
▁lana	-1198
▁maka	-1199
▁hoben	-1200
▁katood	-1201
▁Kad	-1202
▁dahelan	-1203
ulit	-1204
ilinga	-1205
▁dukha	-1206
hob	-1207
lang	-1208
laom	-1209
▁Josue	-1210
agal	-1211
ubang	-1212
ataman	-1213
▁nat	-1214
▁kand	-1215
uratan	-1216
▁kayam	-1217
▁pinili	-1218
▁kayamanan	-1219
▁bar	-1220
▁maw	-1221
ongis	-1222
akong	-1223
▁apat	-1224
▁bunga	-1225
akaigwa	-1226
alat	-1227
ahade	-1228
tadan	-1229
▁oras	-1230
agin	-1231
utom	-1232
angyayari	-1233
▁tinutong	-1234
▁kalangtadan	-1235
ef	-1236
mang	-1237
▁espiritu	-1238
▁nan	-1239
▁nagg	-1240
atindog	-1241
arog	-1242
wahe	-1243
wang	-1244
ibaad	-1245
▁kaom	-1246
▁beynte	-1247
▁tumang	-1248
ukom	-1249
▁duwa	-1250
▁madangog	-1251
awon	-1252
oso	-1253
yog	-1254
odan	-1255
▁sinasabi	-1256
▁ibinugtak	-1257
▁namomotan	-1258
aham	-1259
igtasan	-1260
Sa	-1261
pada	-1262
▁Din	-1263
usurat	-1264
▁Maski	-1265
alos	-1266
teng	-1267
▁ining	-1268
aligtas	-1269
▁dakula	-1270
▁Jor	-1271
▁buh	-1272
▁tor	-1273
▁ikad	-1274
asabot	-1275
▁kabotan	-1276
▁pinakam	-1277
af	-1278
anom	-1279
▁minas	-1280
▁tahaw	-1281
▁Jordan	-1282
fra	-1283
olo	-1284
▁Isa	-1285
eses	-1286
aning	-1287
▁ting	-1288
alaban	-1289
▁tanda	-1290
tor	-1291
▁pagm	-1292
▁daing	-1293
▁nakik	-1294
▁tingog	-1295
dor	-1296
wad	-1297
▁Pedro	-1298
▁bitis	-1299
amahala	-1300
▁inapod	-1301
▁karahay	-1302
abb	-1303
ega	-1304
uno	-1305
▁ins	-1306
adara	-1307
anosan	-1308
▁ipina	-1309
▁makaka	-1310
aria	-1311
ekias	-1312
yesta	-1313
▁Jeho	-1314
▁mada	-1315
entang	-1316
ador	-1317
alih	-1318
▁isip	-1319
▁pano	-1320
alagan	-1321
▁beses	-1322
▁katanosan	-1323
▁Ib	-1324
anggo	-1325
aradan	-1326
agadanon	-1327
▁pintoan	-1328
we	-1329
ubo	-1330
▁ra	-1331
so	-1332
▁mis	-1333
▁Salog	-1334
▁magkakan	-1335
ayad	-1336
alaan	-1337
▁Ipin	-1338
olog	-1339
umpag	-1340
▁itao	-1341
▁bangkay	-1342
apo	-1343
okan	-1344
▁lim	-1345
agamit	-1346
akakan	-1347
▁amihan	-1348
Nag	-1349
ulot	-1350
▁espada	-1351
▁metros	-1352
▁bantayan	-1353
co	-1354
uahon	-1355
▁kampo	-1356
▁pagka	-1357
▁ipinagboot	-1358
tas	-1359
▁gr	-1360
▁Pak	-1361
▁Juan	-1362
▁edad	-1363
▁luwas	-1364
▁sakripisyo	-1365
ams	-1366
ono	-1367
ento	-1368
inao	-1369
ingo	-1370
▁tal	-1371
▁kwarta	-1372
▁tabang	-1373
imaherak	-1374
apal	-1375
▁takot	-1376
▁Mantang	-1377
▁nagkaigwa	-1378
▁nahihiling	-1379
nop	-1380
ibok	-1381
idad	-1382
▁Bin	-1383
▁Mar	-1384
amitan	-1385
▁karahayan	-1386
▁katogonan	-1387
idan	-1388
▁Neb	-1389
▁oma	-1390
▁paano	-1391
mon	-1392
▁Kin	-1393
▁linalang	-1394
▁Ba	-1395
▁tun	-1396
abang	-1397
▁liwat	-1398
▁sinugo	-1399
Ano	-1400
amag	-1401
oros	-1402
▁tamp	-1403
▁mensahe	-1404
bon	-1405
isi	-1406
doma	-1407
enso	-1408
▁bukid	-1409
▁lolong	-1410
▁naggibo	-1411
▁padagos	-1412
se	-1413
ete	-1414
non	-1415
▁lan	-1416
adang	-1417
▁rega	-1418
▁Bukid	-1419
▁pareh	-1420
▁paglaom	-1421
apos	-1422
▁kinua	-1423
atubang	-1424
▁Nahiling	-1425
▁itinaram	-1426
upo	-1427
▁andam	-1428
▁gikan	-1429
darahon	-1430
eg	-1431
undag	-1432
▁doros	-1433
▁kadakul	-1434
inar	-1435
▁lib	-1436
▁bron	-1437
dadanay	-1438
▁pagano	-1439
▁sabihan	-1440
▁Hade	-1441
abakal	-1442
▁Asiria	-1443
▁kanding	-1444
▁nganing	-1445
igo	-1446
▁matakot	-1447
eba	-1448
awot	-1449
▁Hale	-1450
▁ipinag	-1451
▁Marahay	-1452
▁San	-1453
▁nal	-1454
▁idin	-1455
▁ipag	-1456
▁liwanag	-1457
▁kagurangnan	-1458
ec	-1459
ngan	-1460
uran	-1461
▁lul	-1462
tabang	-1463
▁pamibi	-1464
▁Ngunyan	-1465
▁katukdoan	-1466
▁mangyayari	-1467
aha	-1468
amo	-1469
mas	-1470
oga	-1471
▁dar	-1472
agihan	-1473
▁pagga	-1474
▁bagong	-1475
▁kiisay	-1476
▁kalangitan	-1477
dero	-1478
ukol	-1479
▁mapa	-1480
▁bantay	-1481
▁nadangog	-1482
apag	-1483
▁Siya	-1484
irasan	-1485
▁habagat	-1486
▁nagkasala	-1487
▁pagsadiri	-1488
las	-1489
obo	-1490
▁on	-1491
erit	-1492
dolok	-1493
▁patin	-1494
▁trono	-1495
▁malinig	-1496
ri	-1497
▁Nagb	-1498
▁Pad	-1499
agrang	-1500
uyogon	-1501
▁Simon	-1502
▁mapap	-1503
▁naghih	-1504
▁kagamitan	-1505
▁nagtataram	-1506
ama	-1507
ila	-1508
▁Sh	-1509
▁kak	-1510
amibi	-1511
▁sala	-1512
▁singk	-1513
▁pangan	-1514
ilingkod	-1515
ath	-1516
omp	-1517
uko	-1518
usw	-1519
anong	-1520
▁Sabb	-1521
▁asno	-1522
▁maati	-1523
iligtas	-1524
▁Siisay	-1525
▁ipinap	-1526
agrangay	-1527
tog	-1528
dawan	-1529
eritor	-1530
ubngan	-1531
▁teritor	-1532
▁trabaho	-1533
.'"	-1534
araot	-1535
▁mayaman	-1536
▁ig	-1537
ubul	-1538
adulag	-1539
▁Tipan	-1540
▁grupo	-1541
▁tadaw	-1542
▁kabang	-1543
▁regalo	-1544
▁Sabbath	-1545
▁Gil	-1546
▁tibaad	-1547
▁lulubngan	-1548
▁nagr	-1549
▁Dakul	-1550
▁nasas	-1551
▁pwede	-1552
▁kaayon	-1553
Si	-1554
amin	-1555
itaas	-1556
aluwas	-1557
ondoan	-1558
ukidan	-1559
▁Tadaw	-1560
▁gamgam	-1561
▁kwarto	-1562
▁nagsimbag	-1563
▁nasusurat	-1564
!'	-1565
anwa	-1566
ayong	-1567
erador	-1568
▁mismo	-1569
▁salog	-1570
▁teritoryo	-1571
isog	-1572
▁Moab	-1573
▁sang	-1574
▁kabayo	-1575
▁kabukidan	-1576
▁Edom	-1577
▁ipap	-1578
anggan	-1579
▁pinagb	-1580
api	-1581
ilo	-1582
ona	-1583
▁Ano	-1584
▁tama	-1585
▁ol	-1586
▁samp	-1587
ibotan	-1588
▁plano	-1589
▁tolda	-1590
▁treyn	-1591
emon	-1592
▁hig	-1593
▁tut	-1594
▁habo	-1595
ahanap	-1596
enotan	-1597
▁namum	-1598
▁magkakaigwa	-1599
ugol	-1600
▁gob	-1601
inanyog	-1602
▁ladawan	-1603
▁to	-1604
akat	-1605
anuga	-1606
oboam	-1607
▁Joab	-1608
ongdan	-1609
inigtas	-1610
▁insenso	-1611
▁magtaram	-1612
▁nagluwas	-1613
her	-1614
ebel	-1615
▁ikin	-1616
▁Isaac	-1617
▁harig	-1618
▁nagtit	-1619
▁padusa	-1620
▁pagkab	-1621
▁darahon	-1622
▁gagadanon	-1623
▁nagsasabi	-1624
▁panganoron	-1625
nopan	-1626
▁tini	-1627
▁kadugo	-1628
▁Halangkaw	-1629
▁kamondoan	-1630
▁nabubuhay	-1631
san	-1632
abon	-1633
aias	-1634
utik	-1635
▁Padi	-1636
▁ikat	-1637
ayadan	-1638
▁naghale	-1639
▁kahirasan	-1640
▁lalawogon	-1641
▁Il	-1642
arab	-1643
ases	-1644
zias	-1645
▁Tob	-1646
▁pina	-1647
▁Duman	-1648
▁templo	-1649
▁Hinapot	-1650
▁Manases	-1651
▁paghahade	-1652
ubos	-1653
takot	-1654
▁pagd	-1655
aduman	-1656
Kagurangnan	-1657
wo	-1658
abo	-1659
agk	-1660
▁Ez	-1661
edas	-1662
olok	-1663
▁Heb	-1664
▁des	-1665
▁rin	-1666
ingalo	-1667
▁gutom	-1668
▁karwahe	-1669
▁itinatao	-1670
▁katongdan	-1671
▁Jesu	-1672
▁leon	-1673
Cristo	-1674
angoga	-1675
▁Siria	-1676
▁tunay	-1677
▁helang	-1678
▁kahulogan	-1679
▁magkaigwa	-1680
▁tres	-1681
▁Elias	-1682
▁pakasabot	-1683
▁pakatapos	-1684
cio	-1685
erto	-1686
ukua	-1687
▁Eliseo	-1688
▁ikap	-1689
▁salak	-1690
▁trigo	-1691
ikloman	-1692
▁Samuel	-1693
▁sinasabihan	-1694
irh	-1695
▁Est	-1696
▁kor	-1697
ahagad	-1698
▁ngoso	-1699
▁sunod	-1700
alagang	-1701
ahingalo	-1702
▁hinapot	-1703
aen	-1704
ead	-1705
▁ot	-1706
agid	-1707
seng	-1708
▁kut	-1709
arias	-1710
ahaleon	-1711
iromdoma	-1712
▁Ar	-1713
isan	-1714
▁Min	-1715
▁Anti	-1716
▁bulod	-1717
▁Itinao	-1718
▁magayon	-1719
▁maninigo	-1720
▁kadikloman	-1721
uyo	-1722
rong	-1723
▁bub	-1724
athan	-1725
alihid	-1726
atawad	-1727
ernador	-1728
▁Jonathan	-1729
▁maaaraman	-1730
uyam	-1731
▁emp	-1732
alubo	-1733
dorog	-1734
▁tawan	-1735
▁kaming	-1736
▁solnopan	-1737
▁emperador	-1738
akl	-1739
nez	-1740
▁Pap	-1741
nezzar	-1742
▁harayo	-1743
▁Nebukad	-1744
▁pagsamba	-1745
▁Nebukadnezzar	-1746
ask	-1747
ihag	-1748
▁nao	-1749
inaog	-1750
▁ibong	-1751
▁Har	-1752
abing	-1753
asamb	-1754
▁Magp	-1755
▁Bakong	-1756
▁kataed	-1757
▁midbid	-1758
▁Egipcio	-1759
pon	-1760
anal	-1761
eleb	-1762
▁biy	-1763
agkod	-1764
▁Efra	-1765
▁makuri	-1766
▁Samaria	-1767
▁manlaen	-1768
▁magbalik	-1769
angganahan	-1770
de	-1771
ito	-1772
ener	-1773
dokeo	-1774
ingat	-1775
▁sugo	-1776
ahalat	-1777
unidad	-1778
▁surat	-1779
oninong	-1780
▁limang	-1781
▁Mardokeo	-1782
▁sampolong	-1783
▁kapangganahan	-1784
aon	-1785
tol	-1786
▁ny	-1787
iton	-1788
▁Eli	-1789
▁ira	-1790
amayo	-1791
▁ubas	-1792
▁hapot	-1793
▁ngona	-1794
▁oliba	-1795
▁nagtat	-1796
▁kaomawan	-1797
▁naggigibo	-1798
▁salakayon	-1799
akit	-1800
taan	-1801
uang	-1802
▁Sion	-1803
▁Ammon	-1804
▁parah	-1805
▁patyo	-1806
angalas	-1807
▁nagkuk	-1808
▁tamang	-1809
asay	-1810
aring	-1811
iriba	-1812
▁armas	-1813
▁hener	-1814
▁sadit	-1815
▁totoo	-1816
▁parteng	-1817
rop	-1818
alyo	-1819
orop	-1820
inata	-1821
▁tang	-1822
▁umin	-1823
apodon	-1824
urangan	-1825
▁irarom	-1826
atorogan	-1827
▁kasuratan	-1828
ilom	-1829
amsam	-1830
itang	-1831
ootob	-1832
tangis	-1833
▁parte	-1834
▁sakop	-1835
▁gobernador	-1836
▁pagkaherak	-1837
osop	-1838
▁Gal	-1839
aging	-1840
▁Nagl	-1841
▁bisyon	-1842
▁pagdol	-1843
▁makuring	-1844
tos	-1845
ting	-1846
▁onra	-1847
▁uran	-1848
▁Santo	-1849
▁inako	-1850
▁koron	-1851
▁biyaya	-1852
▁mabuhay	-1853
dangadang	-1854
▁Kahadean	-1855
▁maglingkod	-1856
ipe	-1857
agas	-1858
akig	-1859
▁Arog	-1860
▁poro	-1861
alasan	-1862
umbong	-1863
▁hukom	-1864
▁sabihon	-1865
▁Tinaraman	-1866
▁dadarahon	-1867
▁pagdolonan	-1868
▁pagkatakot	-1869
▁papadusahan	-1870
hi	-1871
esa	-1872
agang	-1873
▁Ahab	-1874
▁nyam	-1875
▁libro	-1876
▁doseng	-1877
agaradan	-1878
▁inaapod	-1879
▁Nagduman	-1880
▁kaligtasan	-1881
▁naglalakaw	-1882
▁kr	-1883
ahas	-1884
▁pur	-1885
utang	-1886
▁kalag	-1887
▁singkw	-1888
▁ubasan	-1889
▁sadiring	-1890
▁ipinanuga	-1891
▁Om	-1892
ibog	-1893
▁Ika	-1894
▁Kap	-1895
▁hatol	-1896
▁tromp	-1897
▁Bareta	-1898
▁Efraim	-1899
▁gurang	-1900
▁maggibo	-1901
▁mahihiling	-1902
den	-1903
ela	-1904
sak	-1905
raot	-1906
unad	-1907
▁Lin	-1908
▁kuk	-1909
▁kwat	-1910
▁pedas	-1911
asiring	-1912
▁bilanggo	-1913
▁trompeta	-1914
eks	-1915
ers	-1916
akam	-1917
daya	-1918
▁magm	-1919
▁prob	-1920
akosog	-1921
asalamat	-1922
▁halangkaw	-1923
Ako	-1924
sal	-1925
uswag	-1926
yerto	-1927
▁Cana	-1928
irahay	-1929
▁magpa	-1930
▁parap	-1931
▁paras	-1932
▁Esther	-1933
▁Ezekias	-1934
uar	-1935
▁se	-1936
yoga	-1937
▁balo	-1938
abihon	-1939
▁Kadonongan	-1940
Aki	-1941
pog	-1942
eryo	-1943
utol	-1944
aldaw	-1945
danay	-1946
ipagt	-1947
isipan	-1948
▁Judea	-1949
ubuldan	-1950
▁namibi	-1951
▁kabubuldan	-1952
tat	-1953
ubl	-1954
uma	-1955
▁imp	-1956
elebra	-1957
▁Gilead	-1958
alakihan	-1959
▁paglingkod	-1960
▁parakasala	-1961
▁kalalakihan	-1962
oh	-1963
kom	-1964
tim	-1965
ust	-1966
agra	-1967
iyas	-1968
Tadaw	-1969
ining	-1970
uarin	-1971
ugale	-1972
▁paka	-1973
alingk	-1974
dodolot	-1975
▁Canaan	-1976
akua	-1977
▁Taw	-1978
hanap	-1979
▁Pwed	-1980
▁seis	-1981
▁sing	-1982
ebelde	-1983
▁kamag	-1984
▁ngani	-1985
▁sanga	-1986
▁nagtao	-1987
▁kordero	-1988
▁simbahan	-1989
▁sinalakay	-1990
apok	-1991
▁Mat	-1992
▁awit	-1993
erokan	-1994
▁Jonatan	-1995
▁magsabi	-1996
▁nagdara	-1997
asambahan	-1998
▁parehong	-1999
▁tampalasan	-2000
▁kamagurangan	-2001
elyo	-2002
ulos	-2003
salom	-2004
▁Baal	-2005
▁sara	-2006
otoong	-2007
▁masas	-2008
▁Absalom	-2009
▁Kapantayan	-2010
▁pinagbotan	-2011
▁pinakamarahay	-2012
isya	-2013
▁Nagd	-2014
▁Sara	-2015
▁nakua	-2016
▁natada	-2017
iwilihan	-2018
▁maghale	-2019
▁tinanom	-2020
iromdoman	-2021
▁desyerto	-2022
▁kapantayan	-2023
:"	-2024
Al	-2025
ian	-2026
aton	-2027
▁Nam	-2028
esiya	-2029
▁parab	-2030
awaraan	-2031
ustisya	-2032
agalangan	-2033
▁binayaan	-2034
▁kaisipan	-2035
▁ilinigtas	-2036
▁nagtindog	-2037
▁henerasyon	-2038
tam	-2039
eret	-2040
ilid	-2041
ohona	-2042
tahob	-2043
▁buhok	-2044
apostol	-2045
▁tinampo	-2046
▁Kaipuhan	-2047
▁naaraman	-2048
▁ikaduwang	-2049
▁tinaraman	-2050
▁maninigong	-2051
ep	-2052
▁sus	-2053
apasa	-2054
alikod	-2055
eherak	-2056
▁Galil	-2057
▁Sinda	-2058
onsagra	-2059
ubugtak	-2060
▁treynta	-2061
▁namomoot	-2062
▁uminabot	-2063
▁sasabihon	-2064
▁pagsalakay	-2065
ng	-2066
uba	-2067
arak	-2068
adusa	-2069
aniel	-2070
▁ikak	-2071
▁kags	-2072
Alagad	-2073
urulag	-2074
▁Haman	-2075
apadara	-2076
▁igwang	-2077
▁Galilea	-2078
▁naghapot	-2079
▁paghukom	-2080
dal	-2081
ihis	-2082
oyon	-2083
▁esp	-2084
▁kur	-2085
▁tak	-2086
akumb	-2087
alaen	-2088
ulang	-2089
▁karne	-2090
▁mahal	-2091
agbotan	-2092
▁bitoon	-2093
▁nagkak	-2094
▁nagsus	-2095
▁apostol	-2096
▁kaining	-2097
▁naglaog	-2098
▁tatawan	-2099
angalasan	-2100
▁mangyari	-2101
▁mabubuhay	-2102
elo	-2103
eyna	-2104
ipot	-2105
▁sug	-2106
osopgan	-2107
▁magurang	-2108
▁Nagsasabi	-2109
ado	-2110
rogar	-2111
▁Boot	-2112
▁gawe	-2113
Siisay	-2114
▁itaas	-2115
ingawan	-2116
▁harigi	-2117
▁manang	-2118
aldisyon	-2119
rogaring	-2120
▁nagtatao	-2121
▁ikatolong	-2122
▁ngangalasan	-2123
gul	-2124
koms	-2125
usta	-2126
▁mako	-2127
ahidan	-2128
awotan	-2129
emonyo	-2130
▁makang	-2131
komsisyon	-2132
▁paggadan	-2133
▁ikapitong	-2134
▁ilinubong	-2135
▁magdadanay	-2136
▁pangatorogan	-2137
au	-2138
bod	-2139
ult	-2140
▁kom	-2141
▁lik	-2142
▁set	-2143
aboot	-2144
aling	-2145
▁kurt	-2146
bangan	-2147
▁dikit	-2148
▁nakas	-2149
▁sukol	-2150
▁Dinara	-2151
▁pagsus	-2152
▁syento	-2153
▁pakaaram	-2154
▁ipinadara	-2155
▁kamawotan	-2156
Iyo	-2157
ean	-2158
oco	-2159
lano	-2160
osip	-2161
▁bay	-2162
uuyam	-2163
▁sent	-2164
urabod	-2165
▁Daniel	-2166
alikodan	-2167
▁ralaban	-2168
iel	-2169
yag	-2170
Mayo	-2171
daan	-2172
▁aga	-2173
tapok	-2174
anyoga	-2175
ariseo	-2176
isihan	-2177
▁buhis	-2178
▁nyato	-2179
▁bareta	-2180
▁dating	-2181
▁ligtas	-2182
▁tabangan	-2183
▁bendisyon	-2184
▁kasosopgan	-2185
Ma	-2186
ilig	-2187
sang	-2188
▁hur	-2189
gulyo	-2190
undon	-2191
eerokan	-2192
▁bronse	-2193
▁makoapo	-2194
▁Jeroboam	-2195
▁naaaraman	-2196
▁paratukdo	-2197
▁nagkurahaw	-2198
abs	-2199
▁Az	-2200
▁bab	-2201
▁pes	-2202
▁Bako	-2203
▁Esau	-2204
▁Ibin	-2205
▁anom	-2206
▁kaban	-2207
tataram	-2208
▁kutana	-2209
agamiton	-2210
▁nakakab	-2211
▁itinapok	-2212
▁nagtubod	-2213
▁nagpadara	-2214
▁padusahan	-2215
▁pagsusundon	-2216
alon	-2217
amas	-2218
ezer	-2219
etang	-2220
imanwa	-2221
ingowa	-2222
▁Pakal	-2223
▁Omawon	-2224
▁Tobias	-2225
▁kuahon	-2226
uka	-2227
apon	-2228
▁Mic	-2229
▁ming	-2230
akotan	-2231
inigan	-2232
▁deret	-2233
▁gilid	-2234
▁kaput	-2235
ibilang	-2236
inadara	-2237
▁pinagh	-2238
▁pyesta	-2239
▁burabod	-2240
▁demonyo	-2241
▁kadikit	-2242
▁nagkapira	-2243
▁Pinagbotan	-2244
▁iw	-2245
init	-2246
oroh	-2247
tada	-2248
▁Gib	-2249
ampak	-2250
irhat	-2251
▁bayb	-2252
▁doot	-2253
imetros	-2254
▁agihan	-2255
▁kwatro	-2256
▁iligtas	-2257
▁nagboot	-2258
▁paaging	-2259
▁nagkakan	-2260
▁itinataram	-2261
▁kamugtakan	-2262
▁nakahiling	-2263
hag	-2264
▁lak	-2265
▁ses	-2266
▁Nagka	-2267
▁minat	-2268
▁nyamo	-2269
▁katawo	-2270
akumbaba	-2271
ipagtipan	-2272
ico	-2273
asag	-2274
▁Gibo	-2275
▁Tawo	-2276
▁klas	-2277
ukoman	-2278
▁madali	-2279
▁Antioco	-2280
▁Kahoroh	-2281
▁kabanga	-2282
▁nagpoon	-2283
▁hustisya	-2284
▁nakaabot	-2285
▁namundag	-2286
▁Kahorohalangkaw	-2287
Pag	-2288
eho	-2289
imo	-2290
adit	-2291
awig	-2292
eban	-2293
▁Her	-2294
▁Par	-2295
▁too	-2296
uloon	-2297
aladan	-2298
omondo	-2299
akamhan	-2300
amidbid	-2301
▁maogma	-2302
▁Nadangog	-2303
▁magdolot	-2304
▁maldisyon	-2305
▁paratubod	-2306
▁ipinahiling	-2307
▁pagsasambahan	-2308
ael	-2309
▁Ik	-2310
Kaya	-2311
▁Mal	-2312
emias	-2313
imibi	-2314
tatao	-2315
▁napap	-2316
ultanan	-2317
▁idtong	-2318
▁kitang	-2319
▁madara	-2320
▁omawon	-2321
▁pastor	-2322
▁lansang	-2323
▁kadakula	-2324
▁kaputikan	-2325
▁Makakamhan	-2326
▁sentimetros	-2327
Mga	-2328
pak	-2329
adya	-2330
aloy	-2331
iyon	-2332
ulod	-2333
▁Map	-2334
▁pedaso	-2335
▁nangang	-2336
▁samuyang	-2337
▁komunidad	-2338
ebendisyonan	-2339
omb	-2340
uib	-2341
▁Ad	-2342
imel	-2343
oreo	-2344
yang	-2345
▁Nab	-2346
▁Sus	-2347
aheng	-2348
asang	-2349
oomaw	-2350
sagin	-2351
▁Elea	-2352
erakan	-2353
▁alpog	-2354
▁idinolot	-2355
▁magsamba	-2356
▁nawiwilihan	-2357
ipa	-2358
▁Mah	-2359
▁gap	-2360
amtan	-2361
igera	-2362
urano	-2363
▁Para	-2364
▁Saro	-2365
▁dyes	-2366
umuhay	-2367
▁laman	-2368
▁tinut	-2369
akulang	-2370
inabang	-2371
orgulyo	-2372
▁Mayong	-2373
inaranan	-2374
▁Eleazar	-2375
▁kalasag	-2376
▁kuyogon	-2377
▁makukua	-2378
▁totoong	-2379
▁kaomahan	-2380
▁rogaring	-2381
▁Giromdoma	-2382
▁nakakaagid	-2383
▁naglilingkod	-2384
imot	-2385
ista	-2386
▁Aha	-2387
▁Nas	-2388
▁tig	-2389
bangg	-2390
iklom	-2391
ikwal	-2392
insya	-2393
▁dati	-2394
uyohan	-2395
▁magibo	-2396
▁nuarin	-2397
▁naglakaw	-2398
▁Pakalihis	-2399
▁katuyohan	-2400
▁probinsya	-2401
▁nagtiripon	-2402
▁ginagalangan	-2403
▁Job	-2404
oogma	-2405
▁Jehu	-2406
▁buta	-2407
▁Dagat	-2408
imidbid	-2409
▁tinata	-2410
iriponan	-2411
▁maduman	-2412
▁Naghapot	-2413
▁makauuyam	-2414
ebad	-2415
erub	-2416
usto	-2417
▁Dan	-2418
▁Nap	-2419
▁bal	-2420
inonan	-2421
ogmang	-2422
▁Kinua	-2423
▁pinat	-2424
▁prins	-2425
▁erokan	-2426
▁kairiba	-2427
▁mapaabaw	-2428
▁naanggot	-2429
▁pagtaram	-2430
▁pakilaban	-2431
ni	-2432
dag	-2433
tes	-2434
Huli	-2435
▁ikas	-2436
▁minap	-2437
▁Amoreo	-2438
▁lamesa	-2439
▁pinags	-2440
▁ginamit	-2441
▁kapinonan	-2442
erkomsisyon	-2443
▁nagtutukaw	-2444
▁nakakaaram	-2445
▁pagkagadan	-2446
▁pagultanan	-2447
ba	-2448
▁Lu	-2449
▁um	-2450
afat	-2451
unaw	-2452
▁sob	-2453
▁uya	-2454
ogbon	-2455
▁Jehos	-2456
▁lanob	-2457
▁patan	-2458
▁Tinawan	-2459
▁gagamiton	-2460
▁ipinahayag	-2461
▁nagdadangadang	-2462
?'	-2463
ola	-2464
sing	-2465
umba	-2466
▁Gad	-2467
▁Mes	-2468
▁Sem	-2469
alaad	-2470
askwa	-2471
▁ilaw	-2472
▁kapa	-2473
▁leng	-2474
▁lino	-2475
akopon	-2476
apasal	-2477
▁nakat	-2478
abangan	-2479
▁Pyesta	-2480
▁mamibi	-2481
▁tolang	-2482
▁kurtina	-2483
▁paghona	-2484
▁bronseng	-2485
▁nginaranan	-2486
boy	-2487
lag	-2488
▁Id	-2489
oran	-2490
taon	-2491
▁Gid	-2492
▁aro	-2493
▁lit	-2494
▁tul	-2495
ensya	-2496
rahay	-2497
uluya	-2498
▁Magk	-2499
▁krus	-2500
akulog	-2501
alaman	-2502
bangon	-2503
omusta	-2504
▁Danay	-2505
▁makua	-2506
▁pinal	-2507
ahamakan	-2508
dadangog	-2509
▁aroaldaw	-2510
▁nagbugtak	-2511
▁nagpasiring	-2512
Ika	-2513
inaw	-2514
▁gum	-2515
▁ots	-2516
ayuno	-2517
amawot	-2518
▁Nagin	-2519
▁bubon	-2520
▁hilom	-2521
▁maluya	-2522
▁Nagadan	-2523
▁inandam	-2524
▁nagsugo	-2525
▁kwarenta	-2526
▁magkuyog	-2527
▁magtubod	-2528
▁Gigibohon	-2529
▁magdangog	-2530
▁namamahala	-2531
iak	-2532
war	-2533
usay	-2534
usog	-2535
▁tap	-2536
idali	-2537
ungib	-2538
datong	-2539
▁matao	-2540
▁nakag	-2541
anggana	-2542
▁Sagkod	-2543
▁bantog	-2544
▁masabi	-2545
▁singko	-2546
▁halawig	-2547
▁naghade	-2548
▁nagpuli	-2549
▁namaman	-2550
▁natakot	-2551
▁naghahalat	-2552
▁nagkagaradan	-2553
▁Tr	-2554
aksi	-2555
amot	-2556
egos	-2557
uhod	-2558
▁gar	-2559
atang	-2560
olang	-2561
▁Iyan	-2562
▁labi	-2563
uluwas	-2564
▁matua	-2565
▁nagka	-2566
▁putik	-2567
ugalean	-2568
▁daghan	-2569
▁pakpak	-2570
▁pinagl	-2571
▁trabah	-2572
▁deretso	-2573
▁lakbang	-2574
▁bangkete	-2575
▁nagsunod	-2576
▁paglakaw	-2577
▁mananggad	-2578
▁namamanwa	-2579
▁mapangyari	-2580
▁kapahamakan	-2581
iz	-2582
▁ih	-2583
igot	-2584
long	-2585
oboot	-2586
ombik	-2587
agahan	-2588
iyasat	-2589
otobon	-2590
▁banhi	-2591
▁ogbon	-2592
▁lungib	-2593
▁pamana	-2594
▁Sabihan	-2595
▁diosnon	-2596
▁Jehosafat	-2597
▁magkasala	-2598
▁nagpadagos	-2599
▁pagkabuhay	-2600
▁namamanwaan	-2601
ayam	-2602
uben	-2603
▁ben	-2604
ublit	-2605
▁Levi	-2606
▁Sams	-2607
▁sira	-2608
Bakong	-2609
arigan	-2610
ayahan	-2611
banggi	-2612
ubigan	-2613
▁barko	-2614
▁haloy	-2615
aretaan	-2616
▁Gideon	-2617
▁Hebron	-2618
▁sugkod	-2619
▁mamuhay	-2620
▁pinahale	-2621
▁nangyayari	-2622
dab	-2623
uyat	-2624
▁Bala	-2625
▁Ruben	-2626
▁peste	-2627
▁sedro	-2628
ebadura	-2629
edekias	-2630
▁kublit	-2631
ropesiya	-2632
▁mabalik	-2633
▁pagigin	-2634
urog	-2635
▁Bar	-2636
▁Reh	-2637
atong	-2638
ugtog	-2639
▁Isin	-2640
ahamot	-2641
igtaan	-2642
▁kalis	-2643
▁pinas	-2644
▁saksi	-2645
ilingon	-2646
utongon	-2647
▁nagbab	-2648
akaongis	-2649
▁magdara	-2650
▁makakan	-2651
▁Zedekias	-2652
▁nagsamba	-2653
▁singkwenta	-2654
▁nagpahiling	-2655
▁w	-2656
ipo	-2657
▁Be	-2658
aano	-2659
inir	-2660
urak	-2661
wera	-2662
▁Jez	-2663
▁Pil	-2664
▁laba	-2665
imbang	-2666
▁Pwede	-2667
▁baryo	-2668
▁tampi	-2669
elebrar	-2670
▁Balaam	-2671
▁pareho	-2672
▁pasabs	-2673
aliwanag	-2674
▁hukoman	-2675
▁masunod	-2676
angyaring	-2677
▁Ammonita	-2678
▁nagdolok	-2679
▁katubigan	-2680
▁darakulang	-2681
Sin	-2682
emb	-2683
ora	-2684
ekem	-2685
mnan	-2686
▁nad	-2687
agsak	-2688
aklan	-2689
antay	-2690
lagan	-2691
▁maki	-2692
▁panl	-2693
▁sapa	-2694
▁klase	-2695
▁kulog	-2696
▁Jerico	-2697
▁Paskwa	-2698
▁naenot	-2699
▁Hilinga	-2700
▁Magigin	-2701
▁kaakian	-2702
▁sakayan	-2703
iromdomon	-2704
▁naoongis	-2705
▁Nagkaigwa	-2706
▁nagtitindog	-2707
ras	-2708
alok	-2709
iwas	-2710
▁sek	-2711
ambog	-2712
arayo	-2713
▁Kamo	-2714
▁anit	-2715
▁taba	-2716
agayon	-2717
ebanon	-2718
▁Lugar	-2719
▁makik	-2720
▁naman	-2721
▁toril	-2722
▁Samson	-2723
▁talaan	-2724
▁Ginadan	-2725
▁paganong	-2726
▁tatamnan	-2727
▁nagsasamba	-2728
ena	-2729
akoon	-2730
alaom	-2731
▁Aldaw	-2732
▁Judit	-2733
▁sangr	-2734
▁syete	-2735
asaluib	-2736
inikwal	-2737
▁mahale	-2738
▁Jehoiak	-2739
▁Lebanon	-2740
▁nagigin	-2741
▁pahamot	-2742
▁idodolot	-2743
▁lengwahe	-2744
▁nagdadara	-2745
▁kwarentang	-2746
▁pasabsaban	-2747
igs	-2748
kon	-2749
igda	-2750
ugos	-2751
▁Zac	-2752
ernes	-2753
▁Pers	-2754
iponon	-2755
padara	-2756
▁Banal	-2757
▁halas	-2758
▁mangk	-2759
▁tulak	-2760
▁Pilato	-2761
▁gurano	-2762
▁kaninan	-2763
▁matuang	-2764
angenotan	-2765
▁nagpapat	-2766
▁hinahagad	-2767
ekl	-2768
▁Eu	-2769
iram	-2770
olof	-2771
▁Dem	-2772
▁Tol	-2773
▁bis	-2774
▁han	-2775
▁him	-2776
▁kol	-2777
agoga	-2778
▁Pagk	-2779
alakop	-2780
▁Betel	-2781
▁Holof	-2782
▁Maria	-2783
▁Pinag	-2784
▁bihag	-2785
▁binab	-2786
▁garod	-2787
▁minah	-2788
▁pusog	-2789
▁ribok	-2790
angaipo	-2791
▁Persia	-2792
adirihan	-2793
▁higdaan	-2794
▁sinagoga	-2795
▁propetang	-2796
▁Holofernes	-2797
▁Nagtataram	-2798
▁mahalagang	-2799
▁matoninong	-2800
▁pinabayaan	-2801
▁katiriponan	-2802
▁mapangyaring	-2803
dar	-2804
res	-2805
uto	-2806
ason	-2807
▁Mid	-2808
arabi	-2809
inaot	-2810
ungay	-2811
▁Tano	-2812
▁Tiro	-2813
▁baga	-2814
eklamo	-2815
frates	-2816
▁Pagka	-2817
▁Josias	-2818
▁darang	-2819
▁hinale	-2820
▁huring	-2821
▁sungay	-2822
▁telang	-2823
▁imperyo	-2824
▁Eufrates	-2825
▁maheherak	-2826
iko	-2827
▁ab	-2828
agon	-2829
huli	-2830
▁nga	-2831
arang	-2832
▁Asin	-2833
ehiyon	-2834
▁Herod	-2835
▁Laban	-2836
Ngunyan	-2837
agkoran	-2838
▁Shekem	-2839
▁otobon	-2840
▁Naghale	-2841
▁paluwas	-2842
▁ginibong	-2843
▁pangenot	-2844
▁prinsipe	-2845
alingkasan	-2846
▁kagsadiri	-2847
▁nagkukuyog	-2848
▁nagtutubod	-2849
dia	-2850
▁Kam	-2851
▁big	-2852
atood	-2853
horop	-2854
▁kaso	-2855
▁pata	-2856
▁kolor	-2857
ungtong	-2858
▁mangko	-2859
atawadon	-2860
▁ikaapat	-2861
▁mabulod	-2862
ilingawan	-2863
▁kadlagan	-2864
▁maogmang	-2865
▁pailihan	-2866
▁sinamsam	-2867
▁ginagamit	-2868
▁kasalihid	-2869
▁nagdurulag	-2870
▁makakaligtas	-2871
▁namumugtakan	-2872
ca	-2873
Tano	-2874
apil	-2875
▁emb	-2876
angos	-2877
etrio	-2878
gamit	-2879
abawan	-2880
▁Abram	-2881
▁akoon	-2882
▁milag	-2883
▁naglil	-2884
undasyon	-2885
▁oomawon	-2886
▁rehiyon	-2887
▁Demetrio	-2888
▁nagkampo	-2889
▁namimibi	-2890
▁pagpadusa	-2891
▁nagdadanay	-2892
ilog	-2893
▁Nah	-2894
hoban	-2895
▁pana	-2896
alihis	-2897
▁Pinap	-2898
▁anong	-2899
▁makas	-2900
▁salmo	-2901
▁sinus	-2902
tapokan	-2903
▁Abimel	-2904
▁Midian	-2905
▁minsan	-2906
▁nawara	-2907
uhukoman	-2908
▁Paladan	-2909
▁gamiton	-2910
▁sinakop	-2911
▁talinga	-2912
▁tinipon	-2913
▁kalolong	-2914
▁mahalaga	-2915
▁natatakot	-2916
▁tinugotan	-2917
tab	-2918
eksp	-2919
idon	-2920
▁Haz	-2921
▁abo	-2922
▁lab	-2923
▁nar	-2924
▁por	-2925
▁sat	-2926
abaya	-2927
ayuma	-2928
▁pagr	-2929
anwaan	-2930
erubin	-2931
itisan	-2932
omayan	-2933
▁Canan	-2934
▁embes	-2935
▁kapat	-2936
▁utang	-2937
adakula	-2938
▁daraga	-2939
▁inomon	-2940
alakayon	-2941
▁dangoga	-2942
▁ibugtak	-2943
a	-2944
▁	-2945
n	-2946
i	-2947
g	-2948
o	-2949
s	-2950
k	-2951
m	-2952
d	-2953
t	-2954
l	-2955
r	-2956
u	-2957
b	-2958
y	-2959
p	-2960
e	-2961
h	-2962
,	-2963
.	-2964
w	-2965
K	-2966
A	-2967
"	-2968
D	-2969
S	-2970
-	-2971
J	-2972
M	-2973
N	-2974
;	-2975
I	-2976
H	-2977
P	-2978
T	-2979
B	-2980
E	-2981
!	-2982
?	-2983
G	-2984
z	-2985
c	-2986
v	-2987
'	-2988
L	-2989
:	-2990
C	-2991
f	-2992
O	-2993
R	-2994
Z	-2995
—	-2996
