<unk>	0
<s>	0
</s>	0
ag	-0
ng	-1
▁i	-2
▁n	-3
▁k	-4
▁s	-5
ak	-6
ay	-7
an	-8
▁m	-9
▁sa	-10
▁nak	-11
▁p	-12
ang	-13
▁it	-14
at	-15
li	-16
da	-17
ra	-18
▁kag	-19
ga	-20
in	-21
▁ka	-22
▁ay	-23
▁t	-24
▁ag	-25
aw	-26
▁mga	-27
as	-28
ro	-29
mo	-30
▁nag	-31
ab	-32
▁in	-33
ar	-34
on	-35
▁b	-36
us	-37
ing	-38
▁A	-39
▁ing	-40
hi	-41
ap	-42
or	-43
aya	-44
is	-45
ong	-46
os	-47
▁si	-48
uy	-49
▁pag	-50
▁g	-51
▁I	-52
ling	-53
un	-54
to	-55
▁K	-56
ha	-57
ung	-58
▁ni	-59
▁r	-60
it	-61
▁D	-62
▁P	-63
al	-64
ako	-65
ko	-66
▁mag	-67
ad	-68
inra	-69
▁S	-70
ios	-71
am	-72
ug	-73
es	-74
▁ra	-75
▁H	-76
▁N	-77
▁Dios	-78
▁"	-79
▁pa	-80
▁ida	-81
ey	-82
▁inro	-83
ah	-84
ut	-85
iling	-86
▁inra	-87
di	-88
▁ako	-89
ot	-90
▁ging	-91
▁kali	-92
▁da	-93
▁Ag	-94
▁taw	-95
▁kat	-96
er	-97
▁w	-98
▁y	-99
▁h	-100
▁Ida	-101
▁ma	-102
hil	-103
▁sinra	-104
▁Ako	-105
▁waya	-106
um	-107
▁tan	-108
▁tawo	-109
ub	-110
▁M	-111
▁sida	-112
ali	-113
ero	-114
▁kamo	-115
ita	-116
▁Hes	-117
▁nagp	-118
ida	-119
wa	-120
▁G	-121
."	-122
▁Hesus	-123
hali	-124
il	-125
▁kung	-126
ayan	-127
▁us	-128
▁nags	-129
lo	-130
ato	-131
uh	-132
▁dahil	-133
ip	-134
gwa	-135
▁an	-136
▁l	-137
inro	-138
ud	-139
atay	-140
▁yang	-141
▁imo	-142
▁bu	-143
maw	-144
uto	-145
▁kang	-146
▁kin	-147
ib	-148
▁hali	-149
▁pang	-150
▁ab	-151
▁mat	-152
ada	-153
▁d	-154
amo	-155
▁ingp	-156
▁ninro	-157
ig	-158
▁ga	-159
▁katong	-160
ta	-161
▁T	-162
▁Pag	-163
▁kab	-164
▁Sida	-165
yo	-166
▁mak	-167
▁par	-168
▁inggwa	-169
▁Pero	-170
uyar	-171
ili	-172
▁tanang	-173
▁ninra	-174
▁ng	-175
▁nagt	-176
om	-177
▁usang	-178
▁indi	-179
▁ib	-180
▁bag	-181
ya	-182
▁ruto	-183
▁kaling	-184
ahan	-185
▁imaw	-186
og	-187
pat	-188
▁ato	-189
▁anak	-190
ka	-191
▁para	-192
ani	-193
ris	-194
▁J	-195
▁kam	-196
uyat	-197
▁Nag	-198
isaya	-199
▁pagt	-200
▁pagp	-201
▁ray	-202
en	-203
ur	-204
▁buko	-205
uli	-206
ari	-207
▁tuyar	-208
▁nida	-209
uno	-210
uman	-211
uan	-212
unor	-213
aka	-214
himo	-215
had	-216
▁gi	-217
risto	-218
▁Kada	-219
▁as	-220
▁Is	-221
▁ings	-222
▁B	-223
utan	-224
han	-225
oy	-226
▁man	-227
▁sin	-228
▁agor	-229
▁tung	-230
▁Kag	-231
law	-232
▁map	-233
▁o	-234
abat	-235
ir	-236
▁Pagk	-237
ram	-238
▁parayan	-239
uon	-240
▁nako	-241
▁magp	-242
dor	-243
abot	-244
gar	-245
▁nagsiling	-246
▁amo	-247
▁mas	-248
▁halin	-249
▁E	-250
ino	-251
ahi	-252
ati	-253
up	-254
agto	-255
uor	-256
▁ingt	-257
ado	-258
el	-259
▁gador	-260
▁Kristo	-261
kaw	-262
▁nagpap	-263
apos	-264
▁tanan	-265
ul	-266
adlaw	-267
▁aber	-268
ilang	-269
anan	-270
aga	-271
uhi	-272
▁Nida	-273
▁li	-274
▁kina	-275
akita	-276
▁pin	-277
was	-278
▁adlaw	-279
▁Gino	-280
▁dapat	-281
hon	-282
umo	-283
▁pagtu	-284
▁kay	-285
ramas	-286
ara	-287
aro	-288
IN	-289
▁pramas	-290
INO	-291
uhan	-292
alang	-293
▁is	-294
asing	-295
▁GINO	-296
▁nagb	-297
▁tungor	-298
▁di	-299
ala	-300
tang	-301
▁Da	-302
▁gingp	-303
ob	-304
uk	-305
▁kas	-306
ataw	-307
▁ingb	-308
▁ngasing	-309
em	-310
▁usa	-311
▁kita	-312
isiling	-313
aban	-314
angan	-315
atapos	-316
udlo	-317
▁kayak	-318
ugo	-319
▁Ab	-320
ik	-321
▁kato	-322
▁Hud	-323
angit	-324
▁kada	-325
▁pay	-326
gan	-327
apon	-328
▁Dahil	-329
▁Nags	-330
▁kami	-331
▁Kas	-332
▁kun	-333
▁ap	-334
▁Ing	-335
▁kayake	-336
▁iba	-337
ayam	-338
awa	-339
una	-340
▁at	-341
ump	-342
ac	-343
▁na	-344
▁kaib	-345
▁pagk	-346
▁nat	-347
▁Hudyo	-348
dad	-349
▁kinang	-350
▁Mo	-351
▁pero	-352
ises	-353
▁Moises	-354
▁gih	-355
▁gus	-356
▁bilang	-357
amat	-358
▁Nako	-359
uyor	-360
▁mar	-361
astang	-362
▁maya	-363
▁ban	-364
sing	-365
ayaw	-366
abang	-367
▁'	-368
▁kaibahan	-369
amatay	-370
▁kundi	-371
usa	-372
alik	-373
abo	-374
▁hari	-375
▁hastang	-376
ramo	-377
▁baga	-378
▁manug	-379
angh	-380
▁gihapon	-381
ugar	-382
▁puy	-383
?"	-384
▁nagtut	-385
▁bay	-386
▁maado	-387
uran	-388
▁dili	-389
▁R	-390
▁sar	-391
halin	-392
ti	-393
hal	-394
hip	-395
alangga	-396
▁pagb	-397
ayon	-398
▁bisaya	-399
▁mab	-400
gani	-401
▁Imo	-402
adong	-403
▁pags	-404
yan	-405
uguan	-406
ina	-407
▁kabad	-408
ito	-409
butan	-410
▁pan	-411
rom	-412
▁gings	-413
isip	-414
▁lugar	-415
uta	-416
▁Pagkatapos	-417
▁An	-418
hipto	-419
▁Ngani	-420
arung	-421
uhang	-422
pir	-423
▁L	-424
▁nap	-425
aling	-426
▁Ehipto	-427
▁raha	-428
▁kumo	-429
anak	-430
rang	-431
▁Sa	-432
ras	-433
▁pagka	-434
him	-435
rap	-436
▁langit	-437
▁kalibutan	-438
▁atub	-439
▁ingpap	-440
im	-441
▁matuor	-442
akong	-443
uyo	-444
▁nakita	-445
▁atubangan	-446
yon	-447
et	-448
▁duta	-449
▁kabade	-450
dang	-451
▁ngani	-452
▁ikaw	-453
ata	-454
eli	-455
ose	-456
▁buy	-457
▁tong	-458
▁gingt	-459
ungot	-460
▁kabuhi	-461
▁maramo	-462
▁gip	-463
ed	-464
▁Si	-465
usan	-466
pirito	-467
utana	-468
▁Kasuguan	-469
utang	-470
asa	-471
lok	-472
▁anay	-473
do	-474
▁ibang	-475
yen	-476
ahang	-477
▁nimo	-478
mp	-479
▁ip	-480
hihimo	-481
tong	-482
adayon	-483
op	-484
▁nato	-485
uko	-486
▁lahi	-487
▁nagk	-488
▁tatay	-489
angab	-490
▁rili	-491
hadlok	-492
!"	-493
▁nas	-494
tar	-495
▁Isra	-496
▁maging	-497
▁sina	-498
me	-499
▁namo	-500
angutana	-501
▁nagtutu	-502
▁U	-503
▁had	-504
▁Ging	-505
sa	-506
acob	-507
▁kar	-508
ayungot	-509
abaw	-510
dong	-511
▁Jacob	-512
▁ruhang	-513
▁Ispirito	-514
.'	-515
uga	-516
▁hariin	-517
▁Imaw	-518
ham	-519
orme	-520
umporme	-521
▁C	-522
▁asawa	-523
▁katap	-524
hom	-525
Waya	-526
isa	-527
gasing	-528
ana	-529
ahangyan	-530
▁bayay	-531
▁ingsisiling	-532
ama	-533
akas	-534
▁magb	-535
uyatan	-536
▁Anak	-537
▁hadop	-538
tan	-539
raya	-540
▁ayam	-541
ron	-542
awas	-543
uha	-544
▁katapusan	-545
pon	-546
iging	-547
sunor	-548
▁Tatay	-549
▁tal	-550
▁sarili	-551
▁gustong	-552
pe	-553
▁tu	-554
▁Kung	-555
▁gahom	-556
ismo	-557
▁Pab	-558
▁Nagsabat	-559
raham	-560
▁nakas	-561
▁yawas	-562
ok	-563
▁Abraham	-564
int	-565
▁banwa	-566
▁pati	-567
▁puyd	-568
aba	-569
ote	-570
uma	-571
▁Para	-572
▁pap	-573
▁Jose	-574
▁gingb	-575
atan	-576
▁Pablo	-577
▁yangey	-578
yu	-579
erd	-580
usog	-581
atawag	-582
▁pinuno	-583
erm	-584
▁pro	-585
▁ingh	-586
▁magt	-587
▁Ma	-588
agan	-589
elin	-590
▁sal	-591
▁kumporme	-592
▁Ngasing	-593
awag	-594
▁pagh	-595
elinhon	-596
mot	-597
▁tag	-598
▁kaya	-599
way	-600
▁oras	-601
halar	-602
inggwa	-603
anghel	-604
erdote	-605
▁Israelinhon	-606
hirap	-607
ayaman	-608
▁Paraon	-609
haw	-610
radong	-611
▁kinahangyan	-612
eb	-613
▁sug	-614
▁anghel	-615
▁maramong	-616
tor	-617
uda	-618
wat	-619
usgar	-620
sya	-621
▁han	-622
uuran	-623
unang	-624
long	-625
yudad	-626
▁Nagp	-627
▁abang	-628
ray	-629
▁kal	-630
▁habang	-631
eh	-632
ern	-633
ipon	-634
▁(	-635
eo	-636
▁Mas	-637
▁nab	-638
▁pagm	-639
▁magiging	-640
▁In	-641
uwas	-642
ilaya	-643
edro	-644
▁tub	-645
▁Kali	-646
▁perm	-647
lib	-648
unot	-649
▁Pedro	-650
▁syudad	-651
aron	-652
angabuhi	-653
ahon	-654
inan	-655
▁Waya	-656
▁maadong	-657
▁al	-658
▁Man	-659
war	-660
▁bug	-661
bis	-662
awan	-663
yendi	-664
▁taga	-665
ol	-666
emp	-667
▁It	-668
▁suyor	-669
▁manugsunor	-670
tay	-671
▁Siling	-672
▁tin	-673
alita	-674
▁tawong	-675
amatuor	-676
abay	-677
anim	-678
peta	-679
ayang	-680
liwas	-681
anay	-682
ulipon	-683
▁Nagsiling	-684
unan	-685
amuyo	-686
▁gusto	-687
aoy	-688
▁sun	-689
erbis	-690
▁damot	-691
agradong	-692
▁ingsiling	-693
arong	-694
pa	-695
itong	-696
ungan	-697
▁suguon	-698
intyendi	-699
▁sub	-700
▁nagsus	-701
▁kah	-702
▁Juan	-703
nero	-704
upan	-705
atabo	-706
▁mags	-707
arunggan	-708
▁pas	-709
alem	-710
dayaw	-711
▁pagmuyat	-712
ago	-713
▁mah	-714
atlong	-715
erus	-716
ahim	-717
erusalem	-718
▁ingtatawag	-719
▁kap	-720
▁raan	-721
usahan	-722
▁pauno	-723
▁papagto	-724
ma	-725
ador	-726
▁asa	-727
▁makak	-728
arungog	-729
re	-730
ran	-731
akay	-732
▁San	-733
▁sala	-734
▁pagkaon	-735
▁panahon	-736
eya	-737
lan	-738
ayanan	-739
ugay	-740
erbisyo	-741
ahe	-742
ahu	-743
akig	-744
inrog	-745
▁maguy	-746
▁inanak	-747
▁wayaey	-748
ingk	-749
▁bal	-750
ikita	-751
Kristo	-752
galing	-753
▁Kaling	-754
Kag	-755
unon	-756
▁rakong	-757
▁Masunor	-758
ulig	-759
▁Hesu	-760
▁mata	-761
kainggwa	-762
ipus	-763
▁Par	-764
▁bin	-765
▁kasal	-766
▁buyawan	-767
▁tagipus	-768
▁Ginoong	-769
▁tagipusuon	-770
uhon	-771
▁baw	-772
agang	-773
emplo	-774
▁magk	-775
▁ngayan	-776
▁a	-777
akop	-778
▁min	-779
▁mang	-780
▁tubi	-781
▁tuig	-782
▁naka	-783
pas	-784
▁naging	-785
▁talaga	-786
▁him	-787
▁liwat	-788
▁pinaka	-789
▁siling	-790
uks	-791
▁Ni	-792
atawo	-793
▁kwar	-794
▁Sagradong	-795
▁Ay	-796
▁disip	-797
▁ahim	-798
▁gingh	-799
▁Ugaling	-800
agar	-801
▁Ikaw	-802
aduhan	-803
▁kamat	-804
▁nagpagto	-805
▁kamatuuran	-806
te	-807
▁nar	-808
▁nagtit	-809
▁natabo	-810
▁kl	-811
▁Isa	-812
▁kamatay	-813
▁kaaduhan	-814
▁Herusalem	-815
▁bisayahon	-816
▁mal	-817
▁gingpap	-818
▁kamatayon	-819
▁pagpalangga	-820
atong	-821
▁kuno	-822
▁ingk	-823
angamuyo	-824
akit	-825
unga	-826
▁Pin	-827
unong	-828
akupan	-829
asiling	-830
▁indiey	-831
▁Kasuyatan	-832
adya	-833
▁asing	-834
▁inghihimo	-835
▁ar	-836
utong	-837
▁butang	-838
▁Ad	-839
ubut	-840
▁ita	-841
▁Maadong	-842
atuor	-843
▁maka	-844
abaton	-845
▁karnero	-846
anaw	-847
▁bato	-848
▁Balita	-849
▁namatay	-850
▁Sas	-851
▁mismo	-852
▁Templo	-853
▁inghimo	-854
hin	-855
asal	-856
▁disipul	-857
▁puyding	-858
▁Saserdote	-859
▁narunggan	-860
eho	-861
▁disipulos	-862
uyog	-863
▁makita	-864
▁ulipon	-865
go	-866
ibisaya	-867
▁mayaot	-868
▁kabubut	-869
▁Bag	-870
▁git	-871
agat	-872
amit	-873
▁sab	-874
▁nagr	-875
▁unang	-876
▁pitong	-877
tol	-878
ating	-879
▁isip	-880
▁Inggwa	-881
arusahan	-882
▁sinrang	-883
uba	-884
ilin	-885
sang	-886
▁gab	-887
▁ahimuon	-888
uoy	-889
▁dati	-890
▁parti	-891
▁propeta	-892
anda	-893
▁Santo	-894
alib	-895
upar	-896
▁baro	-897
anghor	-898
▁Aaron	-899
animati	-900
▁himuon	-901
▁pagkatapos	-902
isy	-903
asan	-904
obern	-905
▁nina	-906
▁puno	-907
obernador	-908
▁matarong	-909
mb	-910
▁aya	-911
hadag	-912
istar	-913
▁buhi	-914
▁mayain	-915
▁sariling	-916
▁sinakupan	-917
uro	-918
▁ig	-919
apay	-920
ugon	-921
utom	-922
▁kan	-923
▁rang	-924
▁Isaac	-925
▁kayainan	-926
alig	-927
▁nanay	-928
▁nakasuyat	-929
id	-930
▁kara	-931
Kung	-932
▁lal	-933
▁bawat	-934
▁kahim	-935
▁minatay	-936
ayo	-937
ura	-938
umanon	-939
▁ingta	-940
▁karapat	-941
▁mamatay	-942
:"	-943
▁kisa	-944
▁laban	-945
igk	-946
away	-947
▁rah	-948
alaan	-949
ingkor	-950
unggan	-951
▁Pinaka	-952
ugt	-953
araya	-954
▁sunda	-955
ady	-956
rus	-957
ulo	-958
auli	-959
▁tunga	-960
▁hanrom	-961
▁perming	-962
rab	-963
.'"	-964
▁gin	-965
▁Kumo	-966
▁ginghimo	-967
ant	-968
akaon	-969
asawa	-970
▁bagay	-971
agt	-972
▁ub	-973
▁kak	-974
akama	-975
untor	-976
romisa	-977
ec	-978
▁nagh	-979
▁rugo	-980
▁kataw	-981
▁kamong	-982
wag	-983
▁lib	-984
▁hirap	-985
▁katawuhan	-986
no	-987
matay	-988
ahuway	-989
▁sundalo	-990
kaon	-991
libot	-992
Ako	-993
mon	-994
ataas	-995
tismo	-996
▁Tong	-997
▁manghor	-998
ugot	-999
abanhaw	-1000
▁mam	-1001
▁nagra	-1002
▁tinapay	-1003
ens	-1004
▁Tol	-1005
▁Buko	-1006
▁tama	-1007
ahirap	-1008
▁mayungot	-1009
ki	-1010
isi	-1011
▁Mga	-1012
▁sas	-1013
▁tatlong	-1014
▁marakong	-1015
ugan	-1016
▁Sinra	-1017
▁pangayan	-1018
▁nagsusunor	-1019
qu	-1020
abig	-1021
amang	-1022
▁krus	-1023
atanas	-1024
▁Adlaw	-1025
ugtanan	-1026
▁makusog	-1027
▁mayaing	-1028
▁pagtudlo	-1029
ros	-1030
iseo	-1031
▁Har	-1032
▁tuna	-1033
▁ingpa	-1034
▁Pariseo	-1035
▁Satanas	-1036
▁padayon	-1037
▁nagsabat	-1038
▁tr	-1039
ayay	-1040
ilak	-1041
apostol	-1042
▁paghari	-1043
▁pagsiling	-1044
▁nagsisiling	-1045
▁nagpangutana	-1046
anaan	-1047
arian	-1048
▁mais	-1049
▁altar	-1050
▁nakak	-1051
▁nakat	-1052
▁dating	-1053
amb	-1054
agom	-1055
akus	-1056
awagit	-1057
▁riling	-1058
atub	-1059
▁Juda	-1060
▁ruha	-1061
▁pilang	-1062
bin	-1063
uot	-1064
áng	-1065
▁ragat	-1066
▁e	-1067
ugb	-1068
▁Ka	-1069
▁may	-1070
▁mil	-1071
itang	-1072
▁mali	-1073
▁Habang	-1074
▁Katong	-1075
▁talagang	-1076
▁pagpangabuhi	-1077
In	-1078
se	-1079
agk	-1080
igo	-1081
umr	-1082
▁gib	-1083
▁Dayaw	-1084
▁Pagka	-1085
atubang	-1086
hahadlok	-1087
▁ninrong	-1088
ri	-1089
Ing	-1090
amp	-1091
▁sugo	-1092
▁rayan	-1093
▁nasyon	-1094
▁apostol	-1095
awo	-1096
Gino	-1097
mpyo	-1098
umpa	-1099
wali	-1100
tahan	-1101
▁Kabay	-1102
▁puyde	-1103
▁karapatan	-1104
▁gingsiling	-1105
aton	-1106
inom	-1107
▁Matuor	-1108
▁pagbalik	-1109
est	-1110
▁pr	-1111
▁gis	-1112
hanon	-1113
mataas	-1114
▁napasiling	-1115
mit	-1116
ubos	-1117
▁uyo	-1118
▁baka	-1119
▁siki	-1120
halinan	-1121
▁pareho	-1122
▁nagkainggwa	-1123
agro	-1124
lano	-1125
ukaw	-1126
▁buk	-1127
▁uga	-1128
inrang	-1129
▁milagro	-1130
▁kahimaya	-1131
▁saserdote	-1132
hig	-1133
alay	-1134
awar	-1135
yent	-1136
▁buot	-1137
▁hina	-1138
▁rako	-1139
atuyar	-1140
▁hagto	-1141
▁tanra	-1142
▁Haring	-1143
▁maguyáng	-1144
▁kahimayaan	-1145
tra	-1146
torya	-1147
▁dios	-1148
▁nagy	-1149
▁rutong	-1150
▁ingpang	-1151
▁ingsugo	-1152
▁Ehiptohanon	-1153
sau	-1154
uton	-1155
▁nam	-1156
▁Esau	-1157
ikanan	-1158
▁ginikanan	-1159
▁Pagkarungog	-1160
ba	-1161
hah	-1162
umon	-1163
▁Mag	-1164
arako	-1165
ensya	-1166
uksok	-1167
binsya	-1168
ilidad	-1169
adyahan	-1170
▁tamang	-1171
▁sabaling	-1172
▁nagpapang	-1173
gi	-1174
ugp	-1175
eses	-1176
ugro	-1177
ulay	-1178
uyag	-1179
▁una	-1180
▁Indi	-1181
unudlo	-1182
▁habig	-1183
▁ibabaw	-1184
▁apostoles	-1185
▁pagbisaya	-1186
udl	-1187
ust	-1188
▁bak	-1189
▁buh	-1190
hanap	-1191
iisip	-1192
nunot	-1193
▁Tawo	-1194
▁O	-1195
▁imp	-1196
▁Ingp	-1197
hirapan	-1198
▁Dayawan	-1199
▁kahadlok	-1200
▁matatabo	-1201
aho	-1202
▁Le	-1203
ubli	-1204
▁Nimo	-1205
▁magh	-1206
▁beses	-1207
▁isigk	-1208
▁nagsugo	-1209
▁makikita	-1210
▁naghalin	-1211
▁isigkatawo	-1212
Ag	-1213
▁gipap	-1214
▁Toldang	-1215
▁probinsya	-1216
▁ingtatawagey	-1217
oma	-1218
▁pw	-1219
alil	-1220
▁maa	-1221
▁Kamo	-1222
▁raya	-1223
▁mapap	-1224
▁yabaw	-1225
alileya	-1226
▁masunor	-1227
▁ugaling	-1228
▁inghuman	-1229
▁Pagkakita	-1230
ain	-1231
gag	-1232
Indi	-1233
▁bat	-1234
▁Ruto	-1235
▁buli	-1236
▁kabay	-1237
▁maabot	-1238
▁baguntor	-1239
0)	-1240
▁Ap	-1241
▁Pil	-1242
▁pam	-1243
uyang	-1244
▁Aber	-1245
▁dose	-1246
▁niong	-1247
▁permi	-1248
▁puyos	-1249
utangan	-1250
▁Punong	-1251
▁ingtut	-1252
▁gingsugo	-1253
ubo	-1254
abad	-1255
▁Canaan	-1256
▁maguyang	-1257
▁pagdayaw	-1258
ila	-1259
ayom	-1260
itan	-1261
▁huli	-1262
alipas	-1263
rabaho	-1264
▁bukir	-1265
▁nagpa	-1266
akasala	-1267
usgaran	-1268
▁ingraya	-1269
od	-1270
son	-1271
ista	-1272
▁kur	-1273
▁nah	-1274
ayong	-1275
▁Usang	-1276
▁bunga	-1277
ugpahuway	-1278
ahom	-1279
apar	-1280
Asing	-1281
uyati	-1282
▁kayado	-1283
▁nagtata	-1284
intyendihan	-1285
▁Gobernador	-1286
▁kasugtanan	-1287
▁Inugpahuway	-1288
si	-1289
vid	-1290
yos	-1291
apoy	-1292
uyan	-1293
▁pal	-1294
▁inug	-1295
▁David	-1296
akamaado	-1297
▁manggar	-1298
▁palibot	-1299
▁subrang	-1300
▁nagbisaya	-1301
▁masisiling	-1302
aas	-1303
lag	-1304
usto	-1305
▁Aya	-1306
▁ara	-1307
agoga	-1308
aguman	-1309
▁Simon	-1310
▁pangt	-1311
▁Pilato	-1312
▁mapasa	-1313
▁pagsunor	-1314
na	-1315
ela	-1316
▁"'	-1317
aria	-1318
▁Hero	-1319
▁Abang	-1320
▁Tuyar	-1321
▁pangr	-1322
hadagan	-1323
▁kwarta	-1324
▁nagpayungot	-1325
era	-1326
mong	-1327
etros	-1328
hanra	-1329
uling	-1330
▁liwas	-1331
asalamat	-1332
▁nakikita	-1333
Ma	-1334
he	-1335
aki	-1336
sor	-1337
soy	-1338
rali	-1339
uhor	-1340
▁pris	-1341
▁puro	-1342
antala	-1343
ingaya	-1344
▁Maria	-1345
▁alang	-1346
▁tumanon	-1347
▁Galileya	-1348
▁Manunudlo	-1349
▁ginghihimo	-1350
Ay	-1351
mat	-1352
▁ik	-1353
pati	-1354
umir	-1355
uysoy	-1356
abalik	-1357
abuton	-1358
inguha	-1359
▁anyos	-1360
▁plano	-1361
▁balaan	-1362
▁ingtaw	-1363
▁nagpang	-1364
▁Nagpangutana	-1365
az	-1366
aney	-1367
mang	-1368
▁Eli	-1369
andam	-1370
antay	-1371
▁kamb	-1372
▁mens	-1373
ahadag	-1374
▁hanra	-1375
▁mensahe	-1376
▁naghihimo	-1377
Ni	-1378
ngan	-1379
oses	-1380
▁sig	-1381
rayom	-1382
▁Ayam	-1383
▁pala	-1384
agtuan	-1385
asakop	-1386
ubngan	-1387
▁human	-1388
▁pilak	-1389
▁ipakita	-1390
▁ninrang	-1391
▁abilidad	-1392
▁nagbalik	-1393
ase	-1394
wahe	-1395
▁put	-1396
abaty	-1397
uyong	-1398
▁kana	-1399
▁balor	-1400
▁bulag	-1401
▁nagtu	-1402
▁Israel	-1403
▁diling	-1404
▁irayom	-1405
akainggwa	-1406
▁pagserbisyo	-1407
eyn	-1408
non	-1409
upay	-1410
▁Pro	-1411
▁gik	-1412
▁hal	-1413
anang	-1414
▁Hali	-1415
uluwas	-1416
▁Laban	-1417
awtismo	-1418
▁isiling	-1419
▁maayaman	-1420
le	-1421
iba	-1422
ahor	-1423
usang	-1424
▁hang	-1425
▁lalo	-1426
▁pwer	-1427
akusog	-1428
▁kahoy	-1429
▁makap	-1430
▁maisot	-1431
amatuuran	-1432
▁nagsuyor	-1433
▁sinagoga	-1434
▁nagbibisaya	-1435
uya	-1436
aley	-1437
ding	-1438
ibaw	-1439
anhaw	-1440
ibang	-1441
uhuman	-1442
▁Sabat	-1443
▁nupay	-1444
▁doseng	-1445
▁bandang	-1446
▁makasal	-1447
▁paghusgar	-1448
say	-1449
Buko	-1450
Kada	-1451
inang	-1452
isang	-1453
ubong	-1454
▁pagr	-1455
akusar	-1456
asadya	-1457
▁Abram	-1458
▁magtu	-1459
▁nakap	-1460
▁nasas	-1461
▁kitang	-1462
▁Propeta	-1463
▁kahangit	-1464
▁inughalar	-1465
▁kahahadlok	-1466
oe	-1467
ulp	-1468
▁bas	-1469
▁bit	-1470
aabot	-1471
ortan	-1472
▁nagha	-1473
romisang	-1474
▁kasadya	-1475
▁magkaon	-1476
▁pagpakig	-1477
▁kaparusahan	-1478
!'	-1479
,'	-1480
iin	-1481
▁Ti	-1482
▁ah	-1483
ahas	-1484
▁bis	-1485
▁pur	-1486
▁tig	-1487
▁yuy	-1488
mbawa	-1489
▁yaki	-1490
angabay	-1491
ikilaya	-1492
▁lalong	-1493
▁maayam	-1494
▁manugb	-1495
▁magpang	-1496
▁kasuguan	-1497
▁yuyubngan	-1498
▁mayungotey	-1499
des	-1500
▁am	-1501
iner	-1502
estro	-1503
▁Pista	-1504
▁binhi	-1505
▁masas	-1506
▁pangs	-1507
▁ayamey	-1508
▁nakaka	-1509
▁Herodes	-1510
▁kambing	-1511
▁nagpakita	-1512
ho	-1513
Aya	-1514
iya	-1515
alan	-1516
esar	-1517
iman	-1518
olda	-1519
▁dey	-1520
▁pat	-1521
abant	-1522
ungon	-1523
▁yuba	-1524
ayawon	-1525
▁nagli	-1526
▁panim	-1527
▁sauno	-1528
▁tolda	-1529
dadayaw	-1530
unungan	-1531
▁nagrur	-1532
▁nakong	-1533
▁taling	-1534
▁masiling	-1535
▁kahirapan	-1536
▁panimayay	-1537
▁pwertahan	-1538
ye	-1539
aqu	-1540
adar	-1541
▁Amo	-1542
▁bil	-1543
untra	-1544
▁Hari	-1545
▁edad	-1546
aligya	-1547
iistar	-1548
▁Asing	-1549
▁rason	-1550
▁limang	-1551
▁sidang	-1552
▁paghimo	-1553
▁paliwas	-1554
▁panganay	-1555
▁nagpadayon	-1556
▁magkakainggwa	-1557
?'	-1558
ira	-1559
alsa	-1560
rono	-1561
▁Noe	-1562
aduhon	-1563
ananam	-1564
entang	-1565
▁sakit	-1566
▁trono	-1567
▁rayaga	-1568
▁gingtaw	-1569
▁makakap	-1570
▁talinga	-1571
▁nakaabot	-1572
▁nagtutudlo	-1573
▁magkainggwa	-1574
,"	-1575
Sa	-1576
▁Ep	-1577
Ikaw	-1578
anon	-1579
ibay	-1580
▁Sin	-1581
abaoy	-1582
ahing	-1583
apang	-1584
ayaba	-1585
usunor	-1586
▁katim	-1587
ananamgo	-1588
▁kasiman	-1589
▁pagpang	-1590
▁rahagto	-1591
▁katimunungan	-1592
end	-1593
iga	-1594
iis	-1595
Pero	-1596
abak	-1597
ilya	-1598
ugas	-1599
undi	-1600
▁Heb	-1601
ugrok	-1602
aliwas	-1603
▁Gingp	-1604
▁gamit	-1605
▁klase	-1606
▁suyat	-1607
▁Manugb	-1608
▁hangin	-1609
▁mayado	-1610
▁panudlo	-1611
▁nagliwas	-1612
▁nahadlok	-1613
▁nagtitipon	-1614
la	-1615
eca	-1616
gang	-1617
▁Reb	-1618
ugyan	-1619
▁ingl	-1620
▁Cesar	-1621
▁Kundi	-1622
▁ingha	-1623
▁tungt	-1624
▁Rebeca	-1625
▁bukoey	-1626
▁pinili	-1627
ahirapan	-1628
▁palangga	-1629
isp	-1630
amus	-1631
aryo	-1632
dios	-1633
yong	-1634
▁Bet	-1635
▁ins	-1636
aquel	-1637
▁iwag	-1638
alayas	-1639
▁buyan	-1640
▁mapin	-1641
▁nakab	-1642
▁Raquel	-1643
▁mataas	-1644
hinuysoy	-1645
▁ingbaoy	-1646
▁marugay	-1647
▁pamatuor	-1648
▁gingharian	-1649
Ab	-1650
vi	-1651
gay	-1652
inr	-1653
tog	-1654
▁Di	-1655
oney	-1656
▁hil	-1657
▁rug	-1658
gwahe	-1659
▁abay	-1660
▁ling	-1661
adaran	-1662
aluwas	-1663
▁bilog	-1664
▁linggwahe	-1665
▁gingsisiling	-1666
▁ingpromisang	-1667
Si	-1668
isk	-1669
upa	-1670
anha	-1671
riso	-1672
uyom	-1673
▁Mar	-1674
▁gat	-1675
udong	-1676
▁Levi	-1677
▁kulay	-1678
▁nagsis	-1679
▁ibisaya	-1680
▁kanunot	-1681
▁pagtuman	-1682
▁magbisaya	-1683
akak	-1684
aliw	-1685
arti	-1686
aayam	-1687
uytan	-1688
▁asno	-1689
▁gulp	-1690
▁nagm	-1691
▁Gings	-1692
▁katit	-1693
▁makas	-1694
▁narur	-1695
▁kaaway	-1696
▁kilaya	-1697
▁nidang	-1698
▁maghimo	-1699
▁kalahing	-1700
▁magpagto	-1701
▁magsunor	-1702
▁pangruhang	-1703
aado	-1704
▁Lot	-1705
adaan	-1706
▁haba	-1707
▁sang	-1708
Matuor	-1709
aligan	-1710
marako	-1711
▁Judas	-1712
▁karam	-1713
amatyon	-1714
hahagar	-1715
▁inding	-1716
▁kaluoy	-1717
▁wayang	-1718
kahadlok	-1719
abatyagan	-1720
▁ingpakita	-1721
▁magsiling	-1722
▁magpangabuhi	-1723
co	-1724
eg	-1725
so	-1726
and	-1727
ord	-1728
res	-1729
udot	-1730
ukar	-1731
alaga	-1732
ispis	-1733
paalsa	-1734
yubong	-1735
▁Hudeya	-1736
▁pispis	-1737
inasadya	-1738
alanggang	-1739
▁nakakita	-1740
▁prisuhan	-1741
▁inghalinan	-1742
Mag	-1743
hit	-1744
ton	-1745
▁Kap	-1746
▁aga	-1747
▁uda	-1748
ayado	-1749
hanan	-1750
isyer	-1751
▁Ings	-1752
aduran	-1753
amusta	-1754
udluan	-1755
▁akong	-1756
▁Balaan	-1757
▁Parayan	-1758
▁pinalangga	-1759
▁gingpromisa	-1760
▁pangtatlong	-1761
Nag	-1762
esa	-1763
lyo	-1764
aman	-1765
amin	-1766
hits	-1767
iran	-1768
rong	-1769
ubay	-1770
ayain	-1771
umang	-1772
ungor	-1773
▁nagg	-1774
diosan	-1775
▁kusog	-1776
▁matut	-1777
▁pangb	-1778
akilaya	-1779
isyerto	-1780
yentras	-1781
▁kaisip	-1782
▁nagkak	-1783
▁amatyon	-1784
▁ingtawag	-1785
▁nagpakig	-1786
inahangyan	-1787
▁gobernador	-1788
▁nagpapamatuor	-1789
alb	-1790
▁op	-1791
Imaw	-1792
apat	-1793
onya	-1794
uong	-1795
uson	-1796
▁May	-1797
▁lam	-1798
rugay	-1799
ungog	-1800
▁Roma	-1801
▁Sara	-1802
▁ingr	-1803
▁nagl	-1804
▁puya	-1805
▁samp	-1806
agkong	-1807
umpara	-1808
yentos	-1809
▁pangp	-1810
▁sanga	-1811
hitsura	-1812
▁kaayam	-1813
▁matyon	-1814
▁nahimo	-1815
▁mabalik	-1816
▁kaayaman	-1817
▁malimpyo	-1818
▁nakasala	-1819
▁rayapang	-1820
▁magpasakop	-1821
▁nakarungog	-1822
▁pagpahirap	-1823
▁Manugbawtismo	-1824
nas	-1825
toy	-1826
uri	-1827
adaw	-1828
amar	-1829
mpog	-1830
ting	-1831
unog	-1832
▁Mak	-1833
ehong	-1834
entay	-1835
▁ingg	-1836
▁isra	-1837
▁lino	-1838
▁Gingt	-1839
▁bulig	-1840
▁maayo	-1841
▁bunang	-1842
▁haligi	-1843
▁maraya	-1844
▁rampog	-1845
▁istorya	-1846
▁matutom	-1847
▁disyerto	-1848
▁pangamuyo	-1849
▁aparusahan	-1850
ias	-1851
udo	-1852
yob	-1853
obre	-1854
▁Mat	-1855
▁ataw	-1856
▁mara	-1857
▁nagta	-1858
▁gingta	-1859
▁inrong	-1860
▁matabo	-1861
▁pagwali	-1862
▁Nagpadayon	-1863
▁nagsiserbisyo	-1864
ist	-1865
nak	-1866
sig	-1867
uym	-1868
akor	-1869
▁ika	-1870
kausa	-1871
umrom	-1872
▁Nagt	-1873
abilin	-1874
endisy	-1875
▁libro	-1876
abisaya	-1877
ustuhan	-1878
▁ingpas	-1879
▁rahang	-1880
▁kabading	-1881
▁maaayaman	-1882
▁mamamatay	-1883
▁Pagkalipas	-1884
▁gingbisaya	-1885
▁tungtungan	-1886
▁pagpakamaado	-1887
ek	-1888
ipa	-1889
kag	-1890
rup	-1891
amas	-1892
aray	-1893
ulto	-1894
▁ang	-1895
▁ari	-1896
▁res	-1897
awali	-1898
hiwas	-1899
isyal	-1900
rayab	-1901
ugtan	-1902
wayan	-1903
▁Bern	-1904
▁Nagb	-1905
▁nali	-1906
▁raga	-1907
arayan	-1908
abantay	-1909
▁buynas	-1910
▁kaumir	-1911
▁naghuh	-1912
abantala	-1913
ingayang	-1914
▁dahilan	-1915
▁opisyal	-1916
▁pamilya	-1917
▁Pagkaaga	-1918
▁ingmatay	-1919
▁kaisipan	-1920
▁nagsunor	-1921
▁ingbisaya	-1922
uns	-1923
rupo	-1924
▁hin	-1925
▁kil	-1926
angon	-1927
tiago	-1928
▁gipa	-1929
▁tuli	-1930
▁Dapat	-1931
▁pobre	-1932
Maestro	-1933
abutong	-1934
patawar	-1935
ugangan	-1936
▁huling	-1937
▁ihalar	-1938
▁inumon	-1939
▁lamesa	-1940
▁metros	-1941
▁Santiago	-1942
▁nagpapanaw	-1943
▁maintyendihan	-1944
Oho	-1945
urb	-1946
▁Es	-1947
Ging	-1948
luoy	-1949
uron	-1950
wang	-1951
▁Kar	-1952
▁lis	-1953
▁mad	-1954
▁Mara	-1955
▁asul	-1956
▁ingm	-1957
▁ngan	-1958
▁boses	-1959
▁ingga	-1960
gagamit	-1961
▁natong	-1962
akitluoy	-1963
▁Karnero	-1964
▁nabilin	-1965
abawtismo	-1966
▁kayaking	-1967
endisyunan	-1968
▁kasimanwa	-1969
▁nagkakaon	-1970
akamaaduhon	-1971
▁magpadayon	-1972
▁katitingayang	-1973
po	-1974
abe	-1975
uka	-1976
ihan	-1977
▁imb	-1978
Maley	-1979
ipala	-1980
ronse	-1981
ubuhi	-1982
▁Suba	-1983
▁tigk	-1984
alibog	-1985
anakaw	-1986
andang	-1987
▁bansa	-1988
▁baryo	-1989
▁buhis	-1990
▁gatos	-1991
▁hilam	-1992
▁magta	-1993
▁napap	-1994
aliwaya	-1995
uradong	-1996
▁bronse	-1997
▁purong	-1998
▁puting	-1999
▁rayang	-2000
▁Bernabe	-2001
▁Kapitan	-2002
▁nawagit	-2003
▁importan	-2004
▁nabanhaw	-2005
▁gikahadlok	-2006
▁nagtitinrog	-2007
reo	-2008
agag	-2009
aydo	-2010
ruha	-2011
upog	-2012
uway	-2013
yang	-2014
arusa	-2015
uyuan	-2016
▁Ingb	-2017
▁ausa	-2018
▁balo	-2019
Siling	-2020
tangan	-2021
▁klaro	-2022
▁tanom	-2023
inrugan	-2024
umruman	-2025
▁Hebreo	-2026
▁bituon	-2027
▁marako	-2028
▁hitsura	-2029
▁kabulig	-2030
▁mapagto	-2031
▁matibay	-2032
▁syentos	-2033
▁ikumpara	-2034
▁pagiging	-2035
▁ginghuman	-2036
▁hilamunon	-2037
▁magandang	-2038
▁pananamgo	-2039
▁nagdadayaw	-2040
▁ingbibisaya	-2041
▁pagpangamuyo	-2042
kar	-2043
Hali	-2044
Kamo	-2045
azar	-2046
idor	-2047
elipe	-2048
umaya	-2049
▁beyn	-2050
Muyati	-2051
agutom	-2052
ibabaw	-2053
irayom	-2054
▁puyra	-2055
▁singk	-2056
Ngasing	-2057
uyangan	-2058
▁pagpas	-2059
▁parusa	-2060
▁rayaag	-2061
agagahom	-2062
agmarako	-2063
▁gingpas	-2064
▁ingtata	-2065
▁karamuan	-2066
▁nagpapati	-2067
▁kagustuhan	-2068
▁pangpaalsa	-2069
rat	-2070
umb	-2071
▁ak	-2072
▁ha	-2073
▁uy	-2074
asyo	-2075
enta	-2076
hong	-2077
libo	-2078
ulip	-2079
ilhig	-2080
ugang	-2081
▁akas	-2082
▁magr	-2083
▁ubas	-2084
atunon	-2085
ayahan	-2086
hanrom	-2087
▁buhat	-2088
▁gingr	-2089
▁grupo	-2090
istorya	-2091
lansang	-2092
uymanan	-2093
▁mapang	-2094
▁nagkuk	-2095
▁rughan	-2096
atawaron	-2097
▁subatan	-2098
aninrugan	-2099
▁Baguntor	-2100
▁apagtuan	-2101
intyendihe	-2102
▁sampuyong	-2103
▁ingtutudlo	-2104
▁karuymanan	-2105
▁palaabuton	-2106
▁nagpapakita	-2107
▁narurunggan	-2108
▁ingpangayanan	-2109
day	-2110
eri	-2111
lar	-2112
ahup	-2113
elyo	-2114
eryo	-2115
ukan	-2116
yemp	-2117
▁gir	-2118
▁lin	-2119
▁pab	-2120
aygay	-2121
moteo	-2122
▁Ingt	-2123
▁ayak	-2124
▁kurt	-2125
▁lana	-2126
▁libo	-2127
raidor	-2128
▁pagta	-2129
▁pasuy	-2130
▁purma	-2131
luluwas	-2132
▁beynte	-2133
▁nagpak	-2134
▁Timoteo	-2135
▁makakas	-2136
▁palasyo	-2137
▁magdayaw	-2138
▁naayaman	-2139
▁nagyuhor	-2140
▁parehong	-2141
▁nagtinrog	-2142
▁nagtutuman	-2143
▁tigkagutom	-2144
▁kahimtangan	-2145
▁maghinuysoy	-2146
▁manugbantay	-2147
▁pinalanggang	-2148
▁nagpapalangga	-2149
▁nagpapangabuhi	-2150
iy	-2151
Mga	-2152
Pag	-2153
olo	-2154
yar	-2155
irdi	-2156
▁Nap	-2157
▁pus	-2158
apros	-2159
odoma	-2160
▁Adan	-2161
▁anit	-2162
▁asun	-2163
abanan	-2164
asanib	-2165
ukiran	-2166
unahan	-2167
wawali	-2168
▁angay	-2169
▁gingk	-2170
▁hudot	-2171
aasahan	-2172
abangyo	-2173
rayagan	-2174
▁Kamong	-2175
▁alahas	-2176
▁gipati	-2177
▁imawey	-2178
▁ingpat	-2179
▁ingsus	-2180
▁natawo	-2181
▁gingtut	-2182
▁kamelyo	-2183
▁pagpanaw	-2184
▁ingtugyan	-2185
▁kabukiran	-2186
▁pagkatawo	-2187
▁pagpakita	-2188
▁Manluluwas	-2189
▁kakuyangan	-2190
▁nagbabantay	-2191
ahin	-2192
arda	-2193
atlo	-2194
enso	-2195
ugpa	-2196
ukot	-2197
yern	-2198
▁Lea	-2199
▁tur	-2200
ostol	-2201
▁Isma	-2202
▁magm	-2203
▁nara	-2204
▁prem	-2205
▁rumr	-2206
▁suba	-2207
▁tela	-2208
abutan	-2209
anubli	-2210
ibahan	-2211
▁ingra	-2212
▁magpa	-2213
▁mamah	-2214
▁natun	-2215
▁pakus	-2216
▁subra	-2217
▁yarda	-2218
isteryo	-2219
▁Nakita	-2220
▁kaming	-2221
▁nagbub	-2222
▁singkw	-2223
▁Apostol	-2224
▁mabaton	-2225
▁marayom	-2226
▁nagraya	-2227
alanggaon	-2228
▁ispirito	-2229
▁mapapasa	-2230
▁nagpaali	-2231
▁pagkakita	-2232
▁inghuhuman	-2233
▁kamutangan	-2234
▁kasadyahan	-2235
▁Makagagahom	-2236
▁ingpangutana	-2237
ami	-2238
ene	-2239
tin	-2240
uso	-2241
Kali	-2242
akon	-2243
asta	-2244
ihaw	-2245
luko	-2246
riye	-2247
ubas	-2248
uyon	-2249
yado	-2250
▁rib	-2251
▁suh	-2252
albar	-2253
balik	-2254
ukong	-2255
unran	-2256
yerno	-2257
▁aray	-2258
▁arka	-2259
▁nahi	-2260
▁ramo	-2261
anduan	-2262
atawar	-2263
ramong	-2264
siling	-2265
uwasan	-2266
▁Elias	-2267
▁Maado	-2268
▁Saulo	-2269
▁batil	-2270
▁gitut	-2271
▁halos	-2272
▁hugot	-2273
▁imbes	-2274
▁malaw	-2275
▁yupog	-2276
akitang	-2277
gagahom	-2278
▁kahali	-2279
▁mabaoy	-2280
▁makaka	-2281
▁nagbab	-2282
▁nagpip	-2283
▁ubasan	-2284
▁insenso	-2285
▁kaanduan	-2286
▁nagginan	-2287
▁paghiwas	-2288
▁pagtipon	-2289
▁panimati	-2290
▁Halimbawa	-2291
▁kakayahan	-2292
▁kaluwasan	-2293
▁narayanan	-2294
▁ingpromisa	-2295
▁kwarentang	-2296
▁naggagahom	-2297
▁nakaingkor	-2298
▁nakakaayam	-2299
▁manggaranon	-2300
▁nasasadyahan	-2301
ih	-2302
akt	-2303
bay	-2304
ete	-2305
ile	-2306
▁ba	-2307
▁ro	-2308
aboy	-2309
anom	-2310
anta	-2311
isan	-2312
uyos	-2313
▁ali	-2314
▁apa	-2315
▁apo	-2316
Pagto	-2317
laban	-2318
udlan	-2319
unggo	-2320
yuhan	-2321
▁gili	-2322
▁sawa	-2323
▁suya	-2324
atuyog	-2325
auliey	-2326
ugutan	-2327
▁kahad	-2328
▁kanin	-2329
▁pamat	-2330
▁pangh	-2331
▁tudlo	-2332
ambitan	-2333
amuyuan	-2334
▁Kinang	-2335
▁magpat	-2336
▁manugs	-2337
▁nagsas	-2338
▁nagtin	-2339
▁premyo	-2340
▁ramong	-2341
asaniban	-2342
▁hanraey	-2343
▁ibutang	-2344
▁klasing	-2345
▁maluwas	-2346
▁gingraya	-2347
▁maghalin	-2348
▁kahadagan	-2349
▁nakasakay	-2350
▁opisyales	-2351
▁parusahan	-2352
▁inggagamit	-2353
▁pagkamatay	-2354
▁gingtatawag	-2355
▁ingpapaabot	-2356
).	-2357
dya	-2358
eon	-2359
gas	-2360
ism	-2361
kis	-2362
kot	-2363
pap	-2364
▁ep	-2365
abok	-2366
esto	-2367
usay	-2368
▁Ben	-2369
▁Cor	-2370
▁Kon	-2371
▁Mac	-2372
▁nai	-2373
▁ubi	-2374
anhon	-2375
intik	-2376
umaan	-2377
▁kabi	-2378
▁puti	-2379
▁uyas	-2380
Kaling	-2381
adlong	-2382
ahuman	-2383
awatan	-2384
azaret	-2385
▁Boses	-2386
▁Griye	-2387
▁halar	-2388
▁ispir	-2389
▁mabug	-2390
▁sabat	-2391
▁sakop	-2392
abayaka	-2393
ingabot	-2394
▁Tanang	-2395
▁akasya	-2396
▁bantay	-2397
▁kaunon	-2398
▁kayang	-2399
▁limpyo	-2400
▁nganat	-2401
▁sunron	-2402
alandong	-2403
angabudl	-2404
▁gingpat	-2405
▁maintik	-2406
▁mawagit	-2407
▁nagbaoy	-2408
▁nagpapa	-2409
▁pabalik	-2410
▁promisa	-2411
▁abatunon	-2412
▁makaagom	-2413
▁natatabo	-2414
▁paabuton	-2415
▁pabangyo	-2416
▁kahalihan	-2417
▁maluluwas	-2418
▁marunggan	-2419
▁nagpapaka	-2420
▁Pagkaluwas	-2421
▁mamahayong	-2422
▁nagbabaton	-2423
▁pagkabanhaw	-2424
▁pagpakasala	-2425
▁nagpangamuyo	-2426
de	-2427
abi	-2428
nag	-2429
ret	-2430
uat	-2431
uel	-2432
▁Na	-2433
▁il	-2434
abon	-2435
ipas	-2436
okya	-2437
osib	-2438
uang	-2439
▁Mel	-2440
▁maw	-2441
▁nay	-2442
▁sul	-2443
▁sus	-2444
dapat	-2445
libak	-2446
rahan	-2447
▁Tuna	-2448
▁epod	-2449
▁kuns	-2450
▁yudo	-2451
tiokya	-2452
uligan	-2453
▁Kaban	-2454
▁rolyo	-2455
▁treyn	-2456
laruhan	-2457
▁Sodoma	-2458
▁bakulo	-2459
▁gingsus	-2460
▁ispirit	-2461
▁bisayang	-2462
▁butangan	-2463
▁kaklaruhan	-2464
▁masasaligan	-2465
▁palaabutong	-2466
▁gingbibisaya	-2467
▁magpangamuyo	-2468
▁pagkaintyendi	-2469
kos	-2470
uay	-2471
ahaw	-2472
akap	-2473
auno	-2474
ilit	-2475
ingh	-2476
iwas	-2477
quem	-2478
raog	-2479
tism	-2480
ulit	-2481
▁pye	-2482
isira	-2483
ulian	-2484
umana	-2485
▁misk	-2486
Inggwa	-2487
abunan	-2488
edonya	-2489
ipunan	-2490
uwason	-2491
wardya	-2492
yempre	-2493
▁amigo	-2494
▁buyak	-2495
▁namum	-2496
▁pagpa	-2497
▁yamit	-2498
▁yapar	-2499
abantog	-2500
▁ilahas	-2501
▁ingbab	-2502
▁inghuh	-2503
▁kabayo	-2504
▁mahimo	-2505
▁manugp	-2506
▁Griyego	-2507
▁buligan	-2508
▁gulping	-2509
▁magtuna	-2510
▁tadlong	-2511
▁Antiokya	-2512
▁magbalik	-2513
▁mapinong	-2514
▁ingbutang	-2515
▁katingaya	-2516
▁nagraraya	-2517
▁pangpitong	-2518
▁Kinahangyan	-2519
▁magserbisyo	-2520
▁nagkukuntra	-2521
▁pagpamatuor	-2522
▁nagpapanimati	-2523
00)	-2524
Mas	-2525
eso	-2526
ilo	-2527
kor	-2528
▁As	-2529
▁pl	-2530
akot	-2531
aluy	-2532
kita	-2533
orte	-2534
seng	-2535
▁mai	-2536
▁pun	-2537
▁tak	-2538
Kabay	-2539
ikway	-2540
yanan	-2541
▁ingy	-2542
▁mapa	-2543
abotey	-2544
estigo	-2545
metros	-2546
▁Gusto	-2547
▁Lugar	-2548
▁basta	-2549
▁tawag	-2550
rayanan	-2551
unranon	-2552
▁Ismael	-2553
▁Siquem	-2554
▁gingpa	-2555
▁itudlo	-2556
▁kuntra	-2557
▁kuyang	-2558
▁maagom	-2559
▁nagkas	-2560
▁rahali	-2561
alikuran	-2562
▁magraya	-2563
▁matuman	-2564
▁papauli	-2565
▁arayanan	-2566
▁husgaran	-2567
▁mahabang	-2568
▁makaabot	-2569
▁mayukong	-2570
▁myentras	-2571
▁nagtudlo	-2572
▁pagbulig	-2573
▁paghalar	-2574
angabudlay	-2575
▁manugsukot	-2576
▁nakatinrog	-2577
bli	-2578
pos	-2579
yas	-2580
▁Be	-2581
Aber	-2582
Hala	-2583
akan	-2584
alap	-2585
enti	-2586
ilay	-2587
irya	-2588
sige	-2589
uasa	-2590
▁Asi	-2591
▁Sil	-2592
▁Usa	-2593
▁kad	-2594
▁naa	-2595
▁suk	-2596
adaey	-2597
alhin	-2598
gayan	-2599
▁Pang	-2600
▁bata	-2601
▁puat	-2602
alibar	-2603
amiton	-2604
atabok	-2605
ursige	-2606
▁Gingb	-2607
▁Hagar	-2608
▁Ragat	-2609
▁hapon	-2610
▁natut	-2611
▁pagga	-2612
▁siong	-2613
▁suhoy	-2614
▁tuong	-2615
aakusar	-2616
akaunon	-2617
dayawan	-2618
▁ausang	-2619
▁kwarto	-2620
▁libong	-2621
▁makaon	-2622
▁mapain	-2623
▁nimong	-2624
▁tinuga	-2625
matarong	-2626
tismuhan	-2627
▁dayawon	-2628
▁gwardya	-2629
▁ingbuot	-2630
▁iparaya	-2631
▁kurtina	-2632
ahanungor	-2633
▁ingtudlo	-2634
▁nagtugpa	-2635
▁pakitang	-2636
▁gingtawag	-2637
▁kabadaran	-2638
▁kadayawan	-2639
▁kahadupan	-2640
▁kunsensya	-2641
▁maghusgar	-2642
▁pagparusa	-2643
▁pangbadaw	-2644
▁Kasugtanan	-2645
▁nagsusuyat	-2646
▁ingkikilaya	-2647
Da	-2648
Ka	-2649
bo	-2650
▁c	-2651
any	-2652
apo	-2653
imb	-2654
imp	-2655
Hari	-2656
▁Sim	-2657
▁gam	-2658
▁kuy	-2659
akpon	-2660
ambit	-2661
human	-2662
iyahe	-2663
▁Abim	-2664
▁obli	-2665
husgar	-2666
▁Halin	-2667
▁Tolda	-2668
▁centi	-2669
▁hadag	-2670
▁marur	-2671
alapnag	-2672
▁Ingpap	-2673
▁Isaias	-2674
▁ingsas	-2675
▁laloey	-2676
▁marali	-2677
▁nagpup	-2678
▁nagtat	-2679
▁pagkas	-2680
▁pagsin	-2681
atingaya	-2682
▁akaunon	-2683
▁inggway	-2684
▁magkany	-2685
▁magpati	-2686
▁mahalin	-2687
▁naghimo	-2688
▁nakakas	-2689
▁paunong	-2690
▁trabaho	-2691
Herusalem	-2692
▁Maramong	-2693
▁agamiton	-2694
▁gingpang	-2695
▁inghalar	-2696
▁kayungot	-2697
▁magpakig	-2698
▁mahihimo	-2699
▁nagdayaw	-2700
▁pagtahor	-2701
▁susudlan	-2702
▁halimbawa	-2703
▁makasuyor	-2704
▁namatayey	-2705
▁ministeryo	-2706
▁centimetros	-2707
▁nagrurungog	-2708
▁karapatdapat	-2709
▁Am	-2710
▁At	-2711
▁Ed	-2712
▁um	-2713
akoy	-2714
alat	-2715
ason	-2716
elec	-2717
itin	-2718
uluy	-2719
uyob	-2720
▁mau	-2721
▁pak	-2722
▁ugb	-2723
abwag	-2724
amuno	-2725
aruan	-2726
ayaag	-2727
azaro	-2728
hipos	-2729
▁ipat	-2730
▁maip	-2731
▁riin	-2732
alaban	-2733
atihan	-2734
matyon	-2735
osible	-2736
▁Mayor	-2737
▁Samar	-2738
▁gulpi	-2739
▁kabug	-2740
▁olibo	-2741
▁ugbos	-2742
▁utang	-2743
iingkor	-2744
ugyanan	-2745
▁Maging	-2746
▁Pagkas	-2747
▁Wayaey	-2748
▁baybay	-2749
▁bituka	-2750
▁nabuhi	-2751
▁nagpan	-2752
▁nagrar	-2753
ahuwayan	-2754
▁kalisor	-2755
▁mahadag	-2756
▁nagtuna	-2757
▁pagpati	-2758
▁Abimelec	-2759
▁atumanon	-2760
▁ibantala	-2761
▁impyerno	-2762
▁ingsuyat	-2763
▁magpanaw	-2764
▁magsuyor	-2765
▁nabubuhi	-2766
▁nagnunot	-2767
▁nagsakay	-2768
▁Macedonya	-2769
▁Narunggan	-2770
▁natingaya	-2771
▁pamatasan	-2772
▁mababanhaw	-2773
▁nagginaney	-2774
▁nahanungor	-2775
▁nakakasala	-2776
▁ingpapakita	-2777
▁ingpapatuyar	-2778
▁magpangutana	-2779
ca	-2780
Asi	-2781
elo	-2782
sab	-2783
san	-2784
uti	-2785
yam	-2786
Ayam	-2787
abil	-2788
anra	-2789
edec	-2790
ruto	-2791
ukas	-2792
umba	-2793
▁Het	-2794
▁Nak	-2795
▁bus	-2796
▁ipa	-2797
aluoy	-2798
aysay	-2799
isyon	-2800
retso	-2801
uayan	-2802
uksan	-2803
ustal	-2804
▁Asya	-2805
▁Pili	-2806
▁kaso	-2807
ayango	-2808
ayunan	-2809
▁Sinay	-2810
▁istar	-2811
▁malip	-2812
ahuptan	-2813
angitan	-2814
kisedec	-2815
▁Lazaro	-2816
▁Simeon	-2817
▁bantog	-2818
▁batong	-2819
▁ingkak	-2820
▁ipilak	-2821
▁kustal	-2822
▁mabang	-2823
▁nagsin	-2824
importan	-2825
▁Marugay	-2826
▁mayapar	-2827
▁naunang	-2828
anambitan	-2829
▁gingpili	-2830
▁ingbaton	-2831
▁makakita	-2832
▁pasensya	-2833
▁ahusgaran	-2834
▁ingparaya	-2835
▁maragkong	-2836
▁minatayey	-2837
▁pagrumrom	-2838
▁Pagkahalin	-2839
▁ingpasuyat	-2840
▁ingsusunor	-2841
▁siguradong	-2842
▁sulunranon	-2843
▁inghahalinan	-2844
▁nababatyagan	-2845
▁kalibutanhong	-2846
▁makakapamatuor	-2847
NG	-2848
ez	-2849
Sin	-2850
alo	-2851
imo	-2852
lam	-2853
pak	-2854
teb	-2855
wal	-2856
▁Ak	-2857
▁Ar	-2858
abag	-2859
adan	-2860
adoy	-2861
anah	-2862
ator	-2863
hala	-2864
ikag	-2865
iton	-2866
▁Sab	-2867
▁Sem	-2868
awang	-2869
ayung	-2870
iguro	-2871
oming	-2872
ratar	-2873
ukyob	-2874
▁gani	-2875
▁ubos	-2876
▁yelo	-2877
amasco	-2878
inakak	-2879
uparon	-2880
▁Epeso	-2881
▁Nahor	-2882
▁Silas	-2883
▁bawal	-2884
▁kaluy	-2885
▁kapar	-2886
▁karamo	-2887
▁mabuot	-2888
▁maisog	-2889
▁miskin	-2890
▁nabaoy	-2891
▁rahina	-2892
▁rangaw	-2893
anahunan	-2894
inghapon	-2895
▁katupar	-2896
▁madayaw	-2897
▁maghali	-2898
▁ragkong	-2899
▁tuburan	-2900
▁Hetanhon	-2901
▁ingtugon	-2902
▁maaguman	-2903
▁magbulig	-2904
▁mahusgar	-2905
▁mapainub	-2906
▁nagkausa	-2907
▁pangsara	-2908
▁pagtratar	-2909
▁pakusugon	-2910
▁pasuyuran	-2911
▁Melkisedec	-2912
▁ipagmarako	-2913
▁naghuhuyat	-2914
▁pangsukyob	-2915
▁Pagkasiling	-2916
▁kapanahunan	-2917
▁nagpakitluoy	-2918
dil	-2919
esp	-2920
tok	-2921
ula	-2922
▁Al	-2923
▁Re	-2924
Sida	-2925
agtu	-2926
ahud	-2927
hili	-2928
lamo	-2929
mtan	-2930
udag	-2931
uhos	-2932
▁hig	-2933
▁sag	-2934
Dahil	-2935
abasa	-2936
antaw	-2937
imero	-2938
lisor	-2939
teban	-2940
a	-2941
▁	-2942
n	-2943
g	-2944
i	-2945
o	-2946
k	-2947
s	-2948
t	-2949
r	-2950
u	-2951
m	-2952
y	-2953
p	-2954
l	-2955
d	-2956
b	-2957
h	-2958
e	-2959
,	-2960
w	-2961
.	-2962
-	-2963
A	-2964
"	-2965
I	-2966
K	-2967
P	-2968
N	-2969
D	-2970
S	-2971
H	-2972
'	-2973
M	-2974
G	-2975
T	-2976
O	-2977
?	-2978
J	-2979
B	-2980
!	-2981
c	-2982
E	-2983
R	-2984
L	-2985
U	-2986
C	-2987
W	-2988
(	-2989
)	-2990
:	-2991
v	-2992
z	-2993
0	-2994
á	-2995
q	-2996
