<unk>	0
<s>	0
</s>	0
ag	-0
ng	-1
▁i	-2
▁k	-3
▁n	-4
▁s	-5
ak	-6
ay	-7
an	-8
▁m	-9
▁sa	-10
▁p	-11
▁nak	-12
▁ka	-13
▁it	-14
da	-15
ra	-16
li	-17
at	-18
ang	-19
▁kag	-20
in	-21
ga	-22
▁ag	-23
▁ay	-24
▁t	-25
▁mga	-26
aw	-27
as	-28
▁nag	-29
ro	-30
mo	-31
▁b	-32
ab	-33
▁h	-34
to	-35
▁in	-36
▁si	-37
ar	-38
us	-39
▁ing	-40
▁g	-41
di	-42
on	-43
ing	-44
▁pag	-45
ap	-46
ako	-47
hi	-48
or	-49
os	-50
is	-51
▁ida	-52
aya	-53
uy	-54
▁ako	-55
▁ni	-56
ling	-57
un	-58
ad	-59
ung	-60
▁r	-61
▁di	-62
al	-63
it	-64
ah	-65
am	-66
ali	-67
▁mag	-68
inra	-69
▁ra	-70
es	-71
▁da	-72
ug	-73
▁dios	-74
ong	-75
▁sida	-76
▁pa	-77
▁inro	-78
ey	-79
▁ging	-80
▁inra	-81
▁kali	-82
tu	-83
ot	-84
iling	-85
▁w	-86
▁taw	-87
▁sinra	-88
▁ma	-89
er	-90
▁y	-91
▁nags	-92
▁tan	-93
hil	-94
▁tawo	-95
uk	-96
▁nagp	-97
▁dahil	-98
▁kung	-99
▁kamo	-100
ub	-101
tong	-102
ero	-103
um	-104
▁hes	-105
ita	-106
▁an	-107
ut	-108
▁waya	-109
▁ab	-110
▁l	-111
▁imo	-112
uh	-113
▁hesus	-114
▁us	-115
il	-116
▁ng	-117
ayan	-118
▁pagk	-119
lo	-120
▁pero	-121
▁nida	-122
ino	-123
gw	-124
uto	-125
▁at	-126
ip	-127
▁im	-128
▁mat	-129
inro	-130
▁a	-131
▁kin	-132
▁is	-133
atay	-134
▁kada	-135
▁yang	-136
▁hali	-137
▁imaw	-138
▁kang	-139
▁ingp	-140
▁kab	-141
▁inggw	-142
▁indi	-143
▁katong	-144
▁par	-145
▁ga	-146
▁gino	-147
▁anak	-148
▁pang	-149
ib	-150
▁para	-151
▁kaling	-152
▁bag	-153
▁ninro	-154
▁nako	-155
uko	-156
▁mak	-157
ig	-158
ta	-159
▁usang	-160
▁ruto	-161
▁ninra	-162
yo	-163
▁tanang	-164
ahan	-165
asing	-166
▁ginoo	-167
uyar	-168
ili	-169
ud	-170
▁buko	-171
▁ib	-172
pat	-173
▁kas	-174
og	-175
▁kam	-176
▁ato	-177
tuo	-178
▁man	-179
▁j	-180
ani	-181
ris	-182
▁tuyar	-183
uyat	-184
ado	-185
isaya	-186
▁mas	-187
en	-188
uli	-189
▁pagp	-190
om	-191
▁nagsiling	-192
ya	-193
▁ray	-194
ari	-195
ur	-196
▁o	-197
uno	-198
▁ings	-199
unor	-200
utan	-201
▁inggwa	-202
▁nat	-203
▁gi	-204
himo	-205
risto	-206
uga	-207
adl	-208
▁ngasing	-209
▁parayan	-210
oy	-211
▁map	-212
uan	-213
▁na	-214
▁amo	-215
▁tung	-216
▁as	-217
▁agor	-218
▁d	-219
han	-220
ram	-221
▁halin	-222
uhi	-223
adlaw	-224
▁magp	-225
▁aber	-226
▁pin	-227
dor	-228
abot	-229
uon	-230
ir	-231
el	-232
ul	-233
▁adlaw	-234
uor	-235
▁ngani	-236
abat	-237
apos	-238
▁nagpap	-239
▁gador	-240
▁kristo	-241
▁tanan	-242
agto	-243
uman	-244
ina	-245
▁li	-246
up	-247
▁way	-248
ilang	-249
▁ik	-250
▁e	-251
▁gingp	-252
▁dapat	-253
▁kina	-254
ti	-255
anan	-256
▁nagb	-257
hon	-258
was	-259
aro	-260
ala	-261
umo	-262
▁kay	-263
alang	-264
ramas	-265
▁wayat	-266
▁pramas	-267
▁tungor	-268
▁pagkat	-269
▁ingb	-270
aka	-271
tang	-272
amat	-273
akita	-274
▁ingt	-275
ati	-276
▁tatay	-277
ob	-278
▁pagtuo	-279
▁ap	-280
awan	-281
▁hud	-282
man	-283
▁kun	-284
▁nagt	-285
uhan	-286
▁kato	-287
▁kita	-288
em	-289
▁ikaw	-290
isiling	-291
▁pay	-292
angan	-293
▁kat	-294
▁kayak	-295
ugo	-296
ayon	-297
▁rah	-298
▁kami	-299
ik	-300
▁nagtu	-301
ahi	-302
▁hari	-303
aban	-304
▁mar	-305
▁pagkatapos	-306
gan	-307
apon	-308
aga	-309
angit	-310
▁kinang	-311
▁nagk	-312
awag	-313
▁kaib	-314
▁kayake	-315
▁gih	-316
▁gus	-317
awa	-318
▁matuor	-319
una	-320
▁kundi	-321
dad	-322
▁manug	-323
▁kasug	-324
ump	-325
▁kumo	-326
▁maya	-327
ramo	-328
▁hab	-329
▁kah	-330
▁hudyo	-331
▁mo	-332
▁bilang	-333
▁nio	-334
ises	-335
▁moises	-336
▁has	-337
▁usa	-338
▁maado	-339
▁kaibahan	-340
ito	-341
uyor	-342
▁tong	-343
▁ban	-344
ac	-345
▁puy	-346
▁mab	-347
▁iba	-348
alik	-349
▁gings	-350
▁hastang	-351
usa	-352
abo	-353
amatay	-354
ugar	-355
▁bago	-356
▁baga	-357
▁gihapon	-358
rom	-359
▁inggwat	-360
angh	-361
▁ingh	-362
▁sar	-363
▁pagb	-364
tan	-365
alin	-366
▁dili	-367
uran	-368
▁lugar	-369
▁nap	-370
▁ruh	-371
▁nimo	-372
ahad	-373
▁bisaya	-374
alangga	-375
hip	-376
▁pags	-377
▁pan	-378
▁siling	-379
▁nakita	-380
ayay	-381
adong	-382
yan	-383
▁ingpap	-384
▁kasuguan	-385
butan	-386
uta	-387
▁pab	-388
ade	-389
aon	-390
▁tag	-391
hipto	-392
pir	-393
arung	-394
▁nagsabat	-395
▁maramo	-396
him	-397
▁raha	-398
▁ehipto	-399
ras	-400
▁maadong	-401
▁langit	-402
anak	-403
▁ayam	-404
im	-405
rap	-406
▁ispir	-407
▁kalibutan	-408
me	-409
▁atub	-410
uyo	-411
▁isra	-412
▁atubangan	-413
wa	-414
▁kabade	-415
▁duta	-416
ao	-417
yon	-418
▁nagh	-419
▁maging	-420
gar	-421
ayaw	-422
ose	-423
▁buy	-424
eli	-425
▁kar	-426
▁nas	-427
▁magk	-428
▁ip	-429
▁sin	-430
▁kabuhi	-431
ungot	-432
utana	-433
▁gip	-434
ahang	-435
asa	-436
tar	-437
usan	-438
hihimo	-439
▁ispirito	-440
▁habang	-441
utang	-442
lok	-443
▁anay	-444
▁lahi	-445
▁ibang	-446
ed	-447
yen	-448
▁rili	-449
▁nato	-450
adayon	-451
▁hariin	-452
▁abang	-453
ada	-454
dlo	-455
▁sina	-456
angab	-457
▁pro	-458
▁c	-459
▁nagtutuo	-460
ama	-461
▁ruhang	-462
ana	-463
angutana	-464
▁namo	-465
▁pagh	-466
acob	-467
▁jacob	-468
dong	-469
ayungot	-470
akas	-471
▁ingsisiling	-472
do	-473
abaw	-474
akong	-475
▁tal	-476
▁katap	-477
orme	-478
▁bat	-479
tudlo	-480
umporme	-481
pe	-482
▁asing	-483
awas	-484
▁asawa	-485
▁bayay	-486
hom	-487
▁magb	-488
▁gingb	-489
ahangyan	-490
▁hado	-491
uyatan	-492
▁hadop	-493
▁katapusan	-494
isa	-495
▁sal	-496
▁gingt	-497
ser	-498
▁pati	-499
pon	-500
▁aya	-501
iging	-502
▁nakas	-503
et	-504
▁kumporme	-505
▁kinahangyan	-506
rah	-507
▁tu	-508
▁sarili	-509
▁masunor	-510
ok	-511
▁gustong	-512
▁kal	-513
▁uga	-514
sunor	-515
aas	-516
▁gahom	-517
ismo	-518
raya	-519
▁mah	-520
▁pap	-521
raham	-522
▁yawas	-523
▁abraham	-524
▁sy	-525
▁maramong	-526
uma	-527
▁per	-528
▁kaya	-529
ron	-530
tao	-531
▁pinuno	-532
ote	-533
▁sug	-534
▁jose	-535
▁banwa	-536
▁pablo	-537
▁ugaling	-538
uton	-539
aoy	-540
alar	-541
usog	-542
▁nab	-543
▁yangey	-544
▁ingtat	-545
elin	-546
▁gingh	-547
uda	-548
ayam	-549
▁oras	-550
elinhon	-551
mot	-552
agan	-553
▁dis	-554
inggw	-555
▁pagabot	-556
▁han	-557
ray	-558
dote	-559
ipon	-560
anghel	-561
▁saser	-562
▁israelinhon	-563
wat	-564
▁saserdote	-565
▁paraon	-566
▁al	-567
▁sub	-568
radong	-569
eb	-570
eh	-571
▁kap	-572
▁kabay	-573
▁anghel	-574
▁gusto	-575
tor	-576
▁sab	-577
usgar	-578
unang	-579
uuran	-580
udad	-581
ilaya	-582
aron	-583
ago	-584
udlo	-585
unan	-586
unot	-587
eo	-588
int	-589
alib	-590
ern	-591
▁pagm	-592
▁magiging	-593
ulig	-594
▁pinak	-595
ahadlok	-596
▁syudad	-597
mp	-598
uwas	-599
▁tub	-600
haw	-601
▁perm	-602
ayaman	-603
edro	-604
▁pedro	-605
▁tin	-606
alanan	-607
▁mal	-608
ahon	-609
angabuhi	-610
way	-611
inan	-612
war	-613
▁bug	-614
yendi	-615
▁suyor	-616
bis	-617
ol	-618
emp	-619
ens	-620
▁prope	-621
▁manugsunor	-622
tay	-623
alita	-624
amatuor	-625
▁tawong	-626
▁sun	-627
tuman	-628
▁karn	-629
▁wayaey	-630
isip	-631
anim	-632
▁ingsiling	-633
anay	-634
dang	-635
long	-636
▁sag	-637
ulipon	-638
▁propeta	-639
ding	-640
amuyo	-641
▁pauno	-642
▁naging	-643
▁suguon	-644
▁magh	-645
uot	-646
▁pas	-647
▁san	-648
▁laban	-649
▁damot	-650
▁sio	-651
arong	-652
itong	-653
▁nagsus	-654
sa	-655
intyendi	-656
ungan	-657
▁ingk	-658
aling	-659
▁juan	-660
▁pagt	-661
▁narung	-662
▁ar	-663
upan	-664
▁baw	-665
▁ginoong	-666
▁karnero	-667
▁pagmuyat	-668
▁pagka	-669
▁asa	-670
inggwa	-671
▁makak	-672
▁inanak	-673
▁him	-674
atlong	-675
erus	-676
erusal	-677
▁narunggan	-678
▁ingtatawag	-679
ran	-680
akay	-681
▁sala	-682
erusalem	-683
▁raan	-684
usahan	-685
▁maguy	-686
▁indiey	-687
▁sagradong	-688
▁pagkaon	-689
▁papagto	-690
ahu	-691
▁nagpangutana	-692
ador	-693
ayanan	-694
▁panahon	-695
eya	-696
lan	-697
unon	-698
arungog	-699
▁rakong	-700
ugay	-701
bisyo	-702
re	-703
ahe	-704
▁pil	-705
inrog	-706
▁gingpap	-707
▁nagpagto	-708
awo	-709
ting	-710
ikita	-711
▁inug	-712
▁kasuyatan	-713
▁bal	-714
▁tol	-715
aabot	-716
▁kamong	-717
▁nar	-718
▁ahim	-719
▁tana	-720
▁hesuk	-721
▁hesukristo	-722
akig	-723
ipus	-724
▁may	-725
▁min	-726
▁tuig	-727
▁buyawan	-728
▁tagipus	-729
▁tagipusuon	-730
agang	-731
emplo	-732
▁mang	-733
▁balita	-734
▁ngayan	-735
▁kasalanan	-736
akop	-737
▁mags	-738
▁tubi	-739
uks	-740
▁liwat	-741
▁natabo	-742
▁talaga	-743
agat	-744
dayaw	-745
▁kwar	-746
▁kl	-747
asan	-748
▁bin	-749
▁disip	-750
▁nagtit	-751
▁sinrang	-752
▁bugos	-753
▁kamat	-754
▁templo	-755
▁inghimo	-756
▁kamatay	-757
▁kamatuuran	-758
▁es	-759
agar	-760
aduhan	-761
▁kamatayon	-762
▁isa	-763
▁isip	-764
te	-765
rang	-766
▁kaaduhan	-767
▁bisayahon	-768
▁herusalem	-769
▁namatay	-770
▁inghihimo	-771
▁pagpalangga	-772
kor	-773
atabo	-774
▁kuno	-775
▁sino	-776
▁nagli	-777
adya	-778
uhon	-779
unga	-780
unong	-781
akupan	-782
angamuyo	-783
▁nagr	-784
▁butang	-785
akit	-786
away	-787
utong	-788
▁kan	-789
▁puyding	-790
▁bato	-791
abaton	-792
▁mismo	-793
de	-794
ugon	-795
uyog	-796
▁nagabot	-797
bi	-798
anaw	-799
asiling	-800
erbisyo	-801
▁mayaot	-802
▁ahimuon	-803
▁disipul	-804
▁itao	-805
▁kabub	-806
▁kahad	-807
▁pitong	-808
▁ulipon	-809
▁disipulos	-810
bo	-811
go	-812
rapan	-813
▁makita	-814
▁kabubuton	-815
eho	-816
▁dati	-817
▁tuna	-818
▁tinap	-819
▁unang	-820
ibisaya	-821
▁git	-822
▁pis	-823
▁nagi	-824
pa	-825
▁gob	-826
▁buhi	-827
▁matarong	-828
▁nakasuyat	-829
pas	-830
tol	-831
apostol	-832
arusahan	-833
ilin	-834
istar	-835
▁bala	-836
▁nagka	-837
▁mayain	-838
▁ginghimo	-839
umpa	-840
▁lal	-841
▁bawat	-842
▁parti	-843
aba	-844
uoy	-845
aran	-846
▁santo	-847
uha	-848
▁baro	-849
▁puno	-850
ahalin	-851
anghor	-852
▁aaron	-853
animati	-854
▁himuon	-855
rab	-856
▁kara	-857
▁nina	-858
▁tama	-859
ernador	-860
▁apostol	-861
▁kayainan	-862
▁sariling	-863
▁sinakupan	-864
ma	-865
uro	-866
alig	-867
▁mam	-868
▁pat	-869
▁rang	-870
▁ingtu	-871
▁isaac	-872
▁nanay	-873
▁minatay	-874
▁gobernador	-875
araya	-876
vi	-877
▁ig	-878
▁nah	-879
igk	-880
▁kahim	-881
▁karapat	-882
▁ub	-883
▁gin	-884
aliwas	-885
umanon	-886
▁ragat	-887
▁mamatay	-888
▁kisa	-889
ahadag	-890
▁perming	-891
▁hi	-892
agusa	-893
▁sunda	-894
ins	-895
unggan	-896
▁tinapay	-897
rus	-898
▁hanrom	-899
ady	-900
utom	-901
akama	-902
ayang	-903
▁gabi	-904
▁tunga	-905
amb	-906
atan	-907
ulo	-908
▁rugo	-909
▁bagay	-910
▁balaan	-911
▁tatlong	-912
▁mayungot	-913
anda	-914
▁kak	-915
akaon	-916
untor	-917
▁makas	-918
▁manugb	-919
ec	-920
romisa	-921
▁usagusa	-922
▁baguntor	-923
mon	-924
ukir	-925
▁magt	-926
ahuway	-927
awuhan	-928
▁hirap	-929
▁padayon	-930
▁sundalo	-931
▁talagang	-932
▁katawuhan	-933
▁pagkakita	-934
▁gik	-935
matay	-936
▁apat	-937
amp	-938
wag	-939
tanan	-940
▁nagra	-941
amit	-942
tala	-943
tismo	-944
ayawan	-945
▁manghor	-946
abanhaw	-947
▁pagbalik	-948
▁gingsiling	-949
▁mil	-950
▁nagy	-951
▁nagpa	-952
▁ingtao	-953
ugan	-954
ugot	-955
uyan	-956
▁hagto	-957
▁pangayan	-958
ki	-959
▁rayan	-960
▁bagong	-961
▁marakong	-962
▁nagsisiling	-963
ura	-964
▁gis	-965
▁nakat	-966
▁puyde	-967
▁pilang	-968
▁makusog	-969
▁mayaing	-970
▁nagsusunor	-971
ros	-972
▁pr	-973
amang	-974
tanas	-975
▁krus	-976
▁satanas	-977
▁pagtudlo	-978
iseo	-979
▁una	-980
halar	-981
▁mais	-982
▁tanra	-983
▁ingpang	-984
▁pariseo	-985
▁pagsiling	-986
agk	-987
dis	-988
akus	-989
▁hal	-990
▁mali	-991
▁raya	-992
▁altar	-993
▁nagtat	-994
▁paghari	-995
▁sabaling	-996
mb	-997
▁tr	-998
agom	-999
▁kit	-1000
▁sig	-1001
anaan	-1002
arian	-1003
▁juda	-1004
awagit	-1005
▁dating	-1006
▁riling	-1007
no	-1008
▁hina	-1009
▁napasiling	-1010
aring	-1011
▁ruha	-1012
▁magka	-1013
▁kasugtanan	-1014
▁nagpadayon	-1015
atub	-1016
asawa	-1017
▁nakak	-1018
▁pagpangabuhi	-1019
ingaya	-1020
igo	-1021
umr	-1022
bins	-1023
▁gib	-1024
▁nam	-1025
atubang	-1026
▁ninrong	-1027
tahan	-1028
▁naka	-1029
▁sugo	-1030
▁nasyon	-1031
▁ingsugo	-1032
▁pagkarungog	-1033
ato	-1034
ayo	-1035
mpyo	-1036
wali	-1037
alibot	-1038
▁sabat	-1039
▁pareho	-1040
▁karapatan	-1041
inom	-1042
▁baka	-1043
▁rako	-1044
amataas	-1045
▁haring	-1046
au	-1047
aton	-1048
hanon	-1049
▁naghalin	-1050
▁pinakamataas	-1051
▁bes	-1052
▁uyo	-1053
▁siki	-1054
▁maabot	-1055
▁tamang	-1056
▁apostoles	-1057
▁z	-1058
agro	-1059
lano	-1060
▁lib	-1061
atawo	-1062
akigusa	-1063
▁milagro	-1064
▁kahimaya	-1065
▁matatabo	-1066
▁nagbisaya	-1067
tra	-1068
alay	-1069
▁gam	-1070
▁buot	-1071
▁rutong	-1072
▁kahimayaan	-1073
pis	-1074
▁imp	-1075
torya	-1076
▁manun	-1077
▁niong	-1078
▁nagpapang	-1079
▁kahahadlok	-1080
▁ehiptohanon	-1081
uba	-1082
ayom	-1083
▁esau	-1084
ikanan	-1085
hirapan	-1086
▁nagsugo	-1087
▁ginikanan	-1088
▁am	-1089
▁pw	-1090
inuy	-1091
ukaw	-1092
umon	-1093
uksok	-1094
binsya	-1095
ilidad	-1096
▁ingpa	-1097
adyahan	-1098
▁ingraya	-1099
▁makikita	-1100
ira	-1101
ugro	-1102
▁bak	-1103
▁buh	-1104
▁pam	-1105
▁ingi	-1106
▁habig	-1107
▁ibabaw	-1108
▁punong	-1109
▁dayawan	-1110
▁gingsugo	-1111
▁inghuman	-1112
▁manunudlo	-1113
▁pagbisaya	-1114
est	-1115
adan	-1116
agtu	-1117
nunot	-1118
▁inugp	-1119
utangan	-1120
▁kahadlok	-1121
▁nagpayungot	-1122
▁ep	-1123
uyag	-1124
▁gipap	-1125
▁mapap	-1126
▁le	-1127
ubli	-1128
ensya	-1129
ingkor	-1130
▁beses	-1131
▁isigk	-1132
▁permi	-1133
▁isigkatawo	-1134
aho	-1135
▁dose	-1136
▁nagg	-1137
alamat	-1138
▁tolda	-1139
akasala	-1140
▁toldang	-1141
▁probinsya	-1142
▁ingtatawagey	-1143
ri	-1144
leya	-1145
arako	-1146
▁yabaw	-1147
▁maguyang	-1148
▁huli	-1149
▁maka	-1150
▁naga	-1151
▁bukir	-1152
▁nagkainggwa	-1153
ha	-1154
auli	-1155
▁maa	-1156
▁puyos	-1157
▁simon	-1158
ain	-1159
day	-1160
lib	-1161
agah	-1162
itan	-1163
ulay	-1164
upar	-1165
▁bas	-1166
▁taga	-1167
▁canaan	-1168
▁ingpat	-1169
akamaado	-1170
▁nagpang	-1171
▁subrang	-1172
▁ingtawan	-1173
▁pagdayaw	-1174
ulag	-1175
▁kur	-1176
▁pris	-1177
alipas	-1178
usgaran	-1179
son	-1180
atib	-1181
iton	-1182
▁pal	-1183
rabaho	-1184
▁bunga	-1185
▁hanra	-1186
▁nakikita	-1187
▁inugpahuway	-1188
se	-1189
aki	-1190
uyati	-1191
▁gali	-1192
▁mari	-1193
▁alang	-1194
▁kayado	-1195
▁nakong	-1196
▁marugay	-1197
▁nagtatao	-1198
intyendihan	-1199
▁masisiling	-1200
vid	-1201
yos	-1202
▁ah	-1203
apoy	-1204
▁ara	-1205
▁david	-1206
▁pangr	-1207
▁mapasa	-1208
▁manggar	-1209
▁palibot	-1210
▁nagsuyor	-1211
▁alangalang	-1212
he	-1213
▁no	-1214
apar	-1215
agoga	-1216
▁mata	-1217
aguman	-1218
▁liwas	-1219
▁pilato	-1220
▁sidang	-1221
asalamat	-1222
▁nagbalik	-1223
▁pagsunor	-1224
▁sinagoga	-1225
ela	-1226
uel	-1227
rali	-1228
▁hero	-1229
▁maria	-1230
▁pagto	-1231
▁kwarta	-1232
▁ginghihimo	-1233
gi	-1234
hig	-1235
▁bay	-1236
uling	-1237
▁pagr	-1238
▁ipakita	-1239
eyn	-1240
hin	-1241
sor	-1242
soy	-1243
mang	-1244
uhor	-1245
▁bil	-1246
▁eli	-1247
▁put	-1248
▁puro	-1249
abuton	-1250
▁nasas	-1251
▁muyati	-1252
▁nagtuo	-1253
▁tumanon	-1254
▁galileya	-1255
▁palangga	-1256
▁paghusgar	-1257
bing	-1258
umir	-1259
ayong	-1260
uyang	-1261
▁lalo	-1262
▁suba	-1263
ayawon	-1264
▁anyos	-1265
▁pagtu	-1266
▁pista	-1267
▁plano	-1268
inuysoy	-1269
▁nakaabot	-1270
la	-1271
oses	-1272
uyub	-1273
▁hang	-1274
▁mens	-1275
▁pwer	-1276
antala	-1277
asakop	-1278
▁pilak	-1279
▁ayamey	-1280
▁bukoey	-1281
▁kitang	-1282
▁mensahe	-1283
▁naghihimo	-1284
ila	-1285
ngan	-1286
pati	-1287
rayom	-1288
▁pala	-1289
agahom	-1290
agtuan	-1291
▁boses	-1292
▁human	-1293
▁maayam	-1294
▁magtuo	-1295
▁ninrang	-1296
▁abilidad	-1297
▁masiling	-1298
▁mayungotey	-1299
ba	-1300
iya	-1301
abaty	-1302
antay	-1303
uyong	-1304
▁kana	-1305
ahanap	-1306
alinan	-1307
atuyar	-1308
▁balor	-1309
▁bulag	-1310
awtismo	-1311
▁diling	-1312
▁gingtu	-1313
▁irayom	-1314
▁israel	-1315
▁maisot	-1316
▁nidang	-1317
▁isiling	-1318
▁pagserbisyo	-1319
lay	-1320
a	-1321
▁	-1322
n	-1323
i	-1324
g	-1325
k	-1326
o	-1327
s	-1328
t	-1329
r	-1330
u	-1331
m	-1332
y	-1333
p	-1334
d	-1335
l	-1336
b	-1337
h	-1338
e	-1339
w	-1340
c	-1341
j	-1342
z	-1343
v	-1344
0	-1345
