<unk>	0
<s>	0
</s>	0
▁c	-0
▁d	-1
▁e	-2
▁y	-3
▁m	-4
on	-5
en	-6
▁p	-7
▁el	-8
▁a	-9
▁s	-10
▁t	-11
es	-12
▁ma	-13
ga	-14
▁con	-15
la	-16
ra	-17
te	-18
▁ya	-19
qu	-20
▁de	-21
▁di	-22
▁n	-23
▁ta	-24
▁si	-25
er	-26
▁qu	-27
▁maga	-28
▁h	-29
us	-30
le	-31
▁pa	-32
os	-33
▁ca	-34
ta	-35
da	-36
ien	-37
re	-38
▁na	-39
▁es	-40
or	-41
▁us	-42
de	-43
▁uste	-44
▁ha	-45
▁que	-46
do	-47
▁j	-48
▁del	-49
ri	-50
un	-51
▁ay	-52
des	-53
▁ustedes	-54
ci	-55
▁g	-56
to	-57
▁b	-58
yo	-59
▁para	-60
ua	-61
ente	-62
▁le	-63
mo	-64
ca	-65
▁dios	-66
ro	-67
▁sa	-68
▁man	-69
▁o	-70
▁ga	-71
in	-72
▁mi	-73
▁gente	-74
▁yo	-75
▁su	-76
▁en	-77
▁sila	-78
ce	-79
bla	-80
▁v	-81
▁habla	-82
▁l	-83
▁an	-84
▁ele	-85
▁quien	-86
ue	-87
ila	-88
▁gayo	-89
▁gayot	-90
▁jes	-91
▁un	-92
ero	-93
▁ese	-94
di	-95
sa	-96
▁des	-97
lo	-98
ig	-99
▁por	-100
▁co	-101
ende	-102
men	-103
ma	-104
▁da	-105
▁can	-106
▁cos	-107
pu	-108
▁hace	-109
ita	-110
▁cay	-111
ti	-112
▁f	-113
el	-114
▁tamen	-115
mp	-116
▁la	-117
▁pue	-118
▁cosa	-119
▁to	-120
▁re	-121
▁hende	-122
iene	-123
▁no	-124
▁pero	-125
▁tiene	-126
be	-127
▁puede	-128
▁todo	-129
ba	-130
▁suyo	-131
uan	-132
▁aqu	-133
▁dale	-134
ton	-135
pues	-136
▁jesus	-137
ng	-138
▁despues	-139
ia	-140
igo	-141
uay	-142
▁nuay	-143
cri	-144
tra	-145
me	-146
uen	-147
▁mu	-148
▁al	-149
ces	-150
ida	-151
▁mas	-152
cion	-153
▁queda	-154
ene	-155
dio	-156
▁este	-157
tro	-158
▁cuan	-159
▁lang	-160
▁canila	-161
cia	-162
▁ba	-163
za	-164
eñ	-165
▁cuando	-166
migo	-167
▁ac	-168
ho	-169
▁aquel	-170
▁amo	-171
no	-172
▁k	-173
▁como	-174
▁ila	-175
sto	-176
emp	-177
▁kita	-178
bi	-179
▁pe	-180
▁bien	-181
▁conmigo	-182
▁lle	-183
mb	-184
usa	-185
▁mira	-186
res	-187
▁buen	-188
is	-189
va	-190
ucri	-191
▁tene	-192
ucristo	-193
▁jesucristo	-194
ier	-195
jo	-196
erca	-197
ina	-198
▁cu	-199
gu	-200
co	-201
▁sabe	-202
▁manda	-203
▁cre	-204
dad	-205
ja	-206
ensa	-207
tu	-208
li	-209
▁anda	-210
▁ju	-211
pa	-212
▁señ	-213
▁mio	-214
▁cont	-215
ran	-216
▁came	-217
▁señor	-218
▁pre	-219
▁acerca	-220
▁otro	-221
smo	-222
mon	-223
gar	-224
na	-225
▁mismo	-226
▁sale	-227
▁tu	-228
iere	-229
▁quiere	-230
bra	-231
vi	-232
▁causa	-233
▁tra	-234
tonces	-235
▁entonces	-236
eces	-237
▁cana	-238
▁cosas	-239
eso	-240
▁me	-241
▁pro	-242
▁lu	-243
sta	-244
▁ig	-245
hora	-246
▁ahora	-247
je	-248
▁fe	-249
gun	-250
▁esp	-251
▁sigu	-252
▁peca	-253
iento	-254
▁sigui	-255
▁poreso	-256
mbre	-257
▁neces	-258
▁judio	-259
▁ci	-260
po	-261
▁per	-262
▁medio	-263
▁oi	-264
▁dia	-265
unto	-266
▁lugar	-267
▁ti	-268
dor	-269
▁mun	-270
miento	-271
quin	-272
▁ent	-273
se	-274
▁po	-275
▁hasta	-276
▁masquin	-277
▁ana	-278
▁traba	-279
cho	-280
▁junto	-281
▁pi	-282
▁llega	-283
onde	-284
▁uno	-285
▁necesita	-286
▁aton	-287
▁mundo	-288
uda	-289
ve	-290
yente	-291
▁ans	-292
▁alla	-293
▁pad	-294
▁vida	-295
ol	-296
▁padre	-297
▁donde	-298
idad	-299
▁i	-300
▁pensa	-301
▁bueno	-302
▁ansina	-303
▁creyente	-304
ria	-305
▁casa	-306
der	-307
▁gran	-308
▁pecado	-309
ual	-310
▁vi	-311
▁res	-312
tes	-313
ch	-314
empo	-315
los	-316
▁her	-317
▁reci	-318
▁cuer	-319
▁recibi	-320
▁tiempo	-321
▁sino	-322
▁escri	-323
vo	-324
blo	-325
▁cuerpo	-326
▁antes	-327
am	-328
▁cla	-329
lla	-330
▁	-331
a	-332
e	-333
o	-334
n	-335
i	-336
s	-337
l	-338
d	-339
t	-340
c	-341
u	-342
r	-343
y	-344
m	-345
p	-346
g	-347
b	-348
q	-349
h	-350
j	-351
v	-352
f	-353
z	-354
k	-355
ñ	-356
