<unk>	0
<s>	0
</s>	0
ng	-0
▁s	-1
ag	-2
▁sa	-3
▁k	-4
an	-5
▁m	-6
la	-7
▁a	-8
▁n	-9
in	-10
nga	-11
on	-12
▁nga	-13
▁ka	-14
▁sang	-15
▁i	-16
▁ang	-17
ga	-18
▁kag	-19
pa	-20
▁si	-21
ta	-22
▁nag	-23
▁mga	-24
ba	-25
ya	-26
li	-27
▁p	-28
mo	-29
▁g	-30
ka	-31
ha	-32
▁ma	-33
▁t	-34
bu	-35
wa	-36
▁ni	-37
sa	-38
▁d	-39
ud	-40
▁iya	-41
▁gin	-42
lo	-43
▁ba	-44
ma	-45
▁pag	-46
▁mag	-47
▁na	-48
▁in	-49
▁ak	-50
yo	-51
hi	-52
▁naga	-53
tu	-54
▁G	-55
▁sing	-56
si	-57
da	-58
▁A	-59
ug	-60
▁K	-61
to	-62
os	-63
▁pa	-64
ri	-65
▁sia	-66
ling	-67
ana	-68
ino	-69
▁imo	-70
ki	-71
inoo	-72
▁Ginoo	-73
▁bu	-74
taw	-75
lu	-76
▁sila	-77
▁akon	-78
▁S	-79
▁ila	-80
bi	-81
ra	-82
ut	-83
siling	-84
▁"	-85
▁D	-86
han	-87
tawo	-88
▁Kag	-89
▁la	-90
▁J	-91
▁du	-92
▁tu	-93
▁kay	-94
anan	-95
di	-96
▁bala	-97
▁ha	-98
bo	-99
lag	-100
wala	-101
▁ako	-102
▁u	-103
ti	-104
▁sin	-105
▁niya	-106
▁wala	-107
▁gi	-108
anak	-109
ios	-110
▁ko	-111
▁ini	-112
▁anak	-113
pang	-114
▁maga	-115
▁Dios	-116
yan	-117
ung	-118
▁I	-119
su	-120
▁N	-121
▁man	-122
lan	-123
▁tanan	-124
el	-125
ban	-126
kan	-127
."	-128
▁M	-129
er	-130
law	-131
▁sini	-132
pu	-133
▁Sa	-134
olo	-135
▁inyo	-136
hu	-137
ron	-138
himo	-139
ton	-140
▁tawo	-141
▁di	-142
▁Ang	-143
ku	-144
tan	-145
san	-146
▁nagsiling	-147
▁kamo	-148
pi	-149
▁da	-150
aga	-151
na	-152
▁su	-153
▁isa	-154
▁kon	-155
dto	-156
ngud	-157
▁duta	-158
▁indi	-159
▁B	-160
▁kam	-161
tang	-162
▁nagpa	-163
▁nila	-164
dlaw	-165
▁gina	-166
ko	-167
▁gikan	-168
tay	-169
▁lala	-170
▁ti	-171
▁lalaki	-172
kon	-173
as	-174
tag	-175
▁E	-176
▁adlaw	-177
ina	-178
▁ta	-179
tawohan	-180
▁Is	-181
bong	-182
ani	-183
▁ya	-184
▁katawohan	-185
og	-186
es	-187
but	-188
um	-189
rael	-190
▁Israel	-191
▁maka	-192
▁hari	-193
▁mo	-194
▁Ka	-195
▁amo	-196
▁may	-197
▁tag	-198
hon	-199
mon	-200
▁bi	-201
▁pagka	-202
▁ga	-203
ngan	-204
ran	-205
ip	-206
do	-207
▁ginpa	-208
tin	-209
▁pagpa	-210
tub	-211
lad	-212
▁ika	-213
ngin	-214
▁subong	-215
it	-216
kita	-217
▁bug	-218
ad	-219
bay	-220
mu	-221
▁ukon	-222
way	-223
▁karon	-224
dala	-225
inyo	-226
ayo	-227
▁ninyo	-228
ono	-229
▁apang	-230
id	-231
▁kau	-232
lay	-233
▁H	-234
▁Ni	-235
tuba	-236
▁manug	-237
▁bisan	-238
▁Si	-239
▁nagapa	-240
ili	-241
pud	-242
▁ku	-243
pon	-244
▁Niyan	-245
abut	-246
ano	-247
dug	-248
du	-249
▁kamut	-250
▁bato	-251
long	-252
laut	-253
pan	-254
▁Apang	-255
▁naka	-256
usa	-257
▁li	-258
▁mata	-259
▁magpa	-260
em	-261
ari	-262
ig	-263
lon	-264
▁balay	-265
lig	-266
may	-267
▁b	-268
▁atuba	-269
am	-270
hatag	-271
▁pu	-272
ala	-273
▁Je	-274
▁nagasiling	-275
is	-276
▁tungud	-277
▁Kay	-278
▁babay	-279
yon	-280
▁babayi	-281
▁ag	-282
▁mangin	-283
ogo	-284
▁atubangan	-285
▁sono	-286
lud	-287
▁duha	-288
olong	-289
▁yara	-290
▁Da	-291
▁P	-292
▁agud	-293
lin	-294
▁O	-295
▁C	-296
▁ban	-297
▁kami	-298
tindug	-299
▁butang	-300
ub	-301
was	-302
▁tagsa	-303
lagad	-304
owa	-305
▁pi	-306
▁polong	-307
▁hi	-308
galing	-309
▁gid	-310
▁'	-311
▁batok	-312
▁kaa	-313
rung	-314
▁lu	-315
te	-316
▁kali	-317
so	-318
ar	-319
▁tub	-320
ho	-321
▁c	-322
ham	-323
sug	-324
▁tubtub	-325
▁Jud	-326
galingon	-327
▁bangud	-328
molong	-329
▁halad	-330
▁kaugalingon	-331
no	-332
hin	-333
▁Dav	-334
▁David	-335
▁ikaw	-336
yang	-337
pay	-338
▁ano	-339
oso	-340
▁banwa	-341
▁Jer	-342
▁Gani	-343
▁L	-344
▁amon	-345
lang	-346
▁tunga	-347
agi	-348
▁Mo	-349
buhi	-350
ita	-351
sogo	-352
▁Jesu	-353
pat	-354
kadto	-355
▁pani	-356
▁aton	-357
man	-358
ugma	-359
wan	-360
▁Jo	-361
lat	-362
▁upud	-363
▁T	-364
▁es	-365
ab	-366
cer	-367
dote	-368
cerdote	-369
▁didto	-370
▁amay	-371
baw	-372
iposo	-373
iposoon	-374
▁nagaka	-375
▁Ma	-376
▁tagiposoon	-377
▁sining	-378
▁malaut	-379
hiba	-380
▁pagkama	-381
kat	-382
▁maayo	-383
▁mada	-384
kig	-385
▁kala	-386
▁sacerdote	-387
hibalo	-388
kuha	-389
tus	-390
▁ngalan	-391
▁ut	-392
mang	-393
ungud	-394
sulud	-395
?"	-396
big	-397
ngay	-398
▁tuig	-399
▁kondi	-400
▁walay	-401
pus	-402
▁lalaking	-403
▁Jesus	-404
▁alagad	-405
lak	-406
co	-407
ises	-408
▁dili	-409
▁Moises	-410
sud	-411
ang	-412
▁kada	-413
▁ting	-414
gan	-415
▁duug	-416
▁dalan	-417
malay	-418
ro	-419
dum	-420
▁panimalay	-421
▁pang	-422
mati	-423
▁Juda	-424
lem	-425
kama	-426
▁Ba	-427
▁Na	-428
▁utud	-429
▁Jerusa	-430
lala	-431
tlo	-432
▁Jerusalem	-433
ni	-434
non	-435
yaw	-436
hanungud	-437
bat	-438
pulo	-439
pit	-440
butang	-441
hay	-442
son	-443
hari	-444
▁F	-445
▁Nag	-446
ero	-447
tuud	-448
qu	-449
bilin	-450
en	-451
▁nakita	-452
too	-453
▁Eg	-454
.'	-455
bali	-456
babaw	-457
laglag	-458
▁mapa	-459
aw	-460
bati	-461
▁paagi	-462
ipto	-463
sing	-464
▁kaba	-465
▁lang	-466
▁Egipto	-467
▁niyan	-468
▁magapa	-469
dan	-470
mba	-471
ul	-472
wat	-473
hum	-474
il	-475
wang	-476
ias	-477
▁kata	-478
▁nagsa	-479
▁langit	-480
hig	-481
▁hu	-482
lakat	-483
kilala	-484
Ang	-485
tug	-486
▁ginhimo	-487
▁ibabaw	-488
▁l	-489
▁Sang	-490
dlu	-491
▁magka	-492
▁tubig	-493
▁tin	-494
▁yari	-495
▁Karon	-496
sala	-497
▁nahanungud	-498
tak	-499
▁kutub	-500
un	-501
▁kita	-502
piri	-503
piritu	-504
sawa	-505
kag	-506
puyo	-507
▁Busa	-508
▁tion	-509
gu	-510
hadlu	-511
Yari	-512
tolo	-513
▁pana	-514
loo	-515
lum	-516
hang	-517
▁pung	-518
▁sala	-519
▁dug	-520
▁himo	-521
▁baga	-522
▁R	-523
dad	-524
▁napa	-525
▁sadto	-526
▁pungsud	-527
▁iban	-528
▁gatus	-529
bon	-530
▁Gin	-531
▁hala	-532
kod	-533
ris	-534
▁kaangay	-535
▁Ab	-536
▁dalanon	-537
hapon	-538
Wala	-539
▁kati	-540
hadluk	-541
maya	-542
uha	-543
away	-544
ia	-545
et	-546
▁kalayo	-547
▁pan	-548
up	-549
risto	-550
gowa	-551
▁ginasiling	-552
oo	-553
or	-554
lawan	-555
hanon	-556
▁kama	-557
nan	-558
▁Ja	-559
tawag	-560
▁mala	-561
▁pala	-562
▁Kon	-563
lipon	-564
▁daku	-565
▁mana	-566
kot	-567
▁diin	-568
bung	-569
im	-570
▁gam	-571
luwas	-572
us	-573
▁kabu	-574
pana	-575
▁kabi	-576
▁napulo	-577
una	-578
▁kasa	-579
higugma	-580
tarung	-581
balik	-582
▁kabuhi	-583
ed	-584
pada	-585
ngga	-586
osan	-587
▁balaan	-588
le	-589
▁himoon	-590
▁bulawan	-591
▁tingug	-592
go	-593
ik	-594
▁bagay	-595
▁tatlo	-596
▁bahin	-597
▁Ginoong	-598
lagna	-599
kal	-600
▁Jos	-601
sogoan	-602
▁libo	-603
▁kalag	-604
▁kasogoan	-605
▁Ini	-606
sum	-607
▁un	-608
▁lamang	-609
ndi	-610
▁manalagna	-611
▁katu	-612
▁nagsabat	-613
agat	-614
ci	-615
▁bin	-616
▁panap	-617
wag	-618
tali	-619
▁naghimo	-620
kid	-621
sol	-622
▁dolo	-623
ikanan	-624
▁ginikanan	-625
▁dios	-626
▁kaban	-627
▁kasol	-628
kud	-629
▁kina	-630
▁Es	-631
dadosan	-632
▁panapton	-633
▁kasoldadosan	-634
pag	-635
▁Pa	-636
▁dugo	-637
▁espada	-638
▁pito	-639
po	-640
sulat	-641
▁olo	-642
▁madamu	-643
udlo	-644
kahan	-645
▁pangolo	-646
▁matarung	-647
lus	-648
baton	-649
alagad	-650
▁ining	-651
▁ginapa	-652
ev	-653
kamaayo	-654
alam	-655
kom	-656
aron	-657
tinlo	-658
▁halaran	-659
onog	-660
libut	-661
▁baka	-662
▁nagka	-663
al	-664
hayag	-665
▁pina	-666
▁ipa	-667
▁gawang	-668
▁ginhatag	-669
eo	-670
mi	-671
taklad	-672
sin	-673
▁baba	-674
bantay	-675
▁sulud	-676
▁naha	-677
▁Saul	-678
harian	-679
▁gihapon	-680
at	-681
tugyan	-682
bal	-683
▁asawa	-684
rin	-685
huna	-686
▁Eli	-687
▁ginharian	-688
ara	-689
▁Amo	-690
▁nagtindug	-691
gay	-692
lipay	-693
▁Cristo	-694
hanan	-695
▁kapa	-696
▁labi	-697
bus	-698
▁paghi	-699
▁nagkadto	-700
rinc	-701
▁car	-702
▁nagpamolong	-703
ca	-704
tun	-705
rincip	-706
▁kalaut	-707
cob	-708
▁puno	-709
rincipe	-710
isi	-711
▁Jacob	-712
nero	-713
▁lima	-714
▁Mag	-715
▁namon	-716
▁himaya	-717
▁carnero	-718
ria	-719
watan	-720
▁kaupud	-721
nak	-722
tum	-723
▁unud	-724
anay	-725
▁Wala	-726
▁kabikahan	-727
hag	-728
dait	-729
▁principe	-730
layang	-731
lingkod	-732
▁gindala	-733
▁Se	-734
▁Hari	-735
▁magaka	-736
yanglayang	-737
hat	-738
looy	-739
▁sogo	-740
▁Lev	-741
lanan	-742
▁apat	-743
hamtang	-744
▁sadtong	-745
dab	-746
lagyo	-747
▁dima	-748
upud	-749
sugid	-750
singkal	-751
ubli	-752
lut	-753
dalum	-754
uli	-755
▁layanglayang	-756
hoy	-757
pas	-758
▁kaliwatan	-759
Sa	-760
bok	-761
sono	-762
▁naggowa	-763
bud	-764
▁pagkamatuud	-765
▁pama	-766
kaw	-767
▁kaaway	-768
▁ilo	-769
▁naw	-770
▁Aaron	-771
▁nawung	-772
▁palibut	-773
inhon	-774
tipon	-775
▁pulo	-776
▁kalautan	-777
▁nangin	-778
oli	-779
▁bulan	-780
dolo	-781
▁aga	-782
▁Dili	-783
don	-784
▁nahimo	-785
dayon	-786
hukom	-787
tagsa	-788
▁tagsatagsa	-789
▁liwat	-790
haw	-791
pung	-792
▁espiritu	-793
▁paghimo	-794
kus	-795
▁mani	-796
▁tina	-797
▁malig	-798
las	-799
sonod	-800
▁buhi	-801
ong	-802
▁ginba	-803
lam	-804
▁Ha	-805
▁nahauna	-806
tas	-807
io	-808
lapit	-809
▁idalum	-810
▁inug	-811
▁kaminga	-812
muyo	-813
▁Yari	-814
ngamuyo	-815
▁dagat	-816
▁pilak	-817
Kon	-818
▁kadam	-819
▁tingub	-820
bang	-821
▁tapus	-822
day	-823
inum	-824
▁mapatay	-825
▁nabilin	-826
kay	-827
sang	-828
▁makita	-829
luy	-830
▁Espiritu	-831
▁Abra	-832
▁kamatay	-833
▁busa	-834
gulang	-835
▁kahoy	-836
butan	-837
▁ginsa	-838
layon	-839
▁Salo	-840
▁tiil	-841
▁nayon	-842
▁maghimo	-843
▁tan	-844
▁Salomon	-845
anas	-846
duma	-847
▁iloy	-848
▁kamingawan	-849
kup	-850
▁pagla	-851
put	-852
▁buut	-853
git	-854
anhon	-855
halad	-856
hambal	-857
atan	-858
▁Ako	-859
▁Fili	-860
▁bali	-861
pangita	-862
▁kalan	-863
bilon	-864
tunda	-865
▁pagkamatarung	-866
▁pati	-867
▁Babilon	-868
gang	-869
▁Filis	-870
▁dologan	-871
▁nagpadala	-872
bala	-873
▁san	-874
gaa	-875
gon	-876
lung	-877
▁Babilonia	-878
▁manugtunda	-879
ay	-880
sinonog	-881
kit	-882
eb	-883
▁Su	-884
batian	-885
tinhon	-886
▁bukid	-887
▁Levinhon	-888
▁Filistinhon	-889
era	-890
!"	-891
pin	-892
▁Judio	-893
▁makakita	-894
Pa	-895
taas	-896
▁nagasa	-897
hina	-898
▁tigulang	-899
▁Ga	-900
araon	-901
huway	-902
▁tama	-903
ublion	-904
▁Faraon	-905
▁gamhanan	-906
tagon	-907
▁binuha	-908
▁Abi	-909
lok	-910
kung	-911
▁bo	-912
tuman	-913
▁gahum	-914
▁sapat	-915
▁Isa	-916
eon	-917
pukan	-918
▁ginsogo	-919
▁binuhatan	-920
mat	-921
▁Naga	-922
▁ginto	-923
▁maniko	-924
▁latagon	-925
ulu	-926
dla	-927
▁Indi	-928
▁tinapay	-929
▁dal	-930
▁gintoton	-931
▁panublion	-932
▁an	-933
aman	-934
dong	-935
duha	-936
dolot	-937
▁itolo	-938
▁yadto	-939
▁kapi	-940
▁inaway	-941
▁itololok	-942
ago	-943
▁Amay	-944
▁ihatag	-945
▁pagtoo	-946
▁napatay	-947
▁malauton	-948
▁kalibutan	-949
hila	-950
taliwan	-951
hinga	-952
▁lawas	-953
pak	-954
wad	-955
lahan	-956
hangup	-957
▁ginkuha	-958
▁katipan	-959
olihi	-960
▁Jose	-961
▁luyo	-962
▁hin	-963
▁una	-964
hog	-965
▁Maga	-966
re	-967
emp	-968
Dili	-969
▁bata	-970
ilid	-971
▁pakadto	-972
lub	-973
▁Anak	-974
mangkot	-975
▁paghidait	-976
▁Mi	-977
pusan	-978
▁kilid	-979
▁Abraham	-980
ef	-981
agaw	-982
▁nakon	-983
▁katapusan	-984
▁kad	-985
▁kan	-986
emplo	-987
ligya	-988
▁templo	-989
▁nagsulud	-990
▁kasingkal	-991
▁ginoo	-992
singgit	-993
▁tinday	-994
ac	-995
ir	-996
kug	-997
▁Bet	-998
▁kamatayon	-999
iya	-1000
▁Bu	-1001
▁maayong	-1002
▁Ef	-1003
▁to	-1004
wason	-1005
▁pagda	-1006
kut	-1007
▁nagahimo	-1008
▁ginbutang	-1009
▁makahibalo	-1010
▁La	-1011
taan	-1012
▁pagbu	-1013
▁ulipon	-1014
.'"	-1015
lab	-1016
lim	-1017
balaan	-1018
edro	-1019
▁alak	-1020
▁dakung	-1021
ue	-1022
▁kaalam	-1023
▁magpamati	-1024
bas	-1025
▁pum	-1026
uluyo	-1027
▁pumuluyo	-1028
hud	-1029
ksi	-1030
▁kusug	-1031
▁nagtu	-1032
Amo	-1033
sumpa	-1034
▁bunga	-1035
haan	-1036
▁Ben	-1037
haton	-1038
quias	-1039
▁nagha	-1040
tok	-1041
▁anum	-1042
▁dalag	-1043
lhog	-1044
▁too	-1045
anong	-1046
pagowa	-1047
▁buhat	-1048
▁magsiling	-1049
ib	-1050
bog	-1051
otay	-1052
sonog	-1053
tam	-1054
ding	-1055
hana	-1056
kuran	-1057
waanan	-1058
▁manugpa	-1059
Ano	-1060
dya	-1061
▁gan	-1062
▁bulu	-1063
▁ganhaan	-1064
▁napulog	-1065
▁paghigugma	-1066
lup	-1067
sig	-1068
▁Be	-1069
▁Josue	-1070
▁kadamu	-1071
▁naglakat	-1072
dali	-1073
▁kuta	-1074
ngabud	-1075
subong	-1076
lingban	-1077
▁isiling	-1078
▁nagpuyo	-1079
▁kabanwaanan	-1080
▁katilingban	-1081
▁diri	-1082
▁panong	-1083
▁daw	-1084
hanglan	-1085
▁kun	-1086
dumala	-1087
▁patay	-1088
▁nabatian	-1089
sia	-1090
amin	-1091
▁lana	-1092
kas	-1093
awa	-1094
dag	-1095
ikan	-1096
▁paano	-1097
hibaloan	-1098
▁ikapulo	-1099
▁inugpa	-1100
▁mataas	-1101
▁buluhaton	-1102
imo	-1103
yag	-1104
▁nakapa	-1105
mit	-1106
ario	-1107
muut	-1108
▁kahi	-1109
tooran	-1110
▁naton	-1111
▁olihi	-1112
▁nakakita	-1113
equias	-1114
▁dayon	-1115
▁dalhon	-1116
▁kamatooran	-1117
danan	-1118
sugud	-1119
▁taga	-1120
Indi	-1121
holo	-1122
▁gab	-1123
▁pat	-1124
▁naghi	-1125
▁Nagsiling	-1126
kolo	-1127
▁tak	-1128
▁makapa	-1129
hanabu	-1130
▁cor	-1131
▁kaakig	-1132
▁pamatan	-1133
yong	-1134
▁kapawa	-1135
dam	-1136
ngaw	-1137
▁nakabati	-1138
▁Jor	-1139
▁nagkuha	-1140
agowa	-1141
▁Jordan	-1142
▁nakahibalo	-1143
Na	-1144
lis	-1145
onon	-1146
loong	-1147
lunan	-1148
▁Moab	-1149
▁diotay	-1150
▁gintawag	-1151
ila	-1152
lit	-1153
mtang	-1154
▁Gina	-1155
▁kuha	-1156
▁nimo	-1157
▁dulunan	-1158
▁nagdala	-1159
▁paghukom	-1160
aran	-1161
sipa	-1162
▁han	-1163
▁Efra	-1164
▁pagsa	-1165
▁nagapuyo	-1166
ngil	-1167
rono	-1168
yaan	-1169
tudlo	-1170
▁balita	-1171
▁kalipay	-1172
dero	-1173
kway	-1174
▁dag	-1175
▁basi	-1176
ngabudlay	-1177
▁trono	-1178
▁ginahimo	-1179
turan	-1180
▁kalu	-1181
matuud	-1182
gal	-1183
mpa	-1184
ihon	-1185
▁Sia	-1186
▁idu	-1187
▁kauturan	-1188
▁nagta	-1189
kamalaut	-1190
,"	-1191
lupya	-1192
▁agalon	-1193
lupyakan	-1194
▁ginpadala	-1195
▁pin	-1196
▁palatu	-1197
sul	-1198
tig	-1199
▁magma	-1200
▁nagtaklad	-1201
▁nagla	-1202
▁pagso	-1203
sumpung	-1204
rang	-1205
hamuut	-1206
▁Efraim	-1207
▁magsa	-1208
buang	-1209
▁boho	-1210
▁sapa	-1211
▁nasulat	-1212
ez	-1213
simba	-1214
▁kahu	-1215
▁luwas	-1216
▁niyang	-1217
hilawason	-1218
▁ginpatay	-1219
hingalanan	-1220
ec	-1221
ting	-1222
▁makasa	-1223
▁nagakabuhi	-1224
ula	-1225
▁ina	-1226
▁naghatag	-1227
walo	-1228
▁Cana	-1229
sigka	-1230
▁gowa	-1231
amba	-1232
ngayo	-1233
▁Bala	-1234
ok	-1235
gad	-1236
▁magkaon	-1237
Ini	-1238
lug	-1239
ligi	-1240
▁bag	-1241
emias	-1242
tuario	-1243
Kag	-1244
tani	-1245
londan	-1246
▁manginsa	-1247
▁ginpamolong	-1248
obo	-1249
▁Jon	-1250
tloan	-1251
▁katloan	-1252
▁santuario	-1253
say	-1254
▁hig	-1255
lungug	-1256
▁idulungug	-1257
▁As	-1258
sikway	-1259
▁ikaduha	-1260
▁kanding	-1261
▁naghari	-1262
▁kadamuon	-1263
▁inugpahuway	-1264
▁kinahanglan	-1265
bug	-1266
udul	-1267
wasan	-1268
▁ginpi	-1269
dlangan	-1270
▁kangga	-1271
▁magaabut	-1272
▁palatukuran	-1273
▁esc	-1274
▁kasu	-1275
▁ginha	-1276
▁pagti	-1277
pito	-1278
tungud	-1279
▁nagdu	-1280
▁malayo	-1281
▁kuntani	-1282
▁pagsolondan	-1283
▁Sion	-1284
udulman	-1285
▁nagpalapit	-1286
seo	-1287
awon	-1288
▁May	-1289
igugma	-1290
▁nagba	-1291
▁haligi	-1292
▁nagpan	-1293
▁kaluwasan	-1294
▁ginhingalanan	-1295
▁as	-1296
ablo	-1297
biya	-1298
▁bang	-1299
▁Pablo	-1300
▁puluy	-1301
▁tanda	-1302
abi	-1303
ilo	-1304
ram	-1305
▁Sin	-1306
tolok	-1307
langgo	-1308
salamat	-1309
▁cu	-1310
▁Pedro	-1311
kad	-1312
▁Ta	-1313
dima	-1314
▁kap	-1315
holog	-1316
▁dolot	-1317
▁pagta	-1318
▁kabayo	-1319
▁nagahi	-1320
▁makilala	-1321
▁nagpakig	-1322
▁kadudulman	-1323
Ako	-1324
huy	-1325
zar	-1326
toon	-1327
▁hina	-1328
▁Subong	-1329
▁nagsugud	-1330
:"	-1331
▁Ez	-1332
muel	-1333
bangon	-1334
▁kalim	-1335
▁saway	-1336
▁nagbalik	-1337
ot	-1338
pis	-1339
▁Ra	-1340
labi	-1341
kalan	-1342
▁cordero	-1343
▁magsulud	-1344
▁nalupyakan	-1345
igo	-1346
ampo	-1347
dios	-1348
antus	-1349
▁paghangup	-1350
ea	-1351
plas	-1352
salo	-1353
▁gani	-1354
mingaw	-1355
▁ginta	-1356
kabalaan	-1357
Mag	-1358
bol	-1359
arta	-1360
lubung	-1361
▁hulut	-1362
▁pulus	-1363
isip	-1364
kaon	-1365
lban	-1366
▁Ahi	-1367
▁tig	-1368
▁leon	-1369
baskug	-1370
▁buang	-1371
▁pagba	-1372
kihilawason	-1373
▁nagatindug	-1374
?'	-1375
Ka	-1376
lea	-1377
▁ab	-1378
Ngaa	-1379
enso	-1380
▁San	-1381
halab	-1382
sadya	-1383
▁imol	-1384
▁gugma	-1385
▁luwang	-1386
,'	-1387
saf	-1388
▁Ju	-1389
▁Joab	-1390
▁Sama	-1391
▁inci	-1392
rungan	-1393
tangdo	-1394
▁Manas	-1395
▁nagda	-1396
▁dalayon	-1397
▁incienso	-1398
Ma	-1399
▁Asi	-1400
▁anay	-1401
▁dumu	-1402
▁mali	-1403
▁nagli	-1404
▁mangga	-1405
▁Manases	-1406
▁tilipon	-1407
▁Jeremias	-1408
▁dumuloong	-1409
eba	-1410
▁Me	-1411
▁Heb	-1412
luga	-1413
▁bana	-1414
Cristo	-1415
kayang	-1416
▁kayang	-1417
▁gilayon	-1418
▁tiliponan	-1419
banta	-1420
▁Amon	-1421
▁lino	-1422
▁pila	-1423
▁kayangkayang	-1424
daan	-1425
matii	-1426
▁saka	-1427
banhaw	-1428
▁gintu	-1429
▁maalam	-1430
▁hinigugma	-1431
lid	-1432
naw	-1433
kpan	-1434
▁Ngaa	-1435
▁lara	-1436
▁panit	-1437
od	-1438
ngala	-1439
ugmat	-1440
▁pies	-1441
kasala	-1442
▁tolon	-1443
▁isigka	-1444
▁larawan	-1445
▁malapit	-1446
clo	-1447
cun	-1448
suga	-1449
cunci	-1450
▁Asiria	-1451
hunahuna	-1452
▁nagsogo	-1453
▁pagkaon	-1454
▁kahadluk	-1455
▁isigkatawo	-1456
▁Ac	-1457
▁sina	-1458
rangga	-1459
▁kangil	-1460
▁piesta	-1461
▁halalban	-1462
▁katarungan	-1463
▁nagalingkod	-1464
▁sal	-1465
hamut	-1466
lamon	-1467
▁Juan	-1468
ngaway	-1469
▁gamit	-1470
lagan	-1471
tagan	-1472
kilooy	-1473
▁kagab	-1474
▁Samuel	-1475
▁kahapon	-1476
▁buangbuang	-1477
▁nagpalagyo	-1478
log	-1479
laka	-1480
upan	-1481
▁suba	-1482
lanton	-1483
lugayaw	-1484
▁cuarta	-1485
▁panganay	-1486
▁Sal	-1487
sugata	-1488
▁anong	-1489
▁bugay	-1490
▁kaayo	-1491
▁kahay	-1492
▁hangin	-1493
▁patyon	-1494
▁ibutang	-1495
▁hangaway	-1496
▁kahayupan	-1497
za	-1498
yas	-1499
▁am	-1500
rnon	-1501
▁lina	-1502
lubngan	-1503
▁manugdumala	-1504
Ba	-1505
mata	-1506
▁Ama	-1507
▁ulu	-1508
hagan	-1509
▁asno	-1510
▁Isaac	-1511
▁kuhaon	-1512
▁nagsugid	-1513
▁pagpakig	-1514
▁ki	-1515
ubus	-1516
ganan	-1517
▁siclo	-1518
koloran	-1519
dal	-1520
pla	-1521
▁bibig	-1522
▁mabaskug	-1523
▁dimatinlo	-1524
▁nagpahamtang	-1525
dom	-1526
▁ho	-1527
▁Samaria	-1528
▁manginka	-1529
▁nagaabut	-1530
▁lulubngan	-1531
▁kabakoloran	-1532
lot	-1533
baon	-1534
bahin	-1535
▁ngaa	-1536
dumdum	-1537
▁Ginpa	-1538
▁pagdayaw	-1539
▁nagalakat	-1540
▁naglingkod	-1541
itan	-1542
isipan	-1543
▁nagapadayon	-1544
mung	-1545
▁Sim	-1546
basan	-1547
tandug	-1548
▁dalagku	-1549
▁sakayan	-1550
▁sapayan	-1551
▁Ezequias	-1552
▁madamung	-1553
▁nagsonod	-1554
▁pangamuyo	-1555
▁nagapamolong	-1556
akig	-1557
ngka	-1558
▁dila	-1559
▁Bukid	-1560
baligya	-1561
▁nagata	-1562
ranggayan	-1563
▁nagadala	-1564
▁nagtaliwan	-1565
▁kabaranggayan	-1566
sag	-1567
riba	-1568
dlong	-1569
oboam	-1570
dabdab	-1571
▁Bangud	-1572
Sin	-1573
dung	-1574
wali	-1575
▁bud	-1576
kbung	-1577
▁tinu	-1578
▁dapat	-1579
▁igang	-1580
▁maghi	-1581
laglagan	-1582
buk	-1583
rug	-1584
luya	-1585
sias	-1586
handi	-1587
▁Jonatan	-1588
▁kahaponon	-1589
▁manugbantay	-1590
tugut	-1591
▁Gala	-1592
▁maku	-1593
▁sanga	-1594
▁bahandi	-1595
▁nagpana	-1596
▁babaying	-1597
▁nagtipon	-1598
▁ginsakpan	-1599
▁gintugyan	-1600
▁Egiptohanon	-1601
▁ar	-1602
alag	-1603
daku	-1604
ptan	-1605
puno	-1606
uman	-1607
unta	-1608
lakatan	-1609
▁budyong	-1610
▁pagpamatuud	-1611
isa	-1612
▁tul	-1613
kurug	-1614
▁masa	-1615
hidait	-1616
▁kabug	-1617
▁natawo	-1618
▁atubang	-1619
▁sidlangan	-1620
▁pagkamalaut	-1621
▁Li	-1622
▁is	-1623
tian	-1624
inhan	-1625
salon	-1626
tolog	-1627
▁kaliwat	-1628
▁ginlaglag	-1629
▁ginsiling	-1630
▁paglaglag	-1631
til	-1632
vas	-1633
isan	-1634
atuba	-1635
matay	-1636
▁huna	-1637
▁hunahuna	-1638
▁ig	-1639
bina	-1640
▁ukbung	-1641
▁madason	-1642
▁samtang	-1643
asa	-1644
▁Mar	-1645
▁pak	-1646
bakud	-1647
▁Baal	-1648
balita	-1649
▁aminhan	-1650
▁nahaunang	-1651
▁nahibaloan	-1652
ru	-1653
tuy	-1654
▁To	-1655
ngani	-1656
▁uvas	-1657
panghi	-1658
▁matuud	-1659
▁ihibalo	-1660
▁kalaglagan	-1661
▁pagkabutang	-1662
wi	-1663
▁So	-1664
ilig	-1665
▁lin	-1666
▁nasa	-1667
▁nagbu	-1668
▁kalooy	-1669
▁escriba	-1670
▁ikapito	-1671
lolo	-1672
dumut	-1673
inoro	-1674
tubas	-1675
▁walo	-1676
atubang	-1677
▁mahimo	-1678
▁minoro	-1679
▁magkuha	-1680
▁diosdios	-1681
▁magkadto	-1682
▁nagpamangkot	-1683
de	-1684
▁gu	-1685
sabat	-1686
lambut	-1687
▁Galaad	-1688
▁paghari	-1689
▁Gen	-1690
lagas	-1691
▁saad	-1692
▁yawa	-1693
▁hamba	-1694
alagdan	-1695
▁pamakud	-1696
bit	-1697
mas	-1698
▁Ca	-1699
ygay	-1700
▁tal	-1701
angay	-1702
arias	-1703
hulat	-1704
salom	-1705
tapus	-1706
dumili	-1707
sipala	-1708
▁pagpan	-1709
▁nagsinggit	-1710
▁nagahigugma	-1711
mel	-1712
agum	-1713
▁dam	-1714
▁yab	-1715
▁Edom	-1716
▁dung	-1717
▁papa	-1718
▁ulan	-1719
ngasawa	-1720
▁dagway	-1721
▁laglag	-1722
▁manginma	-1723
▁ulubasan	-1724
▁manugbalita	-1725
tipi	-1726
tutum	-1727
untay	-1728
▁handum	-1729
▁Absalom	-1730
lesia	-1731
▁Nabu	-1732
▁mabu	-1733
▁Gikan	-1734
▁laygay	-1735
▁iglesia	-1736
huya	-1737
mnon	-1738
yaub	-1739
▁bay	-1740
bdong	-1741
▁magbu	-1742
cuncida	-1743
▁Gentil	-1744
▁nagada	-1745
▁balatian	-1746
hak	-1747
ngu	-1748
mpit	-1749
▁Esa	-1750
▁ginda	-1751
▁bantay	-1752
▁ikatlo	-1753
▁maglakat	-1754
mad	-1755
suk	-1756
▁Ne	-1757
▁No	-1758
alay	-1759
gulu	-1760
utis	-1761
▁pis	-1762
▁kaga	-1763
mbasan	-1764
▁nagapan	-1765
dimatinlo	-1766
▁kasangka	-1767
▁kasumpung	-1768
Si	-1769
Gin	-1770
gulutum	-1771
▁kabubut	-1772
▁katunga	-1773
▁palanan	-1774
▁tiggulutum	-1775
tago	-1776
Walay	-1777
▁Esau	-1778
▁takna	-1779
▁takus	-1780
▁hingani	-1781
▁Jeroboam	-1782
▁paghatag	-1783
▁salsalon	-1784
iin	-1785
lap	-1786
▁Az	-1787
ganon	-1788
halin	-1789
▁sungay	-1790
▁kahuluy	-1791
▁paglaum	-1792
▁nagakaon	-1793
▁nagpatindug	-1794
usi	-1795
tong	-1796
▁Labut	-1797
tinguha	-1798
mbahanon	-1799
▁magamay	-1800
▁nagahatag	-1801
La	-1802
gus	-1803
mot	-1804
▁Re	-1805
quer	-1806
▁but	-1807
sobol	-1808
▁tapi	-1809
▁Elias	-1810
▁saksi	-1811
▁talon	-1812
talikod	-1813
▁mawala	-1814
▁suludlan	-1815
▁magasiling	-1816
▁makakilala	-1817
▁Ti	-1818
dula	-1819
liso	-1820
toan	-1821
▁paka	-1822
▁pangan	-1823
▁higdaan	-1824
▁itugyan	-1825
▁nagkaon	-1826
▁nagagowa	-1827
▁kabihagan	-1828
▁manginsubong	-1829
Apang	-1830
indug	-1831
melec	-1832
untat	-1833
▁Fari	-1834
▁katam	-1835
▁pagtu	-1836
▁hambal	-1837
▁Fariseo	-1838
▁panganud	-1839
uk	-1840
Ikaw	-1841
▁Ano	-1842
▁lan	-1843
tayan	-1844
▁duma	-1845
▁magta	-1846
▁pagkabati	-1847
▁magkahadluk	-1848
lun	-1849
▁Ce	-1850
▁Man	-1851
▁Acab	-1852
ngdanan	-1853
▁maluwas	-1854
▁yadtong	-1855
▁kaayohan	-1856
▁laglagon	-1857
Ginoo	-1858
patan	-1859
▁Maka	-1860
▁Sela	-1861
umbung	-1862
▁abyan	-1863
▁nagala	-1864
▁pagbulut	-1865
tap	-1866
▁ef	-1867
yoan	-1868
▁Cal	-1869
plaag	-1870
▁kasi	-1871
▁maggowa	-1872
▁kapitoan	-1873
▁katumbasan	-1874
abu	-1875
▁huk	-1876
Lakat	-1877
▁labaw	-1878
▁pagpatay	-1879
kamaayohon	-1880
tnan	-1881
bayaw	-1882
gahum	-1883
▁Santo	-1884
bantala	-1885
▁ginatan	-1886
▁manggad	-1887
▁magbalik	-1888
▁nagpabilin	-1889
▁nagapangita	-1890
cir	-1891
gid	-1892
pad	-1893
rio	-1894
osor	-1895
ubin	-1896
▁Cor	-1897
buran	-1898
codon	-1899
malus	-1900
codonosor	-1901
▁Nabucodonosor	-1902
das	-1903
uben	-1904
wasa	-1905
yawa	-1906
▁Mga	-1907
yawan	-1908
▁pamu	-1909
▁quer	-1910
▁Ruben	-1911
▁damgo	-1912
▁bugana	-1913
▁dumaan	-1914
langgoan	-1915
▁bagatnan	-1916
▁kabataan	-1917
▁mahadluk	-1918
▁querubin	-1919
▁bilanggoan	-1920
▁nagpahayag	-1921
▁kasangkaron	-1922
ak	-1923
ob	-1924
▁so	-1925
tawa	-1926
▁nali	-1927
▁ulay	-1928
▁uyas	-1929
▁Nagpa	-1930
▁ginka	-1931
▁butkon	-1932
▁inagaw	-1933
▁kalalat	-1934
▁magdala	-1935
▁nahadluk	-1936
▁magpamolong	-1937
";	-1938
cu	-1939
pok	-1940
▁Asa	-1941
▁uma	-1942
safat	-1943
kugmat	-1944
▁Walay	-1945
▁nagma	-1946
▁pagpakamaayo	-1947
gi	-1948
Kay	-1949
bag	-1950
sim	-1951
uga	-1952
Anak	-1953
lina	-1954
▁Gad	-1955
▁sulat	-1956
▁Canaan	-1957
▁pakpak	-1958
▁Josafat	-1959
▁katuyoan	-1960
▁mahanabu	-1961
▁nagpauli	-1962
lway	-1963
rias	-1964
▁sug	-1965
▁lakas	-1966
▁tapay	-1967
▁ginasa	-1968
▁gintak	-1969
▁Amornon	-1970
▁mapukan	-1971
▁matinlo	-1972
▁nagapaka	-1973
baya	-1974
ming	-1975
pili	-1976
▁Joa	-1977
kiran	-1978
lawig	-1979
tagna	-1980
▁Bisan	-1981
▁Salmo	-1982
▁ginbu	-1983
▁hukom	-1984
▁latok	-1985
▁tiyan	-1986
▁kumbung	-1987
▁magkari	-1988
▁pagkuha	-1989
paghidait	-1990
▁maghatag	-1991
▁naisipan	-1992
▁nagapamati	-1993
▁ginpatindug	-1994
▁manugpahalab	-1995
pug	-1996
ruz	-1997
▁Pag	-1998
▁Per	-1999
tonog	-2000
▁tuman	-2001
▁pispis	-2002
▁sarang	-2003
▁kapipit	-2004
▁sanglit	-2005
▁makabati	-2006
▁kabukiran	-2007
sal	-2008
Maga	-2009
tubo	-2010
aniel	-2011
lugus	-2012
pigus	-2013
yawon	-2014
agahon	-2015
aplaag	-2016
himaya	-2017
▁lulan	-2018
limbong	-2019
▁makusug	-2020
▁pagdala	-2021
▁pagkapa	-2022
▁kalabaon	-2023
circuncida	-2024
▁ginpagowa	-2025
imon	-2026
bugal	-2027
udili	-2028
▁mang	-2029
dugang	-2030
▁panag	-2031
▁panga	-2032
▁nagabu	-2033
▁napukan	-2034
▁ginahatag	-2035
▁ginatawag	-2036
▁ginbayaan	-2037
▁Ar	-2038
inan	-2039
mput	-2040
pani	-2041
▁ali	-2042
lisud	-2043
▁ikap	-2044
dulhog	-2045
matian	-2046
▁bihag	-2047
▁malain	-2048
ngalahan	-2049
▁kaagahon	-2050
▁magapuyo	-2051
▁paglakat	-2052
▁ginlubung	-2053
▁nagdulhog	-2054
elo	-2055
Busa	-2056
otan	-2057
tung	-2058
higda	-2059
▁Elea	-2060
▁Gali	-2061
▁Sila	-2062
▁alag	-2063
▁sari	-2064
▁suga	-2065
anggid	-2066
handum	-2067
▁Calde	-2068
▁sonog	-2069
▁tabok	-2070
▁Daniel	-2071
▁pinili	-2072
▁tuburan	-2073
▁paglalis	-2074
▁pinakama	-2075
▁nagakaigo	-2076
▁Caldeanhon	-2077
▁ginhatagan	-2078
se	-2079
▁An	-2080
ugut	-2081
baylo	-2082
laran	-2083
saran	-2084
dagtaan	-2085
▁kalang	-2086
▁ginpapa	-2087
▁dimatuud	-2088
▁magakaon	-2089
▁makasasala	-2090
▁nagabantay	-2091
Nag	-2092
nag	-2093
kang	-2094
maga	-2095
quem	-2096
▁pas	-2097
ranon	-2098
tawad	-2099
▁sung	-2100
inoino	-2101
▁among	-2102
▁Hebron	-2103
▁pagtan	-2104
▁ginbayaw	-2105
▁nahanabu	-2106
▁kasapatan	-2107
▁magabalik	-2108
▁nagadumut	-2109
cua	-2110
eli	-2111
paw	-2112
Naga	-2113
layo	-2114
▁Jez	-2115
▁Ikaw	-2116
panaug	-2117
tawgon	-2118
▁Siria	-2119
sawayan	-2120
▁kasakit	-2121
▁nagatoo	-2122
▁magahimo	-2123
▁nagapang	-2124
▁pinadala	-2125
▁Canaanhon	-2126
▁kadayawan	-2127
▁kasawayan	-2128
▁nakakilala	-2129
▁kabangdanan	-2130
▁pinakamataas	-2131
pe	-2132
ason	-2133
▁Dan	-2134
wayan	-2135
▁cruz	-2136
sandad	-2137
▁sapay	-2138
▁utdon	-2139
▁dughan	-2140
▁kaonon	-2141
▁katamnan	-2142
▁nakilala	-2143
cio	-2144
tili	-2145
uswag	-2146
▁Siri	-2147
▁tago	-2148
dalman	-2149
dsaran	-2150
▁bulag	-2151
▁manlu	-2152
▁madali	-2153
▁Nagsabat	-2154
▁nagakari	-2155
▁dungganon	-2156
▁kadadalman	-2157
▁nagpanlakatan	-2158
May	-2159
bad	-2160
ing	-2161
yup	-2162
puud	-2163
utud	-2164
dulum	-2165
utiso	-2166
▁Levi	-2167
▁ubay	-2168
longon	-2169
lupang	-2170
▁bilog	-2171
▁cedro	-2172
mitlang	-2173
▁himata	-2174
▁Eleazar	-2175
▁magpaka	-2176
▁matahum	-2177
▁sonogon	-2178
▁sadsaran	-2179
▁pagsugata	-2180
▁Nahanungud	-2181
';	-2182
mud	-2183
nit	-2184
ngup	-2185
puti	-2186
▁tri	-2187
payon	-2188
usisa	-2189
ibabaw	-2190
▁ginsug	-2191
▁magtoo	-2192
▁taming	-2193
▁sungkud	-2194
▁tagayan	-2195
▁Sirianhon	-2196
▁magbantay	-2197
▁napamolong	-2198
bano	-2199
zias	-2200
▁Ara	-2201
dolog	-2202
sakit	-2203
▁bayo	-2204
buksan	-2205
unudlo	-2206
▁katun	-2207
▁pamatii	-2208
▁magdolot	-2209
▁nagpatay	-2210
▁mahibaloan	-2211
luk	-2212
ter	-2213
onan	-2214
▁iha	-2215
andam	-2216
inong	-2217
latan	-2218
ponon	-2219
tlong	-2220
ulsul	-2221
▁Jeri	-2222
▁mong	-2223
lunhon	-2224
wagkus	-2225
▁pagga	-2226
tingala	-2227
▁ginsugid	-2228
▁ikatlong	-2229
▁paglapas	-2230
▁nagbutang	-2231
▁pagkilala	-2232
sun	-2233
▁Bo	-2234
bayo	-2235
lata	-2236
orre	-2237
waan	-2238
ligan	-2239
▁bung	-2240
▁kaha	-2241
▁liog	-2242
Bangud	-2243
▁Simon	-2244
▁tudlo	-2245
▁Libano	-2246
▁bangkay	-2247
▁mamingaw	-2248
▁matadlong	-2249
▁nagakalipay	-2250
damu	-2251
init	-2252
tagi	-2253
▁bul	-2254
▁mas	-2255
suklub	-2256
▁banas	-2257
▁kalig	-2258
▁Siquem	-2259
panaptan	-2260
▁matutum	-2261
▁magagowa	-2262
▁nagtawag	-2263
▁ambahanon	-2264
▁nagapakig	-2265
▁nagasulud	-2266
▁nagbangon	-2267
▁magatindug	-2268
▁makasarang	-2269
▁pagtilipon	-2270
▁ginpakamaayo	-2271
eca	-2272
Diin	-2273
kina	-2274
pula	-2275
▁Sed	-2276
mbang	-2277
tipan	-2278
▁Mica	-2279
▁ulut	-2280
laygay	-2281
purung	-2282
▁baylo	-2283
▁Galilea	-2284
▁magbiya	-2285
▁pagluwas	-2286
Ipa	-2287
oro	-2288
Gina	-2289
anon	-2290
▁dum	-2291
agoga	-2292
tigan	-2293
▁himoa	-2294
▁magata	-2295
▁pagowa	-2296
▁bangkaw	-2297
▁katundan	-2298
▁nagaupud	-2299
▁pagpangabudlay	-2300
!'	-2301
kul	-2302
puy	-2303
▁go	-2304
rina	-2305
▁Car	-2306
▁bas	-2307
matan	-2308
▁sako	-2309
humlad	-2310
pugung	-2311
▁Magpa	-2312
▁binhi	-2313
agatnan	-2314
▁Balaam	-2315
▁bakolo	-2316
▁kilala	-2317
▁isganan	-2318
▁Abimelec	-2319
▁naghalin	-2320
▁nagsumpa	-2321
▁nakahimo	-2322
▁paanggid	-2323
▁sinagoga	-2324
▁magahatag	-2325
▁pagpatindug	-2326
sad	-2327
uma	-2328
▁Ge	-2329
▁Sh	-2330
ipon	-2331
▁put	-2332
lotan	-2333
sakup	-2334
▁Naka	-2335
lidhon	-2336
▁kubus	-2337
▁harina	-2338
▁labing	-2339
▁bakolod	-2340
▁ginpili	-2341
▁kagahud	-2342
▁nahatag	-2343
▁patubas	-2344
▁ugaling	-2345
tilingala	-2346
▁kakugmat	-2347
▁paghalad	-2348
▁pagsulud	-2349
kamatarung	-2350
▁magkalipay	-2351
▁pagpakamalaut	-2352
eol	-2353
yat	-2354
▁Ana	-2355
▁map	-2356
hantu	-2357
▁maha	-2358
abiabi	-2359
agahum	-2360
▁Sheol	-2361
▁hatagan	-2362
▁manugka	-2363
▁naghibi	-2364
sipalahan	-2365
Bu	-2366
az	-2367
ako	-2368
ezer	-2369
inag	-2370
quim	-2371
yanan	-2372
▁maki	-2373
agikan	-2374
mputan	-2375
▁Kabay	-2376
▁kabon	-2377
▁Eliseo	-2378
▁Jerico	-2379
▁himpit	-2380
tagudili	-2381
▁hilamon	-2382
▁ipadala	-2383
▁mabilin	-2384
▁palacio	-2385
▁nakasala	-2386
▁patindug	-2387
▁talanton	-2388
▁Sedequias	-2389
▁kabutigan	-2390
▁magkabuhi	-2391
▁hinganiban	-2392
▁ginpahamtang	-2393
▁manlulugayaw	-2394
hol	-2395
ner	-2396
akon	-2397
ayon	-2398
ihaw	-2399
queo	-2400
▁Het	-2401
▁aro	-2402
▁hoo	-2403
humut	-2404
layan	-2405
pason	-2406
▁Jehu	-2407
▁paha	-2408
mpaton	-2409
▁Abram	-2410
▁Tungud	-2411
▁kadaku	-2412
▁nagtoo	-2413
hinulsul	-2414
▁magpuyo	-2415
▁pagpaka	-2416
▁talonon	-2417
▁kapatagan	-2418
▁salamputan	-2419
▁makihilawason	-2420
mar	-2421
sar	-2422
amay	-2423
▁Ipa	-2424
▁Nef	-2425
dlawa	-2426
human	-2427
tanum	-2428
▁Joia	-2429
▁Sara	-2430
pintas	-2431
▁Abner	-2432
▁buhis	-2433
▁likod	-2434
▁Balaan	-2435
▁magahi	-2436
▁patawa	-2437
▁tinago	-2438
▁manipis	-2439
▁naghapa	-2440
▁nahamut	-2441
▁bilidhon	-2442
▁ginaampo	-2443
▁magtindug	-2444
▁magpalapit	-2445
▁makatilingala	-2446
ibo	-2447
ini	-2448
kub	-2449
▁Co	-2450
amel	-2451
yhan	-2452
▁Bar	-2453
▁can	-2454
handa	-2455
masco	-2456
Tindug	-2457
kulang	-2458
sudlan	-2459
▁camel	-2460
▁dugus	-2461
▁torre	-2462
▁kadung	-2463
▁kasadya	-2464
▁landong	-2465
▁nagkari	-2466
▁nagyaub	-2467
dlawadlaw	-2468
▁magadala	-2469
▁nagabaton	-2470
iri	-2471
▁ng	-2472
Kari	-2473
▁Sid	-2474
▁lim	-2475
pisan	-2476
▁Isma	-2477
▁Pila	-2478
▁ling	-2479
▁lung	-2480
▁napi	-2481
doqueo	-2482
sdanan	-2483
taason	-2484
umduma	-2485
▁kapus	-2486
▁nagga	-2487
▁nawad	-2488
ilimnon	-2489
lansang	-2490
▁pascua	-2491
dalidali	-2492
▁camelyo	-2493
▁linasan	-2494
▁painoino	-2495
▁Mardoqueo	-2496
▁kabakahan	-2497
▁nagasalig	-2498
▁pagbantay	-2499
▁kalisdanan	-2500
▁kapuslanan	-2501
▁manugkabayo	-2502
▁pagkapamatan	-2503
ur	-2504
gas	-2505
Kuha	-2506
laya	-2507
mkon	-2508
pwan	-2509
▁Job	-2510
gayon	-2511
▁balo	-2512
▁nasi	-2513
kusnit	-2514
▁Basan	-2515
▁Kailo	-2516
▁balus	-2517
▁lungib	-2518
▁magpan	-2519
▁mapino	-2520
▁Damasco	-2521
▁pagkasa	-2522
▁pinatay	-2523
▁pagsonod	-2524
▁pagpamati	-2525
▁nagahambal	-2526
▁manuglanton	-2527
boy	-2528
ena	-2529
pik	-2530
aria	-2531
▁tam	-2532
Karon	-2533
galon	-2534
lapan	-2535
lapas	-2536
▁mama	-2537
▁nahi	-2538
▁napu	-2539
▁Dagat	-2540
▁bohok	-2541
▁nagpu	-2542
▁pagha	-2543
katipan	-2544
▁Pilato	-2545
▁nagapu	-2546
▁tawgon	-2547
▁tawong	-2548
▁ginsikway	-2549
▁magakadto	-2550
▁adlawadlaw	-2551
▁pagpangita	-2552
vo	-2553
▁Di	-2554
agay	-2555
igan	-2556
kari	-2557
ygan	-2558
amyon	-2559
ubtub	-2560
▁puud	-2561
▁siam	-2562
dlawan	-2563
spisan	-2564
▁Ester	-2565
▁ikali	-2566
▁magtu	-2567
▁paghu	-2568
▁Isaias	-2569
▁Joiada	-2570
▁baslay	-2571
▁Makaako	-2572
▁gintipon	-2573
▁ikapulog	-2574
▁kabugana	-2575
▁kadaygan	-2576
▁magpakig	-2577
▁malaglag	-2578
▁pagtudlo	-2579
▁gintangdo	-2580
▁kapispisan	-2581
▁nagakahadluk	-2582
doc	-2583
iel	-2584
▁El	-2585
bato	-2586
bing	-2587
quis	-2588
▁Hero	-2589
▁dali	-2590
▁mati	-2591
linong	-2592
▁Laban	-2593
▁lakat	-2594
▁magli	-2595
▁tabon	-2596
acarias	-2597
labiton	-2598
▁Ismael	-2599
▁Josias	-2600
▁linibo	-2601
▁ngipon	-2602
▁purung	-2603
▁matuman	-2604
▁nasulud	-2605
▁ginsonog	-2606
▁ginsumpa	-2607
▁katuigan	-2608
▁ipamolong	-2609
▁pangolong	-2610
▁nagasinggit	-2611
▁pagpamolong	-2612
▁pagpasalamat	-2613
caz	-2614
tio	-2615
hong	-2616
dagta	-2617
dayaw	-2618
patay	-2619
▁Tiro	-2620
dumtan	-2621
▁Maria	-2622
▁trigo	-2623
panawag	-2624
▁Simeon	-2625
▁nagtuaw	-2626
▁kataason	-2627
▁sampaton	-2628
▁nagasonod	-2629
▁nagpamati	-2630
▁magpadayon	-2631
▁kadungganan	-2632
▁manggaranon	-2633
▁purungpurung	-2634
hem	-2635
dian	-2636
▁Hel	-2637
▁Noe	-2638
▁Sat	-2639
agtas	-2640
angan	-2641
lehem	-2642
walay	-2643
▁gota	-2644
tangan	-2645
▁Sadoc	-2646
▁bugal	-2647
▁nagti	-2648
▁Magapa	-2649
▁yahong	-2650
kulugmat	-2651
▁Satanas	-2652
▁ginhawa	-2653
tugsiling	-2654
▁bantayan	-2655
▁gindakup	-2656
▁kasulatan	-2657
▁magaluwas	-2658
▁magakabuhi	-2659
▁nagapabilin	-2660
▁nagpangamuyo	-2661
lik	-2662
rim	-2663
wisi	-2664
▁pal	-2665
▁uga	-2666
bihag	-2667
higko	-2668
manug	-2669
tolon	-2670
simpon	-2671
tublag	-2672
wagwag	-2673
▁Haman	-2674
▁bobon	-2675
▁naigo	-2676
▁tinig	-2677
panghikot	-2678
▁nagtolok	-2679
▁kabuangan	-2680
uy	-2681
▁h	-2682
car	-2683
sai	-2684
agda	-2685
inlo	-2686
▁Jes	-2687
▁Kir	-2688
▁Sam	-2689
asawa	-2690
▁Mera	-2691
▁arpa	-2692
lingag	-2693
▁ginga	-2694
amhanan	-2695
huwayan	-2696
langdon	-2697
mtangan	-2698
▁Labing	-2699
▁nagatu	-2700
▁Neftali	-2701
▁natapus	-2702
▁tiponon	-2703
▁pagbaton	-2704
▁pagtolon	-2705
▁magtaklad	-2706
▁handumanan	-2707
▁kahimtangan	-2708
amo	-2709
rpu	-2710
uba	-2711
▁De	-2712
bata	-2713
kala	-2714
lahi	-2715
ngat	-2716
utub	-2717
▁Daw	-2718
▁Ger	-2719
rpura	-2720
▁Joas	-2721
▁Sime	-2722
▁daga	-2723
▁Hanan	-2724
▁dalha	-2725
▁Mataas	-2726
▁nilang	-2727
▁tulung	-2728
▁Azarias	-2729
▁purpura	-2730
▁Hethanon	-2731
▁ginasogo	-2732
▁kahamuut	-2733
▁naghalad	-2734
▁nagligad	-2735
▁nagsimba	-2736
▁tinigban	-2737
has	-2738
reo	-2739
unu	-2740
ades	-2741
bias	-2742
ilan	-2743
▁Hor	-2744
▁ido	-2745
bubut	-2746
kitan	-2747
ngawa	-2748
pilak	-2749
▁efod	-2750
▁isda	-2751
duhang	-2752
kutkut	-2753
landas	-2754
▁Amale	-2755
▁Joram	-2756
▁Maayo	-2757
▁sumpa	-2758
▁Nagapa	-2759
▁ginaka	-2760
hadlukan	-2761
hinbahin	-2762
▁Bulahan	-2763
▁Naghimo	-2764
▁alagyan	-2765
▁luwason	-2766
▁magpang	-2767
▁nagailig	-2768
▁nagdolot	-2769
▁kalangitan	-2770
▁napanaptan	-2771
▁e	-2772
bul	-2773
del	-2774
des	-2775
esi	-2776
nal	-2777
▁Am	-2778
dias	-2779
quel	-2780
reel	-2781
sayo	-2782
▁gal	-2783
lasan	-2784
logon	-2785
tipig	-2786
▁Sodo	-2787
▁kong	-2788
delero	-2789
sulabi	-2790
▁Sidon	-2791
▁magla	-2792
▁matam	-2793
▁pihak	-2794
▁salin	-2795
▁kasubo	-2796
▁malolo	-2797
▁Ginhimo	-2798
▁maholog	-2799
▁naholog	-2800
linapason	-2801
▁ginluwas	-2802
▁ipahayag	-2803
▁candelero	-2804
▁ikaduhang	-2805
▁nagakadto	-2806
▁natingala	-2807
▁makakulugmat	-2808
mor	-2809
pul	-2810
ras	-2811
tal	-2812
wak	-2813
zpa	-2814
agna	-2815
basa	-2816
puto	-2817
uran	-2818
▁Gil	-2819
▁ala	-2820
▁cir	-2821
buton	-2822
koran	-2823
umpok	-2824
▁Himo	-2825
▁panu	-2826
abulon	-2827
alamon	-2828
ngahon	-2829
ulipon	-2830
▁Tolon	-2831
▁escar	-2832
▁gatas	-2833
▁mabug	-2834
▁putok	-2835
▁sayup	-2836
▁sulab	-2837
putokan	-2838
▁Hebreo	-2839
▁Sodoma	-2840
▁dalaga	-2841
▁luwasa	-2842
▁mabuhi	-2843
▁maluya	-2844
▁nagaha	-2845
▁nagahu	-2846
▁Jezreel	-2847
▁nagbiya	-2848
▁paggowa	-2849
▁malipayon	-2850
▁magpabilin	-2851
▁makahangup	-2852
▁nagpadayon	-2853
▁putokputokan	-2854
be	-2855
uf	-2856
daug	-2857
into	-2858
isud	-2859
suay	-2860
tina	-2861
▁Ber	-2862
▁Gid	-2863
▁Jef	-2864
buhat	-2865
hawon	-2866
lagon	-2867
tahan	-2868
wisik	-2869
▁Sina	-2870
▁asul	-2871
▁ikan	-2872
▁lati	-2873
▁ayhan	-2874
▁gamut	-2875
▁gingu	-2876
▁ginpu	-2877
▁magga	-2878
▁naglu	-2879
▁putli	-2880
▁Raquel	-2881
▁bitoon	-2882
▁kahubo	-2883
▁kasaba	-2884
▁magasa	-2885
▁maputi	-2886
▁nagati	-2887
▁ikalima	-2888
▁makadto	-2889
▁pagpang	-2890
▁ginsobol	-2891
▁pagkadto	-2892
▁singsing	-2893
▁escarlata	-2894
▁magapakig	-2895
▁magasulud	-2896
▁masingkal	-2897
▁nagahulat	-2898
▁nagpakilooy	-2899
va	-2900
sac	-2901
▁Lu	-2902
iran	-2903
▁ham	-2904
▁ton	-2905
boong	-2906
tunga	-2907
yohon	-2908
▁Asaf	-2909
▁Aser	-2910
▁Coat	-2911
▁Elia	-2912
▁Gaba	-2913
▁Kamo	-2914
▁bina	-2915
kawang	-2916
talang	-2917
yongan	-2918
▁baton	-2919
▁ginhi	-2920
▁hielo	-2921
▁kunup	-2922
▁mando	-2923
▁sapin	-2924
▁Amalec	-2925
▁Nakita	-2926
▁nagali	-2927
binatoon	-2928
tindugan	-2929
▁Herodes	-2930
▁ninyong	-2931
▁pahumut	-2932
▁pamusud	-2933
▁mahibalo	-2934
▁nagtabok	-2935
▁pagtuman	-2936
panghiwala	-2937
▁ikapitong	-2938
▁nagtugyan	-2939
▁balikawang	-2940
'?	-2941
a	-2942
▁	-2943
n	-2944
g	-2945
i	-2946
s	-2947
o	-2948
k	-2949
l	-2950
u	-2951
m	-2952
t	-2953
p	-2954
y	-2955
d	-2956
b	-2957
,	-2958
h	-2959
w	-2960
r	-2961
.	-2962
e	-2963
-	-2964
;	-2965
"	-2966
A	-2967
G	-2968
K	-2969
S	-2970
D	-2971
J	-2972
c	-2973
I	-2974
N	-2975
M	-2976
B	-2977
?	-2978
E	-2979
'	-2980
H	-2981
v	-2982
P	-2983
:	-2984
!	-2985
C	-2986
z	-2987
O	-2988
T	-2989
L	-2990
f	-2991
F	-2992
q	-2993
W	-2994
Y	-2995
R	-2996
