<unk>	0
<s>	0
</s>	0
ng	-0
▁s	-1
ag	-2
▁sa	-3
▁k	-4
▁a	-5
an	-6
▁m	-7
la	-8
▁n	-9
in	-10
nga	-11
on	-12
▁ka	-13
▁nga	-14
▁i	-15
▁sang	-16
▁ang	-17
▁kag	-18
ga	-19
▁si	-20
pa	-21
ta	-22
▁nag	-23
▁g	-24
▁mga	-25
ba	-26
ya	-27
li	-28
▁gin	-29
▁d	-30
▁p	-31
mo	-32
ha	-33
▁ma	-34
ka	-35
▁t	-36
bu	-37
▁ni	-38
wa	-39
sa	-40
ud	-41
▁iya	-42
▁ba	-43
lo	-44
▁na	-45
▁in	-46
▁mag	-47
▁ak	-48
ma	-49
▁pag	-50
▁naga	-51
yo	-52
hi	-53
tu	-54
▁sing	-55
si	-56
▁pa	-57
da	-58
to	-59
ug	-60
os	-61
▁sia	-62
▁di	-63
ri	-64
ling	-65
oo	-66
▁bu	-67
▁imo	-68
ki	-69
▁ginoo	-70
na	-71
▁kay	-72
lu	-73
bi	-74
▁sila	-75
taw	-76
▁akon	-77
▁ila	-78
ra	-79
han	-80
▁la	-81
ut	-82
siling	-83
tawo	-84
▁ha	-85
▁j	-86
▁du	-87
▁tu	-88
wala	-89
anan	-90
▁ako	-91
di	-92
▁bala	-93
▁wala	-94
bo	-95
▁u	-96
▁sin	-97
lag	-98
▁ini	-99
▁maga	-100
▁gi	-101
ti	-102
▁ana	-103
▁niya	-104
▁man	-105
▁anak	-106
▁da	-107
▁dios	-108
yan	-109
▁ko	-110
pang	-111
lan	-112
ban	-113
su	-114
pu	-115
el	-116
▁tanan	-117
kan	-118
▁kon	-119
ngud	-120
er	-121
▁sini	-122
hu	-123
law	-124
tan	-125
olo	-126
ku	-127
▁inyo	-128
himo	-129
ton	-130
ron	-131
▁e	-132
▁su	-133
▁nagsiling	-134
▁apang	-135
▁mo	-136
▁tawo	-137
▁indi	-138
▁isa	-139
▁kamo	-140
san	-141
pi	-142
▁ya	-143
▁gina	-144
▁amo	-145
▁nagpa	-146
dto	-147
▁duta	-148
▁ti	-149
▁kam	-150
as	-151
▁gikan	-152
▁ta	-153
tang	-154
▁nila	-155
dlaw	-156
▁ga	-157
▁hari	-158
▁is	-159
▁lala	-160
tag	-161
tay	-162
▁lalaki	-163
kon	-164
ngan	-165
▁adlaw	-166
og	-167
▁may	-168
du	-169
▁maka	-170
tawohan	-171
bong	-172
▁tag	-173
▁katawohan	-174
▁karon	-175
ina	-176
▁bi	-177
rael	-178
▁israel	-179
ani	-180
▁c	-181
▁niyan	-182
but	-183
mon	-184
hon	-185
▁pu	-186
aga	-187
ko	-188
▁pagka	-189
mu	-190
no	-191
▁ginpa	-192
ana	-193
▁ika	-194
tin	-195
▁subong	-196
ran	-197
▁b	-198
do	-199
ip	-200
▁pagpa	-201
lad	-202
tub	-203
it	-204
kita	-205
▁ukon	-206
▁bug	-207
▁ku	-208
bay	-209
way	-210
man	-211
dala	-212
inyo	-213
▁bisan	-214
▁ninyo	-215
▁bugos	-216
ono	-217
▁nagapa	-218
▁kau	-219
ngin	-220
yon	-221
le	-222
▁manug	-223
ad	-224
ayo	-225
tuba	-226
▁li	-227
▁naka	-228
pud	-229
pon	-230
id	-231
▁o	-232
▁magpa	-233
dug	-234
▁mata	-235
lig	-236
es	-237
▁bato	-238
pan	-239
▁kamut	-240
laut	-241
long	-242
▁ban	-243
▁tungud	-244
▁pi	-245
▁balay	-246
▁nagasiling	-247
ung	-248
lin	-249
lon	-250
▁atuba	-251
hatag	-252
▁je	-253
may	-254
▁kaa	-255
ig	-256
▁ag	-257
▁babay	-258
▁sono	-259
▁babayi	-260
▁dili	-261
olong	-262
▁ano	-263
ogo	-264
▁duha	-265
▁atubangan	-266
lud	-267
▁yara	-268
▁es	-269
lay	-270
▁agud	-271
▁bangud	-272
is	-273
▁mangin	-274
▁hi	-275
▁kami	-276
was	-277
▁butang	-278
tindug	-279
▁gid	-280
▁yari	-281
▁ikaw	-282
▁tagsa	-283
lagad	-284
owa	-285
▁polong	-286
▁lu	-287
▁h	-288
▁tub	-289
▁batok	-290
galing	-291
▁tubtub	-292
▁gani	-293
te	-294
mba	-295
so	-296
▁amay	-297
▁kali	-298
▁amon	-299
ub	-300
▁jud	-301
galingon	-302
um	-303
▁halad	-304
molong	-305
▁kaugalingon	-306
sug	-307
▁sino	-308
▁ki	-309
▁dav	-310
▁david	-311
yang	-312
or	-313
pay	-314
▁banwa	-315
agi	-316
▁jer	-317
lanon	-318
rung	-319
lang	-320
▁tunga	-321
pat	-322
oon	-323
buhi	-324
▁jesu	-325
ho	-326
sogo	-327
▁nagaka	-328
▁busa	-329
▁aton	-330
▁pani	-331
▁maayo	-332
wan	-333
ugma	-334
▁didto	-335
▁upud	-336
▁walay	-337
am	-338
▁nagabut	-339
▁mada	-340
cer	-341
dote	-342
cerdote	-343
kadto	-344
ipos	-345
iposoon	-346
▁sining	-347
baw	-348
▁tagiposoon	-349
ar	-350
▁malaut	-351
hiba	-352
▁pagkama	-353
▁kala	-354
▁ut	-355
kat	-356
▁ngalan	-357
▁sacerdote	-358
hin	-359
hibalo	-360
kuha	-361
mang	-362
tus	-363
▁kondi	-364
lam	-365
usa	-366
ham	-367
sulud	-368
lat	-369
big	-370
ngay	-371
▁nahan	-372
▁tuig	-373
lak	-374
▁jesus	-375
▁lalaking	-376
▁alagad	-377
pus	-378
ises	-379
▁moises	-380
sud	-381
▁nakita	-382
▁ting	-383
gan	-384
▁kada	-385
co	-386
▁duug	-387
malay	-388
dan	-389
▁hu	-390
▁panimalay	-391
▁utud	-392
mati	-393
▁juda	-394
lem	-395
non	-396
kama	-397
tlo	-398
▁magapa	-399
▁jerusa	-400
lala	-401
▁jerusalem	-402
yaw	-403
ungud	-404
bat	-405
pulo	-406
▁f	-407
▁pan	-408
butang	-409
hay	-410
hari	-411
▁daku	-412
son	-413
tuud	-414
ero	-415
▁nagsa	-416
▁paagi	-417
mi	-418
▁tin	-419
bilin	-420
▁jo	-421
en	-422
laglag	-423
too	-424
▁mapa	-425
▁eg	-426
▁nahanungud	-427
babaw	-428
bali	-429
▁kaba	-430
ngka	-431
bati	-432
ipto	-433
ngit	-434
▁egipto	-435
▁ginhimo	-436
▁magka	-437
ang	-438
▁ab	-439
▁pang	-440
▁kutub	-441
wat	-442
hum	-443
wang	-444
▁kata	-445
pit	-446
kig	-447
laran	-448
▁langit	-449
ul	-450
hig	-451
lakat	-452
kilala	-453
▁himo	-454
tug	-455
▁tubig	-456
▁ibabaw	-457
dlu	-458
ong	-459
ris	-460
sala	-461
▁kita	-462
lum	-463
piri	-464
piritu	-465
un	-466
tak	-467
ro	-468
▁baga	-469
sawa	-470
▁espiritu	-471
aw	-472
dum	-473
▁pana	-474
gu	-475
puyo	-476
▁tion	-477
hadlu	-478
ligon	-479
▁napa	-480
tolo	-481
▁diin	-482
bon	-483
kag	-484
▁dug	-485
▁pung	-486
hang	-487
▁sadto	-488
dad	-489
▁iban	-490
▁pungsud	-491
▁le	-492
ab	-493
ili	-494
▁gatus	-495
▁kaangay	-496
alag	-497
▁madamu	-498
kod	-499
▁pala	-500
▁mala	-501
▁dalanon	-502
hapon	-503
▁kati	-504
hadluk	-505
maya	-506
▁balaan	-507
▁ipa	-508
▁haladnga	-509
nan	-510
▁ja	-511
▁kapa	-512
lus	-513
▁kalayo	-514
▁ginasiling	-515
risto	-516
▁se	-517
▁nagsabat	-518
gowa	-519
▁kama	-520
ci	-521
up	-522
lawan	-523
lipon	-524
hanon	-525
tawag	-526
▁gini	-527
re	-528
▁himoon	-529
▁sala	-530
kot	-531
▁naghimo	-532
et	-533
▁kabu	-534
bung	-535
luwas	-536
ngga	-537
▁ining	-538
▁napulo	-539
▁z	-540
▁kabi	-541
pana	-542
▁gam	-543
▁ginoong	-544
▁kasa	-545
▁lamang	-546
▁bin	-547
higugma	-548
▁kabuhi	-549
▁ginapa	-550
▁un	-551
una	-552
balik	-553
ia	-554
bok	-555
osan	-556
▁tingug	-557
▁bahin	-558
▁bulawan	-559
▁tatlo	-560
tarung	-561
▁bagay	-562
ca	-563
▁jos	-564
sogoan	-565
▁kalag	-566
▁libo	-567
▁kasogoan	-568
im	-569
ias	-570
sum	-571
▁ina	-572
alagna	-573
▁manalagna	-574
pada	-575
▁katu	-576
wag	-577
▁pina	-578
▁panap	-579
tali	-580
▁kina	-581
▁gawang	-582
onog	-583
▁dolo	-584
sol	-585
kid	-586
kanan	-587
abut	-588
▁car	-589
▁ginikanan	-590
▁kasol	-591
▁kaban	-592
▁ginhatag	-593
▁kasoldad	-594
kud	-595
▁kasoldadosan	-596
▁nagka	-597
▁matarung	-598
don	-599
▁panapton	-600
▁pito	-601
pag	-602
em	-603
go	-604
▁labi	-605
▁espada	-606
uha	-607
▁naha	-608
▁olo	-609
ria	-610
▁dugo	-611
kahan	-612
sulat	-613
▁pangolo	-614
po	-615
udlo	-616
baton	-617
sin	-618
▁daga	-619
kamaayo	-620
kom	-621
▁sulud	-622
▁halaran	-623
tinlo	-624
▁baka	-625
libut	-626
▁ngaa	-627
hayag	-628
loo	-629
▁baba	-630
taklad	-631
bantay	-632
▁bukid	-633
harian	-634
▁saul	-635
▁gihapon	-636
hanan	-637
tugyan	-638
▁asawa	-639
lid	-640
▁nagtindug	-641
▁nagpamolong	-642
▁paghi	-643
mbal	-644
▁magaka	-645
▁eli	-646
huna	-647
rin	-648
▁nagkadto	-649
▁ginharian	-650
▁an	-651
gay	-652
ngg	-653
▁cristo	-654
ed	-655
▁gindala	-656
lipay	-657
rinc	-658
▁puno	-659
il	-660
rincip	-661
lingkod	-662
▁himaya	-663
▁kalaut	-664
cob	-665
▁lima	-666
▁jacob	-667
rincipe	-668
▁fa	-669
tun	-670
nero	-671
▁dagat	-672
▁namon	-673
▁carnero	-674
▁kaupud	-675
bus	-676
watan	-677
▁sogo	-678
ago	-679
ita	-680
▁dima	-681
▁unud	-682
▁principe	-683
lanan	-684
us	-685
▁aga	-686
▁kabikahan	-687
dait	-688
▁lev	-689
▁naggowa	-690
▁sadtong	-691
hag	-692
tum	-693
layang	-694
aron	-695
singka	-696
▁apat	-697
▁layang	-698
▁layanglayang	-699
looy	-700
▁san	-701
hamtang	-702
lagyo	-703
dab	-704
singkal	-705
hat	-706
ubli	-707
upud	-708
dalum	-709
▁liwat	-710
▁kaliwatan	-711
hoy	-712
uli	-713
▁pama	-714
bud	-715
ngi	-716
sono	-717
▁pagkamatuud	-718
▁to	-719
▁ginba	-720
▁kaaway	-721
▁ilo	-722
eo	-723
▁naw	-724
▁aaron	-725
inhon	-726
▁nahimo	-727
▁nawung	-728
▁palibut	-729
tipon	-730
pas	-731
dayon	-732
▁pulo	-733
▁kalautan	-734
pin	-735
dolo	-736
pung	-737
▁bali	-738
▁buhi	-739
▁bulan	-740
▁tina	-741
▁paghimo	-742
hukom	-743
tagsa	-744
▁tagsatagsa	-745
al	-746
kus	-747
sugid	-748
haw	-749
sonod	-750
▁buut	-751
▁mani	-752
▁ef	-753
isi	-754
las	-755
▁dal	-756
▁nahauna	-757
tas	-758
▁as	-759
▁kaminga	-760
ano	-761
▁ginsa	-762
▁inug	-763
▁idalum	-764
▁makita	-765
▁bo	-766
lapit	-767
muyo	-768
▁salo	-769
▁mapatay	-770
ngamuyo	-771
▁maghimo	-772
day	-773
▁pilak	-774
▁tingub	-775
▁lan	-776
▁tapus	-777
▁kamatay	-778
▁nabilin	-779
inum	-780
▁kadaman	-781
▁tama	-782
▁nagha	-783
io	-784
▁abra	-785
▁nayon	-786
▁kahoy	-787
layon	-788
gulang	-789
bang	-790
butan	-791
ru	-792
▁tiil	-793
▁kamingawan	-794
duma	-795
▁iloy	-796
▁paga	-797
▁salomon	-798
▁nagpadala	-799
kup	-800
▁pagla	-801
put	-802
▁ihatag	-803
▁fili	-804
▁pati	-805
pangita	-806
rio	-807
▁kuha	-808
▁maligon	-809
bilon	-810
tunda	-811
▁babilon	-812
▁pagkamatarung	-813
▁cor	-814
▁maa	-815
▁dologan	-816
gang	-817
▁filis	-818
ay	-819
abu	-820
laan	-821
▁babilonia	-822
▁manugtunda	-823
▁nagasa	-824
▁kalanon	-825
▁daw	-826
anhon	-827
sinonog	-828
▁makakita	-829
gon	-830
▁haladngasinonog	-831
batian	-832
tinhon	-833
▁levinhon	-834
▁filistinhon	-835
tonan	-836
▁judio	-837
▁paano	-838
▁ginkuha	-839
▁gamhanan	-840
▁mi	-841
▁hin	-842
▁abi	-843
▁tigulang	-844
raon	-845
huway	-846
▁faraon	-847
dla	-848
ublion	-849
▁binuha	-850
luyan	-851
tagon	-852
▁yadto	-853
era	-854
▁gahum	-855
▁isiling	-856
▁sal	-857
▁ginsogo	-858
▁latagon	-859
▁tinapay	-860
lok	-861
tuman	-862
lung	-863
▁dalan	-864
▁sapat	-865
pukan	-866
▁napatay	-867
▁binuhatan	-868
anda	-869
tanaw	-870
▁ginto	-871
▁maniko	-872
lut	-873
▁kapi	-874
sang	-875
lahan	-876
▁itolo	-877
▁oli	-878
dolot	-879
tanon	-880
▁paghidait	-881
▁panublion	-882
▁gintotonan	-883
ksi	-884
▁inaway	-885
▁nangin	-886
dong	-887
duha	-888
hambal	-889
▁itololok	-890
kit	-891
hila	-892
▁pagtoo	-893
▁malauton	-894
▁kalibutan	-895
taliwan	-896
lub	-897
hinga	-898
▁lawas	-899
pak	-900
kaba	-901
hangup	-902
▁han	-903
▁lin	-904
▁una	-905
▁jose	-906
▁mataas	-907
▁katipan	-908
mat	-909
▁luyo	-910
lonan	-911
▁bata	-912
abi	-913
▁pakadto	-914
emp	-915
hog	-916
▁abraham	-917
▁nagsulud	-918
▁ginbutang	-919
anak	-920
pusan	-921
▁ar	-922
▁be	-923
halad	-924
▁kilid	-925
▁nagtu	-926
ue	-927
▁kan	-928
▁pagda	-929
mangkot	-930
▁kamatayon	-931
agaw	-932
▁sam	-933
▁tak	-934
▁nakon	-935
▁nagahimo	-936
▁katapusan	-937
emplo	-938
ligya	-939
nggit	-940
▁templo	-941
▁kasingkal	-942
eb	-943
▁nabatian	-944
singgit	-945
▁tinday	-946
▁makahibalo	-947
kug	-948
▁so	-949
▁maayong	-950
▁magpamati	-951
kut	-952
mulu	-953
yag	-954
wason	-955
▁dakung	-956
▁pamati	-957
▁pangan	-958
lab	-959
ngina	-960
▁nalu	-961
▁pagbu	-962
▁ulipon	-963
bas	-964
taan	-965
▁masa	-966
▁isi	-967
muluyo	-968
edro	-969
sia	-970
lhog	-971
taas	-972
▁alak	-973
▁kusug	-974
▁kaalam	-975
▁naglakat	-976
otay	-977
▁dalag	-978
▁pumuluyo	-979
hud	-980
sumpa	-981
▁bunga	-982
▁manugpa	-983
ele	-984
uias	-985
haton	-986
▁magsiling	-987
▁nakahibalo	-988
▁anum	-989
▁buhat	-990
▁inugpa	-991
lina	-992
bog	-993
▁ben	-994
▁kai	-995
▁nagpuyo	-996
▁too	-997
pagowa	-998
▁dalhon	-999
ding	-1000
▁bet	-1001
sonog	-1002
anha	-1003
kuran	-1004
waanan	-1005
▁napulog	-1006
▁nakakita	-1007
dya	-1008
kiga	-1009
olog	-1010
▁bulu	-1011
▁kuta	-1012
anhaan	-1013
▁nagta	-1014
▁kadamu	-1015
▁ganhaan	-1016
▁paghigugma	-1017
▁josue	-1018
▁magma	-1019
dali	-1020
▁diri	-1021
ngabud	-1022
▁patay	-1023
lingban	-1024
▁nakapa	-1025
▁kabanwaanan	-1026
▁katilingban	-1027
lim	-1028
▁panong	-1029
▁kun	-1030
dumala	-1031
subong	-1032
dag	-1033
▁am	-1034
amin	-1035
▁lana	-1036
▁pila	-1037
▁nagdu	-1038
▁nakabati	-1039
bug	-1040
tok	-1041
lamon	-1042
sasala	-1043
hibaloan	-1044
▁ikapulo	-1045
kas	-1046
▁ra	-1047
▁naghi	-1048
▁buluhaton	-1049
▁gabi	-1050
▁dayon	-1051
▁makapa	-1052
kay	-1053
muut	-1054
▁boho	-1055
▁kahi	-1056
tooran	-1057
▁olihi	-1058
▁kamatooran	-1059
▁diotay	-1060
danan	-1061
▁basi	-1062
iya	-1063
sugud	-1064
▁nagkuha	-1065
▁gintawag	-1066
kolo	-1067
▁dag	-1068
buton	-1069
utan	-1070
yong	-1071
▁kaakig	-1072
▁pamatanon	-1073
oro	-1074
▁kapawa	-1075
▁dulu	-1076
▁naton	-1077
▁ginpadala	-1078
lis	-1079
raim	-1080
rias	-1081
▁jor	-1082
▁kalipay	-1083
▁ginahimo	-1084
me	-1085
lit	-1086
▁re	-1087
tudlo	-1088
▁agalon	-1089
▁jordan	-1090
▁nagdala	-1091
de	-1092
loong	-1093
▁moab	-1094
za	-1095
uga	-1096
ngaw	-1097
▁nimo	-1098
▁pagsa	-1099
▁dulunan	-1100
▁ginpatay	-1101
▁nagapuyo	-1102
▁paghukom	-1103
▁idu	-1104
▁kalu	-1105
kway	-1106
rono	-1107
yaan	-1108
▁pin	-1109
▁balita	-1110
lap	-1111
dero	-1112
▁trono	-1113
ngabudlay	-1114
ino	-1115
hanglan	-1116
turan	-1117
▁malayo	-1118
▁tolonan	-1119
▁nagtaklad	-1120
ngayo	-1121
▁gowa	-1122
kigaway	-1123
▁kauturan	-1124
▁nabu	-1125
matuud	-1126
gal	-1127
pya	-1128
▁pat	-1129
▁sapa	-1130
pyakan	-1131
kamalaut	-1132
▁nasulat	-1133
▁nalupyakan	-1134
rang	-1135
▁ginta	-1136
▁palatu	-1137
▁cordero	-1138
fa	-1139
▁ginhinga	-1140
▁hig	-1141
▁magsa	-1142
▁magabut	-1143
▁kad	-1144
▁benj	-1145
▁pagso	-1146
▁efraim	-1147
▁naghatag	-1148
emi	-1149
mit	-1150
hamuut	-1151
▁ginpi	-1152
lug	-1153
▁sina	-1154
▁suba	-1155
▁taga	-1156
▁nagba	-1157
sumpung	-1158
buang	-1159
▁luwas	-1160
▁magkaon	-1161
▁nagakabuhi	-1162
sipa	-1163
simba	-1164
▁kahu	-1165
▁nagda	-1166
▁pagti	-1167
▁niyang	-1168
hilawason	-1169
gka	-1170
agowa	-1171
dlangan	-1172
▁ne	-1173
walo	-1174
▁cana	-1175
▁magaabut	-1176
▁ginha	-1177
lot	-1178
sul	-1179
▁me	-1180
ligi	-1181
▁manginsa	-1182
gad	-1183
tua	-1184
wasan	-1185
tuario	-1186
▁naghari	-1187
▁ginpamolong	-1188
tani	-1189
londan	-1190
▁lakat	-1191
▁pagta	-1192
▁nagsugud	-1193
ze	-1194
ula	-1195
▁cu	-1196
▁jon	-1197
tloan	-1198
▁tana	-1199
▁ikaduha	-1200
▁katloan	-1201
▁santuario	-1202
▁ginhingalanan	-1203
dima	-1204
tawa	-1205
lungug	-1206
▁kanding	-1207
▁idulungug	-1208
▁nagpalapit	-1209
▁inugpahuway	-1210
▁sama	-1211
▁tanda	-1212
▁nagpan	-1213
▁kadamuon	-1214
udul	-1215
▁kangga	-1216
▁palatukuran	-1217
say	-1218
▁esc	-1219
▁kasu	-1220
▁kuntani	-1221
▁benjamin	-1222
ac	-1223
tungud	-1224
▁kaluwasan	-1225
▁pagsolondan	-1226
pito	-1227
▁pab	-1228
▁sion	-1229
udulman	-1230
▁haligi	-1231
▁nagahi	-1232
ting	-1233
▁pagba	-1234
▁nagbalik	-1235
lal	-1236
biya	-1237
▁hina	-1238
▁mali	-1239
▁pablo	-1240
▁puluyan	-1241
▁makilala	-1242
latan	-1243
salamat	-1244
▁kabayo	-1245
ngilaran	-1246
bol	-1247
dios	-1248
tnan	-1249
langgo	-1250
▁pedro	-1251
▁nagata	-1252
▁manginka	-1253
▁kadudulman	-1254
ram	-1255
zar	-1256
holog	-1257
tolok	-1258
mingaw	-1259
▁dolot	-1260
▁dalagku	-1261
▁pagkaon	-1262
toon	-1263
emias	-1264
▁buang	-1265
▁nagli	-1266
▁kapatan	-1267
▁tilipon	-1268
▁magsulud	-1269
▁ca	-1270
labi	-1271
muel	-1272
bangon	-1273
▁nagaa	-1274
▁saway	-1275
muloong	-1276
rc	-1277
pis	-1278
boam	-1279
igo	-1280
antus	-1281
▁gintu	-1282
▁hatag	-1283
▁ibutang	-1284
▁paghangup	-1285
▁nagatindug	-1286
salo	-1287
▁kinahanglan	-1288
▁leon	-1289
rungan	-1290
▁hulut	-1291
▁manas	-1292
▁pulus	-1293
kabalaan	-1294
▁kaliman	-1295
▁malapit	-1296
ez	-1297
▁ahi	-1298
cristo	-1299
▁labut	-1300
▁kuhaon	-1301
kihilawason	-1302
enso	-1303
halab	-1304
▁imol	-1305
baskug	-1306
▁gugma	-1307
▁kayang	-1308
▁luwang	-1309
▁mangga	-1310
▁inci	-1311
▁joab	-1312
▁saka	-1313
igugma	-1314
lubung	-1315
▁dalayon	-1316
▁incienso	-1317
▁jeremias	-1318
▁dumuloong	-1319
▁hinigugma	-1320
▁ju	-1321
▁asi	-1322
▁heb	-1323
▁anay	-1324
▁pagi	-1325
▁matuud	-1326
▁manases	-1327
▁ac	-1328
laka	-1329
▁bana	-1330
kayang	-1331
▁maalam	-1332
▁gilayon	-1333
▁madason	-1334
▁nagsogo	-1335
▁tiliponan	-1336
▁jesucristo	-1337
▁nagalingkod	-1338
▁kayangkayang	-1339
luga	-1340
▁nagpana	-1341
ampo	-1342
daan	-1343
laad	-1344
▁tig	-1345
▁mabu	-1346
banhaw	-1347
tangdo	-1348
▁panit	-1349
kpan	-1350
▁lara	-1351
▁halal	-1352
gkatawo	-1353
▁mangina	-1354
▁kahadluk	-1355
▁pangamuyo	-1356
ib	-1357
naw	-1358
▁no	-1359
▁sic	-1360
tayan	-1361
ugmat	-1362
▁pies	-1363
kalanon	-1364
▁patyon	-1365
▁samuel	-1366
▁larawan	-1367
▁buangbuang	-1368
gata	-1369
rcun	-1370
ngala	-1371
rcunci	-1372
▁asiria	-1373
hunahuna	-1374
▁pamatii	-1375
▁isigkatawo	-1376
▁nagpalagyo	-1377
sadya	-1378
rangga	-1379
▁gamit	-1380
▁igang	-1381
▁piesta	-1382
▁halalban	-1383
▁katarungan	-1384
▁jona	-1385
▁juan	-1386
▁kadu	-1387
ngaway	-1388
▁kahapon	-1389
▁nagsugid	-1390
▁kangilaran	-1391
▁haladngakalanon	-1392
log	-1393
▁amba	-1394
▁cuar	-1395
kilooy	-1396
▁bangka	-1397
▁kagabi	-1398
▁pagdayaw	-1399
▁panganay	-1400
ptan	-1401
upan	-1402
▁ama	-1403
▁lina	-1404
▁bugay	-1405
▁kaayo	-1406
lugayaw	-1407
▁cuarta	-1408
▁nagaabut	-1409
▁asa	-1410
▁ulu	-1411
sugata	-1412
▁anong	-1413
▁kahay	-1414
▁maghi	-1415
▁hangin	-1416
▁samtang	-1417
▁hangaway	-1418
▁kahayupan	-1419
▁manugdumala	-1420
yas	-1421
▁asno	-1422
▁magaa	-1423
lubngan	-1424
▁naglingkod	-1425
▁haladtungud	-1426
▁naa	-1427
hagan	-1428
nggan	-1429
▁ginda	-1430
▁isaac	-1431
▁bagatnan	-1432
▁dimatinlo	-1433
▁kagabihon	-1434
od	-1435
tala	-1436
ubus	-1437
lagan	-1438
▁siclo	-1439
koloran	-1440
▁gintugyan	-1441
▁nagapamolong	-1442
▁nagpahamtang	-1443
sikway	-1444
▁bibig	-1445
▁tanawa	-1446
▁mabaskug	-1447
▁nagalakat	-1448
▁sidlangan	-1449
▁nahibaloan	-1450
▁kabakoloran	-1451
wi	-1452
dom	-1453
▁mar	-1454
▁kari	-1455
▁papa	-1456
▁dapat	-1457
laglagon	-1458
▁samaria	-1459
▁lulubngan	-1460
baon	-1461
▁eze	-1462
▁manun	-1463
▁madamung	-1464
▁nagapadayon	-1465
vas	-1466
kahu	-1467
mata	-1468
mili	-1469
pitan	-1470
▁nasa	-1471
isipan	-1472
▁ginbu	-1473
▁sakayan	-1474
▁nagsonod	-1475
▁nagtaliwan	-1476
riba	-1477
▁bud	-1478
bahin	-1479
dabdab	-1480
lanton	-1481
tandug	-1482
▁tindug	-1483
▁sapayan	-1484
▁nagadala	-1485
▁ginlaglag	-1486
se	-1487
pad	-1488
sag	-1489
basan	-1490
▁dila	-1491
▁nagla	-1492
ranggayan	-1493
▁manugbantay	-1494
▁kabaranggayan	-1495
kur	-1496
ngu	-1497
kaon	-1498
sing	-1499
dlong	-1500
sapag	-1501
baligya	-1502
▁ginsiling	-1503
be	-1504
awon	-1505
wali	-1506
kbung	-1507
▁sanga	-1508
▁kalooy	-1509
laglagan	-1510
▁nagtipon	-1511
▁r	-1512
handi	-1513
▁lino	-1514
▁maku	-1515
▁magbu	-1516
▁jonatan	-1517
▁kahaponon	-1518
▁kalaglagan	-1519
▁pagpamatuud	-1520
hina	-1521
luya	-1522
kasala	-1523
▁natawo	-1524
▁bahandi	-1525
▁babaying	-1526
▁ginsakpan	-1527
▁egiptohanon	-1528
▁pagkamalaut	-1529
tam	-1530
daku	-1531
puno	-1532
lakatan	-1533
▁budyong	-1534
asa	-1535
sias	-1536
unta	-1537
kurug	-1538
lambut	-1539
▁manginma	-1540
▁go	-1541
▁ig	-1542
tian	-1543
▁min	-1544
tolog	-1545
▁mahan	-1546
▁nagbu	-1547
▁atubang	-1548
▁kasangka	-1549
▁magkadto	-1550
mgo	-1551
▁gu	-1552
bina	-1553
inhan	-1554
▁huna	-1555
tubang	-1556
hamutan	-1557
▁bantay	-1558
▁pagpan	-1559
▁aminhan	-1560
▁magkuha	-1561
▁hunahuna	-1562
▁nagpamangkot	-1563
dal	-1564
til	-1565
▁hoo	-1566
▁pak	-1567
salon	-1568
▁kabay	-1569
▁ukbung	-1570
▁kaliwat	-1571
isa	-1572
tig	-1573
▁dum	-1574
▁baal	-1575
balita	-1576
▁tulan	-1577
▁labing	-1578
▁nahaunang	-1579
▁pagkabutang	-1580
▁uvas	-1581
panghi	-1582
▁kailo	-1583
▁mahimo	-1584
▁ihibalo	-1585
▁pagalag	-1586
▁haladsapag	-1587
lun	-1588
tuy	-1589
lolo	-1590
plas	-1591
▁nagada	-1592
▁escriba	-1593
▁ikapito	-1594
▁itugyan	-1595
ygay	-1596
dumut	-1597
tubas	-1598
▁walo	-1599
▁yawa	-1600
▁minoro	-1601
▁nagahu	-1602
▁diosdios	-1603
▁nagsinggit	-1604
bit	-1605
pla	-1606
▁jero	-1607
▁galaad	-1608
▁paghari	-1609
▁maglakat	-1610
▁nagahigugma	-1611
▁nagpatindug	-1612
▁manginsubong	-1613
▁ce	-1614
mpit	-1615
rnon	-1616
▁gen	-1617
lagas	-1618
▁saad	-1619
▁talus	-1620
▁pamakud	-1621
▁pagalagdan	-1622
salom	-1623
tapus	-1624
▁sime	-1625
▁ulan	-1626
ngasawa	-1627
▁laygay	-1628
▁nagapan	-1629
▁nagpakig	-1630
▁ulubasan	-1631
ila	-1632
▁de	-1633
agum	-1634
▁edom	-1635
▁kaon	-1636
▁matu	-1637
sipala	-1638
▁yabok	-1639
▁dagway	-1640
▁naganak	-1641
▁laglagon	-1642
▁pakamaayo	-1643
▁manugbalita	-1644
mas	-1645
tipi	-1646
tong	-1647
▁bay	-1648
untay	-1649
▁manlu	-1650
▁handum	-1651
▁absalom	-1652
ea	-1653
ksan	-1654
▁pis	-1655
▁sug	-1656
lesia	-1657
matay	-1658
▁josa	-1659
▁takus	-1660
▁iglesia	-1661
▁paglaglag	-1662
agon	-1663
isip	-1664
yaub	-1665
▁gentil	-1666
▁ikatlo	-1667
rcuncida	-1668
▁balatian	-1669
▁magasiling	-1670
hak	-1671
▁esa	-1672
bdong	-1673
▁kaga	-1674
mbasan	-1675
▁sanglit	-1676
▁kasumpung	-1677
kal	-1678
suk	-1679
elec	-1680
gulu	-1681
utis	-1682
▁duma	-1683
hidait	-1684
▁nagadu	-1685
▁palanan	-1686
dimatinlo	-1687
▁nagakaon	-1688
▁palananawon	-1689
uman	-1690
gulutum	-1691
▁katunga	-1692
▁kabubuton	-1693
▁tiggulutum	-1694
gus	-1695
uer	-1696
▁huk	-1697
▁tam	-1698
▁esau	-1699
▁saksi	-1700
▁takna	-1701
▁hingan	-1702
▁nagagi	-1703
▁jeroboam	-1704
▁paghatag	-1705
▁salsalon	-1706
▁nagahatag	-1707
▁za	-1708
▁mawala	-1709
▁sungay	-1710
▁paglaum	-1711
▁nagagowa	-1712
▁kahuluyan	-1713
▁pagpakamaayo	-1714
ni	-1715
kaw	-1716
sobol	-1717
▁nali	-1718
▁magta	-1719
▁tabok	-1720
▁tuman	-1721
▁bulahan	-1722
▁magamay	-1723
▁nagkaon	-1724
▁ambahanon	-1725
▁pagalagad	-1726
▁ginpatindug	-1727
▁magkahadluk	-1728
mot	-1729
toan	-1730
▁tapi	-1731
▁abyan	-1732
▁elias	-1733
▁pagtu	-1734
▁talon	-1735
ngganon	-1736
talikod	-1737
▁hambal	-1738
▁nagala	-1739
▁yadtong	-1740
▁suludlan	-1741
▁makakilala	-1742
fat	-1743
tago	-1744
lutan	-1745
patan	-1746
tugut	-1747
dumdum	-1748
▁katam	-1749
▁salam	-1750
▁higdaan	-1751
▁ginaampo	-1752
▁kabihagan	-1753
▁but	-1754
halin	-1755
melec	-1756
riseo	-1757
untat	-1758
▁bago	-1759
▁madu	-1760
tangan	-1761
▁fariseo	-1762
▁panganud	-1763
▁ginka	-1764
▁mapin	-1765
▁magasa	-1766
▁nagabu	-1767
▁pagkabati	-1768
ir	-1769
imo	-1770
mud	-1771
▁acab	-1772
▁himoa	-1773
ngdanan	-1774
tinguha	-1775
▁makasa	-1776
▁maggowa	-1777
▁maluwas	-1778
▁pagabut	-1779
▁kaayohan	-1780
▁ipamolong	-1781
▁nagapangita	-1782
yup	-1783
▁cal	-1784
mbung	-1785
wayan	-1786
▁ginasa	-1787
▁kapitoan	-1788
▁magbalik	-1789
▁pagbulutan	-1790
mad	-1791
usi	-1792
yoan	-1793
▁sela	-1794
▁labaw	-1795
▁magdala	-1796
▁nahadluk	-1797
▁katumbasan	-1798
▁nagpabilin	-1799
▁nagpahayag	-1800
▁magpamolong	-1801
tap	-1802
liso	-1803
maga	-1804
uerub	-1805
▁sano	-1806
▁salmo	-1807
▁tapay	-1808
▁magakaon	-1809
▁nakilala	-1810
▁pagpatay	-1811
itan	-1812
wasa	-1813
bakud	-1814
gahum	-1815
▁tinu	-1816
tagiya	-1817
▁santo	-1818
▁dumaan	-1819
▁gintak	-1820
▁sarang	-1821
▁manggad	-1822
▁mapukan	-1823
osor	-1824
buran	-1825
codon	-1826
malus	-1827
▁nagma	-1828
uerubin	-1829
▁nangina	-1830
codonosor	-1831
▁ginhatagan	-1832
▁manugpahalab	-1833
▁nabucodonosor	-1834
pok	-1835
uben	-1836
yawa	-1837
▁sad	-1838
yawan	-1839
▁damgo	-1840
▁ruben	-1841
▁bugana	-1842
langgoan	-1843
▁nagupud	-1844
▁kabataan	-1845
▁mahadluk	-1846
▁bilanggoan	-1847
▁kasangkaron	-1848
das	-1849
▁hor	-1850
▁uma	-1851
▁maha	-1852
▁pamu	-1853
▁ulay	-1854
▁uyas	-1855
▁kabug	-1856
▁butkon	-1857
▁inagaw	-1858
▁nagatu	-1859
▁mahanabu	-1860
cu	-1861
kad	-1862
ason	-1863
bayaw	-1864
kugmat	-1865
▁calde	-1866
▁dalha	-1867
▁hukom	-1868
bantala	-1869
▁maghatag	-1870
▁ginbayaan	-1871
▁kalalatan	-1872
tud	-1873
lway	-1874
▁gad	-1875
▁mapu	-1876
▁mati	-1877
▁lakas	-1878
▁sulat	-1879
▁canaan	-1880
▁pagowa	-1881
▁pakpak	-1882
▁josafat	-1883
▁magkari	-1884
▁matinlo	-1885
▁napukan	-1886
▁katuyoan	-1887
▁nagpauli	-1888
▁naisipan	-1889
▁magkalipay	-1890
sim	-1891
▁per	-1892
angay	-1893
▁mahu	-1894
▁paka	-1895
tawgon	-1896
▁kadto	-1897
▁magda	-1898
▁tiyan	-1899
▁kaonon	-1900
▁amornon	-1901
▁magapuyo	-1902
▁makabati	-1903
▁ginlubung	-1904
▁nagapamati	-1905
ruz	-1906
uel	-1907
angg	-1908
baya	-1909
▁joa	-1910
kiran	-1911
lawig	-1912
lugus	-1913
tagna	-1914
▁latok	-1915
▁ginpapa	-1916
▁kumbung	-1917
▁pagkuha	-1918
▁ginatanaw	-1919
▁ginpagowa	-1920
▁kabukiran	-1921
pug	-1922
▁pas	-1923
▁sum	-1924
tonog	-1925
▁gali	-1926
▁kuhaa	-1927
▁sonog	-1928
▁tudlo	-1929
▁kilala	-1930
▁pispis	-1931
▁makusug	-1932
▁tuburan	-1933
▁ginbayaw	-1934
▁ginahatag	-1935
▁ginatawag	-1936
▁kapipitan	-1937
▁magabalik	-1938
▁nagdulhog	-1939
lip	-1940
▁ele	-1941
paton	-1942
▁alag	-1943
▁sari	-1944
agahon	-1945
▁lulan	-1946
▁magdu	-1947
▁panga	-1948
▁nagatoo	-1949
▁pagdala	-1950
▁pagkapa	-1951
▁kaagahon	-1952
▁kalabaon	-1953
▁magahimo	-1954
circuncida	-1955
sal	-1956
▁ge	-1957
ilig	-1958
▁ali	-1959
▁bag	-1960
▁tug	-1961
bugal	-1962
pigus	-1963
udili	-1964
▁silo	-1965
balaan	-1966
▁tipon	-1967
dagtaan	-1968
▁ikapat	-1969
▁malain	-1970
▁pinili	-1971
▁nagapana	-1972
▁nahanabu	-1973
▁nakasala	-1974
▁nagalagad	-1975
pani	-1976
aniel	-1977
lisud	-1978
▁bihag	-1979
▁daniel	-1980
ngalahan	-1981
▁dimatuud	-1982
▁nagakari	-1983
▁paglakat	-1984
at	-1985
bal	-1986
pili	-1987
▁ara	-1988
▁har	-1989
higda	-1990
▁elea	-1991
anggid	-1992
inoino	-1993
▁kalang	-1994
▁paglalis	-1995
▁pinakama	-1996
▁magalagad	-1997
▁nagakaigo	-1998
▁caldeanhon	-1999
▁pakamaayohon	-2000
nag	-2001
wad	-2002
ikan	-2003
mnon	-2004
baylo	-2005
saran	-2006
himaya	-2007
▁naghu	-2008
▁tonog	-2009
▁kadayawan	-2010
▁nagadumut	-2011
▁makasasala	-2012
▁nagabantay	-2013
▁nagpanlakatan	-2014
paw	-2015
uem	-2016
▁aca	-2017
▁iha	-2018
▁jez	-2019
ranon	-2020
tawad	-2021
▁paha	-2022
▁sung	-2023
▁among	-2024
▁hebron	-2025
▁magtoo	-2026
▁ipadala	-2027
▁sonogon	-2028
▁patindug	-2029
▁kasapatan	-2030
▁nakakilala	-2031
cua	-2032
layo	-2033
▁ikan	-2034
▁maki	-2035
▁suga	-2036
▁bulag	-2037
▁siria	-2038
▁utdon	-2039
sawayan	-2040
▁galile	-2041
▁kasakit	-2042
▁matahum	-2043
▁katamnan	-2044
▁pinadala	-2045
▁canaanhon	-2046
▁kasawayan	-2047
▁kabangdanan	-2048
▁pinakamataas	-2049
▁ho	-2050
kang	-2051
▁dan	-2052
▁paa	-2053
▁put	-2054
▁cruz	-2055
handum	-2056
sandad	-2057
▁makaa	-2058
▁sapay	-2059
▁simon	-2060
▁dughan	-2061
▁manuga	-2062
▁ginsugid	-2063
▁magbantay	-2064
▁nagbutang	-2065
▁nagakalipay	-2066
cio	-2067
ming	-2068
puti	-2069
tili	-2070
▁tri	-2071
ganan	-2072
putan	-2073
uswag	-2074
yawon	-2075
▁levi	-2076
▁siri	-2077
▁sugi	-2078
dalman	-2079
▁madali	-2080
▁ugaling	-2081
▁sadsaran	-2082
▁dungganon	-2083
▁kadadalman	-2084
▁mahibaloan	-2085
bad	-2086
oso	-2087
puud	-2088
utud	-2089
utiso	-2090
▁ubay	-2091
longon	-2092
lupang	-2093
▁bilog	-2094
▁cedro	-2095
mitlang	-2096
▁bagong	-2097
▁ginsug	-2098
▁himata	-2099
▁pascua	-2100
▁eleazar	-2101
▁maginum	-2102
▁matutum	-2103
▁nagkari	-2104
▁magdolot	-2105
▁nagbangon	-2106
▁pagsugata	-2107
▁magatindug	-2108
nit	-2109
bano	-2110
lata	-2111
ngup	-2112
otan	-2113
▁tor	-2114
payon	-2115
usisa	-2116
▁bayo	-2117
▁nagu	-2118
ibabaw	-2119
▁magtu	-2120
▁pagdu	-2121
▁luwasa	-2122
▁taming	-2123
▁sungkud	-2124
▁tagayan	-2125
▁mamingaw	-2126
▁nagapang	-2127
▁sirianhon	-2128
▁napamolong	-2129
▁pangolopuud	-2130
rim	-2131
▁ci	-2132
▁ze	-2133
akig	-2134
zias	-2135
dolog	-2136
wadan	-2137
▁masi	-2138
▁katun	-2139
▁hatagan	-2140
▁magagowa	-2141
▁nagpatay	-2142
▁nakahimo	-2143
▁magtindug	-2144
▁ginpakamaayo	-2145
ot	-2146
luk	-2147
ter	-2148
iban	-2149
waan	-2150
▁bul	-2151
andam	-2152
tlong	-2153
ulsul	-2154
▁jeri	-2155
▁kasi	-2156
▁liog	-2157
▁mong	-2158
lunhon	-2159
wagkus	-2160
▁betel	-2161
▁pagga	-2162
▁ikatlong	-2163
▁paglapas	-2164
▁pagtanaw	-2165
▁matadlong	-2166
▁pagkilala	-2167
sun	-2168
▁he	-2169
laga	-2170
▁bas	-2171
ligan	-2172
tanum	-2173
▁bung	-2174
▁kaha	-2175
▁mica	-2176
▁baylo	-2177
▁torre	-2178
limbong	-2179
▁libano	-2180
▁magata	-2181
▁bangkay	-2182
▁ginpili	-2183
▁kanuman	-2184
▁magbiya	-2185
▁nahatag	-2186
▁naghalin	-2187
▁nagsumpa	-2188
▁magkabuhi	-2189
▁makasarang	-2190
uk	-2191
▁co	-2192
kugi	-2193
▁dali	-2194
▁nati	-2195
a	-2196
▁	-2197
n	-2198
g	-2199
i	-2200
s	-2201
o	-2202
k	-2203
l	-2204
m	-2205
u	-2206
t	-2207
d	-2208
p	-2209
y	-2210
b	-2211
h	-2212
w	-2213
r	-2214
e	-2215
c	-2216
j	-2217
z	-2218
f	-2219
v	-2220
