<unk>	0
<s>	0
</s>	0
▁a	-0
an	-1
▁n	-2
▁d	-3
▁k	-4
▁s	-5
ay	-6
▁m	-7
▁ka	-8
▁o	-9
ak	-10
ta	-11
in	-12
▁no	-13
▁do	-14
pa	-15
▁na	-16
en	-17
ia	-18
to	-19
ra	-20
io	-21
▁so	-22
▁ma	-23
▁as	-24
ya	-25
▁am	-26
▁da	-27
▁ta	-28
va	-29
mo	-30
ch	-31
aya	-32
aka	-33
ang	-34
▁pa	-35
▁sa	-36
▁p	-37
▁di	-38
ri	-39
ro	-40
vo	-41
▁ko	-42
▁A	-43
▁D	-44
ano	-45
▁an	-46
ana	-47
▁sia	-48
▁t	-49
es	-50
di	-51
ma	-52
wa	-53
ng	-54
▁nio	-55
rin	-56
▁i	-57
▁aya	-58
wo	-59
ios	-60
▁si	-61
▁ni	-62
▁mo	-63
▁Dios	-64
po	-65
▁J	-66
ina	-67
no	-68
yo	-69
▁kano	-70
▁kap	-71
ian	-72
na	-73
he	-74
li	-75
hen	-76
▁may	-77
▁ak	-78
ti	-79
▁"	-80
▁M	-81
chi	-82
wan	-83
us	-84
vi	-85
▁Jes	-86
cha	-87
▁tawo	-88
ho	-89
▁As	-90
ga	-91
bo	-92
da	-93
ran	-94
▁maka	-95
sa	-96
▁ya	-97
la	-98
▁naka	-99
▁N	-100
si	-101
lo	-102
▁dira	-103
parin	-104
vata	-105
▁Jesus	-106
so	-107
ey	-108
aken	-109
ha	-110
han	-111
▁dia	-112
inio	-113
wri	-114
ko	-115
pan	-116
angay	-117
▁nia	-118
ako	-119
do	-120
tan	-121
ayto	-122
▁anti	-123
tavo	-124
."	-125
▁P	-126
go	-127
ek	-128
▁dinio	-129
man	-130
ayan	-131
▁to	-132
▁asa	-133
▁sira	-134
et	-135
men	-136
▁atavo	-137
▁mian	-138
ino	-139
eh	-140
▁kan	-141
▁kak	-142
rako	-143
pi	-144
er	-145
mi	-146
▁dana	-147
▁mak	-148
▁T	-149
sto	-150
em	-151
▁saya	-152
▁kapay	-153
▁C	-154
yen	-155
▁map	-156
▁mang	-157
viay	-158
▁diaken	-159
▁om	-160
yod	-161
▁v	-162
▁ara	-163
▁Ma	-164
▁S	-165
voya	-166
▁kapa	-167
gato	-168
inata	-169
▁man	-170
dan	-171
ten	-172
roh	-173
▁tayto	-174
▁mapa	-175
▁pina	-176
de	-177
ray	-178
panmo	-179
▁No	-180
▁icha	-181
▁namen	-182
▁kamo	-183
tawo	-184
rawa	-185
is	-186
ba	-187
dng	-188
▁akma	-189
vah	-190
▁vata	-191
mot	-192
not	-193
mna	-194
yan	-195
yoko	-196
ero	-197
pian	-198
ayo	-199
hed	-200
diman	-201
▁abo	-202
▁viay	-203
ayamot	-204
▁kad	-205
▁I	-206
▁tapian	-207
rahe	-208
▁Cri	-209
▁Da	-210
▁Cristo	-211
▁pin	-212
dngey	-213
▁vinata	-214
▁tawotawo	-215
▁Do	-216
nong	-217
kto	-218
▁Ju	-219
▁E	-220
angan	-221
▁V	-222
▁pan	-223
rahet	-224
akwan	-225
▁kani	-226
rakoh	-227
▁Amna	-228
▁pay	-229
daw	-230
anawo	-231
▁mapia	-232
gatos	-233
wara	-234
▁vatahen	-235
ava	-236
▁makayamot	-237
▁ori	-238
▁ava	-239
▁Apo	-240
▁ip	-241
▁kaparin	-242
▁oyod	-243
anohed	-244
▁taya	-245
ni	-246
ango	-247
▁ako	-248
▁Pa	-249
bi	-250
▁kay	-251
▁kadwan	-252
▁iya	-253
tokto	-254
lib	-255
vid	-256
anong	-257
marin	-258
▁akm	-259
▁takwan	-260
▁machi	-261
sia	-262
▁dimo	-263
san	-264
nan	-265
▁aran	-266
▁parin	-267
aw	-268
▁nay	-269
▁Dawa	-270
▁amna	-271
hes	-272
▁kadi	-273
▁karako	-274
it	-275
▁nawri	-276
▁naya	-277
akey	-278
las	-279
incha	-280
▁karakohan	-281
▁paro	-282
▁kayan	-283
ka	-284
▁kaso	-285
▁y	-286
day	-287
teh	-288
▁parinyen	-289
▁apo	-290
piri	-291
van	-292
▁K	-293
tong	-294
mana	-295
ed	-296
▁ti	-297
pirito	-298
rana	-299
▁kas	-300
▁mayanong	-301
▁ipaka	-302
▁chi	-303
▁Si	-304
▁Va	-305
▁ch	-306
▁yapo	-307
▁yaken	-308
nonong	-309
▁rakoh	-310
▁marahet	-311
gan	-312
tol	-313
▁kapan	-314
▁kavah	-315
▁asna	-316
pay	-317
▁kavahayan	-318
▁omo	-319
▁pro	-320
ban	-321
akan	-322
ddaw	-323
▁sawri	-324
▁in	-325
vak	-326
▁kapaka	-327
▁An	-328
▁aro	-329
▁mata	-330
ngen	-331
▁kato	-332
pamarin	-333
rawat	-334
▁paka	-335
▁makavata	-336
vog	-337
ria	-338
▁mana	-339
▁kavata	-340
rek	-341
voy	-342
raya	-343
pia	-344
▁kat	-345
▁maparin	-346
ayapo	-347
▁koma	-348
▁tino	-349
▁arava	-350
▁ono	-351
▁Jude	-352
el	-353
cho	-354
▁pero	-355
hap	-356
▁Ta	-357
▁anmana	-358
libri	-359
yokoyoko	-360
▁ich	-361
▁pachi	-362
▁kanira	-363
tahen	-364
akay	-365
▁sino	-366
erbi	-367
dis	-368
hel	-369
lay	-370
▁Vatan	-371
▁Es	-372
▁diaten	-373
yoran	-374
wnot	-375
tolas	-376
▁kakaw	-377
akayapo	-378
▁omonot	-379
▁kara	-380
nek	-381
▁som	-382
rwa	-383
▁sin	-384
mon	-385
▁ang	-386
soyo	-387
akteh	-388
vakes	-389
se	-390
nin	-391
▁Judeo	-392
vahe	-393
▁daw	-394
▁disi	-395
▁kakawyoran	-396
▁manganohed	-397
pet	-398
▁O	-399
vidin	-400
▁ipakapamarin	-401
▁mangay	-402
▁mapanmo	-403
▁ango	-404
tin	-405
tigo	-406
blo	-407
ismo	-408
▁ra	-409
▁'	-410
▁vah	-411
▁Pablo	-412
▁mismo	-413
▁Espirito	-414
▁ano	-415
▁akmay	-416
wnonong	-417
▁ina	-418
▁komapet	-419
polo	-420
▁han	-421
▁aktokto	-422
wana	-423
▁Ama	-424
inchad	-425
vidi	-426
▁onotan	-427
▁disipolo	-428
▁tana	-429
irwa	-430
vot	-431
▁tomo	-432
moan	-433
diw	-434
▁es	-435
▁kasi	-436
yit	-437
▁F	-438
rawatan	-439
gatogatos	-440
▁hanyit	-441
anganohed	-442
▁yan	-443
▁sala	-444
▁Jesu	-445
▁narana	-446
rahan	-447
▁kasoli	-448
▁nangay	-449
▁disipolos	-450
▁china	-451
loga	-452
▁f	-453
▁Mian	-454
▁pang	-455
▁ichakey	-456
▁H	-457
▁vo	-458
▁kam	-459
saray	-460
edro	-461
al	-462
▁kabo	-463
▁Pedro	-464
tra	-465
▁Na	-466
dong	-467
▁vahay	-468
▁tomoroh	-469
pat	-470
▁mato	-471
▁saray	-472
logar	-473
▁pava	-474
▁mavakes	-475
hos	-476
ndo	-477
re	-478
▁araw	-479
▁yanan	-480
,"	-481
bay	-482
▁kasolivan	-483
nio	-484
▁kana	-485
▁sava	-486
▁kakakteh	-487
akayapoan	-488
▁akmaya	-489
▁pinarin	-490
▁pachirawatan	-491
ion	-492
pas	-493
▁min	-494
▁mondo	-495
te	-496
▁B	-497
▁awri	-498
empo	-499
patol	-500
▁daya	-501
toroh	-502
▁Ka	-503
liak	-504
rohan	-505
dngeyen	-506
idi	-507
siasi	-508
▁tiempo	-509
hdan	-510
▁dad	-511
▁ipa	-512
▁anghel	-513
▁tom	-514
▁kako	-515
yokoyokoran	-516
▁nan	-517
aro	-518
▁logar	-519
vahey	-520
▁kwana	-521
riparin	-522
▁salapan	-523
▁G	-524
▁Sa	-525
▁chirin	-526
.'	-527
▁mas	-528
▁makak	-529
misa	-530
tindi	-531
▁niaya	-532
▁ba	-533
ermi	-534
▁mara	-535
▁somni	-536
akem	-537
daday	-538
rayay	-539
tarek	-540
▁maviay	-541
yeng	-542
▁mah	-543
▁nanawo	-544
▁katayto	-545
▁Ni	-546
riaw	-547
chango	-548
▁dawri	-549
changoriaw	-550
▁kadiman	-551
ngo	-552
vaya	-553
dep	-554
rayaw	-555
mona	-556
tnan	-557
plo	-558
garan	-559
▁gatos	-560
voh	-561
▁Juan	-562
intindi	-563
▁Nay	-564
ato	-565
lit	-566
▁Jer	-567
▁mawara	-568
ib	-569
alem	-570
▁Ara	-571
incharan	-572
▁pakayapoan	-573
▁anak	-574
usalem	-575
▁Jerusalem	-576
▁kawnot	-577
▁pandan	-578
▁sichangoriaw	-579
▁kangay	-580
Ma	-581
bna	-582
nay	-583
▁addaw	-584
tongtong	-585
eta	-586
mia	-587
hoho	-588
saw	-589
▁diamen	-590
▁nakatolas	-591
anga	-592
baho	-593
▁kami	-594
▁koaya	-595
▁Vinata	-596
anganakan	-597
tos	-598
serbi	-599
soyot	-600
▁nadiman	-601
le	-602
▁somnivog	-603
voyan	-604
wagan	-605
▁g	-606
nik	-607
▁Ch	-608
niknin	-609
▁navoya	-610
▁kanen	-611
▁manda	-612
▁kakovot	-613
anohdan	-614
▁mavoya	-615
▁ngaran	-616
No	-617
▁tem	-618
▁Tayto	-619
anganak	-620
ekey	-621
▁darana	-622
▁nak	-623
▁kom	-624
ayoka	-625
hosto	-626
monamo	-627
▁b	-628
▁kar	-629
▁May	-630
riparinyen	-631
▁pariparinyen	-632
▁moaya	-633
▁dawa	-634
▁templo	-635
dib	-636
dit	-637
von	-638
feta	-639
▁kastigo	-640
▁makakniknin	-641
tet	-642
▁katoroh	-643
▁kamanganakan	-644
din	-645
▁kata	-646
▁ino	-647
▁profeta	-648
eng	-649
hbo	-650
▁ama	-651
▁Oyod	-652
▁chin	-653
▁dadwa	-654
▁mango	-655
▁kapachi	-656
aho	-657
hah	-658
pos	-659
didi	-660
toktoan	-661
▁nawara	-662
▁nioava	-663
og	-664
kon	-665
▁Is	-666
ahok	-667
chaho	-668
langan	-669
▁manam	-670
ias	-671
pit	-672
chahoahok	-673
▁panyokoyokoran	-674
ne	-675
waw	-676
sion	-677
vadiw	-678
paka	-679
▁saw	-680
▁pinay	-681
▁itoroh	-682
res	-683
▁Sira	-684
▁tina	-685
chowa	-686
▁mano	-687
▁sina	-688
▁apohen	-689
seh	-690
santo	-691
An	-692
alo	-693
tova	-694
vang	-695
patolan	-696
▁nioaya	-697
▁chitahen	-698
▁paypatolan	-699
▁nira	-700
▁Manganak	-701
▁matatarek	-702
ham	-703
oyod	-704
▁Asna	-705
▁Ak	-706
voyvoh	-707
▁manga	-708
▁rarayay	-709
mato	-710
sobna	-711
▁espirito	-712
▁po	-713
▁Chi	-714
▁kon	-715
▁oma	-716
patak	-717
▁pinang	-718
!"	-719
▁R	-720
maog	-721
▁Isra	-722
▁maso	-723
▁nakavoya	-724
sien	-725
▁mananawo	-726
bra	-727
des	-728
▁manamonamo	-729
ari	-730
lak	-731
▁Mo	-732
dang	-733
angon	-734
▁sinmo	-735
▁kaoyod	-736
kan	-737
▁kakteh	-738
▁Masanto	-739
yokoyokod	-740
inbay	-741
▁dava	-742
goro	-743
▁tra	-744
vangon	-745
▁kalibri	-746
▁kapanmo	-747
▁nakadngey	-748
▁makagatogatos	-749
pe	-750
sal	-751
▁kava	-752
sinchad	-753
mis	-754
▁ichaddaw	-755
▁promisa	-756
▁kaychowa	-757
tdo	-758
tis	-759
pang	-760
▁Pero	-761
▁la	-762
Ango	-763
ises	-764
▁papa	-765
▁Moises	-766
?"	-767
yay	-768
sian	-769
dicho	-770
▁pana	-771
▁pakasi	-772
▁nakapay	-773
▁kakey	-774
dichoko	-775
▁papali	-776
pro	-777
▁koy	-778
▁karaw	-779
▁mahakay	-780
▁kapia	-781
▁mapaparin	-782
▁To	-783
▁patol	-784
▁sidong	-785
etd	-786
mahe	-787
chasa	-788
▁Arava	-789
as	-790
akaw	-791
sari	-792
etdeh	-793
braham	-794
▁dekey	-795
▁sivog	-796
monmoan	-797
roan	-798
▁mava	-799
▁mangan	-800
▁Abraham	-801
▁kamoava	-802
▁nanganohed	-803
eli	-804
▁aw	-805
▁vayo	-806
▁maato	-807
▁mapay	-808
▁Chirin	-809
▁kasoyo	-810
▁mapaka	-811
▁Jo	-812
helio	-813
▁inio	-814
▁kayn	-815
▁maya	-816
▁pidi	-817
liliak	-818
▁anohed	-819
vanghelio	-820
▁panganohdan	-821
▁pinangtoktoan	-822
fis	-823
dnge	-824
tana	-825
▁Mak	-826
▁anongen	-827
▁L	-828
keh	-829
seo	-830
▁ay	-831
▁kaw	-832
aknin	-833
▁mavidin	-834
wag	-835
insia	-836
▁Fari	-837
▁tori	-838
pangay	-839
▁Fariseo	-840
▁naparin	-841
▁Evanghelio	-842
anom	-843
lano	-844
anoro	-845
▁fermi	-846
▁mahosto	-847
bdib	-848
mban	-849
para	-850
▁imo	-851
dayen	-852
▁mayn	-853
panaya	-854
▁voyvoh	-855
co	-856
▁go	-857
tetnek	-858
▁tomno	-859
▁tinoroh	-860
dor	-861
til	-862
▁va	-863
hosga	-864
▁Akma	-865
▁kavoyan	-866
apo	-867
▁Niaya	-868
haw	-869
stol	-870
▁tan	-871
mahes	-872
tanas	-873
▁danom	-874
▁pinaka	-875
▁tanoro	-876
▁makarawat	-877
ila	-878
▁li	-879
▁vi	-880
erna	-881
homis	-882
▁papi	-883
▁torohan	-884
▁ichahoho	-885
bet	-886
Tayto	-887
rasia	-888
yangay	-889
▁adnge	-890
▁Satanas	-891
▁mararahet	-892
▁adngedngeyen	-893
vay	-894
ganit	-895
pidit	-896
▁diman	-897
▁ninio	-898
▁yaten	-899
chaknin	-900
soyotan	-901
▁tawagan	-902
ar	-903
dam	-904
nero	-905
▁Hen	-906
chita	-907
dawen	-908
▁nava	-909
▁Hentil	-910
▁grasia	-911
▁adan	-912
▁apostol	-913
▁masngen	-914
▁makagatogatosen	-915
▁vin	-916
▁Maka	-917
▁para	-918
▁komwan	-919
▁makapanmo	-920
▁pidipidit	-921
ngey	-922
endis	-923
pipia	-924
▁kayo	-925
didiwan	-926
▁trabaho	-927
▁manganak	-928
▁kadimanan	-929
▁kasoyosoyotan	-930
tro	-931
sibi	-932
▁maypa	-933
▁kawara	-934
▁metdeh	-935
▁niaken	-936
▁vinyay	-937
▁sincharan	-938
▁taaw	-939
▁David	-940
▁makasiasi	-941
▁pakasisian	-942
det	-943
gal	-944
▁Ga	-945
▁tay	-946
vayat	-947
▁napa	-948
▁mirwa	-949
▁inangay	-950
mahemahes	-951
▁kapanganohed	-952
akman	-953
akovot	-954
risibi	-955
▁gatogatos	-956
▁inmonmoan	-957
▁kalibrian	-958
boan	-959
taya	-960
▁Pina	-961
anawan	-962
anggal	-963
▁makey	-964
▁Naytawo	-965
▁kasisien	-966
▁Ti	-967
jalo	-968
disna	-969
ehseh	-970
nolay	-971
▁nakapa	-972
▁sinjalo	-973
▁angheles	-974
dad	-975
law	-976
wtis	-977
▁tod	-978
▁timban	-979
▁paroava	-980
▁nakarahan	-981
▁mapawnonong	-982
por	-983
ren	-984
lama	-985
tbay	-986
▁tro	-987
▁moava	-988
▁kartos	-989
▁kavidin	-990
▁nadngey	-991
▁tinapay	-992
vahevahey	-993
▁pandidiwan	-994
dian	-995
chaka	-996
▁kawan	-997
▁inolay	-998
▁Makayamot	-999
lia	-1000
tay	-1001
hara	-1002
▁kab	-1003
▁kai	-1004
nehah	-1005
▁nachi	-1006
on	-1007
had	-1008
ras	-1009
▁bo	-1010
▁marawat	-1011
▁pawnonong	-1012
Apo	-1013
met	-1014
lamad	-1015
rapit	-1016
rarayaw	-1017
▁dimanen	-1018
▁matarek	-1019
akri	-1020
▁Hero	-1021
▁kanaw	-1022
trabaho	-1023
vatahen	-1024
▁Vatahen	-1025
▁kaynakman	-1026
lea	-1027
yis	-1028
fisio	-1029
▁tinovoy	-1030
akrifisio	-1031
▁nakayapo	-1032
▁ichasaray	-1033
pen	-1034
ven	-1035
hsan	-1036
nekan	-1037
repara	-1038
▁takey	-1039
bdibdis	-1040
▁Takwan	-1041
▁kapanmoan	-1042
raw	-1043
lilea	-1044
▁koava	-1045
▁papito	-1046
ego	-1047
▁ipay	-1048
▁Maria	-1049
▁serbi	-1050
▁inamaog	-1051
▁kanawri	-1052
▁kapirwa	-1053
▁mayvidi	-1054
▁ipakamia	-1055
▁pawnonongen	-1056
hep	-1057
min	-1058
mit	-1059
ngdo	-1060
▁apoy	-1061
▁koman	-1062
▁Israel	-1063
▁iyangay	-1064
▁mayserbi	-1065
▁kaylangan	-1066
Ara	-1067
anaw	-1068
rado	-1069
▁mala	-1070
bawtis	-1071
ehdang	-1072
▁nakap	-1073
▁nyeng	-1074
▁plano	-1075
▁pinidi	-1076
▁sigoro	-1077
▁adngeyen	-1078
eb	-1079
▁ayet	-1080
▁ipan	-1081
vatova	-1082
▁Simon	-1083
▁mamarin	-1084
▁nanyeng	-1085
▁Gri	-1086
▁naw	-1087
▁mach	-1088
chirin	-1089
▁yamen	-1090
▁Griego	-1091
▁nakavata	-1092
▁makapamarin	-1093
yaw	-1094
dkan	-1095
▁mat	-1096
▁paw	-1097
ilato	-1098
▁Juda	-1099
▁Pilato	-1100
▁apoapo	-1101
▁kavoya	-1102
▁mavavakes	-1103
yi	-1104
ken	-1105
vawa	-1106
ionan	-1107
notan	-1108
▁Icha	-1109
▁onor	-1110
▁raya	-1111
▁lamit	-1112
▁kapang	-1113
▁katori	-1114
▁makavoya	-1115
May	-1116
tek	-1117
poan	-1118
▁mayp	-1119
vidang	-1120
▁Herodes	-1121
▁apostoles	-1122
▁kapayvidi	-1123
dia	-1124
nga	-1125
war	-1126
vota	-1127
gorado	-1128
▁tatdo	-1129
rawaten	-1130
▁tanyan	-1131
chakovot	-1132
▁madiman	-1133
▁mangwan	-1134
tia	-1135
enta	-1136
hahaw	-1137
mahbo	-1138
▁Naka	-1139
▁Nangay	-1140
▁Galilea	-1141
▁sirawri	-1142
▁pinatolas	-1143
erb	-1144
hovo	-1145
▁Iya	-1146
▁dios	-1147
tayabo	-1148
▁tohos	-1149
▁komaro	-1150
▁Maparin	-1151
▁tinongdo	-1152
Do	-1153
Na	-1154
▁masi	-1155
tigoan	-1156
yapoan	-1157
chonong	-1158
promisa	-1159
▁mapipia	-1160
▁mapawnot	-1161
▁nakawara	-1162
dichokoran	-1163
▁kasinchad	-1164
▁tinorohan	-1165
kri	-1166
oma	-1167
rte	-1168
dios	-1169
sdep	-1170
siay	-1171
volaw	-1172
▁bato	-1173
▁mino	-1174
▁somi	-1175
▁Kwana	-1176
▁trono	-1177
▁Mapanmo	-1178
▁akdawen	-1179
▁fa	-1180
hawan	-1181
voyen	-1182
▁apat	-1183
ayakan	-1184
▁karnero	-1185
,'	-1186
kod	-1187
▁So	-1188
kriba	-1189
▁prov	-1190
tongdo	-1191
▁paman	-1192
▁tinbay	-1193
naynehah	-1194
▁eskriba	-1195
▁omparin	-1196
▁Kwanasaw	-1197
labo	-1198
sada	-1199
teng	-1200
▁ito	-1201
▁pri	-1202
divon	-1203
ianib	-1204
▁dose	-1205
▁paya	-1206
dongen	-1207
▁kokod	-1208
anawhen	-1209
▁Apohen	-1210
▁maycha	-1211
▁rarahan	-1212
▁nakadiman	-1213
▁kapaynaynehah	-1214
sah	-1215
bhes	-1216
dima	-1217
vakel	-1218
▁dino	-1219
▁mina	-1220
▁Patol	-1221
▁kaaro	-1222
▁tarek	-1223
▁tokon	-1224
▁iyahes	-1225
▁mahara	-1226
▁kapaypa	-1227
▁sehdang	-1228
▁vohawan	-1229
rakorakoh	-1230
hni	-1231
danan	-1232
mnaro	-1233
erbian	-1234
laboso	-1235
sitnan	-1236
▁ichapia	-1237
▁manyokoyokod	-1238
eo	-1239
kas	-1240
lin	-1241
chay	-1242
goga	-1243
▁day	-1244
laban	-1245
milia	-1246
▁nang	-1247
▁mahah	-1248
pasngen	-1249
▁kaddaw	-1250
▁familia	-1251
▁inyapoan	-1252
▁kwanasaw	-1253
▁sinagoga	-1254
▁mahahakay	-1255
Ni	-1256
god	-1257
▁ab	-1258
hbet	-1259
elita	-1260
istro	-1261
▁liak	-1262
▁nimo	-1263
▁Judas	-1264
▁kakaro	-1265
▁kapaya	-1266
▁mavota	-1267
▁panaya	-1268
▁masolib	-1269
▁pamandan	-1270
▁Israelita	-1271
peh	-1272
mita	-1273
▁Man	-1274
▁Pin	-1275
solib	-1276
▁kati	-1277
sonong	-1278
wardia	-1279
▁Tayoka	-1280
▁komita	-1281
▁koynio	-1282
▁mapapanmo	-1283
▁nipromisa	-1284
▁provinsia	-1285
▁sakrifisio	-1286
.'"	-1287
ayam	-1288
▁ari	-1289
▁dom	-1290
▁kaiya	-1291
▁Anmana	-1292
bawtismo	-1293
▁dadakay	-1294
▁makapay	-1295
▁masoyot	-1296
▁serbien	-1297
angononong	-1298
▁kaintindi	-1299
Va	-1300
ros	-1301
hapan	-1302
▁kasa	-1303
kontra	-1304
ngaran	-1305
▁kakan	-1306
rayawan	-1307
▁niaten	-1308
dichokod	-1309
▁angayan	-1310
▁mayliliak	-1311
▁machahoahok	-1312
▁Nia	-1313
endes	-1314
▁Jose	-1315
▁kros	-1316
▁diaya	-1317
▁vatan	-1318
▁inahes	-1319
▁Dadayen	-1320
panayahen	-1321
▁pinapanmo	-1322
▁tayatayabo	-1323
ier	-1324
esta	-1325
gtin	-1326
hava	-1327
rohen	-1328
tawag	-1329
▁anib	-1330
chawaw	-1331
▁koymo	-1332
▁libri	-1333
akakteh	-1334
endision	-1335
▁Om	-1336
cheh	-1337
gsal	-1338
gwan	-1339
yvoh	-1340
▁oho	-1341
▁pas	-1342
▁Aran	-1343
▁Feli	-1344
▁alit	-1345
▁tawol	-1346
▁tiban	-1347
tanggal	-1348
▁akoava	-1349
▁mayngaran	-1350
Si	-1351
pek	-1352
ulo	-1353
vosan	-1354
▁kaka	-1355
▁mahep	-1356
▁nanma	-1357
▁parte	-1358
▁vovon	-1359
▁somdep	-1360
▁masaray	-1361
▁kapayserbi	-1362
▁mangononong	-1363
▁kapachahoahok	-1364
▁panapanayahen	-1365
im	-1366
Imo	-1367
lang	-1368
lina	-1369
pong	-1370
pres	-1371
rayi	-1372
▁Isa	-1373
lapos	-1374
▁pali	-1375
gwanta	-1376
▁bapor	-1377
▁hosga	-1378
▁kahap	-1379
▁dadima	-1380
▁kasari	-1381
▁manoma	-1382
▁parabo	-1383
▁kapanga	-1384
▁tovoyen	-1385
▁katadkan	-1386
kay	-1387
mas	-1388
▁pi	-1389
akma	-1390
iven	-1391
fermi	-1392
iesta	-1393
nayen	-1394
tetek	-1395
▁Judea	-1396
Vatahen	-1397
chakasa	-1398
▁kachita	-1399
▁minonot	-1400
▁natongdo	-1401
▁parabola	-1402
▁maintindi	-1403
▁rakorakoh	-1404
ja	-1405
eth	-1406
wdi	-1407
Niaya	-1408
nayan	-1409
pehan	-1410
plina	-1411
▁Inio	-1412
Mangay	-1413
diosan	-1414
laylay	-1415
tnanan	-1416
matohen	-1417
▁nasion	-1418
▁madngey	-1419
▁sitnanan	-1420
▁somidong	-1421
▁maytetnek	-1422
▁diosdiosan	-1423
To	-1424
gi	-1425
lap	-1426
nia	-1427
sol	-1428
▁Ja	-1429
berna	-1430
tohen	-1431
▁kono	-1432
▁toma	-1433
▁mahap	-1434
▁mahni	-1435
prepara	-1436
bernador	-1437
nananawo	-1438
▁ichapatak	-1439
▁r	-1440
yas	-1441
▁ga	-1442
loko	-1443
▁San	-1444
hanan	-1445
rahem	-1446
tiago	-1447
▁mabo	-1448
▁poho	-1449
▁kapak	-1450
▁fiesta	-1451
▁domngey	-1452
▁karakoh	-1453
▁omdaday	-1454
▁Santiago	-1455
▁kasitnan	-1456
▁maydisna	-1457
▁nakapaka	-1458
▁masinchad	-1459
▁matalamad	-1460
▁pinariparin	-1461
▁pinawnonong	-1462
rah	-1463
mano	-1464
skeh	-1465
twaw	-1466
▁nin	-1467
palak	-1468
▁masa	-1469
▁oras	-1470
▁Fermi	-1471
▁toman	-1472
▁voken	-1473
▁maddaw	-1474
astigoan	-1475
▁kasaray	-1476
▁kaydian	-1477
▁omdivon	-1478
▁ipapanmo	-1479
▁maynakem	-1480
▁mayvadiw	-1481
▁kapamarin	-1482
▁vahevahey	-1483
lan	-1484
chin	-1485
etde	-1486
hamo	-1487
neng	-1488
wsaw	-1489
pirwa	-1490
pohen	-1491
wanan	-1492
ponged	-1493
etdehan	-1494
▁kaydam	-1495
▁anohdan	-1496
▁Kakakteh	-1497
▁salawsaw	-1498
▁sidongen	-1499
▁tomnovoy	-1500
endisionan	-1501
▁malalapos	-1502
▁mararayaw	-1503
▁kametdehan	-1504
▁pinakayapoan	-1505
ce	-1506
lta	-1507
anoy	-1508
poha	-1509
poho	-1510
soli	-1511
wang	-1512
hapen	-1513
▁Roma	-1514
▁livo	-1515
▁nano	-1516
▁tolas	-1517
▁makapa	-1518
▁pangay	-1519
panmohen	-1520
▁ipavoya	-1521
▁kadngey	-1522
▁apopohen	-1523
▁chinakey	-1524
▁nakangay	-1525
▁machangay	-1526
▁kapakarawat	-1527
▁kararayawan	-1528
hod	-1529
sok	-1530
Sino	-1531
hawa	-1532
momo	-1533
pana	-1534
▁Ces	-1535
dakaw	-1536
depan	-1537
▁kapi	-1538
estigo	-1539
sarian	-1540
▁Nawri	-1541
▁inomen	-1542
richirin	-1543
▁gwardia	-1544
▁kafermi	-1545
▁kakeyan	-1546
▁matoato	-1547
▁sinadan	-1548
▁naychaknin	-1549
▁kaydamnayan	-1550
▁makaintindi	-1551
▁mamahemahes	-1552
▁kasarisarian	-1553
ac	-1554
be	-1555
has	-1556
het	-1557
tap	-1558
vat	-1559
wad	-1560
Mian	-1561
snek	-1562
▁Aro	-1563
▁nap	-1564
havas	-1565
hboan	-1566
sirin	-1567
▁Tino	-1568
tayoka	-1569
▁onayen	-1570
▁komnaro	-1571
▁librien	-1572
▁tomnoroh	-1573
▁pamatohen	-1574
▁panayahboan	-1575
gip	-1576
▁ro	-1577
doan	-1578
dwan	-1579
pisa	-1580
tayo	-1581
didiw	-1582
gipto	-1583
▁oman	-1584
▁soli	-1585
anahet	-1586
rinyen	-1587
▁Saulo	-1588
▁ganit	-1589
▁naymo	-1590
gatosan	-1591
▁kabayo	-1592
▁kakpek	-1593
▁paynan	-1594
▁dadayen	-1595
▁manakem	-1596
▁navidin	-1597
▁kapiahen	-1598
▁maynolay	-1599
▁panahanan	-1600
▁pavatahen	-1601
▁kapaypatol	-1602
▁machichasa	-1603
▁kakpekpehan	-1604
▁makasinchad	-1605
gro	-1606
lek	-1607
mah	-1608
sek	-1609
▁Ba	-1610
dine	-1611
ngan	-1612
rara	-1613
tero	-1614
▁des	-1615
Arava	-1616
libro	-1617
tachi	-1618
angsah	-1619
ernabe	-1620
snekan	-1621
▁paypa	-1622
▁Felipe	-1623
▁kasira	-1624
▁Bernabe	-1625
▁kadaday	-1626
vayavayat	-1627
▁Mayanong	-1628
▁kapangay	-1629
▁katayoka	-1630
▁makaparin	-1631
▁pakarohen	-1632
▁yokoyokoran	-1633
▁kapamahemahes	-1634
bas	-1635
hat	-1636
ito	-1637
ked	-1638
lor	-1639
taw	-1640
val	-1641
▁Ca	-1642
yang	-1643
▁Mes	-1644
▁pon	-1645
ierto	-1646
voten	-1647
vovon	-1648
damnay	-1649
dangan	-1650
ktokto	-1651
▁komon	-1652
▁libro	-1653
▁makay	-1654
▁Tinbay	-1655
▁kasivog	-1656
▁kavosan	-1657
▁omlibri	-1658
▁desierto	-1659
tachitahen	-1660
▁kastigoan	-1661
gatogatosan	-1662
▁machisobna	-1663
Pa	-1664
or	-1665
jat	-1666
kos	-1667
tas	-1668
tem	-1669
ioda	-1670
rapa	-1671
▁Ipa	-1672
▁kaa	-1673
akmen	-1674
akyan	-1675
engay	-1676
loval	-1677
tovoy	-1678
▁mako	-1679
tanyis	-1680
▁Manga	-1681
▁atbay	-1682
▁manma	-1683
serbian	-1684
▁Mesias	-1685
▁ipachi	-1686
▁laylay	-1687
▁tayabo	-1688
▁maypango	-1689
▁Nakarahan	-1690
▁ipananawo	-1691
▁maypangay	-1692
▁kapananawo	-1693
▁kapayengay	-1694
▁kapakasiasi	-1695
▁kapawnonong	-1696
▁pangtoktoan	-1697
▁mapatongtong	-1698
▁tadichokoran	-1699
▁pakagatogatosan	-1700
Da	-1701
hon	-1702
tak	-1703
tio	-1704
yba	-1705
▁Di	-1706
▁El	-1707
▁La	-1708
hong	-1709
pada	-1710
vayo	-1711
▁Asa	-1712
▁Kar	-1713
noten	-1714
sanib	-1715
▁kama	-1716
▁bioda	-1717
▁Mawara	-1718
▁Karnero	-1719
▁maytavo	-1720
▁minirwa	-1721
▁pinachi	-1722
▁Parinyen	-1723
▁komontra	-1724
▁machonong	-1725
▁parawaten	-1726
▁kapanmohen	-1727
▁kasincharan	-1728
▁maychakovot	-1729
cob	-1730
ita	-1731
nas	-1732
sen	-1733
ses	-1734
▁de	-1735
anan	-1736
chid	-1737
dodo	-1738
ende	-1739
seho	-1740
tang	-1741
▁rel	-1742
areth	-1743
awtis	-1744
manok	-1745
tiban	-1746
wahen	-1747
▁tava	-1748
piahen	-1749
▁Jacob	-1750
▁vahes	-1751
angayan	-1752
chayvan	-1753
rayawen	-1754
▁espada	-1755
▁maliak	-1756
▁naynio	-1757
▁kanayan	-1758
▁relaken	-1759
▁manehseh	-1760
▁maytolas	-1761
▁pakaboan	-1762
▁manomanok	-1763
▁tinawagan	-1764
▁kapayanong	-1765
ble	-1766
▁Go	-1767
itan	-1768
tnek	-1769
▁ayo	-1770
mahma	-1771
▁golo	-1772
▁soma	-1773
▁Elias	-1774
▁mayam	-1775
▁sicha	-1776
▁tomna	-1777
aytovoy	-1778
hovokan	-1779
▁Bawtis	-1780
▁Egipto	-1781
▁inahap	-1782
▁ivahey	-1783
▁kahoho	-1784
▁nanoma	-1785
▁pantaw	-1786
akenakem	-1787
▁kararaw	-1788
soyosoyot	-1789
▁makagatos	-1790
▁Kapanmohen	-1791
angononongan	-1792
▁kaintindian	-1793
▁machikontra	-1794
▁chitachitahen	-1795
▁paynananawhen	-1796
hem	-1797
net	-1798
paw	-1799
▁is	-1800
Inio	-1801
laka	-1802
rang	-1803
ropa	-1804
▁Imo	-1805
▁Pay	-1806
▁amo	-1807
anawa	-1808
anaya	-1809
hovok	-1810
kaska	-1811
moteo	-1812
▁kori	-1813
▁pako	-1814
▁daday	-1815
▁hosto	-1816
▁kahes	-1817
▁kania	-1818
▁sawen	-1819
▁angdet	-1820
▁ichamo	-1821
▁ichasi	-1822
parinyen	-1823
▁Timoteo	-1824
▁abnekan	-1825
▁konseho	-1826
▁malibri	-1827
▁manerbi	-1828
▁mayalit	-1829
mahmahsan	-1830
▁mapamato	-1831
chinanawan	-1832
panapanaya	-1833
▁chintokto	-1834
▁ichaparin	-1835
▁nakapirwa	-1836
▁maytrabaho	-1837
▁pakasnekan	-1838
gag	-1839
moy	-1840
sag	-1841
yog	-1842
▁Ko	-1843
bayo	-1844
▁Min	-1845
alowa	-1846
dadwa	-1847
ehbet	-1848
ganan	-1849
iahen	-1850
idong	-1851
pasek	-1852
▁Rako	-1853
▁mamo	-1854
▁namo	-1855
entero	-1856
raydor	-1857
vayava	-1858
▁Ahsan	-1859
▁Machi	-1860
▁mando	-1861
▁pinan	-1862
▁priso	-1863
Maistro	-1864
sisirin	-1865
tatarek	-1866
watawag	-1867
▁kaboan	-1868
▁maskeh	-1869
▁siraya	-1870
▁inakyan	-1871
▁sinahad	-1872
▁vitohen	-1873
▁Bawtista	-1874
▁maypatol	-1875
▁nasiones	-1876
▁pasinsia	-1877
▁disiplina	-1878
▁kawananan	-1879
▁kawayakan	-1880
▁machipang	-1881
▁makaycheh	-1882
▁mayvangon	-1883
chirichirin	-1884
▁kaychayvan	-1885
▁paparinyen	-1886
▁kakastigoan	-1887
▁ompanapanaya	-1888
dak	-1889
lir	-1890
vek	-1891
etan	-1892
inbi	-1893
wawa	-1894
▁Ari	-1895
disan	-1896
salap	-1897
sivog	-1898
akayan	-1899
anahan	-1900
▁Tiban	-1901
▁kaasa	-1902
▁makan	-1903
▁mayet	-1904
▁trato	-1905
▁vohan	-1906
talamad	-1907
yangyaw	-1908
▁kaskeh	-1909
▁kayvan	-1910
▁makalo	-1911
▁marayi	-1912
monamoan	-1913
▁kapayso	-1914
▁manawdi	-1915
▁narawat	-1916
▁kapamato	-1917
▁kapaycha	-1918
▁karadine	-1919
▁masonong	-1920
▁maydaday	-1921
▁nayvadiw	-1922
▁bendision	-1923
▁maypasngen	-1924
▁payserbian	-1925
▁Bendisionan	-1926
▁pakagatosan	-1927
▁panghovokan	-1928
▁kanamonamoan	-1929
gom	-1930
kem	-1931
yab	-1932
▁re	-1933
daay	-1934
golo	-1935
hwad	-1936
iban	-1937
yani	-1938
yban	-1939
yoha	-1940
▁Sal	-1941
▁say	-1942
▁sen	-1943
donia	-1944
▁somo	-1945
▁vino	-1946
presio	-1947
▁among	-1948
▁balor	-1949
▁kayam	-1950
▁nahap	-1951
panmoan	-1952
rayayan	-1953
sehdang	-1954
▁falowa	-1955
▁maypay	-1956
▁omahes	-1957
▁tayoka	-1958
▁kaaroan	-1959
▁machasa	-1960
▁rawaten	-1961
▁minamaog	-1962
▁pawnoten	-1963
▁Mangahwad	-1964
▁makadngey	-1965
▁napaparin	-1966
▁omsinchad	-1967
▁pinarawat	-1968
▁vatavatahen	-1969
fi	-1970
dio	-1971
ena	-1972
heb	-1973
neb	-1974
yot	-1975
▁ho	-1976
pidi	-1977
soso	-1978
▁Ina	-1979
▁dis	-1980
▁hos	-1981
▁maa	-1982
▁omn	-1983
ehnet	-1984
lakak	-1985
lasan	-1986
layan	-1987
vawan	-1988
▁ofis	-1989
▁vivi	-1990
aytolas	-1991
cedonia	-1992
▁kontra	-1993
▁ichatdo	-1994
▁machipa	-1995
▁maganit	-1996
▁manngey	-1997
▁naypisa	-1998
bdibdisan	-1999
▁Adngeyen	-2000
▁machipan	-2001
▁sicharaw	-2002
▁mangamomo	-2003
▁nakatoroh	-2004
▁niyokoyokoran	-2005
▁nakapanganohed	-2006
Ka	-2007
ep	-2008
eso	-2009
may	-2010
nom	-2011
pon	-2012
▁bi	-2013
dama	-2014
eran	-2015
hmet	-2016
tioc	-2017
▁Mar	-2018
gayan	-2019
lijat	-2020
tonan	-2021
▁Amen	-2022
▁Ango	-2023
▁Este	-2024
▁mini	-2025
▁ompa	-2026
gagtos	-2027
▁Rakoh	-2028
▁boses	-2029
▁matda	-2030
▁yatos	-2031
▁natova	-2032
▁pangan	-2033
ehdangan	-2034
▁kalaban	-2035
▁omdiman	-2036
▁testigo	-2037
▁kapakabo	-2038
▁mapavoya	-2039
tongtongen	-2040
▁kanatonan	-2041
▁mabdibdis	-2042
▁makatoroh	-2043
▁mapamahbo	-2044
▁pangwanan	-2045
▁pakasisien	-2046
▁karadinepan	-2047
▁pangononongan	-2048
cia	-2049
▁Ha	-2050
Oyod	-2051
dira	-2052
feso	-2053
inom	-2054
kaso	-2055
ltar	-2056
nyay	-2057
pera	-2058
▁Tom	-2059
▁gom	-2060
blema	-2061
horan	-2062
ninin	-2063
pango	-2064
▁Omba	-2065
▁omsi	-2066
▁tayo	-2067
akanta	-2068
anawob	-2069
minyan	-2070
pasken	-2071
▁Isaac	-2072
▁dasal	-2073
▁maraw	-2074
▁napia	-2075
▁pahad	-2076
traydor	-2077
▁aniven	-2078
▁karoan	-2079
▁katdan	-2080
▁nakaka	-2081
▁naycha	-2082
▁Mapalak	-2083
▁makakma	-2084
▁malapos	-2085
▁nanghap	-2086
damadanan	-2087
▁kalaboso	-2088
▁kaniaken	-2089
▁kapawnot	-2090
▁ichasoyot	-2091
▁kapakamia	-2092
▁mapakapia	-2093
▁somnitnan	-2094
▁kapayvadiw	-2095
▁miniminyan	-2096
mp	-2097
mio	-2098
rea	-2099
son	-2100
▁Le	-2101
ayak	-2102
esto	-2103
mian	-2104
sita	-2105
ayono	-2106
dasal	-2107
lipos	-2108
rayan	-2109
▁baka	-2110
Anmana	-2111
angdet	-2112
bnahen	-2113
hamoha	-2114
lineng	-2115
nongan	-2116
▁altar	-2117
▁boday	-2118
▁soyot	-2119
hahawen	-2120
hawahaw	-2121
perador	-2122
tetekan	-2123
▁Antioc	-2124
▁Mavoya	-2125
▁maydak	-2126
▁moyvoh	-2127
nosonong	-2128
▁Mapipia	-2129
▁asapoho	-2130
▁kalogar	-2131
▁nidiman	-2132
▁mangahes	-2133
▁Macedonia	-2134
▁kararayaw	-2135
▁manghavas	-2136
▁masosolib	-2137
▁omrarayaw	-2138
▁rarayawen	-2139
▁machipanda	-2140
▁mapasitnan	-2141
▁kasehdangan	-2142
▁pachirayayan	-2143
As	-2144
Ta	-2145
id	-2146
dah	-2147
dem	-2148
▁Em	-2149
▁ar	-2150
ensa	-2151
livo	-2152
toan	-2153
toyo	-2154
▁Nan	-2155
▁asi	-2156
▁cha	-2157
▁dem	-2158
▁mar	-2159
▁nik	-2160
▁pak	-2161
diwen	-2162
gosto	-2163
midib	-2164
rapas	-2165
sngen	-2166
tante	-2167
▁Adan	-2168
mondan	-2169
vaynio	-2170
vekhas	-2171
▁Salmo	-2172
▁polak	-2173
ianiven	-2174
saloval	-2175
▁Isaias	-2176
▁demdem	-2177
▁kainio	-2178
▁mahoho	-2179
▁ofisia	-2180
▁omahap	-2181
▁primio	-2182
akanakaw	-2183
▁Esteban	-2184
▁atbayen	-2185
▁napanmo	-2186
▁nayvidi	-2187
▁taydira	-2188
▁tomidib	-2189
chonongan	-2190
▁Ichaddaw	-2191
▁kanianib	-2192
▁kapakaro	-2193
▁kapavoya	-2194
▁makasdep	-2195
▁pakamian	-2196
▁makapatak	-2197
▁makarapit	-2198
▁nakatovoy	-2199
▁natrabaho	-2200
▁diabdibdis	-2201
▁machirayay	-2202
▁masigorado	-2203
▁nakatayoka	-2204
▁sinincharan	-2205
▁kapaychakasa	-2206
▁patongtongen	-2207
me	-2208
sw	-2209
che	-2210
dal	-2211
deo	-2212
elo	-2213
▁at	-2214
▁le	-2215
▁wa	-2216
bobo	-2217
koto	-2218
▁pab	-2219
listo	-2220
mpeta	-2221
vahay	-2222
yokod	-2223
▁Levi	-2224
▁Paka	-2225
▁Tina	-2226
▁awan	-2227
panngo	-2228
▁Pinay	-2229
▁hapen	-2230
▁kaari	-2231
▁katod	-2232
▁malit	-2233
aytoroh	-2234
gaganit	-2235
▁entero	-2236
▁piahen	-2237
▁pinata	-2238
▁iktokto	-2239
▁kanakan	-2240
▁kasolib	-2241
inmonmoan	-2242
panghomis	-2243
▁kaparopa	-2244
▁pangayen	-2245
▁problema	-2246
▁trompeta	-2247
manganakan	-2248
▁chapanngo	-2249
▁mangadwan	-2250
▁maydamnay	-2251
▁nakasaray	-2252
▁omanianib	-2253
▁omtraydor	-2254
▁sominchad	-2255
▁Gobernador	-2256
▁ichaytoroh	-2257
▁manganohdan	-2258
▁kapatongtong	-2259
▁nakatongtong	-2260
uc	-2261
um	-2262
hey	-2263
kar	-2264
lid	-2265
tog	-2266
▁Ra	-2267
▁ad	-2268
▁mi	-2269
Aran	-2270
Maka	-2271
area	-2272
iahe	-2273
midi	-2274
sara	-2275
wyod	-2276
▁Mel	-2277
▁tri	-2278
dodog	-2279
handa	-2280
itnan	-2281
lakam	-2282
lapaw	-2283
tapan	-2284
▁pasa	-2285
manito	-2286
rawara	-2287
▁Efeso	-2288
▁ipsok	-2289
itanyan	-2290
koyokod	-2291
▁ayeran	-2292
▁daynio	-2293
aytotwaw	-2294
daydaday	-2295
ganansia	-2296
▁Cesarea	-2297
▁kangsah	-2298
▁nakapan	-2299
▁pabango	-2300
▁pavoyan	-2301
▁pinaypa	-2302
▁pinirwa	-2303
▁kasidong	-2304
▁maynyoha	-2305
▁omnanawo	-2306
▁omrisibi	-2307
▁sinitnan	-2308
▁chinaroan	-2309
▁katitiban	-2310
▁gobernador	-2311
▁kapakaboan	-2312
▁kapanehseh	-2313
▁mayanongan	-2314
▁kaparoparoan	-2315
▁mayinmonmoan	-2316
ok	-2317
sk	-2318
Man	-2319
Oon	-2320
ien	-2321
reo	-2322
tod	-2323
vos	-2324
bado	-2325
kama	-2326
lado	-2327
wpit	-2328
▁Eli	-2329
▁iNa	-2330
▁ser	-2331
dinya	-2332
nakay	-2333
nonot	-2334
oyvoh	-2335
vayan	-2336
wawan	-2337
▁Asia	-2338
▁leon	-2339
▁mila	-2340
badora	-2341
nakmen	-2342
toneng	-2343
▁Cesar	-2344
▁macha	-2345
▁naypa	-2346
▁papil	-2347
▁timoy	-2348
chapian	-2349
gostoan	-2350
nolayan	-2351
pakapia	-2352
rahanan	-2353
sadahen	-2354
trolado	-2355
volawen	-2356
▁Mangay	-2357
▁Navoya	-2358
▁chinay	-2359
▁kasdep	-2360
▁ngayan	-2361
▁niamen	-2362
langanan	-2363
manganak	-2364
presenta	-2365
▁Komnaro	-2366
▁mangdet	-2367
▁matanoy	-2368
▁milagro	-2369
▁omadidi	-2370
▁atetekan	-2371
▁kaktokto	-2372
▁libadora	-2373
▁nachivan	-2374
▁nanawhen	-2375
▁pinavoya	-2376
bawtismoan	-2377
▁Emperador	-2378
▁anianiven	-2379
▁nakagatos	-2380
▁nakapanmo	-2381
▁pasadahen	-2382
▁paytetnek	-2383
▁tanitanyan	-2384
▁kapaypangay	-2385
▁kapichapian	-2386
▁manakanakaw	-2387
▁mapaychawaw	-2388
kamadamadanan	-2389
▁ipachahoahok	-2390
▁kapaychakovot	-2391
am	-2392
lis	-2393
mti	-2394
nel	-2395
pad	-2396
pel	-2397
rip	-2398
tad	-2399
tat	-2400
Icha	-2401
gada	-2402
hang	-2403
rwan	-2404
skwa	-2405
lekta	-2406
masco	-2407
mogod	-2408
nelio	-2409
plano	-2410
sagel	-2411
yoren	-2412
▁Mana	-2413
▁Sino	-2414
▁arap	-2415
▁mado	-2416
▁siyo	-2417
sidong	-2418
solsol	-2419
tensia	-2420
tovang	-2421
▁China	-2422
▁Silas	-2423
▁kanta	-2424
▁maday	-2425
▁mahbo	-2426
▁mayto	-2427
▁nanga	-2428
▁napay	-2429
▁omhes	-2430
▁timti	-2431
▁yamot	-2432
Mapalak	-2433
ornelio	-2434
serbien	-2435
▁Paskwa	-2436
▁kapoha	-2437
▁kaviay	-2438
▁mapang	-2439
▁ominom	-2440
▁pinaya	-2441
▁yanien	-2442
akaycheh	-2443
nininyas	-2444
▁Damasco	-2445
▁Mavidin	-2446
▁Torohan	-2447
▁kasngen	-2448
▁mapteng	-2449
▁masanib	-2450
▁omhosga	-2451
▁onongan	-2452
▁ponsion	-2453
hawahaway	-2454
▁Chitahen	-2455
▁mapakabo	-2456
▁mayhahaw	-2457
▁mohamoha	-2458
▁pawnotan	-2459
▁sindepan	-2460
▁sobnahen	-2461
▁Sincharan	-2462
▁magaganit	-2463
▁mangtokto	-2464
▁timtimban	-2465
▁kapaydisna	-2466
▁serserbien	-2467
▁kabendision	-2468
▁kapakagatos	-2469
▁masoyosoyot	-2470
▁kapachichasa	-2471
Om	-2472
ggo	-2473
lat	-2474
mni	-2475
toh	-2476
yid	-2477
bnan	-2478
ehan	-2479
ekre	-2480
elyo	-2481
inan	-2482
pito	-2483
stor	-2484
▁Cap	-2485
▁aho	-2486
▁koa	-2487
akosa	-2488
impor	-2489
maria	-2490
monio	-2491
posan	-2492
resto	-2493
▁anod	-2494
▁bago	-2495
▁iyan	-2496
▁kaya	-2497
▁voya	-2498
ekreto	-2499
ernaum	-2500
inbita	-2501
metmet	-2502
minggo	-2503
tadkan	-2504
▁Atavo	-2505
▁Festo	-2506
▁Nachi	-2507
▁Nyeng	-2508
▁kaimo	-2509
▁kapro	-2510
▁sadan	-2511
▁sahad	-2512
▁votoh	-2513
Maparin	-2514
teksion	-2515
▁Nawara	-2516
▁kaakma	-2517
▁somoli	-2518
nonongan	-2519
sigorado	-2520
▁didiwen	-2521
▁domogod	-2522
▁kaninio	-2523
▁katidib	-2524
▁makapan	-2525
▁manakaw	-2526
▁masadit	-2527
anamonamo	-2528
pakasiasi	-2529
▁ichaskeh	-2530
▁mamanito	-2531
▁masigoro	-2532
▁ninanawo	-2533
▁pondanan	-2534
▁warawara	-2535
▁ichadadwa	-2536
▁kapakapia	-2537
▁kapamahbo	-2538
▁makanakem	-2539
▁matalakak	-2540
▁nakapachi	-2541
▁nakaparin	-2542
▁nakarapit	-2543
▁pagostoan	-2544
▁pananawan	-2545
▁panayahen	-2546
▁pinakamia	-2547
▁omnininyas	-2548
▁kapayvangon	-2549
▁kapaysosobna	-2550
▁katadichokod	-2551
▁pinachinanawan	-2552
Asa	-2553
def	-2554
gap	-2555
gen	-2556
gon	-2557
hea	-2558
wat	-2559
▁Ab	-2560
▁iC	-2561
▁ri	-2562
▁yo	-2563
Dawa	-2564
bati	-2565
galo	-2566
gtog	-2567
rial	-2568
rona	-2569
▁Heb	-2570
▁kri	-2571
▁maw	-2572
▁tin	-2573
eakey	-2574
emtem	-2575
karga	-2576
kchid	-2577
linis	-2578
lomon	-2579
lonia	-2580
lotod	-2581
manes	-2582
nogod	-2583
pahni	-2584
piday	-2585
tanyi	-2586
▁Mato	-2587
▁alas	-2588
▁gada	-2589
▁kopa	-2590
▁madi	-2591
▁nabo	-2592
▁omya	-2593
batoan	-2594
diosen	-2595
mnivog	-2596
penpen	-2597
tavoan	-2598
wangan	-2599
▁daymo	-2600
▁ichay	-2601
▁kakon	-2602
▁laban	-2603
▁mavid	-2604
▁natay	-2605
▁rahet	-2606
defende	-2607
depende	-2608
proyban	-2609
siplina	-2610
▁ahapen	-2611
▁gomtin	-2612
▁korona	-2613
▁mehbet	-2614
▁nakadi	-2615
▁tataya	-2616
avawahen	-2617
▁Kadngey	-2618
▁Solomon	-2619
▁kahosto	-2620
▁kaniaya	-2621
▁manadiw	-2622
▁manawob	-2623
▁mangsah	-2624
▁mapiday	-2625
▁mavahey	-2626
▁naytawo	-2627
▁ofisial	-2628
▁omlaban	-2629
▁romanes	-2630
akawyoran	-2631
sarasaray	-2632
▁Cornelio	-2633
▁Katayoka	-2634
▁Tominbay	-2635
▁gadagada	-2636
▁karisibi	-2637
▁mapakaro	-2638
▁ngaranan	-2639
▁parinyan	-2640
▁tovatova	-2641
representa	-2642
▁Capernaum	-2643
▁Makapatak	-2644
▁ichavakel	-2645
▁kontrahen	-2646
▁mangabayo	-2647
▁niprepara	-2648
▁pavawahen	-2649
tanyitanyis	-2650
▁kapaydaday	-2651
▁mangolekta	-2652
▁manovatova	-2653
▁matalineng	-2654
▁maychakasa	-2655
▁proteksion	-2656
▁Pinawnonong	-2657
▁karakorakoh	-2658
▁machividang	-2659
▁mapakasiasi	-2660
▁maydaydaday	-2661
▁niyokoyokod	-2662
▁pachonongan	-2663
▁paytetnekan	-2664
▁kakawnonongan	-2665
▁kapaynananawo	-2666
▁pinanganohdan	-2667
▁e	-2668
bog	-2669
dek	-2670
don	-2671
duc	-2672
fas	-2673
mek	-2674
mos	-2675
rab	-2676
rio	-2677
sad	-2678
▁Ag	-2679
▁ha	-2680
Mamo	-2681
fier	-2682
kong	-2683
lamo	-2684
lian	-2685
maga	-2686
rdan	-2687
tadi	-2688
tiat	-2689
▁And	-2690
▁dra	-2691
▁est	-2692
Tiban	-2693
bohen	-2694
deman	-2695
duceo	-2696
konan	-2697
mpara	-2698
paran	-2699
takey	-2700
tisia	-2701
▁Alit	-2702
▁Babi	-2703
▁Nang	-2704
▁kado	-2705
▁kavi	-2706
▁pach	-2707
▁tiya	-2708
▁viit	-2709
ensahe	-2710
fierno	-2711
inahey	-2712
nanias	-2713
proyba	-2714
tentas	-2715
▁Dekey	-2716
▁ipoha	-2717
▁naran	-2718
▁omtek	-2719
▁payis	-2720
▁soyid	-2721
gwardia	-2722
polipos	-2723
reklamo	-2724
taywawa	-2725
▁Jordan	-2726
▁danaya	-2727
▁dragon	-2728
▁kadaka	-2729
▁katang	-2730
▁katodo	-2731
▁maavid	-2732
▁matayo	-2733
▁omoyog	-2734
▁risibi	-2735
▁tomayo	-2736
▁vidang	-2737
akniknin	-2738
chikchid	-2739
sosobnan	-2740
▁Iyangay	-2741
▁Nadngey	-2742
▁Saduceo	-2743
▁askaska	-2744
▁ichehan	-2745
▁kapalit	-2746
▁karawat	-2747
▁kasoyot	-2748
▁manahan	-2749
▁mensahe	-2750
diodiosen	-2751
kotokonan	-2752
▁Kapiahen	-2753
▁Manlibri	-2754
▁hostisia	-2755
▁infierno	-2756
▁katanyis	-2757
▁kaviayan	-2758
▁komtokto	-2759
▁madokong	-2760
▁mamondan	-2761
▁mavavata	-2762
▁nakakaro	-2763
▁nakamaog	-2764
▁nayendes	-2765
▁papasken	-2766
▁taytakey	-2767
▁Babilonia	-2768
▁Pavawahen	-2769
▁Tinorohan	-2770
▁chinapaka	-2771
▁kapanngey	-2772
▁maymetmet	-2773
▁mayponged	-2774
▁maytotwaw	-2775
▁nakalibri	-2776
▁nakarawat	-2777
▁nasinchad	-2778
▁nayvangon	-2779
tentasionan	-2780
▁machitarek	-2781
▁kadakadaday	-2782
▁kayokoyokod	-2783
▁tomawatawag	-2784
▁machipangdaw	-2785
▁makatongtong	-2786
▁katokotokonan	-2787
▁nakapayvangon	-2788
▁pangaylanganan	-2789
ea	-2790
ji	-2791
Kay	-2792
aca	-2793
bin	-2794
cos	-2795
ebe	-2796
ele	-2797
lot	-2798
sin	-2799
tes	-2800
yed	-2801
▁Co	-2802
▁ah	-2803
ayob	-2804
ayvi	-2805
edek	-2806
hero	-2807
hoya	-2808
itus	-2809
lika	-2810
ngka	-2811
olta	-2812
plot	-2813
rias	-2814
taha	-2815
▁Tod	-2816
alkem	-2817
angoy	-2818
anolo	-2819
delak	-2820
edked	-2821
inaho	-2822
mahep	-2823
manma	-2824
omaro	-2825
pitdo	-2826
senso	-2827
tanoy	-2828
torio	-2829
▁Bato	-2830
▁anem	-2831
▁atbo	-2832
▁pira	-2833
▁taga	-2834
edekey	-2835
hambog	-2836
nangay	-2837
pangan	-2838
pospos	-2839
rabbas	-2840
rahtan	-2841
vidien	-2842
▁Marta	-2843
▁Titus	-2844
▁abkas	-2845
▁biahe	-2846
▁chito	-2847
▁kadem	-2848
▁mawaw	-2849
▁pagan	-2850
▁rason	-2851
▁somna	-2852
▁tamek	-2853
▁trigo	-2854
Dadayen	-2855
Torohan	-2856
homisen	-2857
inkarga	-2858
irwahen	-2859
resolta	-2860
tolasen	-2861
vayohen	-2862
wayakan	-2863
▁Andres	-2864
▁Hebreo	-2865
▁Inahap	-2866
▁Melchi	-2867
▁dangoy	-2868
▁ivovon	-2869
▁kapana	-2870
▁kapano	-2871
▁kawras	-2872
▁kolang	-2873
▁magsal	-2874
▁makaka	-2875
▁maparo	-2876
▁mayayo	-2877
▁regalo	-2878
▁tombay	-2879
▁viayen	-2880
▁Ananias	-2881
▁Minirwa	-2882
▁Pinarin	-2883
▁anchowa	-2884
▁andelak	-2885
▁asdepan	-2886
▁chinita	-2887
▁hahawen	-2888
▁ipamato	-2889
▁kahapan	-2890
▁kakahan	-2891
▁kavahey	-2892
▁kayaken	-2893
▁omonong	-2894
dispresio	-2895
paypangay	-2896
▁Barabbas	-2897
▁kamanolo	-2898
▁makarang	-2899
▁makayapo	-2900
▁mapasada	-2901
▁mavoyvoh	-2902
▁mayendes	-2903
▁omahahaw	-2904
▁omononot	-2905
▁pinakaro	-2906
▁pinawnot	-2907
▁risibien	-2908
▁kapangwan	-2909
▁mangalkem	-2910
▁mapakamia	-2911
▁omdefende	-2912
▁pavolawen	-2913
▁pinapasek	-2914
▁chinasaray	-2915
▁kademdeman	-2916
▁kapakavoya	-2917
▁makakakteh	-2918
▁pinangayan	-2919
▁kapayliliak	-2920
▁madiodiosen	-2921
▁mavayavayat	-2922
▁navayavayat	-2923
▁pamahmahsan	-2924
▁pangananawan	-2925
▁tomadichokod	-2926
▁chinapakaboan	-2927
▁kapakaintindi	-2928
▁mapaynananawo	-2929
▁kapakatongtong	-2930
▁machipanghovok	-2931
So	-2932
bed	-2933
car	-2934
den	-2935
eka	-2936
emb	-2937
ket	-2938
nes	-2939
yin	-2940
▁Ci	-2941
▁Ho	-2942
▁Ro	-2943
Dino	-2944
aket	-2945
a	-2946
▁	-2947
o	-2948
n	-2949
i	-2950
s	-2951
k	-2952
m	-2953
d	-2954
t	-2955
y	-2956
r	-2957
p	-2958
e	-2959
h	-2960
w	-2961
v	-2962
g	-2963
.	-2964
l	-2965
b	-2966
c	-2967
,	-2968
A	-2969
D	-2970
"	-2971
u	-2972
J	-2973
M	-2974
N	-2975
P	-2976
T	-2977
C	-2978
S	-2979
I	-2980
f	-2981
V	-2982
E	-2983
'	-2984
K	-2985
?	-2986
O	-2987
!	-2988
F	-2989
H	-2990
B	-2991
G	-2992
j	-2993
R	-2994
:	-2995
L	-2996
