<unk>	0
<s>	0
</s>	0
▁a	-0
an	-1
▁n	-2
▁d	-3
▁k	-4
▁s	-5
▁m	-6
ay	-7
▁ka	-8
▁o	-9
ak	-10
ta	-11
in	-12
▁no	-13
▁do	-14
▁p	-15
▁na	-16
en	-17
to	-18
ia	-19
ar	-20
▁as	-21
io	-22
▁so	-23
▁ma	-24
▁am	-25
aw	-26
ya	-27
▁ta	-28
va	-29
▁da	-30
ch	-31
mo	-32
ra	-33
ang	-34
aya	-35
▁di	-36
▁an	-37
▁t	-38
aka	-39
▁sa	-40
vo	-41
▁ko	-42
ano	-43
ri	-44
▁pa	-45
es	-46
▁sia	-47
▁i	-48
▁kap	-49
di	-50
ro	-51
▁si	-52
▁nio	-53
ng	-54
▁ni	-55
▁aya	-56
▁mo	-57
ios	-58
ana	-59
▁dios	-60
po	-61
arin	-62
ah	-63
▁j	-64
▁map	-65
no	-66
wo	-67
yo	-68
ian	-69
▁kano	-70
▁may	-71
▁ak	-72
li	-73
na	-74
ma	-75
chi	-76
ti	-77
hen	-78
ina	-79
pa	-80
us	-81
▁jes	-82
vi	-83
▁tawo	-84
et	-85
ey	-86
bo	-87
vata	-88
▁ya	-89
lo	-90
si	-91
▁dira	-92
wan	-93
▁jesus	-94
awa	-95
▁maka	-96
la	-97
so	-98
inio	-99
aken	-100
▁dia	-101
oh	-102
▁mang	-103
▁naka	-104
▁nia	-105
go	-106
▁mian	-107
▁mak	-108
ko	-109
ga	-110
eh	-111
do	-112
▁to	-113
▁anti	-114
tan	-115
ayto	-116
tavo	-117
▁kan	-118
cha	-119
▁sira	-120
ek	-121
ayan	-122
is	-123
ran	-124
▁asa	-125
▁dinio	-126
he	-127
man	-128
▁kak	-129
▁atavo	-130
ino	-131
em	-132
men	-133
▁pin	-134
da	-135
aro	-136
rak	-137
▁apo	-138
▁amna	-139
▁tayto	-140
▁v	-141
er	-142
▁om	-143
ara	-144
▁dana	-145
angay	-146
pan	-147
roh	-148
rakoh	-149
vah	-150
sto	-151
▁kapay	-152
▁saya	-153
▁man	-154
yen	-155
wa	-156
pi	-157
aray	-158
viay	-159
arah	-160
▁diaken	-161
ho	-162
yod	-163
▁ara	-164
voya	-165
▁vata	-166
gato	-167
▁akma	-168
inata	-169
dan	-170
ha	-171
ten	-172
▁c	-173
▁vinata	-174
sa	-175
▁namen	-176
▁kamo	-177
tawo	-178
awri	-179
▁y	-180
▁naw	-181
de	-182
dng	-183
anaw	-184
▁oyod	-185
mot	-186
not	-187
mi	-188
▁icha	-189
▁pe	-190
▁kapa	-191
▁vatahen	-192
yoko	-193
ayo	-194
▁makaya	-195
chir	-196
pian	-197
diman	-198
▁abo	-199
▁nay	-200
parin	-201
▁viay	-202
▁tak	-203
▁makayamot	-204
▁kad	-205
▁tapian	-206
▁cri	-207
▁dawa	-208
▁cristo	-209
▁pay	-210
dngey	-211
anmo	-212
▁tawotawo	-213
▁ju	-214
nong	-215
▁ip	-216
kto	-217
▁b	-218
▁mapa	-219
▁mapia	-220
▁iya	-221
▁pan	-222
▁kani	-223
daw	-224
▁takwan	-225
gatos	-226
▁es	-227
▁ori	-228
hed	-229
▁ava	-230
▁nak	-231
▁kay	-232
anawo	-233
▁kaparin	-234
ava	-235
▁aran	-236
▁taya	-237
lib	-238
anohed	-239
voy	-240
arahet	-241
▁ti	-242
▁ako	-243
ango	-244
▁kadwan	-245
▁asna	-246
ni	-247
▁in	-248
▁kas	-249
tokto	-250
▁akm	-251
vid	-252
▁machi	-253
anong	-254
▁parin	-255
aho	-256
bi	-257
marin	-258
▁r	-259
sia	-260
▁nawri	-261
▁f	-262
anan	-263
anak	-264
▁arava	-265
▁ich	-266
▁karakoh	-267
▁dimo	-268
las	-269
▁kadi	-270
▁sin	-271
▁parinyen	-272
▁pero	-273
▁yaken	-274
aran	-275
▁mayanong	-276
▁va	-277
▁naya	-278
it	-279
▁kar	-280
▁paro	-281
▁mas	-282
▁karakohan	-283
▁kayan	-284
▁pina	-285
▁ch	-286
▁kaso	-287
▁maparin	-288
day	-289
▁ango	-290
▁rakoh	-291
▁kavah	-292
teh	-293
▁yapo	-294
▁ama	-295
han	-296
piri	-297
tong	-298
nan	-299
mana	-300
van	-301
▁aro	-302
pirito	-303
▁espirito	-304
▁ipaka	-305
▁mar	-306
▁marahet	-307
▁omo	-308
nonong	-309
tol	-310
▁kaw	-311
▁mata	-312
▁tino	-313
▁anmana	-314
▁kavahayan	-315
▁pro	-316
ddaw	-317
chirin	-318
▁sino	-319
▁sawri	-320
el	-321
awat	-322
ka	-323
vak	-324
ban	-325
▁kat	-326
▁kato	-327
ngen	-328
gan	-329
panmo	-330
▁vatan	-331
pay	-332
pamarin	-333
▁kavata	-334
▁makavata	-335
vog	-336
▁mapanmo	-337
▁ono	-338
akey	-339
▁mangay	-340
▁mah	-341
▁jude	-342
dis	-343
rek	-344
▁som	-345
cho	-346
▁niaya	-347
libri	-348
▁mana	-349
chita	-350
awyo	-351
ayapo	-352
▁paka	-353
yokoyoko	-354
tolas	-355
▁aw	-356
▁kanira	-357
mis	-358
▁omonot	-359
erbi	-360
pia	-361
hel	-362
lay	-363
▁diaten	-364
▁pak	-365
awyoran	-366
▁kakawyoran	-367
▁pab	-368
▁chirin	-369
▁tom	-370
▁nangay	-371
nek	-372
▁ang	-373
▁kom	-374
▁manganohed	-375
akay	-376
▁disi	-377
▁judeo	-378
vakes	-379
mon	-380
nin	-381
soyo	-382
akteh	-383
▁daw	-384
▁vah	-385
pet	-386
▁kapaka	-387
awnonong	-388
▁kw	-389
▁akmay	-390
ed	-391
▁nar	-392
vidin	-393
▁ipakapamarin	-394
rwa	-395
▁ar	-396
▁mis	-397
▁pang	-398
▁koma	-399
tin	-400
tigo	-401
yan	-402
▁mismo	-403
▁pablo	-404
▁onotan	-405
ari	-406
▁kakakteh	-407
mah	-408
▁tomo	-409
▁komapet	-410
▁min	-411
▁han	-412
polo	-413
▁aktokto	-414
gar	-415
chad	-416
▁kwana	-417
vidi	-418
▁disipolo	-419
▁tana	-420
vot	-421
inchad	-422
ato	-423
▁kasi	-424
diw	-425
hap	-426
san	-427
▁pi	-428
yit	-429
▁maw	-430
awatan	-431
▁kam	-432
▁ichakey	-433
gatogatos	-434
▁g	-435
▁mato	-436
▁pachir	-437
▁hanyit	-438
▁ipa	-439
▁jesu	-440
dro	-441
irwa	-442
▁tomoroh	-443
▁kasoli	-444
▁disipolos	-445
voh	-446
te	-447
▁kapanmo	-448
▁pinarin	-449
ria	-450
▁kabo	-451
anganohed	-452
arayaw	-453
ahes	-454
logar	-455
▁pedro	-456
ba	-457
tra	-458
▁vahay	-459
▁narana	-460
▁manganak	-461
dong	-462
▁saray	-463
ndo	-464
▁makak	-465
▁mavakes	-466
▁araw	-467
▁yanan	-468
bay	-469
hos	-470
oho	-471
pat	-472
▁kasolivan	-473
▁sava	-474
ayapoan	-475
▁akmaya	-476
▁pachirawatan	-477
▁ito	-478
ion	-479
arahan	-480
▁chin	-481
▁mondo	-482
▁mawara	-483
angan	-484
▁awri	-485
▁sich	-486
arawat	-487
hes	-488
pas	-489
empo	-490
patol	-491
▁daya	-492
al	-493
▁tiempo	-494
liak	-495
▁nan	-496
eo	-497
▁pava	-498
dngeyen	-499
▁e	-500
rohan	-501
siasi	-502
▁dad	-503
▁sala	-504
▁logar	-505
▁anghel	-506
▁ina	-507
▁ab	-508
yokoyokoran	-509
▁apohen	-510
ariparin	-511
▁salapan	-512
▁kako	-513
▁china	-514
▁somni	-515
misa	-516
tindi	-517
ermi	-518
vahey	-519
▁maviay	-520
daday	-521
▁dawri	-522
yeng	-523
▁chita	-524
▁nanawo	-525
▁katayto	-526
riaw	-527
▁kadiman	-528
emp	-529
▁navoya	-530
angoriaw	-531
▁sichangoriaw	-532
anganak	-533
▁kapan	-534
vaya	-535
tarek	-536
dep	-537
chak	-538
namo	-539
▁mavoya	-540
▁gatos	-541
▁inio	-542
monamo	-543
eta	-544
▁juan	-545
intindi	-546
▁imo	-547
▁mayp	-548
charan	-549
lit	-550
▁jer	-551
▁tin	-552
▁pakayapoan	-553
▁is	-554
▁ng	-555
▁anak	-556
▁nadiman	-557
▁vo	-558
alem	-559
usalem	-560
▁jerusalem	-561
▁nakatolas	-562
ep	-563
saw	-564
▁patol	-565
▁kawnot	-566
▁pandan	-567
▁addaw	-568
nay	-569
▁kangay	-570
tongtong	-571
mia	-572
▁diamen	-573
▁somnivog	-574
nak	-575
baho	-576
▁koaya	-577
▁manda	-578
▁kami	-579
anganakan	-580
tos	-581
seh	-582
soyot	-583
voyan	-584
▁nawara	-585
serbi	-586
emplo	-587
ib	-588
nik	-589
anoh	-590
niknin	-591
alo	-592
▁kanen	-593
▁kakovot	-594
anohdan	-595
ekey	-596
▁pinay	-597
aha	-598
dit	-599
hosto	-600
▁dar	-601
▁itoroh	-602
din	-603
ayoka	-604
▁manam	-605
▁darana	-606
▁kamanganakan	-607
le	-608
dib	-609
▁anoh	-610
▁masan	-611
▁chitahen	-612
▁pariparin	-613
▁pariparinyen	-614
etd	-615
▁mango	-616
▁moaya	-617
▁kastigo	-618
aris	-619
etdeh	-620
▁nakap	-621
▁templo	-622
ias	-623
moan	-624
▁ichaddaw	-625
▁ino	-626
voyvoh	-627
▁pinang	-628
bna	-629
nio	-630
von	-631
▁la	-632
feta	-633
▁katoroh	-634
▁makakniknin	-635
eng	-636
tet	-637
▁fermi	-638
se	-639
▁kata	-640
saray	-641
▁dadwa	-642
▁ngaran	-643
▁profeta	-644
ahen	-645
didi	-646
toktoan	-647
▁nioava	-648
kon	-649
ahok	-650
arayay	-651
ahoahok	-652
og	-653
pit	-654
▁go	-655
▁mach	-656
▁panyokoyokoran	-657
sion	-658
vadiw	-659
▁kapak	-660
▁saw	-661
▁mano	-662
▁matatarek	-663
chowa	-664
▁maso	-665
▁kon	-666
awnot	-667
▁masanto	-668
ne	-669
law	-670
pos	-671
▁ga	-672
tnan	-673
vang	-674
patak	-675
patolan	-676
▁nioaya	-677
▁rarayay	-678
▁paypatolan	-679
▁daday	-680
▁nakavoya	-681
oyod	-682
tova	-683
▁kapia	-684
as	-685
ham	-686
awan	-687
mato	-688
▁nira	-689
▁mananawo	-690
▁kapachi	-691
▁torohan	-692
maog	-693
▁ano	-694
sobna	-695
▁isra	-696
sien	-697
▁dekey	-698
▁mavidin	-699
des	-700
boan	-701
▁kakteh	-702
▁kaoyod	-703
▁nakadngey	-704
▁manamonamo	-705
apo	-706
lak	-707
angon	-708
▁sinmo	-709
kan	-710
dang	-711
yokoyokod	-712
▁tra	-713
▁dava	-714
▁makagatogatos	-715
langan	-716
vangon	-717
▁kalibri	-718
▁kaychowa	-719
▁pakasi	-720
akan	-721
▁pana	-722
▁voyvoh	-723
▁promisa	-724
tdo	-725
wagan	-726
▁nakapay	-727
▁kwanasaw	-728
▁nakarahan	-729
▁nanganohed	-730
fis	-731
tis	-732
ises	-733
▁papa	-734
▁moises	-735
yay	-736
goro	-737
sian	-738
awtis	-739
dicho	-740
▁karaw	-741
▁kapang	-742
▁adan	-743
▁kakey	-744
dichoko	-745
▁papali	-746
▁koy	-747
▁sivog	-748
▁mahakay	-749
▁ay	-750
▁mapay	-751
▁mapaparin	-752
ahoho	-753
▁sina	-754
▁tori	-755
▁sidong	-756
▁panganohdan	-757
pang	-758
chasa	-759
▁kava	-760
▁vayo	-761
sal	-762
▁vin	-763
raham	-764
▁manga	-765
▁kasoyo	-766
▁abraham	-767
▁sincharan	-768
eli	-769
▁jo	-770
liliak	-771
monmoan	-772
▁kamoava	-773
▁mahosto	-774
▁maya	-775
▁pidi	-776
▁maato	-777
sinchad	-778
a	-779
▁	-780
o	-781
n	-782
i	-783
s	-784
k	-785
m	-786
d	-787
t	-788
y	-789
p	-790
r	-791
e	-792
h	-793
v	-794
w	-795
g	-796
l	-797
c	-798
b	-799
j	-800
u	-801
f	-802
