<unk>	0
<s>	0
</s>	0
an	-0
▁k	-1
ga	-2
▁n	-3
ang	-4
ag	-5
▁m	-6
▁s	-7
▁nga	-8
in	-9
un	-10
▁t	-11
▁sa	-12
▁ka	-13
▁ang	-14
▁p	-15
▁kang	-16
ay	-17
at	-18
ar	-19
▁g	-20
on	-21
ak	-22
▁mga	-23
aw	-24
▁na	-25
al	-26
▁kag	-27
▁b	-28
mo	-29
▁gin	-30
ug	-31
da	-32
ana	-33
▁d	-34
ara	-35
to	-36
ud	-37
is	-38
ya	-39
▁r	-40
▁an	-41
ul	-42
as	-43
ab	-44
anda	-45
yo	-46
am	-47
▁naga	-48
▁nag	-49
ro	-50
▁l	-51
▁pag	-52
id	-53
os	-54
us	-55
▁h	-56
▁tana	-57
it	-58
inyo	-59
ad	-60
▁kan	-61
▁D	-62
▁J	-63
ung	-64
▁i	-65
es	-66
▁mag	-67
ap	-68
hi	-69
▁dya	-70
um	-71
▁man	-72
ios	-73
▁A	-74
▁pa	-75
▁gid	-76
▁ak	-77
▁P	-78
▁Dios	-79
awo	-80
▁K	-81
▁anang	-82
▁si	-83
▁G	-84
di	-85
▁"	-86
▁tawo	-87
ah	-88
▁kamo	-89
ut	-90
ungud	-91
wara	-92
▁Jes	-93
▁run	-94
aga	-95
▁wara	-96
anan	-97
▁sanda	-98
▁ti	-99
uk	-100
▁Jesus	-101
ita	-102
uon	-103
▁N	-104
ot	-105
ig	-106
amo	-107
▁may	-108
▁ni	-109
ero	-110
▁in	-111
▁mak	-112
il	-113
▁lang	-114
ala	-115
▁amo	-116
▁kon	-117
▁ako	-118
▁An	-119
▁Gin	-120
▁ninyo	-121
kuon	-122
ri	-123
▁rug	-124
▁indi	-125
han	-126
▁kana	-127
ani	-128
▁ko	-129
lo	-130
▁M	-131
ka	-132
."	-133
▁tanan	-134
▁S	-135
▁hay	-136
▁nanda	-137
bal	-138
atun	-139
▁tungud	-140
himo	-141
▁nagap	-142
▁Nag	-143
im	-144
agi	-145
▁kaninyo	-146
▁Ang	-147
ur	-148
▁akun	-149
ub	-150
▁kam	-151
uo	-152
uga	-153
▁and	-154
▁kay	-155
▁ik	-156
ta	-157
▁kab	-158
▁ginp	-159
ulo	-160
▁is	-161
▁T	-162
ho	-163
ong	-164
ati	-165
isan	-166
▁I	-167
▁andang	-168
ia	-169
ris	-170
▁inyo	-171
li	-172
▁maga	-173
▁Pero	-174
▁par	-175
▁to	-176
akun	-177
ugo	-178
ing	-179
ambal	-180
▁Kag	-181
▁para	-182
▁bisan	-183
atay	-184
▁nak	-185
▁kananda	-186
alin	-187
▁magp	-188
▁ikaw	-189
▁pagp	-190
▁sang	-191
ata	-192
up	-193
▁nagp	-194
eho	-195
ba	-196
yan	-197
▁ag	-198
Cris	-199
▁B	-200
Cristo	-201
▁kanakun	-202
utang	-203
anga	-204
ali	-205
▁kat	-206
wa	-207
adl	-208
▁agud	-209
imo	-210
er	-211
ayon	-212
uman	-213
▁kas	-214
▁sin	-215
▁mat	-216
▁bay	-217
▁Gino	-218
uno	-219
▁gint	-220
uhi	-221
▁rugto	-222
abot	-223
▁kad	-224
▁Gani	-225
▁sangka	-226
▁ano	-227
▁pareho	-228
hambal	-229
iri	-230
ukun	-231
▁paagi	-232
angin	-233
una	-234
▁Cristo	-235
ra	-236
▁nagkuon	-237
ugro	-238
la	-239
▁ma	-240
abat	-241
▁ria	-242
agto	-243
aan	-244
em	-245
▁atun	-246
▁Ginoo	-247
uro	-248
▁kita	-249
▁im	-250
▁nam	-251
io	-252
ip	-253
ulat	-254
▁Jud	-255
▁butang	-256
▁ginap	-257
▁bukun	-258
▁kadya	-259
▁gani	-260
▁kami	-261
adlaw	-262
▁pero	-263
lan	-264
pat	-265
▁iba	-266
ari	-267
too	-268
▁Tungud	-269
el	-270
▁ga	-271
▁kali	-272
▁mayad	-273
▁Is	-274
ko	-275
▁isara	-276
en	-277
uw	-278
▁pagk	-279
▁da	-280
ukon	-281
▁Judio	-282
▁ukon	-283
amat	-284
udlo	-285
irito	-286
ugid	-287
apos	-288
▁Pag	-289
pirito	-290
▁adlaw	-291
ir	-292
▁H	-293
▁map	-294
▁kun	-295
may	-296
ayad	-297
▁mo	-298
▁mas	-299
▁bala	-300
but	-301
angk	-302
ugal	-303
▁nahan	-304
▁nahanungud	-305
▁bata	-306
usto	-307
▁imo	-308
sabat	-309
▁kundi	-310
dad	-311
An	-312
akita	-313
uod	-314
ran	-315
▁bal	-316
▁gina	-317
▁rugya	-318
!"	-319
▁Sa	-320
aman	-321
butan	-322
▁kalibutan	-323
uh	-324
ndi	-325
▁'	-326
abo	-327
ugoan	-328
▁nagak	-329
▁mab	-330
isip	-331
?"	-332
▁dar	-333
▁mangin	-334
▁paga	-335
▁nagat	-336
▁Kang	-337
▁gins	-338
Wara	-339
▁Amo	-340
▁halin	-341
▁rugyan	-342
▁kal	-343
▁nagt	-344
ahang	-345
ed	-346
ik	-347
unod	-348
▁kin	-349
▁bil	-350
awas	-351
▁Dayon	-352
▁disip	-353
▁disipulo	-354
og	-355
ugto	-356
▁ginat	-357
ingun	-358
wan	-359
▁kaugal	-360
uyo	-361
▁kaugalingun	-362
hig	-363
▁Pagk	-364
halin	-365
▁makita	-366
▁nagas	-367
inga	-368
uwas	-369
uluo	-370
▁Kar	-371
▁kanimo	-372
dum	-373
▁Nagkuon	-374
angga	-375
▁ginb	-376
▁Ispirito	-377
▁daw	-378
ma	-379
▁Kon	-380
▁tin	-381
▁li	-382
awhan	-383
ob	-384
imaw	-385
▁nab	-386
▁pagt	-387
▁ginak	-388
▁Nagsabat	-389
▁nakita	-390
day	-391
▁am	-392
▁nap	-393
ugar	-394
▁bayi	-395
▁pagtoo	-396
▁mala	-397
▁langit	-398
▁nags	-399
▁imong	-400
▁namun	-401
▁kabuhi	-402
pit	-403
ulud	-404
asta	-405
▁gusto	-406
dug	-407
ria	-408
pe	-409
▁Amay	-410
uy	-411
▁Ju	-412
▁Pab	-413
▁darwa	-414
ato	-415
or	-416
▁ana	-417
▁Wara	-418
▁karia	-419
▁manug	-420
atian	-421
atapos	-422
▁natun	-423
alaan	-424
▁pang	-425
kaun	-426
▁Pablo	-427
ahanglan	-428
ahan	-429
umuluo	-430
yon	-431
anaw	-432
angkot	-433
▁lugar	-434
▁katawhan	-435
angam	-436
pay	-437
▁Kas	-438
▁ginhimo	-439
hum	-440
▁bul	-441
▁katap	-442
▁hasta	-443
▁kar	-444
tang	-445
▁lawas	-446
Ang	-447
▁nat	-448
▁duro	-449
▁Anak	-450
edro	-451
▁Pedro	-452
ugma	-453
▁Indi	-454
▁Balaan	-455
arig	-456
arung	-457
▁dapat	-458
awa	-459
▁balay	-460
pa	-461
awag	-462
akig	-463
aram	-464
▁pul	-465
▁pagh	-466
▁sala	-467
hel	-468
▁himo	-469
▁anghel	-470
▁amun	-471
▁nagakuon	-472
ih	-473
▁al	-474
▁nas	-475
anag	-476
huna	-477
▁kanatun	-478
eo	-479
sa	-480
▁mal	-481
dara	-482
usan	-483
▁pro	-484
anh	-485
▁bar	-486
▁makap	-487
▁haw	-488
▁katapusan	-489
▁pin	-490
▁maka	-491
▁tion	-492
▁F	-493
amangkot	-494
gan	-495
ili	-496
atub	-497
▁anay	-498
emp	-499
▁kinahanglan	-500
ulatan	-501
.'	-502
ilala	-503
angamuyo	-504
▁E	-505
peta	-506
iin	-507
▁pagb	-508
▁pags	-509
▁ip	-510
▁magb	-511
ant	-512
upa	-513
▁Juan	-514
▁ginahimo	-515
indug	-516
▁matuod	-517
▁diin	-518
anay	-519
amaan	-520
▁Naga	-521
isa	-522
▁bah	-523
▁magap	-524
▁himoon	-525
bi	-526
tanan	-527
▁mags	-528
way	-529
arapit	-530
bay	-531
▁sur	-532
balik	-533
atubang	-534
aki	-535
▁kato	-536
adara	-537
▁Kasugoan	-538
ens	-539
▁May	-540
asala	-541
agad	-542
yag	-543
les	-544
tos	-545
ea	-546
▁L	-547
▁nagk	-548
▁naman	-549
dan	-550
igka	-551
abuhi	-552
ins	-553
▁isigka	-554
unga	-555
anudlo	-556
▁tumuluo	-557
▁it	-558
▁gahum	-559
▁ginah	-560
▁laki	-561
▁bilang	-562
▁gintugro	-563
▁liwan	-564
▁kasugoan	-565
higugma	-566
ima	-567
aham	-568
aton	-569
anhaw	-570
▁ginh	-571
ismo	-572
▁mismo	-573
▁ginakuon	-574
bot	-575
ungko	-576
angan	-577
▁Pagkatapos	-578
adluk	-579
▁kada	-580
▁propeta	-581
pus	-582
alem	-583
ugoon	-584
▁lupa	-585
▁pi	-586
▁imaw	-587
▁suno	-588
▁kaimaw	-589
erus	-590
obra	-591
erusalem	-592
▁magt	-593
uul	-594
aad	-595
abi	-596
akup	-597
emplo	-598
Gin	-599
▁Hay	-600
arian	-601
adayon	-602
od	-603
akit	-604
▁dyan	-605
▁makas	-606
uut	-607
war	-608
ilin	-609
ulig	-610
▁malaot	-611
▁Jerusalem	-612
▁Nagp	-613
atayun	-614
▁Jesu	-615
ain	-616
atlo	-617
wali	-618
mtang	-619
▁ginas	-620
alangga	-621
▁taga	-622
▁ban	-623
▁bato	-624
▁nah	-625
ugidan	-626
hun	-627
iso	-628
▁Ginp	-629
ama	-630
uri	-631
▁Si	-632
yu	-633
▁R	-634
alad	-635
▁san	-636
▁surugoon	-637
▁maman	-638
▁kamatayun	-639
bo	-640
▁as	-641
away	-642
▁bin	-643
yudad	-644
ago	-645
akam	-646
▁syudad	-647
▁naghalin	-648
te	-649
▁bug	-650
▁hin	-651
abati	-652
ugtoan	-653
▁kabugtoan	-654
kun	-655
abay	-656
▁nagab	-657
▁ngaran	-658
awan	-659
▁kaang	-660
▁tatay	-661
▁sangsa	-662
▁kaangtanan	-663
▁magk	-664
ern	-665
▁templo	-666
▁kasulatan	-667
▁nagb	-668
▁bilog	-669
tra	-670
▁mad	-671
▁uri	-672
▁pagkaun	-673
▁matarung	-674
atuo	-675
▁kabay	-676
atuoran	-677
▁kamatuoran	-678
hil	-679
man	-680
▁kap	-681
▁Mayad	-682
et	-683
aka	-684
ingg	-685
antos	-686
Indi	-687
amati	-688
▁ispirito	-689
▁malain	-690
▁paghimo	-691
awt	-692
tar	-693
ataan	-694
amatuod	-695
▁kabataan	-696
▁C	-697
pun	-698
uruk	-699
▁una	-700
awtiso	-701
ingala	-702
▁kanam	-703
▁ginkuon	-704
aray	-705
▁pulong	-706
alipay	-707
▁sulud	-708
ok	-709
pon	-710
ugyan	-711
▁patay	-712
▁nabatian	-713
▁Mag	-714
▁Mga	-715
ina	-716
lag	-717
▁him	-718
agipus	-719
▁hambal	-720
▁atubang	-721
br	-722
ahe	-723
otan	-724
▁Mar	-725
▁alima	-726
▁nangin	-727
agum	-728
ahay	-729
▁Bal	-730
▁magh	-731
dumara	-732
▁pangulo	-733
▁Mo	-734
awun	-735
▁nimo	-736
▁napulo	-737
▁tagipus	-738
lay	-739
ises	-740
▁lim	-741
▁apos	-742
▁Moises	-743
▁aposto	-744
▁kanamun	-745
▁Far	-746
▁daan	-747
▁nagapang	-748
oon	-749
apay	-750
▁anda	-751
▁kauna	-752
▁nagahimo	-753
gar	-754
anum	-755
nero	-756
yong	-757
▁inyong	-758
uho	-759
iseo	-760
atyag	-761
ensya	-762
▁bahin	-763
▁samtang	-764
▁dyaay	-765
▁Balita	-766
▁Fariseo	-767
pan	-768
yun	-769
apon	-770
riso	-771
▁tul	-772
▁buga	-773
ump	-774
▁Sam	-775
▁lab	-776
▁kwar	-777
▁natabo	-778
▁tub	-779
▁buhi	-780
das	-781
hon	-782
lun	-783
▁aw	-784
▁tr	-785
▁tuman	-786
▁Ginoong	-787
mit	-788
▁ig	-789
ahayag	-790
▁naghambal	-791
▁tagipusoon	-792
igo	-793
imba	-794
luwas	-795
udlay	-796
angkun	-797
uoy	-798
uway	-799
▁mah	-800
gwa	-801
▁Abr	-802
▁kah	-803
▁manun	-804
▁Abraham	-805
ros	-806
▁pan	-807
▁sar	-808
areho	-809
▁asawa	-810
▁bugto	-811
▁nagah	-812
▁ginpang	-813
ura	-814
imon	-815
insar	-816
▁hari	-817
▁sapat	-818
▁tulad	-819
amp	-820
ador	-821
▁dayon	-822
ac	-823
alik	-824
ihak	-825
tori	-826
ataas	-827
▁banwa	-828
toridad	-829
▁awtoridad	-830
▁ginatawag	-831
asal	-832
▁Tana	-833
ahuway	-834
▁mapatay	-835
Kon	-836
ataw	-837
rael	-838
▁bag	-839
▁sul	-840
angayo	-841
unggan	-842
▁sobra	-843
▁manunudlo	-844
uud	-845
adya	-846
alag	-847
▁Tawo	-848
▁bayo	-849
▁nanay	-850
amatarung	-851
▁nakamaan	-852
emon	-853
▁Gint	-854
▁kros	-855
▁Israel	-856
▁kwarta	-857
▁mangga	-858
▁pagkab	-859
asa	-860
ayo	-861
abilin	-862
uya	-863
apat	-864
▁ulo	-865
atabo	-866
▁raad	-867
▁tubig	-868
▁nagatoo	-869
▁ay	-870
inguh	-871
▁pito	-872
▁Maria	-873
▁pulos	-874
dl	-875
do	-876
me	-877
asyon	-878
▁sugo	-879
▁parte	-880
▁tatlo	-881
▁gindara	-882
▁panghuna	-883
ano	-884
tor	-885
uli	-886
uhay	-887
▁sil	-888
inggit	-889
ugroan	-890
atyagun	-891
▁sanday	-892
▁baratyagun	-893
▁nagahambal	-894
danan	-895
▁Kamo	-896
▁kahi	-897
▁andut	-898
▁ginkun	-899
▁mahimo	-900
kot	-901
alan	-902
alil	-903
▁Naman	-904
▁Simon	-905
▁kasal	-906
asalamat	-907
agay	-908
ugot	-909
lesia	-910
▁tama	-911
arigan	-912
▁sarang	-913
▁apostoles	-914
bii	-915
▁ib	-916
▁gih	-917
▁lam	-918
▁dugo	-919
abaton	-920
▁bugay	-921
▁gihapon	-922
▁maghalin	-923
ai	-924
eli	-925
dlaw	-926
uron	-927
tumuluo	-928
▁ginapang	-929
▁maghambal	-930
▁U	-931
ask	-932
dut	-933
tro	-934
inaw	-935
▁pir	-936
alilea	-937
▁paano	-938
akilala	-939
▁kamaan	-940
ti	-941
amb	-942
akal	-943
akus	-944
▁aga	-945
▁har	-946
askug	-947
▁dios	-948
umpisa	-949
▁Adlaw	-950
▁kalayo	-951
▁Samtang	-952
akay	-953
alay	-954
alain	-955
▁Hero	-956
▁buut	-957
alagad	-958
emonyo	-959
▁demonyo	-960
av	-961
avid	-962
▁say	-963
hanan	-964
asakup	-965
▁David	-966
▁bahul	-967
▁limug	-968
▁mabatian	-969
oo	-970
uto	-971
tawo	-972
ubut	-973
▁Pil	-974
▁nagd	-975
abugal	-976
▁ginab	-977
▁ginpa	-978
▁ruman	-979
▁Pareho	-980
▁Pilato	-981
▁karnero	-982
tan	-983
uba	-984
ugp	-985
▁tag	-986
alang	-987
▁magat	-988
▁kabubut	-989
▁tinapay	-990
▁hambalun	-991
▁pagkatapos	-992
aya	-993
uig	-994
abig	-995
dado	-996
▁nagh	-997
▁magaabot	-998
▁ginharian	-999
asi	-1000
angg	-1001
ilag	-1002
antay	-1003
▁kamal	-1004
▁Galilea	-1005
▁suldado	-1006
akamataas	-1007
gat	-1008
ton	-1009
uks	-1010
hanun	-1011
▁kons	-1012
▁tuig	-1013
▁kahig	-1014
angabay	-1015
00	-1016
des	-1017
ukum	-1018
▁Ako	-1019
▁hil	-1020
agoga	-1021
▁nagl	-1022
▁magak	-1023
▁matabo	-1024
▁kaparian	-1025
ib	-1026
▁In	-1027
▁pw	-1028
apas	-1029
ugut	-1030
dayaw	-1031
torya	-1032
▁bana	-1033
▁lain	-1034
▁pari	-1035
▁Bisan	-1036
▁bulag	-1037
ulangan	-1038
▁kalipay	-1039
▁kasanag	-1040
▁magkuon	-1041
▁napatay	-1042
▁masarigan	-1043
sang	-1044
▁sak	-1045
estro	-1046
anggid	-1047
ensahe	-1048
▁gabii	-1049
▁magab	-1050
▁pirme	-1051
▁Herodes	-1052
▁pagpang	-1053
na	-1054
ista	-1055
laum	-1056
▁imp	-1057
▁pani	-1058
aguman	-1059
ilagro	-1060
mhanan	-1061
▁makah	-1062
▁agalun	-1063
▁ginsugo	-1064
▁milagro	-1065
▁sinagoga	-1066
alum	-1067
▁Man	-1068
▁pam	-1069
inung	-1070
istar	-1071
tahan	-1072
▁lagi	-1073
▁pagg	-1074
▁uripun	-1075
▁mensahe	-1076
▁ginhambal	-1077
▁gintugroan	-1078
!'	-1079
iya	-1080
ono	-1081
pyo	-1082
uhat	-1083
gahum	-1084
▁ayhan	-1085
▁baylo	-1086
▁tunga	-1087
▁urihi	-1088
ugpahuway	-1089
ubu	-1090
uyag	-1091
Ginoo	-1092
▁dalan	-1093
▁kaaram	-1094
▁Sugidan	-1095
▁kaulangan	-1096
▁Inugpahuway	-1097
.'"	-1098
Ano	-1099
sul	-1100
inul	-1101
▁Dya	-1102
▁pat	-1103
imoan	-1104
▁hinimoan	-1105
▁makakita	-1106
▁pagtuman	-1107
▁nagatugro	-1108
▁makasasala	-1109
hoy	-1110
ubn	-1111
aagi	-1112
usta	-1113
▁Jos	-1114
▁sahi	-1115
▁kahoy	-1116
▁magkaun	-1117
▁matuman	-1118
▁ginahinga	-1119
tong	-1120
ulag	-1121
ranan	-1122
▁Maga	-1123
▁suud	-1124
aestro	-1125
▁Nagap	-1126
▁panim	-1127
▁kontra	-1128
▁lamang	-1129
▁kalinung	-1130
▁Kasulatan	-1131
▁gintugyan	-1132
lain	-1133
ulum	-1134
▁bur	-1135
▁rul	-1136
Andut	-1137
ubngan	-1138
▁labaw	-1139
▁paagto	-1140
▁maghimo	-1141
▁panimalay	-1142
▁paghigugma	-1143
▁o	-1144
aun	-1145
pis	-1146
▁ar	-1147
ahin	-1148
anas	-1149
▁priso	-1150
▁sayud	-1151
inulsul	-1152
▁iglesia	-1153
▁nagasunod	-1154
▁rulubngan	-1155
akamatarung	-1156
▁manugdumara	-1157
ulog	-1158
▁bagay	-1159
▁trono	-1160
ahadluk	-1161
ol	-1162
re	-1163
aku	-1164
kom	-1165
inum	-1166
▁bes	-1167
▁but	-1168
angab	-1169
▁ginl	-1170
atawad	-1171
hilway	-1172
▁paghambal	-1173
▁ginapanudlo	-1174
▁pil	-1175
angas	-1176
arayu	-1177
koton	-1178
▁Nags	-1179
▁apat	-1180
▁hiri	-1181
▁pana	-1182
▁pira	-1183
anugid	-1184
▁bulig	-1185
▁makab	-1186
akighil	-1187
bawtiso	-1188
lansang	-1189
▁baruto	-1190
akighilawas	-1191
▁nagparapit	-1192
Sa	-1193
mi	-1194
asan	-1195
ubus	-1196
utum	-1197
▁buhat	-1198
▁hirikoton	-1199
kaw	-1200
nga	-1201
taw	-1202
▁Ti	-1203
▁ab	-1204
▁id	-1205
ukid	-1206
▁sum	-1207
▁tuo	-1208
angup	-1209
▁Jose	-1210
▁pwer	-1211
▁Kabay	-1212
▁ikatlo	-1213
▁katong	-1214
▁ginsaad	-1215
▁nasulat	-1216
▁gintawag	-1217
▁mabaskug	-1218
▁nakabati	-1219
▁nagatuman	-1220
ha	-1221
▁tur	-1222
ontra	-1223
ulang	-1224
▁mata	-1225
alibot	-1226
▁Judea	-1227
▁Pista	-1228
▁nayon	-1229
▁balaan	-1230
▁ginapa	-1231
▁kabang	-1232
▁maluwas	-1233
▁naghimo	-1234
▁nagpanaw	-1235
▁nakasala	-1236
▁pwertahan	-1237
▁nagakabuhi	-1238
▁kabangdanan	-1239
mas	-1240
sak	-1241
▁abi	-1242
ambit	-1243
andam	-1244
▁Feli	-1245
▁Gins	-1246
▁basi	-1247
▁binhi	-1248
▁gamay	-1249
anggidan	-1250
▁kamayad	-1251
▁nagpang	-1252
▁magluwas	-1253
▁nagapati	-1254
▁nagapungko	-1255
▁pagkabutang	-1256
▁paraanggidan	-1257
agwa	-1258
igya	-1259
wahe	-1260
▁Pin	-1261
▁pas	-1262
irkom	-1263
ranun	-1264
garing	-1265
▁Judas	-1266
▁ginad	-1267
istorya	-1268
udlayan	-1269
ungtong	-1270
▁ginpadara	-1271
eb	-1272
gad	-1273
roo	-1274
wat	-1275
▁Ka	-1276
irin	-1277
toroo	-1278
uluoy	-1279
ayawun	-1280
▁Bukun	-1281
▁angud	-1282
aratabo	-1283
▁balita	-1284
akamayad	-1285
▁bulawan	-1286
▁paglaum	-1287
▁ginahingaranan	-1288
ku	-1289
May	-1290
rim	-1291
atir	-1292
dura	-1293
lagi	-1294
ukot	-1295
▁Mat	-1296
anhun	-1297
gamit	-1298
sakto	-1299
urunod	-1300
▁Sanda	-1301
ugtanan	-1302
▁ginbay	-1303
▁nasyon	-1304
▁maaguman	-1305
▁magsunod	-1306
▁nagsabat	-1307
inahanglan	-1308
mp	-1309
hag	-1310
▁es	-1311
▁or	-1312
▁ta	-1313
▁Nat	-1314
▁han	-1315
▁lib	-1316
arang	-1317
▁bino	-1318
uhatun	-1319
▁dagat	-1320
▁pagab	-1321
▁sakup	-1322
▁nagaka	-1323
▁nagbalik	-1324
▁nakakita	-1325
▁buruhatun	-1326
▁kasugtanan	-1327
▁makaangkun	-1328
ic	-1329
agk	-1330
ban	-1331
las	-1332
alit	-1333
anab	-1334
arwa	-1335
athag	-1336
dakup	-1337
ulong	-1338
usgar	-1339
▁Paagi	-1340
▁amigo	-1341
akasala	-1342
▁ginaga	-1343
▁ginpam	-1344
▁hangin	-1345
▁pinili	-1346
▁paghari	-1347
▁panuruk	-1348
▁ginahambal	-1349
▁Ro	-1350
arah	-1351
daba	-1352
luoy	-1353
▁Ano	-1354
iguro	-1355
inahi	-1356
lipay	-1357
uksok	-1358
▁gink	-1359
▁lima	-1360
ulogan	-1361
▁bunga	-1362
Maestro	-1363
▁nagtoo	-1364
aramatay	-1365
▁magpati	-1366
▁makatir	-1367
▁nagtoroo	-1368
▁Pagkabati	-1369
▁pagkabuhi	-1370
▁pangamuyo	-1371
▁manggaranun	-1372
?'	-1373
imb	-1374
tao	-1375
ahum	-1376
anti	-1377
onia	-1378
tien	-1379
▁Sat	-1380
higku	-1381
himay	-1382
udlan	-1383
▁Bern	-1384
▁Duro	-1385
▁imol	-1386
amatud	-1387
▁Santi	-1388
▁nagad	-1389
▁panag	-1390
▁silot	-1391
▁takun	-1392
▁linahi	-1393
inguhaan	-1394
▁Satanas	-1395
▁Santiago	-1396
▁kahadluk	-1397
Mga	-1398
lug	-1399
ahun	-1400
ante	-1401
lano	-1402
uhod	-1403
uwis	-1404
▁gob	-1405
akuon	-1406
ugung	-1407
▁dara	-1408
▁kina	-1409
▁batok	-1410
▁impor	-1411
▁lingg	-1412
Sugidan	-1413
araydan	-1414
ingabot	-1415
▁ginpat	-1416
▁nagapa	-1417
adunggan	-1418
▁mahigku	-1419
▁marapit	-1420
▁ginsugid	-1421
▁kaaraydan	-1422
▁linggwahe	-1423
▁nagapanaw	-1424
▁nagtindug	-1425
▁namangkot	-1426
▁Ginpamangkot	-1427
abe	-1428
dya	-1429
ede	-1430
hip	-1431
ion	-1432
say	-1433
Kamo	-1434
agap	-1435
inag	-1436
usga	-1437
angon	-1438
▁Pari	-1439
▁naka	-1440
▁oras	-1441
apatay	-1442
ilidad	-1443
udloan	-1444
▁libro	-1445
▁sulat	-1446
anhawun	-1447
▁itugro	-1448
▁kaaway	-1449
▁ginpili	-1450
▁mabaton	-1451
▁masakit	-1452
▁palibot	-1453
▁silotan	-1454
angamusta	-1455
▁abilidad	-1456
▁magkabuhi	-1457
▁nagpadara	-1458
▁nagatindug	-1459
▁ginpamangkot	-1460
▁makatiringala	-1461
▁ginapanghambal	-1462
so	-1463
nun	-1464
res	-1465
uha	-1466
▁ub	-1467
▁um	-1468
ahod	-1469
atas	-1470
daug	-1471
dios	-1472
mhan	-1473
ugali	-1474
ungug	-1475
wayun	-1476
▁Ginb	-1477
▁prob	-1478
igugma	-1479
uligan	-1480
wardya	-1481
▁naham	-1482
mtangan	-1483
▁alagad	-1484
▁kaluoy	-1485
▁magtoo	-1486
▁mahang	-1487
akitluoy	-1488
▁Bernabe	-1489
▁igsakto	-1490
▁manggad	-1491
▁kahimtangan	-1492
▁Pinakamataas	-1493
Ako	-1494
hay	-1495
tun	-1496
ason	-1497
▁Eli	-1498
▁nan	-1499
akaun	-1500
tante	-1501
▁buho	-1502
erador	-1503
▁Rugto	-1504
▁buwis	-1505
▁magpa	-1506
▁manugb	-1507
▁magpakig	-1508
▁nagakaun	-1509
▁ginakabig	-1510
▁nagkalain	-1511
▁natingala	-1512
▁nagapamati	-1513
▁ginahigugma	-1514
Amo	-1515
Mag	-1516
kod	-1517
yal	-1518
▁ba	-1519
akab	-1520
alaw	-1521
arag	-1522
atan	-1523
iner	-1524
kuno	-1525
ulay	-1526
▁nal	-1527
ablug	-1528
agyan	-1529
akuno	-1530
anami	-1531
anaog	-1532
angay	-1533
hipto	-1534
insya	-1535
▁libo	-1536
iripon	-1537
tiendi	-1538
▁Manug	-1539
▁linaw	-1540
▁makal	-1541
▁nakun	-1542
▁pamat	-1543
▁takus	-1544
elasyon	-1545
▁Felipe	-1546
▁maaram	-1547
▁tinion	-1548
▁konseho	-1549
▁gamhanan	-1550
▁ginpahayag	-1551
▁magpasakup	-1552
▁pagpalangga	-1553
▁magpangamuyo	-1554
de	-1555
eg	-1556
alo	-1557
abaw	-1558
aran	-1559
umud	-1560
urog	-1561
▁put	-1562
enhun	-1563
▁Nagt	-1564
awhanun	-1565
ernador	-1566
▁himaya	-1567
▁limpyo	-1568
▁maagto	-1569
▁manugp	-1570
▁inadlaw	-1571
▁malipay	-1572
▁nagsugo	-1573
▁paghukum	-1574
▁pagpakig	-1575
▁prisohan	-1576
▁tawhanun	-1577
▁probinsya	-1578
gun	-1579
Ikaw	-1580
duha	-1581
ukas	-1582
▁kil	-1583
▁tak	-1584
▁tam	-1585
angka	-1586
pitan	-1587
ubung	-1588
▁Hari	-1589
▁gali	-1590
akusar	-1591
alagyo	-1592
ulahan	-1593
▁barko	-1594
▁luyag	-1595
▁magah	-1596
▁pagap	-1597
▁pihak	-1598
baligya	-1599
▁Ehipto	-1600
▁gintug	-1601
▁ikarwa	-1602
▁manugs	-1603
▁naggwa	-1604
angasawa	-1605
▁Ugaring	-1606
▁ginbuul	-1607
▁gwardya	-1608
▁tugroan	-1609
▁ginatumud	-1610
▁kinaugali	-1611
▁importante	-1612
▁kabudlayan	-1613
▁nagakontra	-1614
▁pinalangga	-1615
▁nagahigugma	-1616
men	-1617
ubo	-1618
igun	-1619
ipon	-1620
pada	-1621
▁iga	-1622
▁pur	-1623
▁isda	-1624
▁pagl	-1625
inguha	-1626
umanun	-1627
▁altar	-1628
▁nagal	-1629
▁handum	-1630
▁umpisa	-1631
ungganun	-1632
▁Karnero	-1633
▁kaliwat	-1634
▁kapitan	-1635
▁magpang	-1636
akaluluoy	-1637
▁nagsunod	-1638
▁nagtugro	-1639
▁pagbulig	-1640
▁dungganun	-1641
▁ginbayaan	-1642
▁pagpanudlo	-1643
▁Israelenhun	-1644
▁y	-1645
dis	-1646
don	-1647
unt	-1648
aret	-1649
yern	-1650
▁Sil	-1651
angal	-1652
umdum	-1653
yanan	-1654
▁Magp	-1655
▁akus	-1656
▁raku	-1657
amunga	-1658
▁Saulo	-1659
▁beses	-1660
▁husto	-1661
▁luwas	-1662
▁espada	-1663
▁himpit	-1664
▁nanday	-1665
▁tinuga	-1666
angalagad	-1667
▁nagsulud	-1668
▁relasyon	-1669
▁Naghambal	-1670
▁ginbutang	-1671
▁ginpakita	-1672
▁makakilala	-1673
▁nagkaramatay	-1674
▁kinahanglanun	-1675
▁w	-1676
ira	-1677
tog	-1678
uta	-1679
▁Na	-1680
arun	-1681
awid	-1682
unog	-1683
▁Bet	-1684
andug	-1685
angis	-1686
ripon	-1687
tonan	-1688
▁Paga	-1689
▁kuon	-1690
▁magm	-1691
▁opis	-1692
▁magas	-1693
▁maghi	-1694
insarun	-1695
▁Nakita	-1696
▁kahiga	-1697
▁katapo	-1698
▁nahimo	-1699
himayaun	-1700
▁opisyal	-1701
awtisohan	-1702
▁pagbalik	-1703
▁magkahadluk	-1704
▁ginpanghambal	-1705
▁nagapangamuyo	-1706
co	-1707
Sin	-1708
apn	-1709
int	-1710
teo	-1711
▁Es	-1712
itan	-1713
ulta	-1714
▁bit	-1715
▁hig	-1716
▁pis	-1717
▁tri	-1718
▁uma	-1719
inawi	-1720
ublag	-1721
utuyo	-1722
yerno	-1723
▁Timo	-1724
▁mang	-1725
▁pati	-1726
abalik	-1727
alagan	-1728
aligad	-1729
ilotan	-1730
▁Elias	-1731
▁Gusto	-1732
▁bukid	-1733
▁handa	-1734
▁padya	-1735
ahamuut	-1736
ampuwas	-1737
▁Sangka	-1738
▁bituon	-1739
▁ginpap	-1740
▁natawo	-1741
agagahum	-1742
▁Timoteo	-1743
▁magtugro	-1744
▁makaagum	-1745
▁tinutuyo	-1746
▁akusasyon	-1747
▁nagapakig	-1748
▁paminsarun	-1749
▁pinakamataas	-1750
▁ispiritohanun	-1751
▁nagapangamusta	-1752
ado	-1753
bug	-1754
era	-1755
lul	-1756
▁ya	-1757
arab	-1758
asul	-1759
ingk	-1760
init	-1761
isug	-1762
ugas	-1763
▁dag	-1764
▁emp	-1765
mando	-1766
usisa	-1767
▁balo	-1768
▁itaw	-1769
▁puro	-1770
▁sulo	-1771
ahanan	-1772
anagna	-1773
ikanan	-1774
▁Ginap	-1775
▁Nagas	-1776
▁bangk	-1777
▁makad	-1778
▁makat	-1779
▁pagas	-1780
▁pinak	-1781
luluwas	-1782
▁makuon	-1783
iriripon	-1784
▁apostol	-1785
▁nalipay	-1786
▁nagpakig	-1787
▁emperador	-1788
▁ginikanan	-1789
▁konsensya	-1790
▁nagpakita	-1791
Ti	-1792
pi	-1793
000	-1794
Nag	-1795
ami	-1796
▁La	-1797
▁ih	-1798
anak	-1799
▁000	-1800
▁Mas	-1801
▁dug	-1802
▁tab	-1803
apnag	-1804
bahin	-1805
aboton	-1806
▁binit	-1807
▁pagat	-1808
ingawan	-1809
irindug	-1810
▁Pulong	-1811
▁bantog	-1812
▁labing	-1813
▁maluya	-1814
▁marayu	-1815
▁nadura	-1816
▁paggin	-1817
▁ipakita	-1818
▁kadulum	-1819
▁magbalik	-1820
▁pagturon	-1821
angabudlay	-1822
▁gobernador	-1823
▁kamingawan	-1824
▁nagapanudlo	-1825
▁pagpakasala	-1826
▁nagapamatuod	-1827
▁nagpamangkot	-1828
le	-1829
Dya	-1830
ena	-1831
▁Ag	-1832
acob	-1833
ahul	-1834
akud	-1835
alun	-1836
asip	-1837
ulod	-1838
ulto	-1839
▁gwa	-1840
▁lin	-1841
▁pun	-1842
akpan	-1843
ikway	-1844
ungan	-1845
usong	-1846
yonan	-1847
▁magl	-1848
▁pama	-1849
▁yawa	-1850
aragto	-1851
▁Jacob	-1852
▁buhay	-1853
▁bulan	-1854
▁kunup	-1855
▁nakas	-1856
▁pilak	-1857
▁tribo	-1858
masakit	-1859
▁himuon	-1860
▁patyun	-1861
▁Ginhimo	-1862
▁bangkay	-1863
▁pamaagi	-1864
▁sayudon	-1865
▁tumanun	-1866
anginwara	-1867
▁magbuhay	-1868
▁nabanhaw	-1869
▁nagadara	-1870
▁Natingala	-1871
▁ginagamit	-1872
▁ginasugid	-1873
▁masakitun	-1874
wi	-1875
aro	-1876
dal	-1877
him	-1878
idl	-1879
ila	-1880
abal	-1881
uhaw	-1882
▁Ant	-1883
▁Sin	-1884
▁kaw	-1885
▁lik	-1886
impyo	-1887
ingal	-1888
antala	-1889
edonia	-1890
▁Silas	-1891
▁bayad	-1892
▁halad	-1893
▁mabug	-1894
▁plano	-1895
▁sanga	-1896
arangan	-1897
▁magpam	-1898
▁takawan	-1899
▁ginbaton	-1900
▁nahadluk	-1901
▁pagsimba	-1902
▁surudlan	-1903
▁nagasimba	-1904
▁paghangup	-1905
▁ginapaabot	-1906
▁ginlansang	-1907
▁makagagahum	-1908
▁Manugbawtiso	-1909
,'	-1910
bun	-1911
der	-1912
ron	-1913
ula	-1914
Dali	-1915
Huud	-1916
alup	-1917
igan	-1918
rito	-1919
ubos	-1920
uduk	-1921
▁Daw	-1922
▁Rom	-1923
▁min	-1924
▁pal	-1925
▁sig	-1926
alwan	-1927
awali	-1928
dapat	-1929
▁Pagl	-1930
▁daad	-1931
anabog	-1932
anumpa	-1933
uwasan	-1934
▁Halin	-1935
▁gugma	-1936
▁kuman	-1937
▁marig	-1938
▁rason	-1939
▁Ginkun	-1940
▁isugid	-1941
▁kilala	-1942
▁pagkam	-1943
acedonia	-1944
▁masunod	-1945
▁Romanhun	-1946
▁ginadara	-1947
▁kumander	-1948
▁makamaan	-1949
▁makilala	-1950
▁pagsunod	-1951
▁palangga	-1952
▁hinigugma	-1953
▁kaluwasan	-1954
▁makahambal	-1955
▁pagginahum	-1956
mb	-1957
kag	-1958
kon	-1959
▁Ig	-1960
agda	-1961
aylo	-1962
ubli	-1963
uran	-1964
▁ipa	-1965
▁pak	-1966
alana	-1967
ingkal	-1968
tensya	-1969
▁himoa	-1970
▁matun	-1971
andaman	-1972
asulabi	-1973
▁idalum	-1974
▁kaduro	-1975
▁kanday	-1976
▁bugayan	-1977
▁haralad	-1978
▁panahon	-1979
ingalahan	-1980
▁balatian	-1981
▁gintudlo	-1982
▁maangkun	-1983
▁mabanhaw	-1984
▁mahambal	-1985
▁makabati	-1986
▁pagtugro	-1987
▁mahangpan	-1988
▁makasulud	-1989
▁nagabaton	-1990
▁nagaparam	-1991
▁nagpungko	-1992
▁manugsukot	-1993
▁nagapakuno	-1994
▁nagsinggit	-1995
▁paraaboton	-1996
▁maghinulsul	-1997
▁manugbantay	-1998
▁nagapabilin	-1999
▁kinamatarung	-2000
eso	-2001
non	-2002
uia	-2003
▁Ip	-2004
▁re	-2005
abok	-2006
abon	-2007
elyo	-2008
kita	-2009
uasa	-2010
uyto	-2011
uyup	-2012
▁mam	-2013
▁mar	-2014
▁nob	-2015
aptan	-2016
aysay	-2017
pataw	-2018
ugtan	-2019
▁Amen	-2020
▁mapa	-2021
▁suba	-2022
akayun	-2023
alibug	-2024
aturog	-2025
handum	-2026
himoon	-2027
lantaw	-2028
uronod	-2029
▁Ginas	-2030
▁Pagka	-2031
▁tapos	-2032
▁tuduk	-2033
agtonan	-2034
ahangup	-2035
▁manami	-2036
▁pispis	-2037
▁tinday	-2038
▁Bulahan	-2039
▁Iglesia	-2040
▁gintuga	-2041
▁magdara	-2042
▁nabaton	-2043
▁nabilin	-2044
▁nagdara	-2045
▁padayon	-2046
tensyahan	-2047
▁gindakup	-2048
▁hilwayun	-2049
▁magpanaw	-2050
▁nagaistar	-2051
▁sumuronod	-2052
▁nagakadapat	-2053
▁pagpamatuod	-2054
▁katingalahan	-2055
▁ginpakamatarung	-2056
aac	-2057
cia	-2058
ela	-2059
tes	-2060
yas	-2061
▁As	-2062
▁El	-2063
▁un	-2064
aias	-2065
anod	-2066
anta	-2067
aras	-2068
lase	-2069
uang	-2070
ungg	-2071
▁Abi	-2072
▁Nab	-2073
▁gar	-2074
▁per	-2075
Bukun	-2076
bayun	-2077
duman	-2078
hikot	-2079
pihak	-2080
ukman	-2081
untat	-2082
▁Ginh	-2083
▁Lagi	-2084
▁kuno	-2085
▁pung	-2086
▁ubas	-2087
alikod	-2088
dugang	-2089
umpeta	-2090
uyagan	-2091
▁Antio	-2092
▁Dapat	-2093
▁Isaac	-2094
▁Samar	-2095
▁kalag	-2096
▁klase	-2097
▁marah	-2098
adlukan	-2099
anumdum	-2100
usgaran	-2101
▁Isaias	-2102
▁higera	-2103
▁katung	-2104
▁magpas	-2105
▁malulo	-2106
angabuhi	-2107
▁buligan	-2108
▁matunog	-2109
▁minatay	-2110
▁nagagwa	-2111
▁nagahin	-2112
▁napriso	-2113
▁sugidan	-2114
▁ginpabay	-2115
▁nagaabot	-2116
▁magabalik	-2117
▁marahalun	-2118
▁nagasarig	-2119
▁Nagpadayon	-2120
▁magpadayon	-2121
▁makasarang	-2122
▁masarangan	-2123
▁nagaalagad	-2124
▁kahigayonan	-2125
▁katungdanan	-2126
▁magapabilin	-2127
▁nagamasakit	-2128
▁pagpangwali	-2129
▁nagakaratabo	-2130
▁nagaparamati	-2131
,"	-2132
ev	-2133
si	-2134
Kar	-2135
Sir	-2136
upo	-2137
▁Jo	-2138
aano	-2139
abug	-2140
agaw	-2141
amon	-2142
feso	-2143
ihun	-2144
libo	-2145
misa	-2146
ugya	-2147
ukad	-2148
umpa	-2149
▁Nak	-2150
▁hip	-2151
▁sir	-2152
agkul	-2153
aring	-2154
igana	-2155
uksan	-2156
uslan	-2157
uyang	-2158
▁baka	-2159
▁labi	-2160
▁magd	-2161
▁puti	-2162
anagan	-2163
▁nakap	-2164
ahambal	-2165
alupang	-2166
▁ibabaw	-2167
▁kasubu	-2168
▁nagpas	-2169
anakayun	-2170
▁nagapam	-2171
▁sinulat	-2172
akabalaan	-2173
▁banhawun	-2174
▁ginhalad	-2175
▁ginpatay	-2176
▁ginsulat	-2177
▁magakuon	-2178
▁makahimo	-2179
▁nagluhod	-2180
▁nakilala	-2181
▁panganod	-2182
▁trumpeta	-2183
▁ginbanhaw	-2184
▁magabaton	-2185
▁magahalin	-2186
▁malipayun	-2187
▁nagaantos	-2188
▁nagagahum	-2189
▁pagginawi	-2190
▁sumurunod	-2191
▁Manluluwas	-2192
▁mahimayaun	-2193
▁nakakilala	-2194
Na	-2195
no	-2196
apa	-2197
aum	-2198
ego	-2199
gay	-2200
ias	-2201
ito	-2202
mon	-2203
ugm	-2204
▁Ar	-2205
aboy	-2206
apan	-2207
ayaw	-2208
ayun	-2209
empo	-2210
irit	-2211
rupo	-2212
ukud	-2213
urub	-2214
▁Gri	-2215
▁Mel	-2216
▁sal	-2217
angat	-2218
asubu	-2219
atawo	-2220
▁igat	-2221
▁kaun	-2222
▁nagr	-2223
abagay	-2224
aralin	-2225
atipan	-2226
dasyon	-2227
okrito	-2228
patyun	-2229
▁Nagak	-2230
▁baboy	-2231
▁buhok	-2232
▁kalal	-2233
▁utang	-2234
angisun	-2235
▁Griego	-2236
▁kaugut	-2237
▁madura	-2238
ahulogan	-2239
▁butigun	-2240
▁ginapam	-2241
▁itugyan	-2242
▁nagbuul	-2243
agamhanan	-2244
ungtongan	-2245
▁ginlubung	-2246
▁kadurohon	-2247
▁kahulogan	-2248
▁pagdumara	-2249
aranangisun	-2250
entensyahan	-2251
▁Nagparapit	-2252
▁magkalipay	-2253
▁pagahimoon	-2254
▁Paglampuwas	-2255
▁gintugyanan	-2256
:"	-2257
Is	-2258
dun	-2259
esa	-2260
ige	-2261
pos	-2262
Gani	-2263
anap	-2264
apin	-2265
area	-2266
auna	-2267
tung	-2268
▁Lev	-2269
▁Mak	-2270
agwan	-2271
alimb	-2272
aliti	-2273
alung	-2274
apwan	-2275
ingin	-2276
patan	-2277
ugidi	-2278
▁Kuon	-2279
▁buta	-2280
▁main	-2281
▁sara	-2282
aantos	-2283
awayan	-2284
esarea	-2285
inahin	-2286
ugotan	-2287
▁Andut	-2288
▁kalis	-2289
▁likum	-2290
▁mapat	-2291
▁pataw	-2292
▁tabad	-2293
adungug	-2294
agwanta	-2295
istaran	-2296
▁Haring	-2297
▁kaisug	-2298
▁mabuul	-2299
▁magbur	-2300
▁pagtuo	-2301
alimbawa	-2302
▁diosnon	-2303
▁ginapat	-2304
▁hilamon	-2305
▁malawid	-2306
▁nagapat	-2307
▁nahamut	-2308
▁nahauna	-2309
anumbalik	-2310
▁daragkul	-2311
▁intiendi	-2312
▁makasala	-2313
▁mapuslan	-2314
▁Macedonia	-2315
▁Namangkot	-2316
▁ginatuman	-2317
▁hipokrito	-2318
▁magatugro	-2319
▁magpamati	-2320
▁mapatawad	-2321
▁pamangkot	-2322
▁ginapangayo	-2323
▁kalibutanun	-2324
▁nagapadayon	-2325
▁nagpakitluoy	-2326
Si	-2327
uc	-2328
Mat	-2329
aha	-2330
ayu	-2331
uib	-2332
▁Ma	-2333
Naga	-2334
erde	-2335
esto	-2336
ubad	-2337
uray	-2338
uton	-2339
▁Sal	-2340
▁sun	-2341
aanay	-2342
uraan	-2343
uruka	-2344
▁Este	-2345
▁ugar	-2346
akulod	-2347
alinga	-2348
amusta	-2349
higugm	-2350
ropeta	-2351
▁Kadya	-2352
▁karak	-2353
▁nasab	-2354
▁pagka	-2355
▁pagpa	-2356
▁sunod	-2357
▁tanda	-2358
urondan	-2359
urungko	-2360
▁Templo	-2361
▁dungug	-2362
▁gintao	-2363
▁kabayo	-2364
▁nagpat	-2365
▁nagtur	-2366
▁pagkap	-2367
▁pagpam	-2368
▁tinaga	-2369
▁Cesarea	-2370
▁dalanun	-2371
▁ihambal	-2372
▁istorya	-2373
▁kalalat	-2374
▁nagpati	-2375
▁ugaring	-2376
▁ginawali	-2377
▁impyerno	-2378
▁magtuman	-2379
▁makaagto	-2380
▁makakuon	-2381
Makaluluoy	-2382
akamayadun	-2383
▁ginatudlo	-2384
▁ginpamaan	-2385
▁halimbawa	-2386
▁kasawayan	-2387
▁kasingkal	-2388
▁nagahulat	-2389
▁pundasyon	-2390
▁turumanun	-2391
higugmaanay	-2392
▁Pagkaligad	-2393
▁hinadlukan	-2394
▁intiendiha	-2395
▁makahangup	-2396
▁nagapaagto	-2397
▁magapadayon	-2398
▁nagakalipay	-2399
▁nagasinggit	-2400
▁pagkamatuod	-2401
▁pagsurondan	-2402
▁nagatirindug	-2403
▁nagpangamuyo	-2404
▁pagpangamuyo	-2405
▁ginbawtisohan	-2406
Abi	-2407
eon	-2408
gas	-2409
kas	-2410
tag	-2411
ukm	-2412
Pero	-2413
agta	-2414
alig	-2415
amas	-2416
bayo	-2417
into	-2418
iraw	-2419
lina	-2420
ohan	-2421
udio	-2422
▁Cor	-2423
▁Jor	-2424
▁hit	-2425
▁lap	-2426
▁pad	-2427
▁res	-2428
▁tor	-2429
akpun	-2430
amput	-2431
apern	-2432
asahi	-2433
baylo	-2434
elihi	-2435
gabot	-2436
isita	-2437
uyoan	-2438
▁Gina	-2439
▁Himo	-2440
▁dali	-2441
▁ibul	-2442
▁igap	-2443
▁tela	-2444
Tungud	-2445
laglag	-2446
ristar	-2447
▁Ginpa	-2448
▁baryo	-2449
▁pagah	-2450
▁panit	-2451
▁pukot	-2452
▁sagwa	-2453
▁sayup	-2454
alitiko	-2455
anapulo	-2456
asipala	-2457
mandoan	-2458
ungkoan	-2459
▁Matuod	-2460
▁ginpas	-2461
▁hitabo	-2462
▁maabot	-2463
▁mabuhi	-2464
▁magpak	-2465
▁nagahi	-2466
▁pangay	-2467
abawtiso	-2468
apernaum	-2469
irinaway	-2470
▁Esteban	-2471
▁dayawun	-2472
▁ginpain	-2473
▁ginwali	-2474
▁nagaagi	-2475
▁Nabatian	-2476
▁gindayaw	-2477
▁katuyoan	-2478
▁nabutang	-2479
▁nagsugid	-2480
▁ginahalad	-2481
▁ikanapulo	-2482
▁nagasakay	-2483
▁nagasulat	-2484
▁magakabuhi	-2485
▁magpabilin	-2486
▁nagapakita	-2487
▁nagtiripon	-2488
▁paralitiko	-2489
▁nagakaturog	-2490
▁nagapangita	-2491
▁pagkabanhaw	-2492
akamatarungun	-2493
▁pagpakamayad	-2494
▁pagkagamhanan	-2495
hog	-2496
nan	-2497
uub	-2498
was	-2499
▁Ap	-2500
agat	-2501
ahuy	-2502
gawi	-2503
iril	-2504
ptun	-2505
rona	-2506
unot	-2507
upak	-2508
wang	-2509
▁ags	-2510
▁bat	-2511
▁ser	-2512
alaot	-2513
inhun	-2514
ulhog	-2515
▁Kada	-2516
▁Levi	-2517
▁ikap	-2518
▁kaib	-2519
▁lino	-2520
▁pagd	-2521
▁tuyo	-2522
ahalin	-2523
amasco	-2524
amtung	-2525
anakaw	-2526
▁Efeso	-2527
▁Festo	-2528
▁Ginat	-2529
▁magal	-2530
▁mapag	-2531
▁nagag	-2532
▁nobyo	-2533
▁paghi	-2534
abatyag	-2535
▁gawang	-2536
▁lamesa	-2537
▁pagpal	-2538
▁relihi	-2539
▁ubasan	-2540
isiplina	-2541
▁Damasco	-2542
▁Gindara	-2543
▁agsador	-2544
▁aragyan	-2545
▁bakulod	-2546
▁maathag	-2547
▁maghari	-2548
▁matapos	-2549
▁natuman	-2550
▁pagkama	-2551
▁pamatan	-2552
▁paranan	-2553
▁resulta	-2554
▁Naghalin	-2555
▁kaibahan	-2556
▁maduraan	-2557
▁magbulig	-2558
▁magsimba	-2559
▁magsulud	-2560
▁paglapas	-2561
▁pagsarig	-2562
▁pagtahod	-2563
▁panaptun	-2564
▁ginpaagto	-2565
▁gintalana	-2566
▁nagadayaw	-2567
▁naluyagan	-2568
▁paghusgar	-2569
▁Gintugroan	-2570
▁ginpamihak	-2571
▁ginpatawag	-2572
▁magpabugal	-2573
▁nagadumara	-2574
▁Israelinhun	-2575
▁Kinahanglan	-2576
▁nagakabagay	-2577
▁nagatinguha	-2578
▁nagahinamput	-2579
▁nagakahulogan	-2580
ek	-2581
and	-2582
cos	-2583
eri	-2584
ini	-2585
sad	-2586
san	-2587
Amay	-2588
alok	-2589
aput	-2590
asyo	-2591
bato	-2592
dung	-2593
galo	-2594
inap	-2595
indi	-2596
irig	-2597
paun	-2598
tuod	-2599
ugon	-2600
uruy	-2601
▁And	-2602
▁Kun	-2603
▁Nas	-2604
▁pah	-2605
Panaw	-2606
acari	-2607
anaba	-2608
atona	-2609
dumut	-2610
galun	-2611
imaan	-2612
ingub	-2613
intas	-2614
yahun	-2615
▁Kita	-2616
▁Magk	-2617
▁Roma	-2618
▁ikan	-2619
▁nagm	-2620
▁pris	-2621
▁saad	-2622
Pamati	-2623
abihun	-2624
alahun	-2625
atipon	-2626
rimero	-2627
▁Marta	-2628
▁antes	-2629
▁balus	-2630
▁grupo	-2631
▁kabug	-2632
▁parig	-2633
▁tanum	-2634
acarias	-2635
angitan	-2636
irigbun	-2637
▁Jordan	-2638
▁ginsug	-2639
▁nagpam	-2640
▁pamati	-2641
▁regalo	-2642
▁Maestro	-2643
▁Propeta	-2644
▁libayun	-2645
▁palasyo	-2646
▁talinga	-2647
▁magbaton	-2648
▁magsabat	-2649
▁makakaun	-2650
▁naaguman	-2651
▁nagadaba	-2652
▁nagpamat	-2653
▁nagsakay	-2654
▁nagtiner	-2655
▁nagtukad	-2656
▁nasirkom	-2657
▁sinakpan	-2658
istoryahan	-2659
▁kairigbun	-2660
▁prisensya	-2661
▁Makaluluoy	-2662
▁ginpamatay	-2663
▁magburugto	-2664
▁nagpadayon	-2665
▁nagpanudlo	-2666
▁ginhambalan	-2667
▁nagapangulo	-2668
▁paghingabot	-2669
▁ginapasulabi	-2670
▁gintinguhaan	-2671
▁pagpangabuhi	-2672
▁pagpasalamat	-2673
▁pakamatarungun	-2674
▁magpakighilawas	-2675
▁nagakinahanglan	-2676
Ag	-2677
po	-2678
Kag	-2679
sag	-2680
sya	-2681
uis	-2682
▁It	-2683
abog	-2684
aduc	-2685
ahud	-2686
akas	-2687
alam	-2688
ania	-2689
biya	-2690
edek	-2691
etso	-2692
hong	-2693
inun	-2694
isra	-2695
lesi	-2696
unun	-2697
▁lag	-2698
▁reb	-2699
▁sap	-2700
▁sem	-2701
Judio	-2702
Naman	-2703
ahuya	-2704
anias	-2705
atong	-2706
balay	-2707
inais	-2708
lagan	-2709
sulud	-2710
ulung	-2711
yunan	-2712
▁Adan	-2713
▁Asia	-2714
▁Gink	-2715
▁Tito	-2716
▁alas	-2717
▁hukm	-2718
▁idar	-2719
▁ikas	-2720
▁kaig	-2721
▁lamp	-2722
▁pilo	-2723
▁pins	-2724
Matuod	-2725
aduceo	-2726
anabat	-2727
andaan	-2728
anubli	-2729
atonon	-2730
▁balud	-2731
▁barat	-2732
▁buang	-2733
▁kubus	-2734
▁labut	-2735
▁likod	-2736
▁putli	-2737
▁tapay	-2738
alauman	-2739
anagtag	-2740
halinan	-2741
insulto	-2742
resulta	-2743
uisedek	-2744
▁Andres	-2745
▁Natabo	-2746
▁Pagkas	-2747
▁daraga	-2748
▁ginsab	-2749
▁hilway	-2750
▁hinali	-2751
▁kulang	-2752
▁mabugu	-2753
▁madali	-2754
▁malyag	-2755
▁matawo	-2756
▁semana	-2757
▁yahong	-2758
impyohan	-2759
ungganan	-2760
▁Ginpang	-2761
▁Saduceo	-2762
▁ibutang	-2763
▁mabilin	-2764
▁magatoo	-2765
▁pagwali	-2766
▁ginakaun	-2767
▁hukmanan	-2768
▁ipahayag	-2769
▁kaiglesi	-2770
▁mahangpi	-2771
▁nagsulat	-2772
▁nakulang	-2773
▁pagdayaw	-2774
▁pagsulay	-2775
▁pagtiraw	-2776
▁Capernaum	-2777
▁Nagasulat	-2778
▁Pagkakita	-2779
▁ginasunod	-2780
▁masanagan	-2781
▁nagakaigo	-2782
▁nagatudlo	-2783
▁nakabaton	-2784
▁pagkatawo	-2785
▁pungyahun	-2786
▁relihiyon	-2787
▁Nagsinggit	-2788
▁baratangan	-2789
▁ginakilala	-2790
▁ginalauman	-2791
▁ginbuligan	-2792
▁ginhalinan	-2793
▁ginpanudlo	-2794
▁magparapit	-2795
▁nagharalin	-2796
▁kadungganan	-2797
▁nagabaligya	-2798
▁nagpangwali	-2799
▁ginapanghimo	-2800
▁makapahamuut	-2801
▁makapamatuod	-2802
▁nagapalangga	-2803
▁nagapangabay	-2804
▁nagapasalamat	-2805
▁kaiglesiahanan	-2806
oe	-2807
Jes	-2808
din	-2809
fas	-2810
isi	-2811
kus	-2812
olo	-2813
rag	-2814
ras	-2815
uni	-2816
uru	-2817
▁To	-2818
▁il	-2819
▁la	-2820
abil	-2821
alon	-2822
apak	-2823
apus	-2824
idon	-2825
itun	-2826
iwan	-2827
osan	-2828
ripa	-2829
sada	-2830
upad	-2831
utod	-2832
yang	-2833
▁Ump	-2834
▁aso	-2835
▁sab	-2836
▁tir	-2837
Jesus	-2838
aguba	-2839
butig	-2840
dahan	-2841
indis	-2842
itaan	-2843
libot	-2844
ragon	-2845
tanay	-2846
ulnga	-2847
▁Nagb	-2848
▁Ukon	-2849
▁ipad	-2850
▁irim	-2851
▁isla	-2852
▁kaga	-2853
▁magg	-2854
▁obra	-2855
▁sawa	-2856
▁simb	-2857
Nakita	-2858
aliwan	-2859
anugro	-2860
atihan	-2861
atubas	-2862
dalena	-2863
idalum	-2864
inarag	-2865
yaguta	-2866
▁Bukid	-2867
▁Hasta	-2868
▁Rugya	-2869
▁hapon	-2870
▁haros	-2871
▁ikuon	-2872
▁kisra	-2873
▁panaw	-2874
▁pwede	-2875
▁tamun	-2876
▁tinyo	-2877
▁torda	-2878
▁ulang	-2879
alagman	-2880
antayan	-2881
aragway	-2882
asensya	-2883
▁Agripa	-2884
▁Umpisa	-2885
▁bugana	-2886
▁busong	-2887
▁dragon	-2888
▁ginagi	-2889
▁korona	-2890
▁kwarto	-2891
▁maagum	-2892
▁madara	-2893
▁maggwa	-2894
abilonia	-2895
angasubu	-2896
anumduma	-2897
arapitan	-2898
atandaan	-2899
hilwayan	-2900
▁Betania	-2901
▁kaangay	-2902
▁karsada	-2903
▁matutum	-2904
▁nagpili	-2905
▁pagabul	-2906
▁pagataw	-2907
▁tirawan	-2908
▁turukun	-2909
atubangun	-2910
▁Ginakuon	-2911
▁Nagbalik	-2912
▁ipapatay	-2913
▁magsugid	-2914
▁mapakita	-2915
▁mapintas	-2916
▁pagbatas	-2917
▁pagpanaw	-2918
alupangdan	-2919
▁Magdalena	-2920
▁gintigana	-2921
▁ikasarang	-2922
▁nagapuasa	-2923
▁naglapnag	-2924
▁nagturupa	-2925
▁pagkabati	-2926
▁pagkapari	-2927
▁paglantaw	-2928
▁pagpamati	-2929
▁patawarun	-2930
Kinahanglan	-2931
▁ginpanugid	-2932
▁kahilwayan	-2933
▁katalagman	-2934
▁magpanumpa	-2935
▁makaluluoy	-2936
▁nagakatabo	-2937
▁nagasuksok	-2938
▁nagsurunod	-2939
▁sandahanun	-2940
▁ginaistaran	-2941
▁nagapangayo	-2942
▁Nagpamangkot	-2943
a	-2944
▁	-2945
n	-2946
g	-2947
i	-2948
k	-2949
o	-2950
u	-2951
s	-2952
m	-2953
t	-2954
d	-2955
p	-2956
r	-2957
l	-2958
y	-2959
b	-2960
h	-2961
w	-2962
,	-2963
.	-2964
e	-2965
-	-2966
"	-2967
D	-2968
J	-2969
A	-2970
P	-2971
K	-2972
G	-2973
N	-2974
M	-2975
S	-2976
I	-2977
T	-2978
?	-2979
C	-2980
'	-2981
B	-2982
!	-2983
H	-2984
W	-2985
c	-2986
;	-2987
:	-2988
E	-2989
F	-2990
L	-2991
R	-2992
0	-2993
v	-2994
f	-2995
U	-2996
