<unk>	0
<s>	0
</s>	0
an	-0
▁k	-1
ga	-2
▁n	-3
ang	-4
▁m	-5
ag	-6
▁s	-7
in	-8
▁nga	-9
un	-10
▁t	-11
▁p	-12
▁sa	-13
▁ka	-14
▁ang	-15
▁g	-16
▁kang	-17
▁na	-18
ay	-19
ar	-20
on	-21
at	-22
▁d	-23
ak	-24
▁mga	-25
aw	-26
▁kag	-27
▁b	-28
▁gin	-29
al	-30
mo	-31
and	-32
ug	-33
ana	-34
is	-35
ara	-36
ud	-37
to	-38
ya	-39
▁r	-40
▁naga	-41
▁nag	-42
anda	-43
ul	-44
am	-45
yo	-46
as	-47
▁h	-48
ab	-49
ad	-50
▁pag	-51
▁l	-52
id	-53
ro	-54
▁an	-55
▁tana	-56
os	-57
us	-58
▁i	-59
inyo	-60
ta	-61
▁kan	-62
▁j	-63
ung	-64
▁pa	-65
▁dya	-66
es	-67
hi	-68
ap	-69
▁di	-70
▁mag	-71
um	-72
▁man	-73
▁si	-74
▁ak	-75
▁gid	-76
▁dios	-77
awo	-78
wara	-79
anan	-80
▁wara	-81
▁anang	-82
▁tawo	-83
di	-84
▁kamo	-85
ah	-86
aga	-87
▁may	-88
ungud	-89
▁in	-90
▁ti	-91
▁jes	-92
ut	-93
▁run	-94
▁sanda	-95
amo	-96
uk	-97
▁amo	-98
▁kon	-99
▁jesus	-100
ita	-101
uon	-102
ot	-103
▁indi	-104
▁pe	-105
▁ni	-106
▁mak	-107
▁tungud	-108
ig	-109
il	-110
▁ako	-111
▁lang	-112
ala	-113
▁is	-114
▁rug	-115
▁pero	-116
▁ninyo	-117
it	-118
kuon	-119
han	-120
▁hay	-121
▁kana	-122
ani	-123
▁ko	-124
▁maga	-125
ri	-126
lo	-127
▁tanan	-128
▁nagap	-129
▁nanda	-130
bal	-131
▁ginp	-132
▁gani	-133
himo	-134
uga	-135
▁and	-136
ka	-137
▁kaninyo	-138
▁kam	-139
ur	-140
ub	-141
▁akun	-142
▁ik	-143
uo	-144
▁kab	-145
agi	-146
▁par	-147
▁kay	-148
ho	-149
im	-150
ulo	-151
▁bis	-152
▁nagp	-153
ong	-154
li	-155
▁bisan	-156
▁andang	-157
▁inyo	-158
ia	-159
▁kas	-160
ati	-161
ris	-162
▁to	-163
atun	-164
▁nagkuon	-165
ugo	-166
▁nak	-167
ing	-168
ambal	-169
▁para	-170
▁kad	-171
akun	-172
▁magp	-173
▁ikaw	-174
atay	-175
yan	-176
▁sang	-177
▁pagk	-178
▁kananda	-179
▁ag	-180
▁mat	-181
alin	-182
adl	-183
▁pagp	-184
aan	-185
up	-186
anga	-187
eho	-188
cris	-189
cristo	-190
▁kanakun	-191
▁gint	-192
▁ano	-193
utang	-194
▁gino	-195
▁sin	-196
wa	-197
▁agud	-198
▁nags	-199
▁pareho	-200
ali	-201
▁rugto	-202
▁bala	-203
ba	-204
▁sangka	-205
▁nam	-206
imo	-207
▁paagi	-208
▁bay	-209
er	-210
uno	-211
uman	-212
▁buk	-213
▁am	-214
▁ma	-215
uhi	-216
▁paga	-217
▁mayad	-218
ayon	-219
hambal	-220
▁ga	-221
▁bat	-222
▁ginoo	-223
angin	-224
▁nat	-225
▁kar	-226
iri	-227
la	-228
adlaw	-229
▁cristo	-230
▁bukun	-231
▁jud	-232
ugro	-233
ra	-234
▁sino	-235
bot	-236
abat	-237
▁ria	-238
▁kita	-239
em	-240
▁ginap	-241
▁im	-242
▁atun	-243
▁mo	-244
uro	-245
▁kadya	-246
ip	-247
io	-248
ulat	-249
amat	-250
▁adlaw	-251
▁kami	-252
▁butang	-253
el	-254
lan	-255
too	-256
▁bal	-257
▁iba	-258
▁kali	-259
▁isara	-260
en	-261
ukon	-262
▁ukon	-263
una	-264
uw	-265
▁kat	-266
▁judio	-267
▁mas	-268
udlo	-269
ari	-270
▁kun	-271
ugal	-272
▁map	-273
irito	-274
ugid	-275
pirito	-276
▁ispirito	-277
▁dayon	-278
▁gins	-279
▁nagak	-280
angk	-281
apos	-282
utan	-283
▁nahan	-284
▁bata	-285
▁nahanungud	-286
▁kundi	-287
usto	-288
▁gina	-289
▁rugya	-290
▁imo	-291
▁karon	-292
abo	-293
ir	-294
pus	-295
uod	-296
butan	-297
▁nagt	-298
▁kalibutan	-299
▁halin	-300
uh	-301
ik	-302
ran	-303
▁ginb	-304
apat	-305
▁kin	-306
▁mab	-307
ugoan	-308
▁kasugoan	-309
▁mangin	-310
isip	-311
▁ginat	-312
▁nagat	-313
▁dar	-314
▁nagas	-315
▁rugyan	-316
▁kal	-317
▁nagsabat	-318
▁bil	-319
▁daw	-320
▁nakita	-321
awas	-322
unod	-323
ahang	-324
▁nab	-325
akita	-326
▁disip	-327
▁disipulo	-328
hun	-329
yon	-330
ugar	-331
▁ginak	-332
wan	-333
▁pab	-334
▁nap	-335
ingun	-336
▁kaugal	-337
uyo	-338
▁makita	-339
▁kaugalingun	-340
ko	-341
hig	-342
▁tin	-343
▁gusto	-344
halin	-345
gto	-346
inga	-347
uwas	-348
uluo	-349
▁kanimo	-350
og	-351
▁manug	-352
angga	-353
▁bul	-354
ma	-355
awhan	-356
ob	-357
imaw	-358
▁mala	-359
▁balaan	-360
▁duro	-361
▁amay	-362
▁ginhimo	-363
▁li	-364
▁bayi	-365
▁langit	-366
ria	-367
▁pagtoo	-368
▁ip	-369
▁ana	-370
▁imong	-371
▁kabuhi	-372
▁namanan	-373
▁namun	-374
asta	-375
ulud	-376
ugto	-377
▁pagt	-378
pe	-379
▁darwa	-380
pit	-381
▁pagkat	-382
▁ab	-383
▁pin	-384
▁karia	-385
▁natun	-386
atian	-387
▁hasta	-388
hum	-389
▁pul	-390
▁kata	-391
▁dapat	-392
▁lugar	-393
ago	-394
▁pablo	-395
or	-396
kaun	-397
▁pang	-398
ahanglan	-399
▁nas	-400
umuluo	-401
anaw	-402
▁katawhan	-403
angam	-404
▁anak	-405
angkot	-406
pay	-407
▁himo	-408
▁pagkatapos	-409
▁pagh	-410
▁lawas	-411
tang	-412
▁al	-413
▁kinahanglan	-414
yag	-415
dro	-416
▁pro	-417
▁pedro	-418
dum	-419
ugma	-420
arung	-421
ero	-422
arig	-423
▁balay	-424
awa	-425
dug	-426
abot	-427
▁matuod	-428
▁nagakuon	-429
aram	-430
awag	-431
▁mal	-432
▁sam	-433
▁sala	-434
▁amun	-435
hel	-436
▁bar	-437
▁anghel	-438
bat	-439
▁kanatun	-440
eo	-441
dara	-442
▁pags	-443
▁mags	-444
emp	-445
haw	-446
▁magap	-447
▁makap	-448
pusan	-449
aki	-450
▁katapusan	-451
agto	-452
▁haw	-453
uan	-454
▁tion	-455
▁f	-456
▁anay	-457
gan	-458
ayad	-459
▁ginahimo	-460
anag	-461
ulatan	-462
ok	-463
▁pi	-464
ilala	-465
▁maka	-466
angamuyo	-467
way	-468
peta	-469
▁diin	-470
upa	-471
▁juan	-472
▁pagkab	-473
▁bah	-474
ant	-475
yud	-476
akig	-477
anay	-478
▁himoon	-479
▁ginh	-480
▁sur	-481
▁kasulatan	-482
ens	-483
isa	-484
▁it	-485
ubang	-486
▁kato	-487
amaan	-488
▁gintugro	-489
tanan	-490
▁nagk	-491
▁kabay	-492
amangkot	-493
bay	-494
balik	-495
indug	-496
arapit	-497
▁ginah	-498
▁samtang	-499
▁magb	-500
aad	-501
ahan	-502
adara	-503
asala	-504
▁ginakuon	-505
ano	-506
tor	-507
tos	-508
▁propeta	-509
les	-510
ump	-511
▁kada	-512
ea	-513
awan	-514
▁isig	-515
▁bilang	-516
sa	-517
▁mam	-518
pat	-519
agad	-520
▁ginas	-521
unga	-522
▁mar	-523
anudlo	-524
▁gahum	-525
▁tumuluo	-526
▁nagagto	-527
▁gink	-528
▁laki	-529
▁bu	-530
▁liwan	-531
kat	-532
higugma	-533
▁kaimaw	-534
ili	-535
ima	-536
▁mis	-537
▁suno	-538
▁imaw	-539
anhaw	-540
▁mismo	-541
▁as	-542
ungko	-543
atubang	-544
ins	-545
aham	-546
angan	-547
▁pagb	-548
▁nah	-549
▁andut	-550
ih	-551
adluk	-552
▁lupa	-553
▁nagabot	-554
ayaw	-555
usal	-556
▁mad	-557
ugoon	-558
▁magt	-559
akit	-560
▁malaot	-561
erusal	-562
erusalem	-563
bi	-564
uul	-565
▁dyan	-566
▁balita	-567
▁naghalin	-568
akup	-569
emplo	-570
▁isigkat	-571
dan	-572
arian	-573
▁makas	-574
ain	-575
war	-576
▁pulong	-577
ilin	-578
obra	-579
adayon	-580
▁templo	-581
▁jerusalem	-582
▁hin	-583
anday	-584
atayun	-585
wali	-586
▁jesu	-587
▁magk	-588
▁jesucristo	-589
alangga	-590
▁surugoon	-591
atlo	-592
▁sugid	-593
idad	-594
▁lab	-595
ama	-596
iso	-597
uri	-598
▁tatay	-599
▁kamatayun	-600
ayan	-601
ulig	-602
alad	-603
unan	-604
▁nabatian	-605
uruk	-606
▁ban	-607
▁bin	-608
▁bug	-609
yudad	-610
▁syudad	-611
▁e	-612
te	-613
ugtoan	-614
▁matarung	-615
▁kabugtoan	-616
▁naghambal	-617
▁ngaran	-618
ulog	-619
▁tagi	-620
▁mamanan	-621
▁pagabot	-622
man	-623
▁hari	-624
▁kaang	-625
▁sangsa	-626
▁ginkuon	-627
▁kaangtanan	-628
aya	-629
ern	-630
uy	-631
him	-632
▁ig	-633
▁uri	-634
abuhi	-635
▁nagb	-636
▁bilog	-637
tra	-638
▁pan	-639
akamat	-640
▁pagkaun	-641
da	-642
atuo	-643
▁pil	-644
▁taga	-645
atuoran	-646
▁kamatuoran	-647
hil	-648
▁kap	-649
▁una	-650
▁malain	-651
▁sugidan	-652
et	-653
ingg	-654
antos	-655
tar	-656
▁c	-657
▁hambal	-658
▁nangin	-659
▁paghimo	-660
bo	-661
awt	-662
ataan	-663
amatuod	-664
▁kabataan	-665
▁him	-666
awtiso	-667
ingala	-668
▁kanam	-669
▁patay	-670
▁lin	-671
▁dyaay	-672
▁kauna	-673
▁natabo	-674
▁magh	-675
▁sulud	-676
▁gam	-677
amati	-678
aris	-679
mon	-680
▁atubang	-681
ahe	-682
aman	-683
otan	-684
▁alima	-685
▁pangulo	-686
aka	-687
pun	-688
od	-689
away	-690
ahuna	-691
dumara	-692
pon	-693
▁lim	-694
▁sil	-695
ugyan	-696
▁anda	-697
▁apos	-698
▁nimo	-699
alipay	-700
▁aposto	-701
▁tagipus	-702
ahay	-703
ises	-704
▁karn	-705
▁nagah	-706
▁moises	-707
▁kanamun	-708
▁pat	-709
▁daan	-710
▁nagahimo	-711
oon	-712
yong	-713
▁buga	-714
▁pari	-715
▁inyong	-716
▁karnero	-717
▁ginkunan	-718
▁nagapang	-719
amp	-720
lag	-721
apay	-722
ensya	-723
▁bahin	-724
udl	-725
▁sar	-726
▁sul	-727
▁tul	-728
asyon	-729
▁bato	-730
ariseo	-731
▁fariseo	-732
▁magagto	-733
riso	-734
▁bugos	-735
hunahuna	-736
▁ginoong	-737
ayo	-738
apon	-739
▁mah	-740
▁buhi	-741
▁kwar	-742
▁tr	-743
agum	-744
▁tub	-745
▁gindara	-746
ado	-747
▁aw	-748
▁aga	-749
▁har	-750
ahayag	-751
▁ginab	-752
▁nagab	-753
▁tagipusoon	-754
igo	-755
imba	-756
luwas	-757
angkun	-758
▁barat	-759
▁manun	-760
▁paano	-761
▁sobra	-762
uoy	-763
▁bugto	-764
▁tuman	-765
▁nakamaan	-766
ed	-767
gwa	-768
onan	-769
▁abr	-770
▁abraham	-771
▁ginatawag	-772
aas	-773
ros	-774
▁asawa	-775
▁tulad	-776
hon	-777
lun	-778
ura	-779
alik	-780
insar	-781
▁nagd	-782
▁ginpa	-783
▁nagad	-784
▁sapat	-785
me	-786
ador	-787
▁pis	-788
▁ginpang	-789
pan	-790
▁awtor	-791
▁banwa	-792
▁awtoridad	-793
▁nagahambal	-794
ahuw	-795
asal	-796
▁dal	-797
▁mapatay	-798
▁nagatoo	-799
▁manunudlo	-800
rael	-801
▁tama	-802
angayo	-803
unggan	-804
▁nanay	-805
uud	-806
yun	-807
▁abi	-808
▁bago	-809
▁pito	-810
umpisa	-811
▁tatlo	-812
▁kwarta	-813
gam	-814
emon	-815
▁bayo	-816
▁kros	-817
▁makab	-818
▁israel	-819
▁mangga	-820
▁o	-821
uli	-822
▁pir	-823
▁ulo	-824
▁raad	-825
▁maria	-826
▁simon	-827
asa	-828
uya	-829
▁ay	-830
baton	-831
▁tubig	-832
▁mahimo	-833
▁sanday	-834
▁gal	-835
inguh	-836
yagun	-837
abilin	-838
▁pulos	-839
usga	-840
▁kah	-841
▁sugo	-842
ahuway	-843
▁parte	-844
inggit	-845
▁magat	-846
▁baratyagun	-847
▁panghunahuna	-848
kot	-849
▁da	-850
▁ib	-851
alag	-852
uhay	-853
danan	-854
arigun	-855
▁bahul	-856
▁sarang	-857
ac	-858
ato	-859
▁lam	-860
▁dugo	-861
▁nagh	-862
▁kasal	-863
asalamat	-864
▁magabot	-865
▁ginpamangkot	-866
bii	-867
▁es	-868
▁pw	-869
agay	-870
a	-871
▁	-872
n	-873
g	-874
i	-875
k	-876
o	-877
u	-878
s	-879
m	-880
t	-881
d	-882
p	-883
r	-884
l	-885
y	-886
b	-887
h	-888
w	-889
e	-890
j	-891
c	-892
f	-893
