<unk>	0
<s>	0
</s>	0
an	-0
▁k	-1
on	-2
▁t	-3
▁n	-4
▁i	-5
▁no	-6
▁to	-7
▁ko	-8
in	-9
▁d	-10
▁id	-11
▁m	-12
▁p	-13
oy	-14
▁s	-15
os	-16
ot	-17
iy	-18
od	-19
▁r	-20
ad	-21
un	-22
am	-23
and	-24
▁w	-25
▁idd	-26
▁po	-27
▁si	-28
▁od	-29
go	-30
en	-31
ow	-32
▁woy	-33
▁kos	-34
▁mgo	-35
▁iddos	-36
aa	-37
▁l	-38
▁a	-39
is	-40
▁b	-41
uw	-42
iyot	-43
▁M	-44
as	-45
it	-46
ang	-47
▁sik	-48
▁D	-49
ak	-50
ay	-51
add	-52
at	-53
▁kod	-54
andin	-55
om	-56
▁en	-57
ung	-58
um	-59
id	-60
▁tadd	-61
ama	-62
vu	-63
ah	-64
ok	-65
ong	-66
▁nod	-67
onn	-68
▁N	-69
▁Mon	-70
ll	-71
inu	-72
or	-73
▁in	-74
▁Monama	-75
▁pom	-76
aw	-77
▁ku	-78
ru	-79
▁taddot	-80
gg	-81
▁din	-82
inuvu	-83
isas	-84
20	-85
#8	-86
9;	-87
&#8	-88
209;	-89
&#8209;	-90
▁P	-91
▁Disas	-92
▁sikandin	-93
▁diyot	-94
▁su	-95
op	-96
▁minuvu	-97
▁Na	-98
▁rin	-99
uwon	-100
▁I	-101
▁am	-102
▁"	-103
▁riyot	-104
▁ni	-105
▁ki	-106
ud	-107
andan	-108
uu	-109
▁kow	-110
▁ka	-111
iyu	-112
kit	-113
iru	-114
ko	-115
onna	-116
ing	-117
li	-118
▁K	-119
ta	-120
▁kop	-121
uma	-122
▁lang	-123
iyon	-124
▁dan	-125
▁u	-126
▁idda	-127
ahi	-128
▁S	-129
▁waa	-130
oll	-131
▁ran	-132
▁mand	-133
▁kon	-134
ar	-135
▁amoy	-136
▁ta	-137
▁pon	-138
ling	-139
bb	-140
▁pomon	-141
▁O	-142
▁mandad	-143
akoy	-144
▁duwon	-145
▁langun	-146
."	-147
▁mid	-148
▁konna	-149
▁J	-150
▁Id	-151
okk	-152
had	-153
uung	-154
ut	-155
ogg	-156
▁kandin	-157
▁pa	-158
▁row	-159
▁Piru	-160
▁koniyu	-161
▁ing	-162
im	-163
▁sikandan	-164
▁kot	-165
et	-166
▁dow	-167
ik	-168
il	-169
awa	-170
▁ahad	-171
og	-172
▁ik	-173
hu	-174
▁un	-175
▁mo	-176
▁ron	-177
▁nok	-178
▁kodd	-179
▁dos	-180
▁A	-181
okkad	-182
▁duma	-183
ag	-184
▁di	-185
opp	-186
▁don	-187
anan	-188
▁W	-189
angan	-190
yy	-191
eng	-192
omakoy	-193
ov	-194
▁pok	-195
▁puung	-196
ond	-197
ayan	-198
us	-199
ungk	-200
kita	-201
▁man	-202
▁T	-203
▁g	-204
▁o	-205
▁Su	-206
iyan	-207
▁ikahi	-208
uwan	-209
▁os	-210
onaw	-211
▁koddi	-212
ga	-213
▁ot	-214
oh	-215
▁L	-216
obb	-217
▁iling	-218
▁kodp	-219
es	-220
▁De	-221
▁ukit	-222
agg	-223
ug	-224
▁mok	-225
ul	-226
ur	-227
▁kandan	-228
▁pos	-229
ray	-230
oyy	-231
▁ond	-232
▁sokkad	-233
▁Jud	-234
▁tod	-235
anon	-236
▁toh	-237
tag	-238
aan	-239
▁so	-240
rays	-241
▁Woy	-242
▁Krays	-243
▁nid	-244
uh	-245
▁an	-246
▁atag	-247
io	-248
pu	-249
▁mor	-250
▁tadda	-251
▁ba	-252
ir	-253
kow	-254
▁Oyy	-255
▁dii	-256
oli	-257
▁ini	-258
▁tim	-259
up	-260
▁bogg	-261
eta	-262
▁oyy	-263
▁Judio	-264
▁da	-265
ongn	-266
▁moka	-267
udt	-268
odd	-269
▁und	-270
▁ingod	-271
▁puungan	-272
▁or	-273
aggon	-274
ongaggon	-275
llow	-276
sa	-277
▁ungk	-278
iv	-279
eten	-280
▁oseng	-281
▁pong	-282
inog	-283
all	-284
▁piru	-285
bp	-286
▁du	-287
▁To	-288
▁nos	-289
le	-290
▁anak	-291
uwa	-292
ollan	-293
onnaa	-294
▁poko	-295
▁kopomakoy	-296
ungan	-297
inawa	-298
▁nonaw	-299
uman	-300
tan	-301
▁ungketen	-302
▁Longaggon	-303
lo	-304
yon	-305
oo	-306
udtuu	-307
▁diyon	-308
▁oyyos	-309
▁por	-310
▁tohod	-311
atoy	-312
▁allow	-313
er	-314
▁kahi	-315
▁timpu	-316
orollan	-317
▁saa	-318
uk	-319
▁kah	-320
▁mopp	-321
iya	-322
atag	-323
▁iko	-324
▁tav	-325
▁ra	-326
▁koy	-327
▁Idd	-328
▁um	-329
▁ay	-330
ilangan	-331
ed	-332
iyod	-333
anoy	-334
▁kopi	-335
▁Mo	-336
▁pinu	-337
▁pinuungan	-338
utun	-339
▁inguma	-340
ab	-341
ig	-342
ongnga	-343
ari	-344
▁tin	-345
han	-346
▁Is	-347
▁pop	-348
▁sikiyu	-349
oww	-350
▁otik	-351
▁nop	-352
▁lam	-353
▁boggoy	-354
▁riyon	-355
uwod	-356
▁poom	-357
addoo	-358
▁noko	-359
pomakoy	-360
▁nokita	-361
und	-362
dom	-363
ant	-364
▁ginawa	-365
▁ru	-366
▁ondoy	-367
gap	-368
ol	-369
aman	-370
▁pomakoy	-371
al	-372
▁U	-373
▁pe	-374
▁pompomakoy	-375
eru	-376
itu	-377
▁'	-378
▁amp	-379
▁kikow	-380
aran	-381
▁morat	-382
odduwan	-383
▁tinodduwan	-384
ip	-385
▁ponudtuu	-386
▁tom	-387
▁ondan	-388
ont	-389
▁kor	-390
▁bu	-391
▁ampow	-392
▁moppiya	-393
pak	-394
ggu	-395
▁Od	-396
ap	-397
▁suwod	-398
▁Kah	-399
▁ponguu	-400
olihan	-401
uwis	-402
el	-403
▁mos	-404
▁Oyyos	-405
▁undiyon	-406
▁kov	-407
▁ip	-408
ivu	-409
▁doy	-410
▁bon	-411
▁bonuwa	-412
iyak	-413
nan	-414
anggap	-415
▁oll	-416
▁taman	-417
pas	-418
otayan	-419
▁nik	-420
▁ur	-421
▁int	-422
▁keta	-423
atas	-424
omanan	-425
▁Suhu	-426
▁Oyya	-427
pir	-428
▁tavak	-429
akko	-430
▁iyon	-431
▁lawa	-432
piritu	-433
▁langit	-434
▁ikoh	-435
▁im	-436
?"	-437
uus	-438
ro	-439
ali	-440
▁wa	-441
▁kopiyan	-442
ovot	-443
▁otid	-444
▁ollog	-445
ablo	-446
▁Pablo	-447
▁Ispiritu	-448
bpa	-449
moy	-450
▁Dos	-451
ulat	-452
▁boll	-453
▁waad	-454
his	-455
ya	-456
▁An	-457
▁nor	-458
iling	-459
▁dakko	-460
▁B	-461
Id	-462
▁v	-463
ohin	-464
▁nokos	-465
▁Mid	-466
▁not	-467
ises	-468
▁Moises	-469
▁lampas	-470
oss	-471
ungkay	-472
av	-473
▁iddon	-474
▁pokita	-475
▁suhu	-476
bbot	-477
▁poomdom	-478
allan	-479
▁datas	-480
edro	-481
oong	-482
▁kowd	-483
ba	-484
ia	-485
iyun	-486
▁Pedro	-487
▁mandon	-488
▁Amoy	-489
ahan	-490
hari	-491
▁tomanon	-492
isu	-493
▁Kahi	-494
▁norinog	-495
.'	-496
▁poron	-497
ami	-498
▁Nos	-499
▁nov	-500
▁diid	-501
▁is	-502
ayun	-503
▁pr	-504
▁patoy	-505
▁kokita	-506
▁mot	-507
▁baoy	-508
onnaan	-509
oobb	-510
▁pokop	-511
eo	-512
ins	-513
ovallan	-514
▁koniyun	-515
asan	-516
opongnga	-517
gor	-518
▁tid	-519
▁taddon	-520
ggua	-521
▁y	-522
ani	-523
▁Uhis	-524
allong	-525
amb	-526
ora	-527
▁Ot	-528
▁posiv	-529
kon	-530
yan	-531
onnan	-532
ita	-533
inogg	-534
uusan	-535
▁kodt	-536
▁E	-537
▁konn	-538
▁siyak	-539
goranan	-540
▁kotuusan	-541
lat	-542
akup	-543
ubpa	-544
▁mon	-545
▁inis	-546
na	-547
▁Ju	-548
▁sil	-549
▁Anak	-550
▁dum	-551
oseng	-552
▁ponayun	-553
▁moh	-554
▁kodb	-555
gow	-556
▁ngoranan	-557
▁Juan	-558
▁ponolihan	-559
▁oray	-560
aom	-561
▁bo	-562
vuung	-563
▁Mopp	-564
▁hari	-565
▁yo	-566
▁Nopongnga	-567
ipon	-568
▁Waa	-569
aay	-570
▁kun	-571
▁Iddos	-572
▁sakup	-573
ohinat	-574
▁silut	-575
▁vo	-576
▁ng	-577
▁pod	-578
▁toho	-579
owan	-580
▁sulat	-581
lem	-582
▁sim	-583
▁koru	-584
oom	-585
ontong	-586
nonaw	-587
ovottan	-588
huk	-589
anow	-590
ubb	-591
ugaa	-592
▁roy	-593
▁osengan	-594
erusa	-595
erusalem	-596
▁boggayan	-597
▁nosorollan	-598
buwis	-599
▁rutun	-600
▁Jerusalem	-601
ra	-602
▁kotomanan	-603
asaa	-604
ungud	-605
▁nokod	-606
▁kotungud	-607
▁kopotayan	-608
noy	-609
▁aam	-610
▁isoww	-611
▁ikohiyan	-612
▁nanoy	-613
em	-614
▁G	-615
awang	-616
▁H	-617
ungg	-618
aggun	-619
▁lugaa	-620
▁isowwan	-621
!"	-622
▁de	-623
▁In	-624
owwet	-625
▁intud	-626
▁koovottan	-627
non	-628
uy	-629
▁wor	-630
▁dutun	-631
andu	-632
▁dangan	-633
mu	-634
aayun	-635
okita	-636
▁bus	-637
▁kom	-638
opeta	-639
▁pokot	-640
Yo	-641
asa	-642
alig	-643
▁simba	-644
▁unayan	-645
nd	-646
aroy	-647
omon	-648
ongng	-649
urisu	-650
inoggan	-651
▁propeta	-652
uun	-653
▁dad	-654
now	-655
▁popiyod	-656
▁Kahin	-657
▁C	-658
▁kud	-659
uhawang	-660
▁Dinoggan	-661
▁Moppiyon	-662
▁ap	-663
▁bov	-664
hukum	-665
▁ipat	-666
▁tohodbuwis	-667
▁Kahit	-668
▁Nosulat	-669
▁Iyon	-670
▁piyod	-671
▁Purisu	-672
upit	-673
▁sawa	-674
ohod	-675
▁inin	-676
▁kohu	-677
▁tap	-678
Idd	-679
adnow	-680
▁Konna	-681
▁inaayun	-682
▁uu	-683
▁kok	-684
▁moho	-685
▁Duwon	-686
▁kodpos	-687
▁oruwon	-688
olivuung	-689
liv	-690
lug	-691
vag	-692
ulon	-693
lugan	-694
aabbot	-695
▁bollad	-696
▁kohulugan	-697
eleng	-698
▁konami	-699
▁mowwet	-700
unggeleng	-701
ikahi	-702
upittan	-703
kk	-704
uwot	-705
obbus	-706
▁Idda	-707
▁tanan	-708
au	-709
▁liv	-710
▁pot	-711
oruma	-712
▁bonnaan	-713
▁Sik	-714
▁tem	-715
uraan	-716
uungan	-717
▁busow	-718
atu	-719
pit	-720
insya	-721
▁kods	-722
▁dakkoo	-723
▁sikkow	-724
▁tavang	-725
awoy	-726
▁tig	-727
antug	-728
▁dasaa	-729
▁bot	-730
▁mama	-731
▁umpak	-732
onudtuu	-733
▁silutan	-734
plo	-735
▁templo	-736
▁nikandin	-737
▁kosorollan	-738
▁nokosaddoo	-739
br	-740
ongo	-741
inowan	-742
▁pokos	-743
▁oraroy	-744
lin	-745
▁Si	-746
Iddos	-747
▁Pomon	-748
▁livod	-749
▁il	-750
awan	-751
oggot	-752
▁bonnaa	-753
bang	-754
▁tapoy	-755
ost	-756
uraa	-757
▁Otik	-758
▁kodg	-759
▁kopiyannoy	-760
▁aw	-761
▁le	-762
onug	-763
utis	-764
▁kahaa	-765
ubbaran	-766
Od	-767
▁kahit	-768
▁konnod	-769
sad	-770
uran	-771
uwoy	-772
▁lamm	-773
▁livu	-774
▁koubbaran	-775
ahaa	-776
onnu	-777
00	-778
ub	-779
▁ow	-780
oles	-781
▁daom	-782
▁apost	-783
▁umuun	-784
▁apostoles	-785
opi	-786
itan	-787
▁uripon	-788
▁dakkoon	-789
omp	-790
angk	-791
eton	-792
▁sop	-793
▁dumon	-794
ern	-795
▁ad	-796
▁sud	-797
undau	-798
▁sundau	-799
▁nosokkad	-800
tu	-801
ini	-802
ilaa	-803
ukit	-804
angay	-805
▁ikuu	-806
▁keton	-807
▁pominog	-808
▁moppiyon	-809
▁motallong	-810
angoy	-811
oomdom	-812
▁oubpa	-813
▁ngaran	-814
si	-815
har	-816
man	-817
▁go	-818
▁kid	-819
▁umuu	-820
▁koddin	-821
▁timbang	-822
▁poomatoy	-823
aas	-824
aham	-825
▁buy	-826
harit	-827
▁kovu	-828
▁oyya	-829
▁leggua	-830
▁Abr	-831
ivuyan	-832
▁porani	-833
▁Abraham	-834
▁Moivuyan	-835
la	-836
▁na	-837
uhan	-838
▁nokop	-839
▁tuman	-840
▁ipanow	-841
▁lolivuung	-842
eg	-843
ero	-844
lib	-845
suh	-846
▁lom	-847
suhuwon	-848
unggelengan	-849
ossa	-850
▁batu	-851
goling	-852
osoobb	-853
▁doong	-854
ongngan	-855
▁ingkon	-856
▁kodpuung	-857
▁kodginawa	-858
rus	-859
▁inoy	-860
▁iddot	-861
▁mokos	-862
▁worad	-863
▁posaddoo	-864
▁sudsuhuwon	-865
▁mokososoobb	-866
▁R	-867
ump	-868
▁Ko	-869
▁Par	-870
orinog	-871
▁soopi	-872
▁tandu	-873
▁mooggot	-874
ng	-875
iseo	-876
▁kodharit	-877
▁posivonnaa	-878
ob	-879
aakk	-880
nero	-881
ambot	-882
▁Pariseo	-883
▁ginowan	-884
▁kotuman	-885
▁notomanan	-886
ohok	-887
▁krus	-888
▁buwis	-889
▁livuta	-890
▁koka	-891
utismu	-892
▁bollangay	-893
▁lo	-894
uhoy	-895
▁tong	-896
▁unna	-897
▁laggun	-898
▁ikohiyon	-899
wan	-900
▁tr	-901
▁nokot	-902
▁ponunggelengan	-903
▁pole	-904
▁tohodnonaw	-905
ii	-906
ma	-907
tra	-908
▁kovuyy	-909
▁ooseng	-910
edd	-911
arat	-912
▁lohinat	-913
amon	-914
golingun	-915
▁puhawang	-916
▁on	-917
▁Nok	-918
▁apu	-919
livod	-920
ollun	-921
inguma	-922
▁kovuyyahan	-923
▁kil	-924
gowoll	-925
vonnaa	-926
▁kahaan	-927
otallong	-928
▁ingowoll	-929
▁Kod	-930
▁rad	-931
▁oweg	-932
ea	-933
mit	-934
▁imotayan	-935
oma	-936
tun	-937
ahon	-938
osso	-939
▁kotu	-940
▁pomb	-941
▁mosalig	-942
bpor	-943
▁apuy	-944
▁Tohod	-945
bporoong	-946
ata	-947
ayu	-948
mon	-949
▁kog	-950
oggoy	-951
▁korot	-952
▁panoy	-953
▁baling	-954
▁monokk	-955
▁kosupittan	-956
▁Yo	-957
▁as	-958
unoy	-959
▁kad	-960
▁pit	-961
iraom	-962
uppit	-963
ongossa	-964
▁ingowollon	-965
awon	-966
ista	-967
▁eru	-968
▁mop	-969
▁tobb	-970
▁kotanggap	-971
▁ginowannan	-972
opa	-973
▁li	-974
▁us	-975
atan	-976
▁sin	-977
▁moraom	-978
uvag	-979
▁Mes	-980
▁tov	-981
▁osengon	-982
Sik	-983
linis	-984
oppat	-985
▁Gali	-986
▁ossa	-987
▁supak	-988
▁dumoruma	-989
▁korotuwan	-990
iyas	-991
ndan	-992
uopa	-993
▁kin	-994
▁konnad	-995
▁Mesiyas	-996
Na	-997
hus	-998
lea	-999
rub	-1000
▁ti	-1001
llak	-1002
▁Ahad	-1003
▁Otid	-1004
▁prub	-1005
libmit	-1006
▁prubinsya	-1007
ac	-1008
▁pus	-1009
ondit	-1010
▁Minuvu	-1011
obbo	-1012
▁baw	-1013
osson	-1014
▁kahin	-1015
▁lammin	-1016
▁mosaas	-1017
▁pusung	-1018
▁undini	-1019
oobbuwan	-1020
▁kodponudtuu	-1021
▁e	-1022
gya	-1023
▁Pon	-1024
among	-1025
▁kayu	-1026
oligya	-1027
▁Diyot	-1028
outismu	-1029
to	-1030
lli	-1031
uyy	-1032
rael	-1033
antoy	-1034
▁kodpo	-1035
▁Israel	-1036
▁Galilea	-1037
umb	-1038
onni	-1039
ulan	-1040
▁Ini	-1041
▁ayu	-1042
▁kar	-1043
ubern	-1044
▁paan	-1045
gguang	-1046
ovotasan	-1047
▁nopongnga	-1048
ott	-1049
▁se	-1050
aria	-1051
ggat	-1052
▁Roma	-1053
▁onsi	-1054
insyan	-1055
▁ilangan	-1056
ugolingun	-1057
▁longossa	-1058
▁kovonnaan	-1059
▁kodbovotasan	-1060
amat	-1061
uyag	-1062
▁bin	-1063
▁mol	-1064
olloy	-1065
labbot	-1066
▁sopuu	-1067
▁siketa	-1068
▁Monamon	-1069
▁tanggap	-1070
ias	-1071
ayon	-1072
▁dok	-1073
▁kan	-1074
angkap	-1075
asanon	-1076
▁Iddon	-1077
▁Maria	-1078
▁pista	-1079
▁kodpong	-1080
▁kodlivod	-1081
▁botasanon	-1082
bpit	-1083
ilat	-1084
isok	-1085
▁angoy	-1086
▁ponudt	-1087
Ot	-1088
Waa	-1089
hes	-1090
ook	-1091
unga	-1092
▁maan	-1093
▁usok	-1094
addook	-1095
▁uraan	-1096
osaddoo	-1097
▁binovallan	-1098
▁pokotanggap	-1099
ni	-1100
ava	-1101
uli	-1102
avid	-1103
inuh	-1104
orat	-1105
▁David	-1106
▁nongo	-1107
Longaggon	-1108
▁bay	-1109
olamat	-1110
▁unsad	-1111
onganon	-1112
▁pittun	-1113
onnaavonnaa	-1114
.'"	-1115
ina	-1116
ukut	-1117
ilato	-1118
▁init	-1119
▁bawos	-1120
▁duwot	-1121
▁lomig	-1122
▁Laggun	-1123
▁Pilato	-1124
aang	-1125
ahat	-1126
imot	-1127
osiv	-1128
▁Her	-1129
▁kodl	-1130
▁disok	-1131
umus	-1132
▁koh	-1133
tulon	-1134
▁ling	-1135
▁nikiyu	-1136
▁ungkay	-1137
amm	-1138
▁ma	-1139
ahun	-1140
▁Sim	-1141
ottan	-1142
oruwon	-1143
▁Allow	-1144
▁allak	-1145
▁lahun	-1146
▁ruwot	-1147
▁Sokkad	-1148
olli	-1149
▁oss	-1150
▁uli	-1151
▁pokod	-1152
▁kogahan	-1153
▁dokollan	-1154
▁kodtuman	-1155
aabbotlabbot	-1156
inom	-1157
irom	-1158
▁log	-1159
ukirom	-1160
▁Herod	-1161
lingasa	-1162
▁kotuig	-1163
▁doongon	-1164
eli	-1165
▁me	-1166
alan	-1167
▁Jos	-1168
▁lim	-1169
iyodd	-1170
▁daan	-1171
ohiyan	-1172
▁osawa	-1173
umannan	-1174
uyyahon	-1175
▁karnero	-1176
▁nangkap	-1177
▁kinohiyan	-1178
▁pombuyyahon	-1179
lig	-1180
▁ar	-1181
alit	-1182
utud	-1183
▁Mgo	-1184
akpak	-1185
▁bulli	-1186
▁butud	-1187
▁ibpit	-1188
▁unnon	-1189
umpalit	-1190
▁molibmit	-1191
ador	-1192
iyat	-1193
ohon	-1194
aakkan	-1195
▁dahat	-1196
▁lonug	-1197
▁oppat	-1198
▁kuntra	-1199
▁monama	-1200
▁saddook	-1201
ubernador	-1202
▁kosolihan	-1203
▁kovovallan	-1204
amp	-1205
unt	-1206
bpan	-1207
▁som	-1208
uripon	-1209
▁kodpot	-1210
▁dontulon	-1211
▁posivont	-1212
000	-1213
uvu	-1214
▁ul	-1215
▁000	-1216
tohon	-1217
▁Iling	-1218
onnanap	-1219
▁morani	-1220
▁inturan	-1221
▁monnanap	-1222
▁mosaasaa	-1223
▁mosukirom	-1224
▁nokorinog	-1225
▁nopuungan	-1226
▁amu	-1227
▁kam	-1228
▁dinit	-1229
▁kodhukum	-1230
▁kotobbus	-1231
▁Nosorollan	-1232
▁kopiyannan	-1233
oka	-1234
awwan	-1235
ohokan	-1236
uliyan	-1237
umusta	-1238
unayan	-1239
▁Simon	-1240
▁oruwa	-1241
▁osson	-1242
ilonganon	-1243
▁pobporoong	-1244
ic	-1245
ngk	-1246
irut	-1247
▁mata	-1248
▁sobb	-1249
▁Muopa	-1250
konayan	-1251
ngketen	-1252
▁buawan	-1253
▁Herodes	-1254
▁nikandan	-1255
▁nosoobbuwan	-1256
ivig	-1257
usan	-1258
▁boy	-1259
lonug	-1260
▁asow	-1261
▁buyu	-1262
▁podm	-1263
▁hukum	-1264
▁sondit	-1265
boutismu	-1266
▁intirut	-1267
▁molitan	-1268
▁nokokita	-1269
▁posolamat	-1270
▁kodposuppit	-1271
anu	-1272
awi	-1273
▁bos	-1274
owora	-1275
undug	-1276
▁gedd	-1277
▁moom	-1278
▁ubpa	-1279
voggoy	-1280
vungan	-1281
▁lihad	-1282
▁nahaa	-1283
▁otollun	-1284
▁Sikandin	-1285
▁pokokita	-1286
▁worowora	-1287
▁mokososoobbu	-1288
nu	-1289
ila	-1290
alon	-1291
ambo	-1292
▁awa	-1293
▁Siyak	-1294
▁pomok	-1295
▁pakpak	-1296
▁komunoy	-1297
▁Ungketen	-1298
▁kosunayan	-1299
▁tigkonayan	-1300
Ko	-1301
yu	-1302
oro	-1303
▁ong	-1304
▁Jose	-1305
▁inom	-1306
▁ponl	-1307
▁sikami	-1308
▁tohodt	-1309
▁sobbangan	-1310
arin	-1311
tong	-1312
▁pov	-1313
▁aang	-1314
▁pris	-1315
▁kodsa	-1316
▁kowanan	-1317
▁molinis	-1318
▁komotallong	-1319
Oyy	-1320
▁ub	-1321
▁pons	-1322
obbava	-1323
omonnu	-1324
▁kouhoy	-1325
▁buyuwon	-1326
▁mokososoobbun	-1327
sau	-1328
uug	-1329
▁No	-1330
▁aa	-1331
▁lov	-1332
▁ayas	-1333
▁logl	-1334
▁noka	-1335
▁kodsalig	-1336
▁pomonnan	-1337
▁posupittan	-1338
ilu	-1339
int	-1340
lle	-1341
ilow	-1342
▁elle	-1343
▁pobb	-1344
oniyan	-1345
▁Judas	-1346
▁bayad	-1347
▁bovaa	-1348
orattan	-1349
▁podtohon	-1350
▁posinsyan	-1351
▁sinorollan	-1352
▁paabbotlabbot	-1353
pp	-1354
aap	-1355
Oyya	-1356
akit	-1357
amag	-1358
atin	-1359
▁ton	-1360
▁lumb	-1361
▁tivu	-1362
leggua	-1363
oomman	-1364
▁Judea	-1365
▁undiy	-1366
undiyot	-1367
uwonnan	-1368
▁kilaan	-1369
▁poleggua	-1370
▁koroniyan	-1371
▁nokaabbot	-1372
aha	-1373
▁Sa	-1374
▁sa	-1375
Otik	-1376
▁pat	-1377
Ondan	-1378
▁sugg	-1379
▁Harin	-1380
▁bivig	-1381
▁tivuk	-1382
umoruma	-1383
undiyon	-1384
▁kaamag	-1385
▁prisuwan	-1386
▁tovangan	-1387
▁tohodtamong	-1388
vang	-1389
Tohod	-1390
addan	-1391
ubbad	-1392
▁ruwon	-1393
umannon	-1394
▁bovallan	-1395
▁kolingasa	-1396
▁lovongngan	-1397
▁polegguang	-1398
aya	-1399
unu	-1400
ahad	-1401
ilon	-1402
ollu	-1403
▁poh	-1404
▁tum	-1405
unsad	-1406
▁Ukit	-1407
▁isau	-1408
▁lopp	-1409
Mambot	-1410
inuhon	-1411
ooseng	-1412
▁kamot	-1413
▁patow	-1414
▁pongk	-1415
▁trunu	-1416
▁imatoy	-1417
▁langot	-1418
▁tumanon	-1419
▁kodposiv	-1420
▁novantug	-1421
▁kopuungan	-1422
oos	-1423
ulo	-1424
▁oy	-1425
uhon	-1426
▁lin	-1427
▁lobb	-1428
ukitan	-1429
▁morin	-1430
▁rinit	-1431
▁ubpan	-1432
▁boligya	-1433
▁botasan	-1434
▁kopiyod	-1435
▁monokkaa	-1436
Tohodnonaw	-1437
▁kodponguu	-1438
▁monokkaan	-1439
,'	-1440
pe	-1441
▁la	-1442
anti	-1443
usok	-1444
▁bod	-1445
▁bow	-1446
▁imm	-1447
▁aman	-1448
▁uraa	-1449
▁uvag	-1450
oppiya	-1451
▁bohok	-1452
▁bonni	-1453
▁sakoy	-1454
onduwoy	-1455
▁kotomp	-1456
▁pokosawoy	-1457
▁popoomdom	-1458
lu	-1459
▁om	-1460
amin	-1461
imba	-1462
▁Eli	-1463
▁mov	-1464
▁dowd	-1465
▁inoyy	-1466
iluggat	-1467
▁mambot	-1468
▁piyodd	-1469
▁tigkow	-1470
▁tonggap	-1471
▁undiyonnan	-1472
eb	-1473
Ini	-1474
▁suk	-1475
aakki	-1476
kanoy	-1477
onnow	-1478
oruwa	-1479
▁Inin	-1480
okilaa	-1481
▁dobbo	-1482
▁oyama	-1483
▁salig	-1484
▁sugga	-1485
▁aangat	-1486
▁nikkow	-1487
▁pomuwa	-1488
▁Moppiya	-1489
▁kopongnga	-1490
▁nokopuung	-1491
▁kororattan	-1492
iago	-1493
lang	-1494
uhis	-1495
uhus	-1496
▁Kar	-1497
onnal	-1498
▁Sant	-1499
▁poli	-1500
imoteo	-1501
▁lingko	-1502
▁lubbad	-1503
▁nouhoy	-1504
▁puungi	-1505
▁Timoteo	-1506
▁nosulat	-1507
▁pokotav	-1508
▁Santiago	-1509
▁novadnow	-1510
▁poohinat	-1511
▁kotompusan	-1512
ayoy	-1513
ukuy	-1514
▁amm	-1515
▁tad	-1516
angun	-1517
elipe	-1518
▁Bern	-1519
▁soro	-1520
▁umow	-1521
▁pehes	-1522
▁pobbo	-1523
▁kulang	-1524
ohinonaw	-1525
oomdomma	-1526
▁Karnero	-1527
hip	-1528
anna	-1529
risu	-1530
▁vos	-1531
Duwon	-1532
okkaa	-1533
ossan	-1534
▁buhis	-1535
▁tohodp	-1536
▁uliyan	-1537
▁kodhari	-1538
▁kolonug	-1539
▁nokilaa	-1540
▁tonanan	-1541
▁Nokosaddoo	-1542
▁posivontuhan	-1543
▁kodpotonduwoy	-1544
ana	-1545
ene	-1546
ndoy	-1547
▁gut	-1548
▁sos	-1549
Konna	-1550
Siyak	-1551
ampas	-1552
suwoy	-1553
osuran	-1554
▁Natin	-1555
▁ganti	-1556
▁oukuy	-1557
▁pinom	-1558
onnalan	-1559
otollun	-1560
▁diiyan	-1561
▁nopanoy	-1562
▁posinsya	-1563
▁gubernador	-1564
vun	-1565
▁Es	-1566
apun	-1567
upak	-1568
▁ris	-1569
hipto	-1570
using	-1571
▁pond	-1572
imatoy	-1573
▁Saulo	-1574
▁Ehipto	-1575
▁Langun	-1576
▁kowora	-1577
▁lumbag	-1578
▁nokota	-1579
iroomman	-1580
▁dosalon	-1581
▁nokosaa	-1582
▁undiyot	-1583
▁buvungan	-1584
▁kovaakki	-1585
▁kovadnow	-1586
▁tigkanoy	-1587
▁ingumannon	-1588
▁pongumusta	-1589
ri	-1590
abe	-1591
▁bau	-1592
▁nom	-1593
ampot	-1594
saran	-1595
▁Noko	-1596
▁Dutun	-1597
▁Ondan	-1598
▁imman	-1599
▁kodta	-1600
livuung	-1601
▁limmon	-1602
▁Bernabe	-1603
▁lobbong	-1604
▁koruwonnan	-1605
▁Bonnaavonnaa	-1606
ib	-1607
imm	-1608
las	-1609
upu	-1610
▁ok	-1611
ovaa	-1612
uliv	-1613
ammut	-1614
ariyu	-1615
onong	-1616
▁topp	-1617
▁tuvu	-1618
▁uhus	-1619
Sikkow	-1620
▁kunan	-1621
▁mahaa	-1622
▁ngaap	-1623
immanan	-1624
imolloy	-1625
▁imolloy	-1626
▁kopitan	-1627
▁momonnu	-1628
▁mosakit	-1629
▁sumpalit	-1630
▁notanggap	-1631
▁poomdomma	-1632
▁ponudtulon	-1633
Bonnaavonnaa	-1634
no	-1635
imb	-1636
amit	-1637
ilut	-1638
uwos	-1639
▁Bet	-1640
lingk	-1641
niyat	-1642
onokk	-1643
▁bonn	-1644
▁koyd	-1645
▁minu	-1646
▁toos	-1647
▁wora	-1648
Sikiyu	-1649
eruwan	-1650
osayan	-1651
▁ammot	-1652
▁linow	-1653
▁pongo	-1654
▁sanna	-1655
inoggow	-1656
▁Sikiyu	-1657
▁saddoo	-1658
▁bovunga	-1659
▁somaddan	-1660
▁Poomdomma	-1661
▁nokokilaa	-1662
▁novaakkan	-1663
▁tohodhukum	-1664
dan	-1665
▁ut	-1666
aret	-1667
ehes	-1668
▁bak	-1669
▁tat	-1670
otton	-1671
untud	-1672
▁awoy	-1673
▁bodn	-1674
▁nong	-1675
▁tomm	-1676
▁logloh	-1677
▁moriyu	-1678
▁osenga	-1679
▁pokopo	-1680
▁pongko	-1681
▁losuran	-1682
▁minuvun	-1683
▁pomandu	-1684
▁pokovoggoy	-1685
▁podmotallong	-1686
ayi	-1687
ayy	-1688
bug	-1689
vay	-1690
▁it	-1691
utan	-1692
▁Ant	-1693
▁Isa	-1694
▁ogg	-1695
umpak	-1696
▁ooyy	-1697
oriyan	-1698
orolli	-1699
▁bangk	-1700
▁buwan	-1701
▁kannu	-1702
▁lanow	-1703
▁ogget	-1704
hukuman	-1705
▁konamin	-1706
▁ongayon	-1707
▁bodnawon	-1708
▁inoyyuhan	-1709
▁nosorolli	-1710
Te	-1711
kaa	-1712
ull	-1713
ooyy	-1714
topp	-1715
unan	-1716
uwak	-1717
ayang	-1718
lihad	-1719
▁bitu	-1720
▁lanu	-1721
▁lomm	-1722
▁onni	-1723
ulivot	-1724
▁manuk	-1725
▁Dangan	-1726
▁kodpop	-1727
▁moomet	-1728
▁otollu	-1729
▁ounsad	-1730
▁tohods	-1731
legguang	-1732
▁bonnong	-1733
▁hukuman	-1734
▁notuman	-1735
osivonnaa	-1736
▁Kodlihad	-1737
▁kodsilut	-1738
▁kosokkad	-1739
▁oiluggat	-1740
▁pominogg	-1741
▁Ponolihan	-1742
▁loglohottan	-1743
▁nopohinonaw	-1744
uia	-1745
acob	-1746
anga	-1747
ingg	-1748
onia	-1749
opul	-1750
ossu	-1751
umow	-1752
▁Dii	-1753
▁kur	-1754
▁lib	-1755
▁uug	-1756
lihan	-1757
linga	-1758
▁binu	-1759
▁mori	-1760
toppik	-1761
▁Antio	-1762
▁Jacob	-1763
▁kodti	-1764
▁badnow	-1765
▁tobbow	-1766
▁tobbus	-1767
imotayan	-1768
ungkossu	-1769
▁koposiv	-1770
▁solihan	-1771
▁koddasaa	-1772
▁kodnonaw	-1773
▁poobbava	-1774
▁tommanon	-1775
▁kodtobbus	-1776
▁kohoriyan	-1777
▁Tohodboutismu	-1778
ec	-1779
ka	-1780
aaw	-1781
huy	-1782
ria	-1783
▁La	-1784
▁uk	-1785
alin	-1786
ilas	-1787
alloy	-1788
govay	-1789
orani	-1790
▁Oray	-1791
▁arat	-1792
▁Elias	-1793
▁lammi	-1794
▁polih	-1795
▁Tohodt	-1796
▁bangkoy	-1797
▁tolinga	-1798
▁mongovay	-1799
▁kodbadnow	-1800
▁nolivuung	-1801
▁pomokayon	-1802
▁pokotavang	-1803
▁ponudtulan	-1804
▁poposaddoo	-1805
?'	-1806
wi	-1807
Mgo	-1808
Und	-1809
ili	-1810
ito	-1811
▁Ar	-1812
▁Le	-1813
iton	-1814
aahuy	-1815
eddam	-1816
kiyat	-1817
obbow	-1818
oggas	-1819
sokkad	-1820
Moppiya	-1821
▁bariyu	-1822
▁loppow	-1823
▁motuus	-1824
▁pomehes	-1825
▁koddoong	-1826
▁pinomuwa	-1827
▁polihuma	-1828
,"	-1829
pa	-1830
kan	-1831
llog	-1832
opuu	-1833
▁Mot	-1834
▁non	-1835
▁tot	-1836
aayuk	-1837
antok	-1838
duwan	-1839
hubug	-1840
oddan	-1841
ollom	-1842
onnod	-1843
untra	-1844
▁buyy	-1845
▁moko	-1846
▁rowd	-1847
edonia	-1848
▁bunga	-1849
▁kilaa	-1850
▁libru	-1851
▁pomot	-1852
▁undag	-1853
▁ikulon	-1854
▁motoos	-1855
▁tamong	-1856
osinsyan	-1857
▁pokopuung	-1858
▁tonggapon	-1859
▁poomdommon	-1860
In	-1861
Dos	-1862
ala	-1863
paa	-1864
vut	-1865
▁do	-1866
atus	-1867
ihan	-1868
ikuu	-1869
▁Lev	-1870
▁Mac	-1871
▁ika	-1872
▁suu	-1873
▁tok	-1874
ayyad	-1875
▁uhis	-1876
▁dipaa	-1877
▁immat	-1878
▁moput	-1879
lingkus	-1880
vohokan	-1881
▁Lampas	-1882
▁buyyag	-1883
▁kodpom	-1884
▁noonokk	-1885
▁dumannan	-1886
▁Macedonia	-1887
▁kodtavang	-1888
▁pokaabbot	-1889
▁pokorinog	-1890
▁novovallan	-1891
▁poboutismu	-1892
▁pongulivot	-1893
▁Tohodtobbus	-1894
▁polegguangon	-1895
da	-1896
Sir	-1897
aac	-1898
▁at	-1899
▁pu	-1900
Otid	-1901
apan	-1902
atun	-1903
enek	-1904
iyoy	-1905
ottu	-1906
puun	-1907
ukag	-1908
umon	-1909
vuut	-1910
▁Cor	-1911
▁Mar	-1912
▁ont	-1913
oggat	-1914
▁Sama	-1915
▁isla	-1916
▁podd	-1917
▁toot	-1918
ilawan	-1919
opuloy	-1920
▁Isaac	-1921
▁gamit	-1922
▁mopom	-1923
▁pokom	-1924
▁pomil	-1925
▁robbo	-1926
▁Bonnaa	-1927
▁ontong	-1928
▁rispit	-1929
inuhuwan	-1930
▁Samaria	-1931
▁toosuwod	-1932
▁kovaakkan	-1933
▁Ponunggeleng	-1934
▁mopompomakoy	-1935
▁pongkovohokan	-1936
aag	-1937
alu	-1938
nom	-1939
▁As	-1940
Piru	-1941
obba	-1942
oliv	-1943
orad	-1944
talu	-1945
▁Est	-1946
▁ari	-1947
▁pog	-1948
annan	-1949
oubpa	-1950
▁Levi	-1951
▁souh	-1952
▁uras	-1953
▁gatus	-1954
▁panga	-1955
▁pokit	-1956
▁Isaias	-1957
▁bantug	-1958
▁moomok	-1959
▁pantok	-1960
▁ukahan	-1961
aanokkaa	-1962
▁toppong	-1963
ingginawa	-1964
▁kotuihan	-1965
▁pomammut	-1966
▁souhapun	-1967
▁tinundug	-1968
▁sinuhuwan	-1969
▁tootawwan	-1970
▁pomuhawang	-1971
▁pongkuntra	-1972
▁tohodsukut	-1973
No	-1974
aro	-1975
eso	-1976
▁ah	-1977
asud	-1978
ison	-1979
▁Mel	-1980
▁mat	-1981
▁tol	-1982
Ondoy	-1983
isokk	-1984
muwan	-1985
onnon	-1986
ullid	-1987
▁Tito	-1988
▁dodd	-1989
ooyyan	-1990
upuwan	-1991
▁Diyon	-1992
▁Silas	-1993
▁kanta	-1994
▁lasud	-1995
▁nokov	-1996
▁pilon	-1997
▁puasa	-1998
unduwon	-1999
uworuwa	-2000
▁oumpak	-2001
▁pomilya	-2002
▁poratas	-2003
▁unduwon	-2004
utismuwan	-2005
▁kodsimba	-2006
▁koosayan	-2007
▁sinoggow	-2008
▁kilaannan	-2009
▁nokosulat	-2010
▁Gubernador	-2011
▁bonnaavonnaa	-2012
▁kodposivantug	-2013
▁nopohinonawwi	-2014
▁pokoposivonnaa	-2015
co	-2016
uv	-2017
bbi	-2018
gaha	-2019
libo	-2020
▁Bar	-2021
▁tint	-2022
▁ubas	-2023
ipanow	-2024
okalan	-2025
▁Motuus	-2026
▁inggat	-2027
▁kogaha	-2028
▁nganoy	-2029
▁ingumon	-2030
▁songnga	-2031
▁Sikandan	-2032
▁boutismu	-2033
▁geddaman	-2034
▁nominuvu	-2035
▁piyoddon	-2036
▁popuungan	-2037
▁nopuhawang	-2038
▁pominoggon	-2039
▁kodposivonnaa	-2040
De	-2041
Eh	-2042
To	-2043
hon	-2044
ira	-2045
▁So	-2046
▁uy	-2047
alli	-2048
area	-2049
aron	-2050
eban	-2051
oran	-2052
yyad	-2053
▁Ces	-2054
▁lok	-2055
▁pol	-2056
raroy	-2057
▁Hari	-2058
▁baya	-2059
▁dini	-2060
▁door	-2061
▁kole	-2062
▁loow	-2063
luntud	-2064
ongngi	-2065
▁aakaa	-2066
▁mambo	-2067
▁onnow	-2068
▁Nokita	-2069
▁tobboy	-2070
imotayoy	-2071
▁Cesarea	-2072
▁Esteban	-2073
▁gutasan	-2074
▁pokopon	-2075
▁doorakko	-2076
▁moobbava	-2077
▁motoggas	-2078
▁movoggat	-2079
▁poddisokk	-2080
▁posivonnalan	-2081
ki	-2082
aku	-2083
ego	-2084
iro	-2085
lim	-2086
lis	-2087
omm	-2088
uis	-2089
vuy	-2090
yas	-2091
▁On	-2092
▁op	-2093
▁ve	-2094
angi	-2095
ason	-2096
ivug	-2097
▁Cap	-2098
▁Gri	-2099
▁Mat	-2100
▁nat	-2101
oddon	-2102
ungku	-2103
▁baka	-2104
▁boyo	-2105
▁doyd	-2106
▁lama	-2107
▁loww	-2108
▁nokk	-2109
▁uyag	-2110
undini	-2111
▁Worad	-2112
▁labbi	-2113
▁songo	-2114
uralloy	-2115
▁Griego	-2116
▁poriyu	-2117
▁pungku	-2118
▁sollom	-2119
▁ubasan	-2120
▁bowiyan	-2121
▁korinog	-2122
▁tinuhon	-2123
▁imooyyan	-2124
▁buwisanan	-2125
▁kilaannon	-2126
▁kodboggoy	-2127
▁kodtobbow	-2128
▁mosaasaan	-2129
▁novohokan	-2130
▁sinolihan	-2131
▁korumannan	-2132
▁koposinsyan	-2133
▁kodpopoomdom	-2134
▁nokkaanokkaa	-2135
▁kodpongumusta	-2136
2,	-2137
ti	-2138
agk	-2139
auy	-2140
ebr	-2141
era	-2142
ico	-2143
kob	-2144
lla	-2145
toy	-2146
▁Os	-2147
edec	-2148
kkan	-2149
ohoo	-2150
okes	-2151
wang	-2152
▁Pom	-2153
▁noh	-2154
▁pin	-2155
allow	-2156
ammot	-2157
datas	-2158
ebreo	-2159
▁uwod	-2160
aaggow	-2161
osalig	-2162
ukatan	-2163
umpeta	-2164
▁bavuy	-2165
▁kodka	-2166
▁lonna	-2167
▁ollos	-2168
▁ondak	-2169
▁pohos	-2170
▁pokov	-2171
▁somad	-2172
ontuhan	-2173
owangan	-2174
uisedec	-2175
▁Hebreo	-2176
▁Oraroy	-2177
▁laayuk	-2178
▁totong	-2179
▁lommung	-2180
▁molison	-2181
▁noponnu	-2182
▁noprisu	-2183
▁tokawon	-2184
inowannoy	-2185
▁pokogaha	-2186
▁trumpeta	-2187
▁ugolingun	-2188
▁doorakkoon	-2189
▁posivantug	-2190
▁nokolingkus	-2191
▁nokotanggap	-2192
▁pohinowannoy	-2193
▁koposivontuhan	-2194
ass	-2195
ibu	-2196
lit	-2197
mos	-2198
sik	-2199
▁Ag	-2200
▁Bu	-2201
Ahad	-2202
Amoy	-2203
erna	-2204
llus	-2205
ommu	-2206
otta	-2207
▁Jor	-2208
▁Sir	-2209
▁eer	-2210
Mambo	-2211
attan	-2212
ggung	-2213
oggan	-2214
ondad	-2215
oyami	-2216
▁Adan	-2217
▁Asia	-2218
▁Inis	-2219
▁boov	-2220
▁busb	-2221
▁gobb	-2222
▁ikos	-2223
▁uran	-2224
ernaum	-2225
▁Ollog	-2226
▁monit	-2227
▁muopa	-2228
▁natit	-2229
▁pokid	-2230
▁tolda	-2231
▁tongt	-2232
▁woysi	-2233
owannoy	-2234
unsaran	-2235
urallan	-2236
vuungan	-2237
▁bantoy	-2238
▁konokk	-2239
▁musing	-2240
▁tohodb	-2241
imbonnaa	-2242
▁eeruwon	-2243
▁inniyat	-2244
▁kokilaa	-2245
▁nopiyod	-2246
▁Buvungan	-2247
▁ispiritu	-2248
▁loohinat	-2249
▁ponsimba	-2250
▁Capernaum	-2251
ohinowannoy	-2252
▁morumoruma	-2253
▁poponudtuu	-2254
▁rispituwon	-2255
▁poddisokkan	-2256
re	-2257
app	-2258
ara	-2259
rag	-2260
ula	-2261
▁Ap	-2262
▁Ca	-2263
▁et	-2264
▁ig	-2265
▁ob	-2266
akon	-2267
akow	-2268
amas	-2269
olit	-2270
pitu	-2271
▁Nop	-2272
▁Sad	-2273
aawit	-2274
assan	-2275
obbod	-2276
okadd	-2277
ollos	-2278
otawi	-2279
ragon	-2280
unggu	-2281
▁ahaw	-2282
▁basa	-2283
▁dora	-2284
▁ikon	-2285
▁kuda	-2286
▁luun	-2287
▁olit	-2288
▁rini	-2289
lingow	-2290
odasan	-2291
omunoy	-2292
uhuson	-2293
▁annom	-2294
▁ayyad	-2295
▁kaanu	-2296
▁kosaa	-2297
▁loppa	-2298
▁mooll	-2299
▁mopet	-2300
▁ouhus	-2301
▁pokol	-2302
▁ponog	-2303
▁utang	-2304
oobbava	-2305
ovangan	-2306
▁Mowwet	-2307
▁dragon	-2308
▁kotalu	-2309
▁loglog	-2310
▁nokoso	-2311
▁potuvu	-2312
▁sopuun	-2313
ompottan	-2314
▁elleyan	-2315
▁omotton	-2316
▁owangan	-2317
▁unsaran	-2318
▁geddamon	-2319
▁nonawwan	-2320
▁posampot	-2321
▁konokkaan	-2322
▁podmusing	-2323
▁totongtong	-2324
▁ponlolivuung	-2325
▁posivontuhon	-2326
▁tongtongngan	-2327
!'	-2328
so	-2329
▁h	-2330
ati	-2331
end	-2332
igu	-2333
res	-2334
udi	-2335
una	-2336
urs	-2337
etan	-2338
iloy	-2339
isan	-2340
limu	-2341
olom	-2342
vuyu	-2343
▁Sal	-2344
▁obb	-2345
ambun	-2346
ampod	-2347
avung	-2348
intud	-2349
ompuu	-2350
onudt	-2351
ubpan	-2352
▁asnu	-2353
▁baud	-2354
▁linu	-2355
amasco	-2356
onawon	-2357
uhanuu	-2358
▁boyow	-2359
▁gutas	-2360
▁kosah	-2361
▁mahan	-2362
▁pukut	-2363
▁tommu	-2364
▁tribu	-2365
uwassan	-2366
▁busbus	-2367
▁layang	-2368
▁sabbot	-2369
▁siksik	-2370
▁Damasco	-2371
▁kaaggow	-2372
▁popenek	-2373
▁posulat	-2374
▁totandu	-2375
▁iponawon	-2376
▁kodbovaa	-2377
▁pomokayan	-2378
▁pondaawit	-2379
▁pokosaddoo	-2380
▁pomonduwan	-2381
▁koddumoruma	-2382
▁noonokkalan	-2383
▁kodpobporoong	-2384
▁kodpohinowannoy	-2385
su	-2386
Nok	-2387
uhu	-2388
▁Un	-2389
▁kw	-2390
esto	-2391
inan	-2392
llas	-2393
omad	-2394
umba	-2395
useo	-2396
▁Nov	-2397
▁Tom	-2398
▁gim	-2399
▁goy	-2400
▁suw	-2401
Diyot	-2402
endas	-2403
ingod	-2404
irisu	-2405
iyang	-2406
kottu	-2407
obbuu	-2408
▁anon	-2409
▁gott	-2410
▁poka	-2411
▁talu	-2412
▁tota	-2413
uberno	-2414
▁Marta	-2415
▁igera	-2416
▁lavut	-2417
▁polin	-2418
▁sopin	-2419
▁suwoy	-2420
okaddoy	-2421
ontuhon	-2422
tongngi	-2423
undanan	-2424
▁Mambot	-2425
▁bovuyu	-2426
▁itulan	-2427
▁kodina	-2428
▁koling	-2429
▁paahuy	-2430
▁pokoka	-2431
▁ukitan	-2432
gguangan	-2433
okkangan	-2434
▁Saduseo	-2435
▁boggayi	-2436
▁bovuwis	-2437
▁guberno	-2438
▁nooyami	-2439
▁poprisu	-2440
▁undahon	-2441
▁bouhuson	-2442
▁korattan	-2443
▁mohingod	-2444
▁mosuppit	-2445
▁ooyyaran	-2446
▁pinirisu	-2447
suwoysuwoy	-2448
▁Kopongnga	-2449
▁lungkossu	-2450
▁noovottan	-2451
▁pokolonug	-2452
▁pokopahaa	-2453
▁kotundanan	-2454
▁boutismuwan	-2455
▁podmusingon	-2456
▁kolegguangan	-2457
▁pongimbonnaa	-2458
▁poratasdatas	-2459
▁pokopobporoong	-2460
Pom	-2461
ida	-2462
ipa	-2463
kap	-2464
ope	-2465
puu	-2466
ris	-2467
vud	-2468
weg	-2469
▁Ab	-2470
Inin	-2471
abas	-2472
ahaw	-2473
amuk	-2474
anak	-2475
artu	-2476
elio	-2477
maan	-2478
okoo	-2479
olos	-2480
oway	-2481
utow	-2482
▁And	-2483
▁duh	-2484
▁rud	-2485
▁say	-2486
▁yoh	-2487
aavag	-2488
akita	-2489
antow	-2490
enopp	-2491
nelio	-2492
obban	-2493
onguu	-2494
tahad	-2495
undiy	-2496
▁Jope	-2497
▁Oweg	-2498
▁goli	-2499
▁ikam	-2500
▁nota	-2501
▁oruw	-2502
nanias	-2503
otollu	-2504
▁Mambo	-2505
▁Ondoy	-2506
▁awang	-2507
▁lowwi	-2508
▁lukut	-2509
▁pogko	-2510
▁prisu	-2511
▁sukub	-2512
Lohinat	-2513
enoppon	-2514
inniyat	-2515
▁Jordan	-2516
▁gottok	-2517
▁kodpon	-2518
▁kwartu	-2519
▁mattag	-2520
▁sondad	-2521
▁tawwan	-2522
▁yohung	-2523
▁boyaran	-2524
▁nongkap	-2525
▁ooyyari	-2526
▁tovangi	-2527
▁logkiyat	-2528
▁kodgeddam	-2529
▁nolingasa	-2530
▁ontongngan	-2531
▁pokolibmit	-2532
▁tohenoppon	-2533
▁kodboutismu	-2534
On	-2535
aam	-2536
kuu	-2537
ton	-2538
uru	-2539
▁Ac	-2540
abet	-2541
akan	-2542
ania	-2543
avon	-2544
isau	-2545
llan	-2546
ngag	-2547
oopi	-2548
ripa	-2549
unut	-2550
uroy	-2551
▁Mag	-2552
▁liy	-2553
▁suh	-2554
▁tul	-2555
acari	-2556
agkup	-2557
ahing	-2558
asang	-2559
onnad	-2560
onnut	-2561
owkuu	-2562
untuu	-2563
▁Elis	-2564
▁Juda	-2565
▁alas	-2566
▁naan	-2567
▁pomp	-2568
▁tuyy	-2569
▁unoy	-2570
imbang	-2571
imbung	-2572
layang	-2573
olivod	-2574
otuwos	-2575
▁Lanow	-2576
▁goyod	-2577
▁ivang	-2578
▁karni	-2579
▁kopon	-2580
▁tahad	-2581
acarias	-2582
ogkiyat	-2583
ongatan	-2584
ovangoy	-2585
▁Agripa	-2586
▁Andres	-2587
▁Ponguu	-2588
▁kosina	-2589
▁oubpan	-2590
▁poruma	-2591
▁potupu	-2592
▁tundug	-2593
▁uliton	-2594
ollangay	-2595
ompossan	-2596
ongollan	-2597
▁Betania	-2598
▁Inaayun	-2599
▁Ponayun	-2600
▁kopakoy	-2601
▁kopalin	-2602
▁koworan	-2603
▁livuung	-2604
▁pokopos	-2605
▁sulatan	-2606
▁tuyyang	-2607
▁Elisabet	-2608
▁boovahan	-2609
▁kodlinis	-2610
▁kolingow	-2611
▁kosagkup	-2612
▁noponnut	-2613
▁posuppit	-2614
▁tonggapa	-2615
▁bovoligya	-2616
▁nongkapon	-2617
▁pomodasan	-2618
▁tongannan	-2619
▁layanglayang	-2620
▁pokolegguang	-2621
Si	-2622
Dii	-2623
Mon	-2624
aoy	-2625
dok	-2626
omb	-2627
▁Ti	-2628
Duma	-2629
Moka	-2630
apii	-2631
dala	-2632
ogga	-2633
okoy	-2634
unon	-2635
▁Bab	-2636
▁Lis	-2637
▁Not	-2638
▁bol	-2639
▁buk	-2640
▁dud	-2641
ingon	-2642
oddos	-2643
sopuu	-2644
tuwon	-2645
ubbuk	-2646
unnan	-2647
uungi	-2648
▁Moka	-2649
▁Tiro	-2650
▁dila	-2651
▁laas	-2652
▁lokk	-2653
▁monn	-2654
▁sovu	-2655
Monama	-2656
Undini	-2657
ilonia	-2658
okayan	-2659
▁bobbo	-2660
▁bukag	-2661
▁kodlo	-2662
▁linug	-2663
▁obboo	-2664
▁ongki	-2665
▁pokob	-2666
▁ponoy	-2667
▁popii	-2668
▁putow	-2669
▁silyu	-2670
▁simag	-2671
▁tihis	-2672
▁trigu	-2673
Undiyon	-2674
inturan	-2675
inundug	-2676
odtahad	-2677
ohingon	-2678
▁Apolos	-2679
▁gobban	-2680
▁kovogg	-2681
▁lavung	-2682
▁lokkob	-2683
▁moputi	-2684
▁movuut	-2685
▁ngipon	-2686
▁nokopo	-2687
▁tiyang	-2688
▁tollak	-2689
inuggung	-2690
▁Ananias	-2691
▁Magdala	-2692
▁bovolli	-2693
▁bowvuut	-2694
▁doddora	-2695
▁moputin	-2696
▁nopokes	-2697
▁pokilaa	-2698
▁posolom	-2699
▁tomanan	-2700
▁Cornelio	-2701
▁buwassan	-2702
▁dinoggan	-2703
▁kodtohoo	-2704
▁kottuwon	-2705
▁oongatan	-2706
▁poporani	-2707
▁Babilonia	-2708
▁ilonganon	-2709
▁kosahapan	-2710
▁notupuwan	-2711
▁Tohodbuwis	-2712
▁Tohodnonaw	-2713
▁kodpomakoy	-2714
▁kodtanggap	-2715
▁pokitakita	-2716
▁Nosoobbuwan	-2717
▁nokotinuhon	-2718
▁nosompottan	-2719
▁kodlolivuung	-2720
▁kodposolamat	-2721
▁kohingginawa	-2722
▁pokoponudtuu	-2723
Po	-2724
Ing	-2725
cia	-2726
lob	-2727
ovu	-2728
owd	-2729
rim	-2730
sen	-2731
Iyon	-2732
aong	-2733
ggot	-2734
idon	-2735
inal	-2736
into	-2737
iyow	-2738
kkaa	-2739
lata	-2740
ohos	-2741
ukud	-2742
vauy	-2743
wora	-2744
▁Jer	-2745
▁Sol	-2746
▁lus	-2747
▁suv	-2748
▁tor	-2749
▁tuk	-2750
▁tuu	-2751
Pomon	-2752
aason	-2753
annon	-2754
lasyu	-2755
omman	-2756
ongko	-2757
ongoo	-2758
oosan	-2759
oriyu	-2760
senso	-2761
tohod	-2762
vulli	-2763
▁Daom	-2764
▁Ossa	-2765
▁apii	-2766
▁apuu	-2767
▁baku	-2768
▁ikot	-2769
▁kita	-2770
▁pods	-2771
▁polo	-2772
Ingkon	-2773
angkan	-2774
okitan	-2775
ononaw	-2776
osoway	-2777
ovalli	-2778
▁Lugaa	-2779
▁Olibo	-2780
▁Sidon	-2781
▁Tomas	-2782
▁batun	-2783
▁bolli	-2784
▁plata	-2785
▁tohoo	-2786
▁tuwos	-2787
▁ukkaa	-2788
oometan	-2789
osokkad	-2790
riminal	-2791
totuwos	-2792
uwakkan	-2793
▁divauy	-2794
▁lammid	-2795
▁nongos	-2796
▁pokods	-2797
▁sinogg	-2798
▁soroan	-2799
▁tongko	-2800
oiluggat	-2801
ongngiyu	-2802
▁Barabas	-2803
▁Momonnu	-2804
▁Solomon	-2805
▁gimukud	-2806
▁inommon	-2807
▁insenso	-2808
▁kangkan	-2809
▁komonnu	-2810
▁lukatan	-2811
▁polasyu	-2812
▁sovukan	-2813
▁tuhanuu	-2814
▁Todtahad	-2815
▁kodsupak	-2816
▁loimbung	-2817
▁maanmaan	-2818
tohodbuwis	-2819
▁kodpotupu	-2820
▁pokotavak	-2821
▁komoometan	-2822
▁kotovangan	-2823
▁kodduworuwa	-2824
▁pokomoppiya	-2825
▁pokomosalig	-2826
▁posolomatan	-2827
▁mohingginawa	-2828
▁nokolegguang	-2829
▁polintotuwos	-2830
Mo	-2831
ica	-2832
ote	-2833
pos	-2834
rin	-2835
uda	-2836
▁ag	-2837
▁ak	-2838
▁be	-2839
asak	-2840
asow	-2841
bbaw	-2842
cari	-2843
ebed	-2844
intu	-2845
iran	-2846
ituu	-2847
ngan	-2848
niyu	-2849
olan	-2850
ovan	-2851
oyup	-2852
unab	-2853
unay	-2854
unna	-2855
▁Ing	-2856
▁Jon	-2857
▁Lin	-2858
▁Noe	-2859
▁ban	-2860
▁tak	-2861
Sulat	-2862
Suwod	-2863
alyas	-2864
ambut	-2865
ikang	-2866
ingoy	-2867
munoy	-2868
umpuu	-2869
▁Ooyy	-2870
▁Unna	-2871
▁alin	-2872
▁duug	-2873
▁idad	-2874
▁kupa	-2875
▁loli	-2876
▁owan	-2877
▁ponn	-2878
▁poso	-2879
▁sand	-2880
▁tomp	-2881
Bantoy	-2882
Bonnaa	-2883
ebedeo	-2884
odduma	-2885
olivad	-2886
▁Acaya	-2887
▁Siria	-2888
▁Sopuu	-2889
▁ebbaw	-2890
▁kakoy	-2891
▁konuh	-2892
▁liyog	-2893
▁naanu	-2894
▁olibo	-2895
▁pokok	-2896
▁suvaa	-2897
cariote	-2898
linisan	-2899
odtohon	-2900
ursintu	-2901
▁Konnad	-2902
▁eruwan	-2903
▁kannon	-2904
▁kuruna	-2905
▁loowon	-2906
▁mammut	-2907
▁osowan	-2908
▁Corinto	-2909
▁Sebedeo	-2910
▁kohobba	-2911
▁mosunay	-2912
▁piyodda	-2913
▁bontuhon	-2914
▁duworuwa	-2915
▁ikohiyoy	-2916
▁langngag	-2917
▁monnuwon	-2918
▁motikang	-2919
▁movoddos	-2920
▁nokovasa	-2921
▁notobbus	-2922
▁ponnonaw	-2923
▁Iscariote	-2924
▁oruwompuu	-2925
▁ponleggua	-2926
▁pontoppik	-2927
▁poroniyan	-2928
▁sandalyas	-2929
▁podtohonon	-2930
▁pomursintu	-2931
▁sinoggawon	-2932
luntudluntud	-2933
▁kosoobbuwan	-2934
▁lolivuungan	-2935
▁pomollangay	-2936
▁kodposokaddoy	-2937
▁koposivonnalan	-2938
▁pontoppiktoppik	-2939
▁	-2940
o	-2941
n	-2942
a	-2943
d	-2944
i	-2945
k	-2946
t	-2947
u	-2948
s	-2949
m	-2950
y	-2951
g	-2952
p	-2953
w	-2954
r	-2955
l	-2956
,	-2957
e	-2958
.	-2959
b	-2960
h	-2961
-	-2962
v	-2963
M	-2964
D	-2965
"	-2966
N	-2967
'	-2968
0	-2969
P	-2970
I	-2971
2	-2972
#	-2973
&	-2974
8	-2975
9	-2976
;	-2977
S	-2978
K	-2979
O	-2980
J	-2981
A	-2982
W	-2983
T	-2984
L	-2985
?	-2986
!	-2987
U	-2988
B	-2989
c	-2990
E	-2991
G	-2992
H	-2993
Y	-2994
C	-2995
R	-2996
