<unk>	0
<s>	0
</s>	0
an	-0
▁k	-1
on	-2
▁t	-3
▁n	-4
▁i	-5
▁d	-6
▁m	-7
▁no	-8
▁to	-9
▁ko	-10
▁id	-11
▁p	-12
in	-13
oy	-14
▁s	-15
os	-16
ot	-17
iy	-18
od	-19
▁r	-20
ad	-21
un	-22
▁w	-23
am	-24
▁idd	-25
and	-26
▁po	-27
▁si	-28
▁od	-29
aa	-30
go	-31
en	-32
▁woy	-33
ow	-34
▁l	-35
▁iddos	-36
▁mgo	-37
▁a	-38
▁kos	-39
▁b	-40
is	-41
uw	-42
iyot	-43
as	-44
it	-45
▁sik	-46
ang	-47
ak	-48
add	-49
▁kod	-50
andin	-51
▁mo	-52
▁en	-53
ung	-54
um	-55
ama	-56
om	-57
id	-58
▁tadd	-59
▁mon	-60
at	-61
▁kon	-62
vu	-63
ah	-64
▁in	-65
ong	-66
▁nod	-67
▁su	-68
▁monama	-69
ll	-70
ay	-71
inu	-72
▁pom	-73
▁ku	-74
▁din	-75
ko	-76
ru	-77
aw	-78
▁taddot	-79
▁na	-80
▁dis	-81
gg	-82
▁sikandin	-83
▁diyot	-84
▁minu	-85
▁disas	-86
20	-87
209	-88
8209	-89
▁minuvu	-90
▁am	-91
or	-92
uwon	-93
ta	-94
▁rin	-95
▁u	-96
ok	-97
▁riyot	-98
na	-99
▁ni	-100
▁ki	-101
kit	-102
andan	-103
ud	-104
▁kow	-105
▁waa	-106
iyu	-107
▁pi	-108
▁amoy	-109
▁idda	-110
ing	-111
li	-112
uu	-113
iyon	-114
▁kop	-115
▁lang	-116
▁piru	-117
uma	-118
▁dan	-119
ahi	-120
▁ran	-121
▁mand	-122
▁pomon	-123
ar	-124
▁pon	-125
▁mid	-126
oll	-127
▁duwon	-128
▁ta	-129
▁konna	-130
ling	-131
bb	-132
▁pa	-133
▁langun	-134
oyy	-135
▁mandad	-136
akoy	-137
▁pu	-138
▁dos	-139
▁j	-140
okk	-141
had	-142
▁oyy	-143
ungan	-144
ogg	-145
ut	-146
▁kandin	-147
▁ing	-148
▁row	-149
▁ahad	-150
▁koniyu	-151
▁sikandan	-152
▁kot	-153
aay	-154
tag	-155
▁un	-156
et	-157
pp	-158
▁ik	-159
▁dow	-160
▁on	-161
pu	-162
im	-163
▁ot	-164
hu	-165
og	-166
aan	-167
awa	-168
▁ron	-169
kita	-170
▁kodd	-171
▁g	-172
▁di	-173
okkad	-174
een	-175
▁duma	-176
oo	-177
▁o	-178
▁an	-179
ungk	-180
▁don	-181
il	-182
angan	-183
eng	-184
anan	-185
omakoy	-186
ayan	-187
▁ka	-188
▁poko	-189
▁man	-190
ik	-191
ov	-192
▁ond	-193
▁toh	-194
▁iling	-195
iyan	-196
▁os	-197
es	-198
▁ikahi	-199
onn	-200
▁ukit	-201
▁nok	-202
ga	-203
uwan	-204
▁oyyos	-205
onaw	-206
▁sokkad	-207
▁koddi	-208
▁kaay	-209
▁kah	-210
▁so	-211
▁nos	-212
ug	-213
us	-214
agg	-215
▁anak	-216
▁pos	-217
▁ini	-218
▁kandan	-219
▁mok	-220
▁tod	-221
▁is	-222
▁noko	-223
▁jud	-224
▁kr	-225
▁kahi	-226
▁deen	-227
ays	-228
▁krays	-229
▁nid	-230
▁mopp	-231
ul	-232
▁da	-233
▁atag	-234
▁dii	-235
anon	-236
▁kodp	-237
▁amoyd	-238
ro	-239
▁mor	-240
io	-241
▁tim	-242
▁long	-243
▁tadda	-244
kow	-245
▁or	-246
▁all	-247
▁ungk	-248
▁tohod	-249
▁und	-250
oli	-251
▁bogg	-252
eta	-253
▁judio	-254
oh	-255
ongn	-256
udt	-257
▁ingod	-258
▁otik	-259
odd	-260
▁puungan	-261
aggon	-262
▁longaggon	-263
▁pong	-264
uh	-265
ur	-266
iv	-267
▁suhu	-268
eten	-269
▁oseng	-270
all	-271
al	-272
▁ungketen	-273
inog	-274
▁pok	-275
bp	-276
▁allow	-277
▁du	-278
uwa	-279
ir	-280
▁nop	-281
onnaa	-282
▁kopomakoy	-283
nan	-284
▁koil	-285
lo	-286
inawa	-287
▁nonaw	-288
uman	-289
▁ba	-290
▁diyon	-291
▁mokaa	-292
tan	-293
up	-294
oroll	-295
▁bon	-296
yon	-297
udtuu	-298
▁por	-299
ag	-300
atoy	-301
obb	-302
▁oyya	-303
▁sikiyu	-304
▁iyon	-305
▁timpu	-306
orollan	-307
▁ay	-308
▁saa	-309
iya	-310
▁mokaatag	-311
har	-312
▁ra	-313
▁tav	-314
▁koy	-315
▁um	-316
▁iko	-317
▁lam	-318
▁poom	-319
ed	-320
uk	-321
iyod	-322
▁koilangan	-323
▁ondan	-324
anoy	-325
▁kopi	-326
▁pinu	-327
▁pinuungan	-328
▁kowd	-329
utun	-330
▁inguma	-331
▁nokita	-332
ig	-333
▁moppiya	-334
▁tin	-335
ongnga	-336
▁ondoy	-337
uy	-338
han	-339
oww	-340
▁otid	-341
▁boggoy	-342
▁undiyon	-343
▁y	-344
▁riyon	-345
em	-346
uwod	-347
addoo	-348
pomakoy	-349
und	-350
owt	-351
rinog	-352
dom	-353
▁yo	-354
oss	-355
▁ru	-356
▁ginawa	-357
er	-358
ol	-359
▁pop	-360
▁pomakoy	-361
gap	-362
▁tam	-363
▁tom	-364
el	-365
▁pompomakoy	-366
eru	-367
itu	-368
▁amp	-369
▁kikow	-370
▁morat	-371
▁ponudtuu	-372
aran	-373
▁oll	-374
ali	-375
▁ponguu	-376
odduwan	-377
▁tinodduwan	-378
▁puung	-379
▁suwod	-380
▁iddon	-381
▁ip	-382
pak	-383
ip	-384
ggu	-385
▁mos	-386
▁ampowt	-387
ia	-388
olihan	-389
uwis	-390
▁kov	-391
▁woyd	-392
▁ur	-393
eggu	-394
ivu	-395
▁doy	-396
ant	-397
▁bonuwa	-398
▁siy	-399
▁taman	-400
anggap	-401
▁nokos	-402
pas	-403
otayan	-404
▁int	-405
▁nik	-406
▁siyak	-407
▁keta	-408
atas	-409
omanan	-410
▁ollog	-411
ris	-412
pir	-413
▁ispir	-414
▁tavak	-415
▁im	-416
akko	-417
▁lawa	-418
▁langit	-419
▁ispiritu	-420
lat	-421
▁ikoh	-422
▁poomdom	-423
aad	-424
san	-425
▁har	-426
▁lampas	-427
▁kahit	-428
▁nopongnga	-429
ap	-430
▁kopiyan	-431
▁kor	-432
▁moppiyon	-433
ovot	-434
blo	-435
▁pablo	-436
bpa	-437
▁kou	-438
▁not	-439
▁waad	-440
▁dakko	-441
▁boll	-442
▁sim	-443
his	-444
▁mot	-445
ya	-446
iling	-447
ont	-448
ulat	-449
▁mour	-450
▁v	-451
▁pokita	-452
▁norinog	-453
ises	-454
▁kopii	-455
▁koungk	-456
▁moises	-457
▁nosorollan	-458
▁koungkay	-459
bbot	-460
▁nov	-461
allan	-462
▁uhis	-463
▁datas	-464
▁de	-465
edro	-466
▁pedro	-467
iyun	-468
▁kahin	-469
▁mandon	-470
ahan	-471
▁bonnaa	-472
▁tomanon	-473
▁wor	-474
▁diid	-475
▁konn	-476
▁oray	-477
▁poron	-478
▁ponolihan	-479
▁e	-480
ami	-481
oong	-482
▁sil	-483
▁inis	-484
ani	-485
ayun	-486
▁peen	-487
▁baoy	-488
▁patoy	-489
eo	-490
▁kokita	-491
aaw	-492
naan	-493
ins	-494
oobb	-495
▁hari	-496
ovallan	-497
▁koniyun	-498
ohin	-499
asan	-500
▁tohodb	-501
▁ponayun	-502
gor	-503
▁tid	-504
▁taddon	-505
alig	-506
risu	-507
eggua	-508
▁	-509
o	-510
n	-511
a	-512
d	-513
i	-514
k	-515
t	-516
u	-517
s	-518
m	-519
y	-520
g	-521
p	-522
w	-523
r	-524
l	-525
e	-526
b	-527
h	-528
v	-529
0	-530
2	-531
8	-532
9	-533
j	-534
c	-535
