<unk>	0
<s>	0
</s>	0
an	-0
▁n	-1
▁s	-2
▁na	-3
ka	-4
▁m	-5
in	-6
ga	-7
▁ka	-8
pa	-9
▁sa	-10
▁an	-11
ya	-12
▁san	-13
▁pa	-14
▁ma	-15
ta	-16
on	-17
da	-18
▁a	-19
▁i	-20
ra	-21
▁mga	-22
od	-23
ba	-24
di	-25
▁k	-26
▁g	-27
un	-28
sa	-29
li	-30
ha	-31
▁kag	-32
la	-33
os	-34
mo	-35
▁gin	-36
to	-37
▁ni	-38
ang	-39
yo	-40
▁sin	-41
su	-42
▁si	-43
▁pag	-44
tu	-45
wa	-46
ri	-47
ma	-48
▁nag	-49
▁di	-50
bi	-51
▁D	-52
▁in	-53
▁p	-54
▁man	-55
▁Di	-56
▁ak	-57
▁P	-58
ro	-59
▁J	-60
▁naga	-61
▁iya	-62
tan	-63
bu	-64
ki	-65
▁mag	-66
▁K	-67
▁"	-68
▁ta	-69
▁siya	-70
lang	-71
ag	-72
▁Dios	-73
▁N	-74
lu	-75
▁dili	-76
han	-77
dto	-78
00	-79
hi	-80
▁A	-81
#7	-82
&#7	-83
00;	-84
&#700;	-85
ot	-86
▁S	-87
▁Je	-88
▁Ka	-89
ti	-90
▁ba	-91
god	-92
ina	-93
▁ko	-94
▁sinda	-95
▁kun	-96
man	-97
▁ga	-98
▁Jesu	-99
▁kay	-100
▁gina	-101
▁kamo	-102
▁ha	-103
▁niya	-104
lo	-105
ero	-106
▁iyo	-107
▁ini	-108
si	-109
ton	-110
mu	-111
▁Jesus	-112
▁da	-113
▁ako	-114
▁G	-115
▁M	-116
▁may	-117
▁lang	-118
▁sani	-119
wo	-120
us	-121
."	-122
tuod	-123
pos	-124
sabi	-125
▁tan	-126
re	-127
yod	-128
▁niyo	-129
du	-130
▁gayod	-131
▁akon	-132
▁tawo	-133
ho	-134
▁Pa	-135
▁tanan	-136
▁su	-137
▁inda	-138
ru	-139
wara	-140
is	-141
do	-142
ana	-143
▁Gin	-144
inda	-145
▁para	-146
▁u	-147
▁wara	-148
▁Kaya	-149
gu	-150
ano	-151
▁ninda	-152
kita	-153
pi	-154
▁t	-155
gan	-156
ris	-157
▁bi	-158
▁maka	-159
yan	-160
▁pagka	-161
yon	-162
pon	-163
es	-164
ko	-165
sad	-166
▁bu	-167
▁T	-168
▁la	-169
▁Ma	-170
▁An	-171
▁naman	-172
agi	-173
▁agod	-174
▁amo	-175
mon	-176
hay	-177
▁naka	-178
lan	-179
▁kan	-180
▁Na	-181
go	-182
ungod	-183
ara	-184
himo	-185
risto	-186
mi	-187
▁ki	-188
bot	-189
tay	-190
Cristo	-191
▁pero	-192
ayo	-193
▁imo	-194
gad	-195
hon	-196
▁Pero	-197
oo	-198
law	-199
og	-200
una	-201
sip	-202
▁paagi	-203
hu	-204
▁o	-205
▁San	-206
ak	-207
reho	-208
gar	-209
▁mo	-210
▁Nag	-211
rma	-212
▁ginpa	-213
▁Ta	-214
sal	-215
▁Ju	-216
yi	-217
pod	-218
▁hali	-219
▁B	-220
▁Ginoo	-221
rmaton	-222
iyan	-223
▁iba	-224
tuk	-225
unga	-226
▁lu	-227
▁kina	-228
bat	-229
▁Paka	-230
was	-231
▁kaya	-232
sta	-233
▁usad	-234
▁Niyan	-235
abot	-236
upod	-237
▁kata	-238
▁aton	-239
▁kundi	-240
▁Cristo	-241
▁gi	-242
dlaw	-243
hapon	-244
▁I	-245
▁b	-246
sura	-247
▁gihapon	-248
lin	-249
▁maga	-250
▁kita	-251
▁baga	-252
▁nano	-253
▁du	-254
▁E	-255
san	-256
▁kami	-257
▁pareho	-258
tra	-259
los	-260
uhan	-261
dio	-262
piri	-263
pat	-264
uno	-265
▁paga	-266
yag	-267
er	-268
hata	-269
▁tu	-270
▁kama	-271
▁Tapos	-272
▁Sa	-273
dan	-274
▁pagtuod	-275
buhay	-276
▁didto	-277
pirito	-278
tapos	-279
▁manungod	-280
▁nagpa	-281
en	-282
▁adlaw	-283
▁paka	-284
diri	-285
usto	-286
ay	-287
gani	-288
▁ngani	-289
el	-290
lulu	-291
ulos	-292
tukdo	-293
▁ika	-294
▁'	-295
▁nagka	-296
▁hasta	-297
▁anak	-298
▁bisan	-299
tawa	-300
hod	-301
ku	-302
▁maayo	-303
pay	-304
▁nagapa	-305
▁Pag	-306
sabat	-307
▁magpa	-308
surmaton	-309
sugu	-310
▁ina	-311
hunga	-312
▁pagpa	-313
▁sadiri	-314
▁gusto	-315
it	-316
▁namu	-317
yu	-318
lod	-319
hatag	-320
suguan	-321
ig	-322
hang	-323
?"	-324
wuhan	-325
▁kinab	-326
em	-327
▁Kun	-328
▁katawuhan	-329
▁sana	-330
mba	-331
bati	-332
▁mis	-333
ila	-334
anghod	-335
angan	-336
▁pina	-337
▁Judio	-338
▁disip	-339
usog	-340
▁Es	-341
▁d	-342
▁Kasuguan	-343
▁mismo	-344
ram	-345
pan	-346
▁buhay	-347
sala	-348
▁disipulos	-349
as	-350
▁Si	-351
▁kaupod	-352
ed	-353
muno	-354
pu	-355
▁Dili	-356
unod	-357
▁kada	-358
▁pi	-359
▁namon	-360
dad	-361
▁dapat	-362
▁nagatuod	-363
▁Espirito	-364
bo	-365
▁mapa	-366
▁H	-367
bayi	-368
▁sadto	-369
bar	-370
lipay	-371
gi	-372
hala	-373
surat	-374
raot	-375
▁ginsabi	-376
hayag	-377
rita	-378
▁langit	-379
▁lawas	-380
▁nagsabi	-381
▁Pakatapos	-382
▁tapos	-383
be	-384
▁pan	-385
dayon	-386
garan	-387
anal	-388
▁taga	-389
tawag	-390
▁amon	-391
tin	-392
yari	-393
▁babayi	-394
pe	-395
▁ginapa	-396
▁hi	-397
hom	-398
yaw	-399
laki	-400
blo	-401
sugo	-402
▁Da	-403
ripon	-404
▁sugad	-405
ong	-406
way	-407
▁Ama	-408
hilan	-409
hanglan	-410
sunod	-411
.'	-412
tub	-413
▁tungod	-414
▁naki	-415
▁namumuno	-416
ung	-417
me	-418
▁lalaki	-419
kop	-420
uru	-421
bali	-422
gadyi	-423
lay	-424
▁kasa	-425
log	-426
aram	-427
gh	-428
▁Ba	-429
▁pana	-430
baya	-431
▁bilang	-432
▁kapa	-433
▁magin	-434
salbar	-435
▁magka	-436
muot	-437
▁Pablo	-438
ni	-439
hus	-440
om	-441
te	-442
gwa	-443
dian	-444
▁lugod	-445
dog	-446
tar	-447
sari	-448
▁sabi	-449
▁lugar	-450
▁maraot	-451
▁nakita	-452
oy	-453
▁idto	-454
ranghod	-455
▁panahon	-456
po	-457
tuman	-458
▁aram	-459
sawa	-460
ili	-461
dara	-462
edro	-463
ghel	-464
lala	-465
▁suru	-466
▁anghel	-467
hin	-468
Wara	-469
▁didi	-470
▁l	-471
▁ada	-472
▁Pedro	-473
kig	-474
▁ti	-475
▁ipa	-476
▁pro	-477
sarig	-478
sulod	-479
▁kamaranghod	-480
balik	-481
tuu	-482
lib	-483
luwas	-484
hali	-485
▁damo	-486
ing	-487
tuna	-488
tanos	-489
▁Gina	-490
▁kaha	-491
suratan	-492
yin	-493
Nano	-494
▁mas	-495
▁dahilan	-496
▁May	-497
ob	-498
duan	-499
▁Anak	-500
▁duha	-501
gay	-502
ham	-503
mat	-504
▁Ini	-505
▁gahom	-506
usan	-507
tuudan	-508
▁surmaton	-509
▁masa	-510
▁U	-511
tras	-512
araman	-513
▁Santo	-514
yintras	-515
!"	-516
peta	-517
▁kasal	-518
▁pinaka	-519
guon	-520
isip	-521
▁balay	-522
▁bilog	-523
▁kinahanglan	-524
Ma	-525
rme	-526
▁propeta	-527
muan	-528
▁Nano	-529
▁naton	-530
baw	-531
,"	-532
rya	-533
tayon	-534
▁Nagsabat	-535
matay	-536
pangadyi	-537
▁Amo	-538
▁Maayo	-539
▁Juan	-540
▁ngaran	-541
▁suruguon	-542
tang	-543
▁pw	-544
pang	-545
ron	-546
ali	-547
muon	-548
bihan	-549
salem	-550
▁Mga	-551
angyari	-552
rusalem	-553
▁ginhimo	-554
kan	-555
ras	-556
luoy	-557
mati	-558
war	-559
▁mata	-560
▁sala	-561
syon	-562
▁susog	-563
kat	-564
▁Wara	-565
▁atub	-566
▁matuod	-567
dlo	-568
tiripon	-569
▁y	-570
tukduan	-571
eo	-572
mpa	-573
▁kon	-574
▁Kasuratan	-575
▁atubangan	-576
An	-577
▁yana	-578
▁dayon	-579
pit	-580
tes	-581
kadto	-582
▁ginatawag	-583
las	-584
Ka	-585
▁C	-586
kod	-587
dlok	-588
▁Didi	-589
▁makapa	-590
Ju	-591
bas	-592
emp	-593
mut	-594
sod	-595
huna	-596
emplo	-597
▁Barita	-598
kit	-599
▁adi	-600
▁templo	-601
dun	-602
uma	-603
usad	-604
▁Kay	-605
tios	-606
▁ikaw	-607
▁kala	-608
tindog	-609
▁sabihon	-610
le	-611
sya	-612
▁Su	-613
▁Naga	-614
▁katap	-615
▁kasadto	-616
ban	-617
▁ama	-618
▁igwa	-619
▁sina	-620
▁asawa	-621
don	-622
▁maki	-623
▁Banal	-624
▁gintu	-625
▁pakig	-626
bun	-627
inu	-628
Judio	-629
kusog	-630
▁ginasabi	-631
lig	-632
▁kaba	-633
▁pagkamuot	-634
lina	-635
ingkod	-636
▁Jerusalem	-637
na	-638
▁adto	-639
▁matanos	-640
▁ginahimo	-641
ia	-642
▁es	-643
▁is	-644
▁kabu	-645
▁L	-646
samba	-647
▁anay	-648
yudad	-649
▁niyan	-650
▁espirito	-651
▁katapusan	-652
lag	-653
ungsod	-654
▁kamatuudan	-655
ita	-656
kon	-657
▁hadi	-658
▁syudad	-659
ling	-660
▁Mag	-661
▁kap	-662
▁pirme	-663
▁pakadto	-664
▁dako	-665
husgar	-666
▁Sugad	-667
▁nagin	-668
handa	-669
galang	-670
ose	-671
▁hu	-672
rabe	-673
buot	-674
▁buot	-675
▁duta	-676
▁kahadian	-677
▁katukduan	-678
non	-679
Dili	-680
baho	-681
▁kam	-682
Na	-683
Gin	-684
torya	-685
suon	-686
yak	-687
▁isip	-688
▁nasa	-689
▁pagsarig	-690
▁ginsabihan	-691
gon	-692
▁li	-693
tigo	-694
istar	-695
▁pagla	-696
▁pagkabuhay	-697
patay	-698
▁sulod	-699
▁kadamuan	-700
gat	-701
galing	-702
mp	-703
tol	-704
igwa	-705
▁dida	-706
matuod	-707
postol	-708
▁grabe	-709
▁kontra	-710
▁makita	-711
bra	-712
isan	-713
▁hala	-714
▁patay	-715
bubuhay	-716
▁Mo	-717
guro	-718
▁ginsugo	-719
▁naghunga	-720
ago	-721
ises	-722
pili	-723
▁Didto	-724
▁Moises	-725
▁lungsod	-726
▁pagkaon	-727
▁sinabihan	-728
▁ku	-729
gipu	-730
▁bata	-731
▁dios	-732
▁kwar	-733
▁bagay	-734
▁tagipu	-735
▁apostol	-736
▁tagipusuon	-737
Kun	-738
ako	-739
riseo	-740
braham	-741
▁Pariseo	-742
Pa	-743
bog	-744
sir	-745
para	-746
▁oras	-747
▁Abraham	-748
▁tuna	-749
▁himuon	-750
▁maabot	-751
▁kamatayon	-752
ata	-753
kuha	-754
or	-755
sar	-756
rte	-757
▁kamot	-758
hatagan	-759
▁pagapa	-760
▁myintras	-761
dom	-762
kay	-763
tuya	-764
▁bin	-765
halad	-766
era	-767
got	-768
sara	-769
utan	-770
▁nagasabi	-771
uri	-772
▁kaa	-773
angya	-774
butan	-775
▁dati	-776
▁kapwa	-777
▁magapa	-778
▁nagaka	-779
angyayari	-780
▁ginhatag	-781
▁paratukdo	-782
sra	-783
▁de	-784
▁sul	-785
▁ayaw	-786
▁padi	-787
ur	-788
▁F	-789
▁ilo	-790
linaw	-791
so	-792
ria	-793
tahan	-794
ungan	-795
▁Tawo	-796
kilala	-797
▁kalulu	-798
▁pagkama	-799
ap	-800
dor	-801
igin	-802
▁iloy	-803
▁kalulululu	-804
hara	-805
sakop	-806
▁banal	-807
▁kapadian	-808
rus	-809
baton	-810
▁Aram	-811
▁Nagpa	-812
wi	-813
kina	-814
manon	-815
monyo	-816
▁Para	-817
▁pito	-818
siguro	-819
▁parte	-820
rat	-821
alang	-822
srael	-823
▁diin	-824
▁lalo	-825
▁tama	-826
▁tina	-827
lalang	-828
▁Matuod	-829
▁nangyari	-830
he	-831
big	-832
dados	-833
libre	-834
▁nakapa	-835
▁demonyo	-836
▁Ha	-837
anak	-838
erna	-839
hadi	-840
sirbe	-841
▁dara	-842
mang	-843
▁bag	-844
▁iga	-845
▁napa	-846
▁sinu	-847
▁kwarta	-848
vi	-849
pis	-850
tro	-851
ensa	-852
lakat	-853
▁tubig	-854
▁nasurat	-855
gali	-856
unan	-857
▁Siya	-858
▁bato	-859
yop	-860
▁kamut	-861
▁nabati	-862
▁makusog	-863
▁suldados	-864
▁maa	-865
▁tii	-866
▁krus	-867
ataman	-868
bayaan	-869
▁kaila	-870
▁kilala	-871
imo	-872
guha	-873
kadi	-874
lain	-875
sira	-876
huway	-877
▁angay	-878
▁hayop	-879
linguha	-880
▁maaraman	-881
lea	-882
daan	-883
▁ginsu	-884
husgaran	-885
▁Myintras	-886
▁nakakita	-887
▁pakatapos	-888
yer	-889
▁lahi	-890
▁pang	-891
▁sugo	-892
alilea	-893
maluoy	-894
▁antes	-895
Si	-896
uli	-897
obra	-898
umaw	-899
unon	-900
yutay	-901
hambog	-902
▁Ginpa	-903
▁kalayo	-904
▁Ugaling	-905
▁gintuga	-906
▁magigin	-907
▁nagsugo	-908
▁ginhunga	-909
▁nagsurmaton	-910
▁ban	-911
▁hin	-912
▁dugo	-913
▁kara	-914
▁naba	-915
▁tulo	-916
bunyag	-917
tubang	-918
▁Pagka	-919
▁mensa	-920
▁pu	-921
duha	-922
turu	-923
labaw	-924
▁pwer	-925
▁Bisan	-926
lub	-927
wag	-928
gana	-929
mbawa	-930
▁Pagpa	-931
▁Simon	-932
▁tanda	-933
salamat	-934
▁karautan	-935
but	-936
urit	-937
▁tra	-938
Ginoo	-939
bilin	-940
ilato	-941
linis	-942
musta	-943
▁habo	-944
ayuhan	-945
▁alang	-946
▁nagsu	-947
▁Pilato	-948
▁mensahe	-949
▁apostoles	-950
▁kamanghod	-951
gro	-952
lat	-953
kitan	-954
▁mila	-955
langga	-956
▁labaw	-957
▁maaram	-958
▁nasyon	-959
▁nagpakadto	-960
no	-961
rak	-962
vid	-963
kana	-964
▁pri	-965
bulig	-966
handom	-967
▁David	-968
▁milagro	-969
▁pwertahan	-970
ac	-971
se	-972
hoy	-973
por	-974
▁re	-975
damo	-976
▁kahoy	-977
▁pulos	-978
▁tinapay	-979
▁kaayuhan	-980
▁nagkadto	-981
ani	-982
dum	-983
rog	-984
dios	-985
wala	-986
▁Usad	-987
halapit	-988
istorya	-989
▁ginlalang	-990
unu	-991
dlan	-992
inom	-993
labi	-994
tulo	-995
agoga	-996
sakit	-997
siyak	-998
▁Kamo	-999
▁katu	-1000
▁pira	-1001
▁nabubuhay	-1002
de	-1003
riso	-1004
yuan	-1005
▁pata	-1006
urupod	-1007
▁Sadto	-1008
▁nagtuna	-1009
▁sinagoga	-1010
▁paghusgar	-1011
▁kamutangan	-1012
Mga	-1013
eli	-1014
gos	-1015
men	-1016
itaa	-1017
▁Her	-1018
▁pod	-1019
▁ulo	-1020
hanap	-1021
sabot	-1022
▁Hali	-1023
▁gali	-1024
butang	-1025
▁Maria	-1026
ud	-1027
mbi	-1028
luya	-1029
▁una	-1030
estro	-1031
yagan	-1032
▁dose	-1033
▁ilaw	-1034
mumuno	-1035
▁dagat	-1036
▁uripon	-1037
▁kalinaw	-1038
▁katuyuan	-1039
kaw	-1040
kot	-1041
.',"	-1042
▁uma	-1043
bahin	-1044
umanon	-1045
▁Adlaw	-1046
▁kadun	-1047
▁poder	-1048
▁Nasabi	-1049
▁Galilea	-1050
▁Ginsabi	-1051
ol	-1052
mit	-1053
sen	-1054
galo	-1055
▁glo	-1056
tawad	-1057
▁buta	-1058
▁Herod	-1059
▁matin	-1060
▁sabat	-1061
atubang	-1062
trabaho	-1063
▁pagbuot	-1064
▁paghimo	-1065
▁Pakabati	-1066
bay	-1067
mok	-1068
rado	-1069
▁pin	-1070
lagan	-1071
▁Ayaw	-1072
▁Juda	-1073
▁tuig	-1074
▁kabubut	-1075
▁magtuod	-1076
▁Pagpahuway	-1077
min	-1078
bantay	-1079
▁paglaom	-1080
kid	-1081
daog	-1082
gutan	-1083
▁kali	-1084
hadlok	-1085
▁ikaka	-1086
▁Pareho	-1087
▁kahadlok	-1088
▁pinakana	-1089
▁kalulululuhan	-1090
▁pinakanamumuno	-1091
ede	-1092
wat	-1093
bara	-1094
oses	-1095
rono	-1096
▁gab	-1097
▁bado	-1098
isipan	-1099
mbahan	-1100
▁boses	-1101
▁trono	-1102
▁regalo	-1103
▁halapit	-1104
▁trabaho	-1105
▁pagtukdo	-1106
aku	-1107
ran	-1108
dero	-1109
▁bes	-1110
yaman	-1111
▁tiil	-1112
barita	-1113
▁ipapa	-1114
▁dyutay	-1115
▁pagkita	-1116
▁Pakakita	-1117
▁kadunungan	-1118
Sa	-1119
pak	-1120
sik	-1121
dina	-1122
tawo	-1123
stigo	-1124
halaga	-1125
karaot	-1126
kasala	-1127
▁kaisipan	-1128
▁nakabati	-1129
▁simbahan	-1130
▁mangyayari	-1131
,'	-1132
ab	-1133
gda	-1134
lon	-1135
Ayaw	-1136
kaon	-1137
▁Eli	-1138
▁kar	-1139
▁oro	-1140
manan	-1141
▁magbaya	-1142
▁nagtuod	-1143
Mag	-1144
pre	-1145
tanas	-1146
▁Jose	-1147
▁himo	-1148
hangyo	-1149
▁surat	-1150
▁Herodes	-1151
▁Satanas	-1152
▁nakikita	-1153
▁namumuot	-1154
▁pagtiripon	-1155
aga	-1156
mas	-1157
bang	-1158
puno	-1159
▁Isa	-1160
▁daw	-1161
asawa	-1162
hudan	-1163
▁gawi	-1164
▁madu	-1165
▁makig	-1166
▁pinili	-1167
▁istorya	-1168
▁mabuhay	-1169
▁nagsulod	-1170
▁nakimaluoy	-1171
▁nagasurmaton	-1172
dea	-1173
mot	-1174
mun	-1175
oso	-1176
migo	-1177
otro	-1178
unog	-1179
basol	-1180
▁Maga	-1181
▁basi	-1182
▁kadu	-1183
himuon	-1184
▁kaaway	-1185
▁diosnon	-1186
▁kaurupod	-1187
▁makikita	-1188
▁Nagpadayon	-1189
▁nagpadayon	-1190
▁O	-1191
mos	-1192
anon	-1193
lase	-1194
▁kaig	-1195
▁karn	-1196
▁papa	-1197
▁klase	-1198
▁sobra	-1199
▁nagahimo	-1200
co	-1201
Ako	-1202
ret	-1203
son	-1204
sul	-1205
buru	-1206
pani	-1207
raon	-1208
tani	-1209
bulag	-1210
lusad	-1211
ugali	-1212
▁Judas	-1213
▁sakop	-1214
▁tunay	-1215
▁Israel	-1216
▁kaluoy	-1217
galangan	-1218
▁pagtios	-1219
manghudan	-1220
talinguha	-1221
▁Ginsabat	-1222
▁nagasunod	-1223
bok	-1224
lom	-1225
▁Ce	-1226
hina	-1227
isog	-1228
tori	-1229
▁tuo	-1230
Niyan	-1231
ligan	-1232
▁Feli	-1233
▁kaka	-1234
▁Dapat	-1235
▁otori	-1236
▁ginpili	-1237
▁nagsabat	-1238
▁otoridad	-1239
▁pagbalik	-1240
▁pagpamatuod	-1241
▁kaigmanghudan	-1242
tri	-1243
kada	-1244
mpre	-1245
▁nan	-1246
libod	-1247
luluoy	-1248
yimpre	-1249
kondina	-1250
▁Tungod	-1251
▁nagasu	-1252
▁Dahilan	-1253
▁karnero	-1254
▁magkaon	-1255
▁matinumanon	-1256
yis	-1257
Pero	-1258
endi	-1259
taan	-1260
▁tig	-1261
dakop	-1262
yunan	-1263
▁Naka	-1264
▁Sina	-1265
▁paki	-1266
diosan	-1267
gurado	-1268
langan	-1269
turuod	-1270
anganga	-1271
sakitan	-1272
▁malinis	-1273
▁pagkasala	-1274
▁diosdiosan	-1275
▁pagsurmaton	-1276
bad	-1277
usa	-1278
won	-1279
▁La	-1280
uson	-1281
▁bar	-1282
gamit	-1283
hulat	-1284
kaigwa	-1285
▁Paagi	-1286
▁binhi	-1287
▁kanin	-1288
tanusan	-1289
▁mapapa	-1290
matuudan	-1291
▁kalipay	-1292
▁paghuna	-1293
▁nagatukdo	-1294
▁magpadayon	-1295
Nag	-1296
ias	-1297
kri	-1298
pas	-1299
sag	-1300
▁ig	-1301
abri	-1302
long	-1303
pisyo	-1304
▁Damo	-1305
▁Sani	-1306
▁buwa	-1307
▁puno	-1308
▁sing	-1309
Matuod	-1310
dunong	-1311
handal	-1312
sikway	-1313
▁Judea	-1314
▁makasa	-1315
▁nahimo	-1316
kripisyo	-1317
▁Syimpre	-1318
▁maghimo	-1319
▁namumut	-1320
▁nagaistar	-1321
▁paggalang	-1322
▁patalibod	-1323
bag	-1324
lya	-1325
ulo	-1326
Gina	-1327
anda	-1328
kusu	-1329
tuon	-1330
likay	-1331
tiago	-1332
▁hang	-1333
▁sakit	-1334
paniwala	-1335
▁ikaduha	-1336
▁ikatulo	-1337
▁malipay	-1338
▁mayaman	-1339
▁Santiago	-1340
▁madunong	-1341
▁katanusan	-1342
▁pagkasalbar	-1343
!'	-1344
ca	-1345
may	-1346
teo	-1347
tom	-1348
▁Be	-1349
anaw	-1350
gayo	-1351
luko	-1352
obre	-1353
tray	-1354
Kitaa	-1355
langi	-1356
mpaan	-1357
tuhan	-1358
sarabi	-1359
▁pwede	-1360
▁gindara	-1361
▁mamatay	-1362
▁nabuhay	-1363
▁nagahatag	-1364
▁ginhatagan	-1365
Sir	-1366
▁le	-1367
dako	-1368
siri	-1369
▁bay	-1370
luluy	-1371
▁bino	-1372
▁pani	-1373
▁beses	-1374
▁pagsu	-1375
▁pobre	-1376
ugalian	-1377
▁matuman	-1378
▁nagapang	-1379
▁sakripisyo	-1380
?'	-1381
Ha	-1382
um	-1383
hip	-1384
kal	-1385
sti	-1386
wis	-1387
▁Ti	-1388
agda	-1389
lano	-1390
laom	-1391
hipto	-1392
pirit	-1393
yerno	-1394
Israel	-1395
rakyan	-1396
▁bukid	-1397
▁buwis	-1398
▁hugot	-1399
▁malaw	-1400
▁ginaka	-1401
▁naghali	-1402
▁nakaabot	-1403
▁sarakyan	-1404
▁nagatuman	-1405
▁nagatindog	-1406
▁pagkamatay	-1407
▁nagapangadyi	-1408
mb	-1409
iba	-1410
lubn	-1411
mara	-1412
rupo	-1413
sita	-1414
tago	-1415
▁dis	-1416
▁lib	-1417
▁mai	-1418
▁nau	-1419
▁tag	-1420
dumdu	-1421
mundo	-1422
priso	-1423
sakay	-1424
▁kuno	-1425
▁maba	-1426
▁mahu	-1427
batyag	-1428
▁libro	-1429
▁prisu	-1430
▁pwera	-1431
siriyak	-1432
▁maluya	-1433
langitan	-1434
▁namatay	-1435
▁patayon	-1436
▁ginbuhay	-1437
▁kayamanan	-1438
▁mabubuhay	-1439
▁nagtindog	-1440
▁kalangitan	-1441
▁pinakalabaw	-1442
Di	-1443
tor	-1444
yal	-1445
gaga	-1446
▁mak	-1447
andai	-1448
banal	-1449
tayan	-1450
tipon	-1451
▁isda	-1452
akusar	-1453
kontra	-1454
pisyal	-1455
porbar	-1456
▁ginha	-1457
▁handa	-1458
▁nagdu	-1459
Maestro	-1460
testigo	-1461
traydor	-1462
▁Felipe	-1463
▁barita	-1464
▁hangin	-1465
▁Nagsabi	-1466
▁kuntani	-1467
▁ugaling	-1468
▁hihimuon	-1469
▁makasasala	-1470
▁pinakapuno	-1471
Je	-1472
eng	-1473
Kamo	-1474
gara	-1475
buson	-1476
luhan	-1477
radto	-1478
yerto	-1479
▁damu	-1480
▁hina	-1481
▁mawa	-1482
▁nali	-1483
▁upat	-1484
sensya	-1485
▁tunga	-1486
lubngan	-1487
▁katuna	-1488
▁kaurit	-1489
▁disyerto	-1490
▁gintukdo	-1491
▁kabataan	-1492
▁magtukdo	-1493
▁makakita	-1494
▁masasabi	-1495
▁pagsunod	-1496
▁Halimbawa	-1497
▁nagpakita	-1498
▁sinumpaan	-1499
kinahanglan	-1500
▁nagtiripon	-1501
sk	-1502
Sin	-1503
lak	-1504
say	-1505
giya	-1506
lian	-1507
reto	-1508
turi	-1509
yaan	-1510
▁gob	-1511
▁mau	-1512
▁uru	-1513
adlaw	-1514
gwahi	-1515
intri	-1516
muhay	-1517
tigos	-1518
▁Paga	-1519
▁Sana	-1520
▁Timo	-1521
▁leng	-1522
▁lima	-1523
▁mabu	-1524
▁mali	-1525
▁mama	-1526
▁panu	-1527
lubong	-1528
▁Sinda	-1529
▁danaw	-1530
▁hunga	-1531
sabihon	-1532
▁bituon	-1533
inubuson	-1534
▁naghimo	-1535
▁gintawag	-1536
▁kapareho	-1537
▁naaraman	-1538
▁nagbalik	-1539
▁pakakita	-1540
▁lenggwahi	-1541
▁Ginsabihan	-1542
ry	-1543
Amo	-1544
May	-1545
gab	-1546
gal	-1547
wan	-1548
▁al	-1549
pana	-1550
seho	-1551
skwa	-1552
▁lin	-1553
▁naa	-1554
▁pre	-1555
▁tes	-1556
lukop	-1557
runga	-1558
undon	-1559
▁gini	-1560
▁maha	-1561
▁ginsa	-1562
▁ugali	-1563
ernador	-1564
gagahom	-1565
▁Timoteo	-1566
▁magsabi	-1567
▁opisyal	-1568
▁ginsabat	-1569
▁mangyari	-1570
▁pagsamba	-1571
▁Sinabihan	-1572
▁nagaturuod	-1573
▁kalulululuhi	-1574
ok	-1575
bin	-1576
gas	-1577
kla	-1578
res	-1579
tog	-1580
▁Kor	-1581
▁hig	-1582
kanan	-1583
kinab	-1584
malay	-1585
tugot	-1586
tunai	-1587
▁biyo	-1588
▁hata	-1589
▁nasu	-1590
ernabe	-1591
urusad	-1592
▁bulan	-1593
▁bunga	-1594
▁luwas	-1595
intriga	-1596
▁hinimo	-1597
▁mahimo	-1598
▁parasu	-1599
dumduman	-1600
kondinar	-1601
▁Bernabe	-1602
▁Kordero	-1603
▁kastigo	-1604
▁ginsurat	-1605
▁masalbar	-1606
▁nabatian	-1607
▁pangadyi	-1608
▁prisuhan	-1609
▁surudlan	-1610
▁ginikanan	-1611
▁halimbawa	-1612
▁panimalay	-1613
▁makanganga	-1614
cia	-1615
tos	-1616
▁gu	-1617
Ikaw	-1618
Kaya	-1619
mhan	-1620
waan	-1621
▁Mas	-1622
▁pas	-1623
dayaw	-1624
parar	-1625
runod	-1626
yablo	-1627
agihan	-1628
batian	-1629
mahala	-1630
▁ginba	-1631
▁grupo	-1632
▁kapaw	-1633
kumusta	-1634
mpyerno	-1635
▁Ehipto	-1636
▁glorya	-1637
▁kalahi	-1638
preparar	-1639
▁magpaka	-1640
▁masarig	-1641
▁naghatag	-1642
▁pagahadi	-1643
▁magkaigwa	-1644
▁nagkasala	-1645
▁pagkaaram	-1646
Ta	-1647
iya	-1648
mua	-1649
til	-1650
▁ru	-1651
biyo	-1652
rayo	-1653
▁Sin	-1654
miton	-1655
udong	-1656
▁buho	-1657
▁napu	-1658
▁nata	-1659
▁sawa	-1660
daanan	-1661
mhanan	-1662
▁Elias	-1663
▁Saulo	-1664
▁ginbu	-1665
▁hayag	-1666
dirihan	-1667
▁Paskwa	-1668
▁bantay	-1669
bunyagan	-1670
haradlok	-1671
▁manlain	-1672
▁makabati	-1673
▁nagluwas	-1674
▁sasabihon	-1675
▁masasalbar	-1676
▁pinalangga	-1677
▁magsurmaton	-1678
▁pagpangadyi	-1679
ena	-1680
oma	-1681
acob	-1682
aret	-1683
mbay	-1684
onia	-1685
piki	-1686
▁Ako	-1687
▁kad	-1688
▁sik	-1689
guhon	-1690
ryoso	-1691
▁Igwa	-1692
umusta	-1693
▁Jacob	-1694
hurunga	-1695
kangara	-1696
▁Dyablo	-1697
▁tagadi	-1698
kaluluoy	-1699
▁Nasurat	-1700
▁paluwas	-1701
▁sikreto	-1702
▁gloryoso	-1703
inahanglan	-1704
▁ginpakita	-1705
▁kasuratan	-1706
▁kaugalian	-1707
▁nakasurat	-1708
▁Ginasiguro	-1709
▁ginpaniwala	-1710
am	-1711
ir	-1712
bit	-1713
pok	-1714
ros	-1715
wal	-1716
buwa	-1717
esto	-1718
huru	-1719
ayuno	-1720
bayon	-1721
luhod	-1722
pirme	-1723
▁Idto	-1724
▁bina	-1725
▁ista	-1726
▁pahu	-1727
dumdom	-1728
▁Cesar	-1729
▁magma	-1730
▁pagsa	-1731
▁sanga	-1732
pahayag	-1733
▁makaka	-1734
▁konseho	-1735
▁pagsabi	-1736
▁pangita	-1737
kangarawa	-1738
▁nagapara	-1739
▁paglakat	-1740
▁sigurado	-1741
▁Parasalbar	-1742
▁gobernador	-1743
▁magaataman	-1744
▁nagaingkod	-1745
▁kasadirihan	-1746
eb	-1747
ui	-1748
Ini	-1749
ego	-1750
luy	-1751
rea	-1752
ren	-1753
tio	-1754
▁ar	-1755
anan	-1756
ayan	-1757
dali	-1758
iila	-1759
mero	-1760
uyon	-1761
▁Man	-1762
▁ara	-1763
indog	-1764
milya	-1765
riego	-1766
▁libo	-1767
▁nahi	-1768
edonia	-1769
▁amigo	-1770
▁priso	-1771
manghod	-1772
▁Isaias	-1773
▁buwaon	-1774
▁harayo	-1775
▁napapa	-1776
▁nagdara	-1777
Jerusalem	-1778
▁Ginhunga	-1779
▁ginhalad	-1780
▁ginhayag	-1781
▁lawasnon	-1782
▁mahalaga	-1783
▁nakaaram	-1784
▁pagsirbe	-1785
▁pinakama	-1786
▁ginatukdo	-1787
▁magpamati	-1788
▁makasulod	-1789
▁nagasamba	-1790
▁nagkaigwa	-1791
▁rulubngan	-1792
▁parabantay	-1793
Pag	-1794
eso	-1795
sin	-1796
dong	-1797
panu	-1798
taod	-1799
yuda	-1800
bendi	-1801
himat	-1802
kiton	-1803
labot	-1804
linan	-1805
sudan	-1806
taran	-1807
▁Amen	-1808
▁Pina	-1809
▁kuma	-1810
▁naha	-1811
pakita	-1812
▁dalan	-1813
▁nagtu	-1814
linisan	-1815
▁ginaba	-1816
▁maisog	-1817
▁Ginhimo	-1818
▁istaran	-1819
▁matahom	-1820
▁Pakasabi	-1821
▁ginpatay	-1822
▁magkadto	-1823
▁nagsiyak	-1824
▁pagsulod	-1825
▁mamamatay	-1826
▁nagalakat	-1827
▁parasukot	-1828
▁magpasakop	-1829
▁nagapamati	-1830
▁pagpahayag	-1831
▁nagatiripon	-1832
gol	-1833
rhi	-1834
sid	-1835
▁Le	-1836
duma	-1837
lata	-1838
libo	-1839
mesa	-1840
pita	-1841
tiri	-1842
hulog	-1843
iuson	-1844
tanom	-1845
yista	-1846
yuhan	-1847
▁Baga	-1848
▁masu	-1849
tangis	-1850
uripon	-1851
▁altar	-1852
▁kalaw	-1853
▁kitaa	-1854
▁nakig	-1855
bayihan	-1856
cedonia	-1857
hahatag	-1858
sabutan	-1859
▁Griego	-1860
▁Tandai	-1861
▁lamesa	-1862
stiguhon	-1863
▁pamilya	-1864
▁primero	-1865
▁Manungod	-1866
▁Naghunga	-1867
▁magsulod	-1868
▁masakiton	-1869
▁pangitaon	-1870
▁ginpahayag	-1871
▁nagakasala	-1872
▁nagkaradto	-1873
▁kababayihan	-1874
Da	-1875
boy	-1876
ela	-1877
gya	-1878
ino	-1879
kin	-1880
kol	-1881
lid	-1882
rum	-1883
▁Pi	-1884
▁Pw	-1885
daya	-1886
feso	-1887
mbit	-1888
mpog	-1889
mpor	-1890
sigi	-1891
uman	-1892
▁Mar	-1893
▁isa	-1894
dagda	-1895
kupon	-1896
lipas	-1897
munga	-1898
samok	-1899
tante	-1900
▁Adto	-1901
binsya	-1902
bulong	-1903
unudon	-1904
▁Nagka	-1905
▁baryo	-1906
▁bulig	-1907
▁halad	-1908
▁nauna	-1909
▁pagma	-1910
baligya	-1911
▁ilawan	-1912
▁makaon	-1913
▁masabi	-1914
▁napulo	-1915
▁tiilan	-1916
▁madugay	-1917
▁napatay	-1918
mportante	-1919
▁Nangyari	-1920
▁ipapatay	-1921
▁ginbutang	-1922
▁nagasirbe	-1923
▁nagahandom	-1924
▁parakasala	-1925
▁magkakaigwa	-1926
▁Nagapangadyi	-1927
▁ginasurmaton	-1928
ug	-1929
aro	-1930
uia	-1931
▁Bu	-1932
away	-1933
dung	-1934
mana	-1935
pira	-1936
rona	-1937
suay	-1938
suru	-1939
▁tin	-1940
matan	-1941
patan	-1942
urang	-1943
▁dina	-1944
▁kinu	-1945
▁kupa	-1946
▁mang	-1947
▁trum	-1948
syunan	-1949
▁Gusto	-1950
▁Isaac	-1951
▁Kitaa	-1952
▁Kundi	-1953
▁dugay	-1954
▁ginka	-1955
▁higad	-1956
abrihan	-1957
burulag	-1958
siplina	-1959
tawadon	-1960
ustuhan	-1961
▁dampog	-1962
▁kabayo	-1963
▁nakatu	-1964
▁pagaka	-1965
▁sinugo	-1966
bantayan	-1967
▁magtios	-1968
▁magsunod	-1969
▁makaaram	-1970
▁nagkauru	-1971
▁pagbulig	-1972
▁pagtuman	-1973
▁trumpita	-1974
▁makabaton	-1975
▁probinsya	-1976
▁tagakinab	-1977
▁pagkamatin	-1978
▁nagapasalamat	-1979
lug	-1980
sia	-1981
▁Ca	-1982
Kadi	-1983
badu	-1984
bwag	-1985
ripa	-1986
taas	-1987
tung	-1988
▁por	-1989
▁pun	-1990
bunga	-1991
dugay	-1992
inday	-1993
▁Este	-1994
▁Hadi	-1995
▁Maka	-1996
▁Naki	-1997
▁Sama	-1998
▁huna	-1999
▁tela	-2000
basang	-2001
tigana	-2002
▁sapat	-2003
▁tanom	-2004
maratay	-2005
▁biyuda	-2006
▁hinata	-2007
▁mapasa	-2008
▁pakadi	-2009
▁pamati	-2010
▁tinday	-2011
▁masunod	-2012
disiplina	-2013
panghatag	-2014
▁magaabot	-2015
▁nagalaom	-2016
▁nagsunod	-2017
▁nakatupa	-2018
▁palangga	-2019
▁uruadlaw	-2020
istoryahan	-2021
▁ginhalinan	-2022
▁pagkamaluluy	-2023
▁makangangalas	-2024
▁nagkaharadlok	-2025
:"	-2026
yn	-2027
000	-2028
Adi	-2029
goy	-2030
yot	-2031
▁Ga	-2032
▁Li	-2033
▁se	-2034
▁un	-2035
bado	-2036
gawa	-2037
ghot	-2038
guru	-2039
hana	-2040
lman	-2041
luyo	-2042
mbat	-2043
▁000	-2044
▁hit	-2045
bayad	-2046
kidan	-2047
pilak	-2048
sunog	-2049
yngoy	-2050
▁Sabi	-2051
▁kahi	-2052
▁nang	-2053
▁suba	-2054
▁tung	-2055
anakan	-2056
badura	-2057
bisita	-2058
bungan	-2059
minuru	-2060
▁Antio	-2061
▁kanda	-2062
▁nagbu	-2063
▁utang	-2064
lasakit	-2065
▁kamuot	-2066
▁kulang	-2067
panambay	-2068
▁hitsura	-2069
▁magtuna	-2070
▁makawat	-2071
▁naghara	-2072
▁baybayon	-2073
▁kaanakan	-2074
▁magbasol	-2075
▁kabukidan	-2076
▁Parabunyag	-2077
▁makagagahom	-2078
▁nagapamatuod	-2079
alo	-2080
bal	-2081
bli	-2082
day	-2083
gko	-2084
hag	-2085
hak	-2086
Naga	-2087
rias	-2088
tama	-2089
tong	-2090
dulag	-2091
galas	-2092
lapit	-2093
layag	-2094
mawon	-2095
menos	-2096
sadto	-2097
usadi	-2098
▁Kama	-2099
▁Taud	-2100
▁baka	-2101
▁hain	-2102
▁kuha	-2103
▁matu	-2104
▁natu	-2105
▁pila	-2106
▁puti	-2107
▁urhi	-2108
Pareho	-2109
bangon	-2110
pangin	-2111
ryahan	-2112
tiwala	-2113
▁Pirme	-2114
▁barko	-2115
▁buhok	-2116
▁haros	-2117
▁plano	-2118
▁plata	-2119
lakihan	-2120
sabihan	-2121
▁Ginapa	-2122
▁bantog	-2123
▁daraga	-2124
▁higera	-2125
▁pakita	-2126
▁parali	-2127
▁ginpako	-2128
▁mabalik	-2129
▁nagaako	-2130
▁ginaisip	-2131
▁impyerno	-2132
▁magbalik	-2133
▁pagpatay	-2134
▁pakabati	-2135
▁kalisudan	-2136
▁kasakitan	-2137
▁magbantay	-2138
ristoryahan	-2139
▁kagustuhan	-2140
▁magpahayag	-2141
▁kalalakihan	-2142
▁magapalinaw	-2143
▁nagapadayon	-2144
▁nagakinahanglan	-2145
dot	-2146
lik	-2147
myo	-2148
ten	-2149
tsa	-2150
▁Lu	-2151
▁po	-2152
Paka	-2153
basa	-2154
kado	-2155
pina	-2156
rong	-2157
tiko	-2158
yera	-2159
yuon	-2160
▁abi	-2161
▁din	-2162
angon	-2163
bakal	-2164
balos	-2165
basan	-2166
dunot	-2167
gapos	-2168
hayon	-2169
lanan	-2170
rason	-2171
ritan	-2172
sarea	-2173
▁Adan	-2174
▁daan	-2175
▁masi	-2176
aperna	-2177
harayo	-2178
lauman	-2179
ngalas	-2180
rensya	-2181
uritan	-2182
▁Efeso	-2183
▁Pwera	-2184
▁kamun	-2185
▁kusog	-2186
dalagan	-2187
istaran	-2188
▁Nakita	-2189
▁kamino	-2190
▁kinuha	-2191
▁korona	-2192
▁mabuot	-2193
▁pakapa	-2194
▁parapa	-2195
▁premyo	-2196
apernaum	-2197
linguhaa	-2198
▁Esteban	-2199
▁Kasadto	-2200
▁Malipay	-2201
▁magdara	-2202
▁manghod	-2203
▁nagkadi	-2204
▁pahumot	-2205
▁Ginasabi	-2206
▁ihahatag	-2207
▁kadulman	-2208
▁maghatag	-2209
▁maghunga	-2210
▁magsamba	-2211
▁mawawara	-2212
▁nagakaon	-2213
▁nagluhod	-2214
▁nagtukdo	-2215
▁nahimuan	-2216
▁testigos	-2217
▁ginbayaan	-2218
▁masabutan	-2219
▁pagkadios	-2220
▁parasunod	-2221
▁nagasarabi	-2222
▁naghalapit	-2223
▁nagpahayag	-2224
▁nakaingkod	-2225
▁Ginakumusta	-2226
▁Kinahanglan	-2227
▁magkaminuru	-2228
▁magpangadyi	-2229
aw	-2230
ut	-2231
esi	-2232
gla	-2233
kog	-2234
lot	-2235
mga	-2236
oni	-2237
rab	-2238
▁Hi	-2239
▁Jo	-2240
▁Oo	-2241
guti	-2242
hiri	-2243
ilas	-2244
irog	-2245
mano	-2246
mbes	-2247
pada	-2248
rmat	-2249
sisa	-2250
tdot	-2251
tuan	-2252
urhi	-2253
▁Mel	-2254
▁kat	-2255
▁kau	-2256
▁pon	-2257
▁tul	-2258
dalom	-2259
guyod	-2260
hiwag	-2261
huban	-2262
kanta	-2263
libot	-2264
plano	-2265
sumat	-2266
yahan	-2267
▁Basi	-2268
▁Ikaw	-2269
▁balo	-2270
▁hini	-2271
▁mapu	-2272
▁ubas	-2273
angkon	-2274
hidara	-2275
landon	-2276
langit	-2277
mindog	-2278
▁Bukid	-2279
▁Silas	-2280
▁akusa	-2281
▁batan	-2282
▁imbes	-2283
▁libre	-2284
▁pagtu	-2285
bibilin	-2286
garanan	-2287
lungsod	-2288
ruluwas	-2289
▁ginasa	-2290
▁ihatag	-2291
▁ispada	-2292
▁pakusu	-2293
▁pastor	-2294
▁ponsya	-2295
iringkod	-2296
kulangan	-2297
porbaran	-2298
▁Cesarea	-2299
▁dinghot	-2300
▁ginpara	-2301
▁hatagan	-2302
▁makasal	-2303
▁maluluy	-2304
▁nagbaya	-2305
▁padayon	-2306
▁husgaran	-2307
▁lubungan	-2308
Ginasiguro	-2309
▁Macedonia	-2310
▁akusasyon	-2311
▁ginlubong	-2312
▁kamunduan	-2313
▁nagahanap	-2314
▁opisyales	-2315
▁pagkatawo	-2316
bendisyunan	-2317
▁nagsiriyak	-2318
▁pangyayari	-2319
▁ginagalangan	-2320
ad	-2321
awa	-2322
kto	-2323
pad	-2324
reo	-2325
rha	-2326
rom	-2327
uso	-2328
yas	-2329
bana	-2330
daug	-2331
imbi	-2332
pako	-2333
rhon	-2334
roso	-2335
siro	-2336
unom	-2337
▁Pan	-2338
hugas	-2339
klamo	-2340
luman	-2341
lusan	-2342
omano	-2343
pihak	-2344
pugol	-2345
punon	-2346
sobra	-2347
tuhon	-2348
▁alas	-2349
▁anit	-2350
▁baya	-2351
▁malu	-2352
▁tika	-2353
▁tinu	-2354
dagdag	-2355
dasyon	-2356
ritaan	-2357
▁Magpa	-2358
▁bahin	-2359
▁bendi	-2360
▁gutom	-2361
▁kagur	-2362
▁magtu	-2363
▁pilay	-2364
▁tiyan	-2365
dapatan	-2366
pangayo	-2367
tawagon	-2368
▁Nagapa	-2369
▁Pinaka	-2370
▁bayhon	-2371
▁bisita	-2372
▁ginatu	-2373
▁kwarto	-2374
▁mabati	-2375
▁mamati	-2376
batyagan	-2377
sirbihan	-2378
▁Paghali	-2379
▁isalbar	-2380
▁makadto	-2381
▁mangayo	-2382
▁mapatay	-2383
▁masakit	-2384
▁tugutan	-2385
▁galangan	-2386
▁gamhanan	-2387
▁ginasugo	-2388
▁ginlibre	-2389
▁hinimuan	-2390
▁kahandal	-2391
▁maghalad	-2392
▁nagsakay	-2393
▁Capernaum	-2394
▁Pagkaotro	-2395
▁ginahalad	-2396
▁ginahatag	-2397
▁hahatagan	-2398
▁langitnon	-2399
▁nagasiyak	-2400
▁paghandom	-2401
▁pundasyon	-2402
▁ginpaluwas	-2403
▁kagurangan	-2404
▁kakulangan	-2405
▁nahahadlok	-2406
iristoryahan	-2407
▁ginapahayag	-2408
▁nasasabutan	-2409
▁nagkangarawa	-2410
sy	-2411
ub	-2412
aca	-2413
asi	-2414
bel	-2415
dos	-2416
hob	-2417
rok	-2418
tas	-2419
tun	-2420
Didi	-2421
Hali	-2422
baha	-2423
egos	-2424
gado	-2425
saka	-2426
▁Ina	-2427
▁Jor	-2428
▁agi	-2429
▁bal	-2430
▁iru	-2431
▁kal	-2432
▁per	-2433
anias	-2434
kudan	-2435
lanta	-2436
limos	-2437
masco	-2438
payon	-2439
raway	-2440
sagka	-2441
▁Asia	-2442
▁Tama	-2443
▁bang	-2444
▁bubu	-2445
▁dayo	-2446
▁lumu	-2447
▁nama	-2448
▁otro	-2449
▁tabi	-2450
aluhan	-2451
arabot	-2452
dyutay	-2453
klanan	-2454
kuhaon	-2455
sigida	-2456
tungan	-2457
▁Festo	-2458
▁balod	-2459
▁maati	-2460
▁sutil	-2461
acarias	-2462
badlian	-2463
▁Jordan	-2464
▁Umawon	-2465
▁agihan	-2466
▁itukdo	-2467
▁kapawa	-2468
▁lambat	-2469
▁naiila	-2470
▁ubasan	-2471
baritaan	-2472
testigos	-2473
▁ginkuha	-2474
▁ipakita	-2475
▁katakin	-2476
▁nagpara	-2477
▁nalipay	-2478
▁tumanon	-2479
▁ginapara	-2480
▁ginsumat	-2481
▁gintugon	-2482
▁kaaraman	-2483
▁kasuguan	-2484
▁magahadi	-2485
▁maglikay	-2486
▁magpatay	-2487
▁nagsumat	-2488
▁paghatag	-2489
▁maghusgar	-2490
▁makabahin	-2491
▁mapalipay	-2492
▁mapapatay	-2493
▁naghangyo	-2494
▁ginalauman	-2495
▁nabaritaan	-2496
▁nadumduman	-2497
▁nagsurunod	-2498
▁nangyayari	-2499
▁panurmaton	-2500
▁tungtungan	-2501
▁ginakalipay	-2502
▁ginpadaanan	-2503
▁magapadayon	-2504
▁nagapahayag	-2505
▁makasurmaton	-2506
▁mapainubuson	-2507
▁pagahusgaran	-2508
AN	-2509
Su	-2510
at	-2511
ic	-2512
Ama	-2513
ato	-2514
ceo	-2515
hol	-2516
olo	-2517
rim	-2518
rit	-2519
tir	-2520
▁ag	-2521
Usad	-2522
lome	-2523
ruba	-2524
ruto	-2525
tara	-2526
ugon	-2527
utod	-2528
yano	-2529
▁Ada	-2530
▁Cor	-2531
▁Heb	-2532
▁dum	-2533
▁hus	-2534
▁lep	-2535
▁pad	-2536
▁sir	-2537
apiki	-2538
badli	-2539
bayai	-2540
duceo	-2541
gawat	-2542
linga	-2543
lonia	-2544
retso	-2545
tania	-2546
tapok	-2547
turog	-2548
▁Tito	-2549
▁biya	-2550
▁nahu	-2551
▁obli	-2552
hitaas	-2553
inuman	-2554
▁Marta	-2555
▁labot	-2556
▁pagbu	-2557
▁tulda	-2558
Galilea	-2559
saramok	-2560
▁baruto	-2561
▁ginahu	-2562
▁ibabaw	-2563
▁kadali	-2564
▁mangko	-2565
▁naurit	-2566
▁sinabi	-2567
▁tandai	-2568
▁umawon	-2569
kinabang	-2570
▁Damasco	-2571
▁Saduceo	-2572
▁hinatag	-2573
▁kumadto	-2574
▁leproso	-2575
▁mahusay	-2576
▁paghali	-2577
▁talinga	-2578
▁Pagkaaga	-2579
▁binayaan	-2580
▁makilala	-2581
▁naglakat	-2582
▁nahadlok	-2583
▁pangyari	-2584
▁bubuhayon	-2585
▁ginagamit	-2586
▁ginahanap	-2587
▁ginasunod	-2588
▁ipapakita	-2589
▁kaduluman	-2590
▁maaaraman	-2591
▁makakadto	-2592
▁matraydor	-2593
▁naaaraman	-2594
▁nagahulat	-2595
▁nagasarig	-2596
▁nagasurat	-2597
▁nagpakadi	-2598
▁nasabutan	-2599
▁pakilabot	-2600
▁Pagkatapos	-2601
▁nagahusgar	-2602
▁nakasiguro	-2603
▁paralitiko	-2604
▁ginpabayaan	-2605
▁ikakahambog	-2606
▁pinakamenos	-2607
▁nagatalinguha	-2608
ge	-2609
ayu	-2610
bug	-2611
dal	-2612
gin	-2613
ira	-2614
rto	-2615
tok	-2616
▁ab	-2617
Igwa	-2618
edad	-2619
rist	-2620
tali	-2621
▁And	-2622
▁Ipa	-2623
▁Nan	-2624
▁Sal	-2625
▁kor	-2626
Kadto	-2627
kayan	-2628
kupan	-2629
lasyo	-2630
lidad	-2631
mutan	-2632
sagin	-2633
ulang	-2634
▁Babi	-2635
▁Bara	-2636
▁Levi	-2637
▁Mata	-2638
▁mamu	-2639
▁mana	-2640
▁nabu	-2641
▁turi	-2642
▁tuyo	-2643
anguru	-2644
tunaan	-2645
▁bigla	-2646
▁ginpu	-2647
▁gyera	-2648
▁kakad	-2649
▁kaluy	-2650
▁pader	-2651
ambutan	-2652
giyahan	-2653
mbunyag	-2654
ralakat	-2655
▁Maaram	-2656
▁halaba	-2657
▁isurat	-2658
▁kausad	-2659
▁kuhaon	-2660
▁nadaog	-2661
▁napili	-2662
▁nasabi	-2663
ristyano	-2664
tirindog	-2665
yistahan	-2666
▁Betania	-2667
▁Maestro	-2668
▁dakupon	-2669
▁ginaako	-2670
▁ginpaka	-2671
▁maghali	-2672
▁magluyo	-2673
▁mawawar	-2674
▁nabaton	-2675
▁nakapaa	-2676
▁pagpara	-2677
▁pagpili	-2678
▁palasyo	-2679
▁testigo	-2680
▁tinawag	-2681
panginano	-2682
▁abilidad	-2683
▁ginahuna	-2684
▁gindakop	-2685
▁gintuman	-2686
▁lebadura	-2687
▁magsirbe	-2688
▁nagahuna	-2689
▁naglayag	-2690
▁nangadyi	-2691
▁Babilonia	-2692
▁bendisyon	-2693
▁disiplina	-2694
▁ginatuman	-2695
▁magkasala	-2696
▁naglalang	-2697
▁nagsarabi	-2698
▁tagadidto	-2699
▁Nakimaluoy	-2700
▁importante	-2701
▁pagtrabaho	-2702
▁Nagsurmaton	-2703
▁nagkamaratay	-2704
▁pagmalasakit	-2705
▁ginpamatuudan	-2706
".	-2707
La	-2708
Oo	-2709
?""	-2710
Opo	-2711
bet	-2712
cos	-2713
gaw	-2714
haw	-2715
ire	-2716
iro	-2717
isi	-2718
lis	-2719
yos	-2720
▁Ag	-2721
▁Is	-2722
▁Ja	-2723
▁To	-2724
Anak	-2725
Dios	-2726
buan	-2727
ebed	-2728
edek	-2729
gang	-2730
inan	-2731
klat	-2732
mbro	-2733
pito	-2734
puyo	-2735
raok	-2736
tsar	-2737
utom	-2738
▁Apo	-2739
▁Dum	-2740
▁Kao	-2741
▁bun	-2742
▁dra	-2743
▁myi	-2744
Maayo	-2745
angis	-2746
aralo	-2747
arami	-2748
baran	-2749
bawal	-2750
damay	-2751
esias	-2752
human	-2753
iisip	-2754
lingi	-2755
pitan	-2756
sabet	-2757
sumpa	-2758
tabok	-2759
tirip	-2760
▁Kita	-2761
▁Solo	-2762
▁Tuna	-2763
▁huba	-2764
▁huru	-2765
▁isla	-2766
▁kasi	-2767
▁kisa	-2768
▁luyo	-2769
▁mahi	-2770
▁nadu	-2771
Nakita	-2772
dalena	-2773
dangad	-2774
ebedeo	-2775
kulang	-2776
lugdog	-2777
luluko	-2778
parado	-2779
sabwag	-2780
▁baboy	-2781
▁buang	-2782
▁gindu	-2783
▁magdu	-2784
▁manok	-2785
▁suhol	-2786
barahin	-2787
buligan	-2788
hanapon	-2789
kalipay	-2790
libohan	-2791
panumat	-2792
reklamo	-2793
▁Agripa	-2794
▁Andres	-2795
▁Hebreo	-2796
▁Mesias	-2797
▁dragon	-2798
▁gurang	-2799
▁halion	-2800
▁kitaon	-2801
▁mauuna	-2802
▁nagatu	-2803
▁nawara	-2804
▁panuga	-2805
▁pwesto	-2806
▁pyista	-2807
▁sundon	-2808
gamhanan	-2809
▁Ananias	-2810
▁Solomon	-2811
▁bangkat	-2812
▁gamiton	-2813
▁ginbasi	-2814
▁ginpang	-2815
▁hinunga	-2816
▁kasakit	-2817
▁mamuhay	-2818
▁myimbro	-2819
▁nagaara	-2820
▁nagsara	-2821
Pakatapos	-2822
dangadang	-2823
▁Elisabet	-2824
▁Pagsulod	-2825
▁iintriga	-2826
▁magpirme	-2827
▁magsabat	-2828
▁mahadlok	-2829
▁makahimo	-2830
▁nagadara	-2831
▁parareho	-2832
▁porbaran	-2833
▁tumindog	-2834
kondinaron	-2835
▁Magdalena	-2836
▁ginasamba	-2837
▁kalinawan	-2838
▁maghambog	-2839
▁nalilipay	-2840
▁pagkaluoy	-2841
▁Kaolibohan	-2842
▁ginahandom	-2843
▁ginpadayon	-2844
▁gintiripon	-2845
▁gintugutan	-2846
▁kabaklanan	-2847
▁magkalipay	-2848
▁nagakaraon	-2849
▁nagpabilin	-2850
▁nagruluwas	-2851
▁ginbunyagan	-2852
▁kapyistahan	-2853
▁nagatrabaho	-2854
▁magasurmaton	-2855
▁nagpasalamat	-2856
rt	-2857
Kan	-2858
Kay	-2859
Pan	-2860
ble	-2861
bre	-2862
bul	-2863
fas	-2864
kad	-2865
ldi	-2866
lsa	-2867
lyo	-2868
ote	-2869
ter	-2870
tud	-2871
▁In	-2872
▁Tu	-2873
Paga	-2874
Sabi	-2875
cari	-2876
duon	-2877
enti	-2878
gpon	-2879
hian	-2880
kaso	-2881
ligi	-2882
luan	-2883
lyas	-2884
mali	-2885
muli	-2886
pusi	-2887
rang	-2888
sing	-2889
tyon	-2890
uran	-2891
walo	-2892
yang	-2893
▁Bet	-2894
▁aku	-2895
▁aso	-2896
▁mer	-2897
arayo	-2898
balay	-2899
bayan	-2900
buton	-2901
dapat	-2902
garat	-2903
higda	-2904
hubog	-2905
intra	-2906
labas	-2907
ligad	-2908
ligya	-2909
liwat	-2910
manda	-2911
payan	-2912
rupod	-2913
senso	-2914
tagal	-2915
usisa	-2916
utang	-2917
wayan	-2918
▁Damu	-2919
▁edad	-2920
▁lana	-2921
▁lino	-2922
▁nawa	-2923
▁tawa	-2924
Tandai	-2925
anihon	-2926
banaag	-2927
bugana	-2928
dalyas	-2929
dungon	-2930
matian	-2931
mbahon	-2932
raslon	-2933
siraon	-2934
tapusi	-2935
turubo	-2936
unukan	-2937
▁Gintu	-2938
▁Hasta	-2939
▁Tomas	-2940
a	-2941
▁	-2942
n	-2943
i	-2944
s	-2945
o	-2946
g	-2947
k	-2948
m	-2949
u	-2950
t	-2951
d	-2952
y	-2953
p	-2954
l	-2955
r	-2956
b	-2957
h	-2958
.	-2959
e	-2960
,	-2961
w	-2962
-	-2963
"	-2964
0	-2965
D	-2966
P	-2967
J	-2968
K	-2969
N	-2970
A	-2971
S	-2972
;	-2973
7	-2974
#	-2975
&	-2976
M	-2977
G	-2978
?	-2979
T	-2980
C	-2981
'	-2982
I	-2983
B	-2984
!	-2985
E	-2986
H	-2987
c	-2988
U	-2989
W	-2990
:	-2991
L	-2992
O	-2993
F	-2994
v	-2995
f	-2996
