<unk>	0
<s>	0
</s>	0
an	-0
▁n	-1
▁s	-2
▁na	-3
▁k	-4
▁m	-5
in	-6
ag	-7
▁p	-8
▁sa	-9
ga	-10
▁ka	-11
▁an	-12
▁san	-13
iy	-14
ak	-15
di	-16
on	-17
ta	-18
da	-19
▁g	-20
ar	-21
▁mga	-22
at	-23
ay	-24
od	-25
iya	-26
▁gin	-27
▁di	-28
ab	-29
un	-30
al	-31
as	-32
▁kag	-33
os	-34
mo	-35
▁pag	-36
▁b	-37
to	-38
▁sin	-39
us	-40
ang	-41
li	-42
▁nag	-43
▁i	-44
▁t	-45
am	-46
ad	-47
▁kay	-48
▁in	-49
ah	-50
▁l	-51
▁mag	-52
es	-53
▁man	-54
ap	-55
is	-56
iyo	-57
▁naga	-58
ur	-59
▁ak	-60
aw	-61
▁h	-62
▁j	-63
▁ta	-64
▁iya	-65
ro	-66
ara	-67
▁dili	-68
▁siya	-69
▁dios	-70
▁pa	-71
uh	-72
ul	-73
▁kun	-74
▁si	-75
ita	-76
00	-77
700	-78
ot	-79
tu	-80
▁ga	-81
▁sinda	-82
ata	-83
▁ko	-84
▁ini	-85
▁kamo	-86
abi	-87
▁jes	-88
▁may	-89
▁pe	-90
ug	-91
um	-92
▁nam	-93
▁niya	-94
▁ni	-95
ali	-96
▁iyo	-97
▁da	-98
▁kaya	-99
▁ako	-100
il	-101
▁jesus	-102
▁a	-103
ri	-104
▁mak	-105
▁pero	-106
▁sani	-107
anan	-108
▁nak	-109
▁lang	-110
ig	-111
wo	-112
▁tawo	-113
wara	-114
yod	-115
▁niyo	-116
▁wara	-117
▁ma	-118
▁gayod	-119
▁akon	-120
▁pak	-121
aton	-122
▁kam	-123
og	-124
ano	-125
▁par	-126
dto	-127
▁tanan	-128
pos	-129
▁inda	-130
ung	-131
atu	-132
it	-133
▁d	-134
▁pagk	-135
▁kas	-136
uga	-137
▁nags	-138
ip	-139
▁amo	-140
inda	-141
uan	-142
ho	-143
▁ninda	-144
ra	-145
ih	-146
ayo	-147
▁ginp	-148
▁ag	-149
tuod	-150
ris	-151
ut	-152
yon	-153
lo	-154
up	-155
▁nano	-156
usad	-157
▁naman	-158
imo	-159
uhay	-160
▁agod	-161
agi	-162
ba	-163
▁kan	-164
▁gins	-165
adto	-166
ungod	-167
adi	-168
aram	-169
▁am	-170
han	-171
▁o	-172
▁tapos	-173
▁mo	-174
risto	-175
▁para	-176
iyan	-177
▁paagi	-178
cristo	-179
▁niyan	-180
iri	-181
▁imo	-182
▁hali	-183
oo	-184
abat	-185
▁ginoo	-186
eho	-187
uhan	-188
ud	-189
ub	-190
aga	-191
er	-192
do	-193
▁ginh	-194
law	-195
▁kin	-196
▁usad	-197
urm	-198
▁mas	-199
upod	-200
▁nagp	-201
wa	-202
ani	-203
ala	-204
abot	-205
urmaton	-206
▁anak	-207
▁kita	-208
unga	-209
▁nagap	-210
▁pareho	-211
▁maayo	-212
▁pagp	-213
apon	-214
▁kundi	-215
atag	-216
urat	-217
▁didto	-218
▁iba	-219
uon	-220
anga	-221
im	-222
▁aton	-223
▁cristo	-224
ada	-225
adlaw	-226
una	-227
▁is	-228
re	-229
ihapon	-230
▁kata	-231
▁gihapon	-232
uha	-233
yo	-234
▁pags	-235
isan	-236
▁nagk	-237
udi	-238
▁kami	-239
▁nagas	-240
ya	-241
▁magp	-242
udio	-243
uot	-244
▁adlaw	-245
ako	-246
uno	-247
em	-248
▁es	-249
ugo	-250
ir	-251
uk	-252
aban	-253
▁ik	-254
▁bisan	-255
▁nas	-256
▁kal	-257
▁pagtuod	-258
▁manungod	-259
ing	-260
la	-261
abay	-262
▁pin	-263
angh	-264
piri	-265
pat	-266
ulos	-267
atuod	-268
pirito	-269
▁espirito	-270
en	-271
uw	-272
▁bil	-273
▁ng	-274
asta	-275
ati	-276
▁ama	-277
el	-278
usto	-279
▁baga	-280
atapos	-281
▁ginas	-282
awa	-283
akita	-284
▁suga	-285
▁ngani	-286
atay	-287
tuk	-288
angan	-289
▁hasta	-290
ari	-291
▁kap	-292
▁sugad	-293
▁nab	-294
gar	-295
▁gusto	-296
utan	-297
lan	-298
▁sana	-299
▁nagh	-300
▁dis	-301
▁didi	-302
▁ginap	-303
ti	-304
▁map	-305
▁ina	-306
▁pakatapos	-307
▁dapat	-308
diri	-309
▁sadiri	-310
▁namum	-311
▁sadto	-312
uguan	-313
▁ginsabi	-314
ayag	-315
▁kinaban	-316
wuhan	-317
▁kasuguan	-318
ik	-319
bar	-320
▁katawuhan	-321
▁judio	-322
tay	-323
usog	-324
▁mis	-325
anghod	-326
▁lal	-327
▁sab	-328
▁disip	-329
ulod	-330
wag	-331
▁pan	-332
ras	-333
▁buhay	-334
▁mismo	-335
ahan	-336
▁kaupod	-337
ulo	-338
▁nagsabi	-339
▁pagh	-340
pay	-341
uda	-342
▁disipulos	-343
ana	-344
▁aram	-345
ahon	-346
unod	-347
▁tag	-348
▁ban	-349
▁mat	-350
▁namon	-351
▁kada	-352
▁nagatuod	-353
awas	-354
▁kab	-355
▁tungod	-356
udan	-357
▁matuod	-358
uli	-359
▁magk	-360
araot	-361
▁langit	-362
ong	-363
▁ginah	-364
▁ip	-365
ilan	-366
▁lawas	-367
aon	-368
▁bar	-369
▁pagkam	-370
abayi	-371
▁amon	-372
angy	-373
uman	-374
▁babayi	-375
rab	-376
▁ginb	-377
oy	-378
aki	-379
▁pinak	-380
▁mab	-381
▁pagb	-382
ablo	-383
uwas	-384
▁magin	-385
asal	-386
man	-387
▁dah	-388
▁bal	-389
ago	-390
dy	-391
pe	-392
ahang	-393
garan	-394
▁nakita	-395
▁damo	-396
ahanglan	-397
▁dahilan	-398
▁idto	-399
▁nagah	-400
ado	-401
int	-402
tukdo	-403
amb	-404
adayon	-405
▁namumuno	-406
▁kah	-407
▁mal	-408
▁lalaki	-409
▁mags	-410
▁bilang	-411
om	-412
lib	-413
▁mah	-414
dyi	-415
▁ay	-416
atub	-417
ugar	-418
▁ig	-419
asala	-420
▁banal	-421
▁ada	-422
abati	-423
alik	-424
▁pablo	-425
tar	-426
▁nagt	-427
id	-428
hom	-429
▁lugar	-430
▁nagsabat	-431
aan	-432
▁nat	-433
▁sur	-434
me	-435
alan	-436
▁maraot	-437
ugod	-438
angadyi	-439
ob	-440
ili	-441
uta	-442
arig	-443
▁lugod	-444
adian	-445
▁ang	-446
dro	-447
aranghod	-448
▁panahon	-449
▁magh	-450
▁ayaw	-451
▁pagabot	-452
usan	-453
▁pro	-454
alang	-455
ahayag	-456
hel	-457
uoy	-458
▁pedro	-459
▁anghel	-460
ling	-461
te	-462
▁as	-463
dog	-464
▁kinahanglan	-465
▁magb	-466
akit	-467
▁kamaranghod	-468
▁sino	-469
uratan	-470
anos	-471
alipay	-472
▁my	-473
▁ikaw	-474
▁nap	-475
▁pw	-476
▁ginhimo	-477
ato	-478
uguon	-479
▁surmaton	-480
tan	-481
indog	-482
▁duha	-483
isip	-484
ulul	-485
ilala	-486
▁jesu	-487
araman	-488
atawag	-489
▁gahom	-490
▁jesucristo	-491
▁barita	-492
ma	-493
abaw	-494
▁igwa	-495
▁nagab	-496
mb	-497
ahi	-498
pon	-499
tig	-500
intras	-501
▁nagat	-502
▁santo	-503
▁kasalan	-504
▁myintras	-505
▁kasuratan	-506
peta	-507
▁balay	-508
▁bilog	-509
▁nagak	-510
▁propeta	-511
▁nagb	-512
atuudan	-513
uru	-514
irme	-515
▁sy	-516
▁y	-517
▁adi	-518
▁naton	-519
dad	-520
yag	-521
▁sabih	-522
duan	-523
▁makap	-524
abihan	-525
▁suruguon	-526
anda	-527
▁sak	-528
▁juan	-529
ea	-530
▁mata	-531
▁ngaran	-532
eo	-533
ont	-534
▁susog	-535
ira	-536
alem	-537
▁yana	-538
usalem	-539
▁gintu	-540
angyari	-541
away	-542
▁adto	-543
erusalem	-544
▁al	-545
▁kasadto	-546
alap	-547
▁mam	-548
imuon	-549
▁naka	-550
▁hadi	-551
▁pagt	-552
ok	-553
atuk	-554
▁ginhatag	-555
lang	-556
ulig	-557
▁kad	-558
▁atub	-559
emp	-560
▁ap	-561
iripon	-562
▁ginsabihan	-563
tor	-564
▁ginatawag	-565
▁nah	-566
▁atubangan	-567
▁uga	-568
alapit	-569
▁dayon	-570
▁c	-571
or	-572
ontra	-573
▁pirme	-574
lok	-575
▁ab	-576
adlok	-577
ingk	-578
emplo	-579
▁sala	-580
▁ginasabi	-581
akat	-582
abuhay	-583
▁templo	-584
uy	-585
ipon	-586
▁sabihon	-587
▁ginahimo	-588
ia	-589
ihan	-590
atukdo	-591
▁matanos	-592
▁sinabihan	-593
dara	-594
▁katap	-595
▁makas	-596
▁e	-597
akop	-598
▁tin	-599
ens	-600
war	-601
▁bin	-602
▁nagl	-603
▁tu	-604
▁pagkamuot	-605
ol	-606
ila	-607
ungs	-608
▁nakas	-609
asalbar	-610
ingkod	-611
▁nagin	-612
tukduan	-613
▁naghunga	-614
▁jerusalem	-615
▁asawa	-616
judio	-617
▁dako	-618
aya	-619
alad	-620
rabah	-621
atayon	-622
aka	-623
▁anay	-624
hon	-625
ump	-626
muan	-627
udad	-628
akadto	-629
▁katapusan	-630
▁kamatuudan	-631
ero	-632
ungsod	-633
amati	-634
ungan	-635
▁gali	-636
▁pakig	-637
▁syudad	-638
▁dilijudio	-639
ern	-640
uro	-641
▁ti	-642
▁ginl	-643
ubuhay	-644
▁pakadto	-645
usgar	-646
▁pagap	-647
ose	-648
▁hin	-649
▁pas	-650
▁magap	-651
rabe	-652
ulag	-653
▁bag	-654
▁kahadian	-655
las	-656
▁mad	-657
▁buot	-658
▁duta	-659
▁maka	-660
▁katukduan	-661
▁isip	-662
▁tanda	-663
▁nasurat	-664
▁pagsarig	-665
be	-666
non	-667
iyak	-668
istar	-669
▁pano	-670
▁ginak	-671
▁ginsugo	-672
rabaho	-673
▁kadamuan	-674
lipay	-675
▁gina	-676
▁pagkabuhay	-677
▁pagka	-678
asabi	-679
utang	-680
▁pata	-681
▁taga	-682
▁grabe	-683
▁sulod	-684
asa	-685
ikita	-686
unyag	-687
▁dida	-688
▁ugaling	-689
tol	-690
ahin	-691
▁nakap	-692
▁patay	-693
▁kontra	-694
▁li	-695
igwa	-696
urit	-697
ostol	-698
▁kwar	-699
amatuod	-700
▁maabot	-701
▁makita	-702
▁nangyari	-703
▁kamatayon	-704
et	-705
rah	-706
amba	-707
umaw	-708
lin	-709
▁bagay	-710
▁lungsod	-711
ain	-712
ises	-713
tigo	-714
▁himuon	-715
▁moises	-716
▁apostol	-717
▁pagkaon	-718
ipus	-719
▁bata	-720
ipusuon	-721
▁tagipusuon	-722
ito	-723
tes	-724
iseo	-725
raham	-726
▁abraham	-727
▁pariseo	-728
bi	-729
uko	-730
tios	-731
tuman	-732
▁oras	-733
mon	-734
▁dati	-735
▁tama	-736
▁ginhunga	-737
▁pwe	-738
▁nagpadayon	-739
▁ur	-740
tahan	-741
aluwas	-742
▁nabati	-743
▁kat	-744
▁kamot	-745
dom	-746
wad	-747
▁dy	-748
igin	-749
uton	-750
▁nagasabi	-751
▁paratukdo	-752
asi	-753
▁sul	-754
ayari	-755
▁maga	-756
▁kapwa	-757
angyayari	-758
▁f	-759
don	-760
uwa	-761
▁tr	-762
amat	-763
emon	-764
inaw	-765
torya	-766
▁padi	-767
asakit	-768
hi	-769
uway	-770
▁ilo	-771
▁diin	-772
abo	-773
ino	-774
▁dam	-775
▁lalo	-776
▁iloy	-777
▁pito	-778
ululul	-779
▁kalululul	-780
ko	-781
▁ar	-782
▁ba	-783
ahuway	-784
▁ki	-785
▁lib	-786
▁pil	-787
▁pagl	-788
ataman	-789
▁kapadian	-790
▁pakakita	-791
▁nagsurmaton	-792
laom	-793
umat	-794
▁iga	-795
aluoy	-796
iguro	-797
▁kitaa	-798
▁makab	-799
▁parte	-800
▁maaram	-801
▁kak	-802
albar	-803
▁gint	-804
emonyo	-805
▁antes	-806
▁pagah	-807
rael	-808
▁ipap	-809
▁lahi	-810
▁demonyo	-811
dados	-812
▁bato	-813
atawad	-814
▁ginsabat	-815
dal	-816
gay	-817
irbe	-818
▁tub	-819
▁angay	-820
usta	-821
unan	-822
▁tubig	-823
▁kwarta	-824
▁makusog	-825
pis	-826
rus	-827
uson	-828
▁habo	-829
▁tulo	-830
▁ginag	-831
▁kaila	-832
▁magigin	-833
▁pakabati	-834
uhon	-835
▁sig	-836
▁nagka	-837
▁simon	-838
▁nagsugo	-839
▁suldados	-840
uma	-841
anak	-842
▁krus	-843
umanon	-844
▁ginab	-845
asalamat	-846
▁maaraman	-847
▁nakakita	-848
ura	-849
▁ih	-850
ayop	-851
ugay	-852
ukid	-853
▁mil	-854
areho	-855
▁hayop	-856
linguha	-857
usgaran	-858
▁nasabi	-859
ac	-860
ai	-861
apay	-862
tawag	-863
▁bago	-864
▁ginat	-865
▁kilala	-866
▁malipay	-867
▁nagabot	-868
eli	-869
lea	-870
tuy	-871
aria	-872
ambog	-873
▁dugo	-874
▁pwer	-875
▁sugo	-876
urupod	-877
imaluoy	-878
▁gintuga	-879
▁nagkadto	-880
ahe	-881
dis	-882
akal	-883
obra	-884
unon	-885
utay	-886
▁kara	-887
▁magt	-888
atagan	-889
utangan	-890
▁kalayo	-891
angalang	-892
▁tinapay	-893
▁kamanghod	-894
ng	-895
agat	-896
lain	-897
▁kor	-898
▁sir	-899
▁gink	-900
▁mens	-901
▁pang	-902
▁pakigusad	-903
▁alangalang	-904
sya	-905
inar	-906
▁karautan	-907
▁nagpakadto	-908
▁re	-909
mbawa	-910
▁pwertahan	-911
lian	-912
▁basi	-913
▁pris	-914
ayuhan	-915
▁labaw	-916
alangga	-917
▁pilato	-918
▁mensahe	-919
▁apostoles	-920
asakop	-921
▁milag	-922
atubang	-923
▁nasyon	-924
lor	-925
alib	-926
abutan	-927
▁halapit	-928
▁milagro	-929
▁nagtuna	-930
▁ginlalang	-931
▁halimbawa	-932
de	-933
hoy	-934
▁sabi	-935
▁tuna	-936
▁kahoy	-937
▁magas	-938
▁nakab	-939
▁pulos	-940
▁kaayuhan	-941
▁nabubuhay	-942
ib	-943
imp	-944
tro	-945
umd	-946
ulan	-947
uyon	-948
wala	-949
▁pap	-950
▁dose	-951
umusta	-952
anam	-953
agoga	-954
udlan	-955
▁mapap	-956
a	-957
▁	-958
n	-959
i	-960
s	-961
o	-962
g	-963
k	-964
m	-965
u	-966
d	-967
t	-968
p	-969
y	-970
l	-971
r	-972
b	-973
h	-974
e	-975
w	-976
0	-977
j	-978
7	-979
c	-980
f	-981
