<unk>	0
<s>	0
</s>	0
ng	-0
ing	-1
an	-2
▁k	-3
▁n	-4
▁a	-5
▁m	-6
ang	-7
al	-8
▁ka	-9
▁d	-10
pa	-11
in	-12
▁l	-13
ak	-14
▁ing	-15
▁na	-16
▁king	-17
▁at	-18
ta	-19
ya	-20
ung	-21
▁b	-22
▁ning	-23
ab	-24
at	-25
▁s	-26
▁i	-27
▁pa	-28
ul	-29
▁p	-30
yu	-31
il	-32
ra	-33
▁la	-34
ring	-35
▁ding	-36
as	-37
▁ya	-38
tu	-39
▁da	-40
ag	-41
am	-42
▁me	-43
it	-44
ri	-45
▁ke	-46
▁I	-47
un	-48
▁M	-49
el	-50
▁ku	-51
▁A	-52
▁ta	-53
inu	-54
us	-55
is	-56
ka	-57
▁nang	-58
▁t	-59
▁D	-60
▁karing	-61
▁G	-62
▁e	-63
▁mi	-64
en	-65
▁al	-66
▁mu	-67
ti	-68
eng	-69
▁K	-70
yang	-71
▁J	-72
▁mak	-73
▁ban	-74
▁kar	-75
anak	-76
ib	-77
▁ma	-78
os	-79
uk	-80
ad	-81
on	-82
▁N	-83
▁g	-84
▁man	-85
ala	-86
ut	-87
▁ring	-88
abi	-89
▁Ginu	-90
ios	-91
▁pam	-92
alan	-93
ud	-94
▁E	-95
ita	-96
▁lang	-97
▁P	-98
ik	-99
ug	-100
▁Dios	-101
um	-102
▁keka	-103
▁S	-104
▁yu	-105
ar	-106
▁ne	-107
tung	-108
es	-109
▁yang	-110
im	-111
ana	-112
wa	-113
ub	-114
pat	-115
▁mag	-116
angan	-117
ig	-118
pan	-119
▁B	-120
▁de	-121
sa	-122
▁kang	-123
▁ng	-124
er	-125
anan	-126
tang	-127
▁metung	-128
▁karel	-129
▁ul	-130
▁tu	-131
▁bal	-132
ie	-133
ia	-134
▁T	-135
▁tau	-136
abl	-137
yung	-138
ua	-139
bat	-140
▁anak	-141
alak	-142
ili	-143
▁kayu	-144
▁an	-145
em	-146
▁sabl	-147
man	-148
yan	-149
uan	-150
▁In	-151
ga	-152
ip	-153
ting	-154
▁Is	-155
▁o	-156
▁pe	-157
atan	-158
▁O	-159
▁kal	-160
do	-161
▁kas	-162
▁in	-163
ran	-164
und	-165
▁Ng	-166
▁kab	-167
id	-168
▁sablang	-169
rael	-170
▁Israel	-171
▁kek	-172
▁kapa	-173
aban	-174
▁nung	-175
▁neng	-176
▁mal	-177
▁kan	-178
▁pang	-179
▁taung	-180
yap	-181
▁Ka	-182
▁karela	-183
▁L	-184
▁uling	-185
▁kanak	-186
aman	-187
▁ari	-188
▁kung	-189
la	-190
▁ra	-191
▁karin	-192
▁kak	-193
anang	-194
▁r	-195
to	-196
▁kam	-197
wan	-198
abian	-199
▁ang	-200
mu	-201
ian	-202
aba	-203
▁sin	-204
tus	-205
▁Ing	-206
ap	-207
du	-208
up	-209
▁kap	-210
bal	-211
▁lalak	-212
tas	-213
▁iti	-214
▁kekayu	-215
▁anti	-216
▁mayap	-217
akal	-218
▁mem	-219
▁para	-220
te	-221
kit	-222
alen	-223
▁on	-224
▁kanaku	-225
upa	-226
▁At	-227
▁aldo	-228
▁oneng	-229
▁kaya	-230
alang	-231
ias	-232
▁mang	-233
ayu	-234
ybat	-235
nan	-236
▁Inya	-237
▁Jud	-238
▁si	-239
be	-240
▁alang	-241
sal	-242
▁Jes	-243
uri	-244
lo	-245
ibat	-246
akit	-247
atang	-248
ira	-249
▁memalen	-250
▁mas	-251
▁mung	-252
▁pas	-253
alanan	-254
pag	-255
▁H	-256
or	-257
▁naman	-258
▁ali	-259
▁kekang	-260
mang	-261
▁mat	-262
ek	-263
ilan	-264
▁pan	-265
ulu	-266
▁sas	-267
▁pak	-268
ari	-269
eb	-270
▁Jesus	-271
▁On	-272
ob	-273
▁mig	-274
▁dang	-275
tul	-276
utus	-277
▁karelang	-278
▁mab	-279
▁Oneng	-280
ku	-281
nangan	-282
udad	-283
▁pepa	-284
▁maka	-285
▁lug	-286
▁ag	-287
tuk	-288
▁Mak	-289
gul	-290
wang	-291
▁siudad	-292
da	-293
utan	-294
yari	-295
tan	-296
tag	-297
▁din	-298
▁atyu	-299
▁baba	-300
▁Gin	-301
▁Nung	-302
eni	-303
intu	-304
▁min	-305
anu	-306
▁mek	-307
▁mil	-308
ali	-309
amat	-310
ras	-311
▁bansa	-312
▁ala	-313
▁maging	-314
▁as	-315
▁ain	-316
tad	-317
mung	-318
bu	-319
▁banua	-320
▁Ngana	-321
bie	-322
▁mam	-323
▁men	-324
alas	-325
▁dan	-326
▁kanit	-327
▁ap	-328
ma	-329
▁sinabi	-330
ulung	-331
▁Jer	-332
ro	-333
▁ngan	-334
▁Ginung	-335
undal	-336
▁pag	-337
▁King	-338
▁sundal	-339
anyan	-340
ilang	-341
▁kata	-342
itan	-343
▁makat	-344
duang	-345
kul	-346
▁angga	-347
md	-348
▁y	-349
▁uli	-350
ru	-351
▁U	-352
alu	-353
▁lalaki	-354
▁pana	-355
▁lib	-356
▁par	-357
▁dakal	-358
▁Mo	-359
▁Kaybat	-360
▁mis	-361
salita	-362
▁Kan	-363
▁mun	-364
▁bag	-365
▁pamag	-366
▁Da	-367
▁ita	-368
ba	-369
li	-370
ula	-371
abun	-372
▁An	-373
▁mara	-374
▁tin	-375
pak	-376
▁bin	-377
▁sundalus	-378
▁lugal	-379
▁Pe	-380
usal	-381
▁gabun	-382
eo	-383
▁re	-384
vid	-385
ilatan	-386
▁David	-387
pe	-388
utusan	-389
▁dalan	-390
▁yatu	-391
unduk	-392
usalem	-393
▁kayung	-394
▁C	-395
igtas	-396
▁ating	-397
▁Jerusalem	-398
inan	-399
▁aduang	-400
and	-401
aga	-402
emp	-403
emplo	-404
usan	-405
▁itang	-406
▁Nganang	-407
ukat	-408
▁map	-409
▁inyang	-410
abie	-411
▁mit	-412
aya	-413
▁panaun	-414
▁kapam	-415
▁bage	-416
▁Inyang	-417
asan	-418
pis	-419
▁sa	-420
▁kakung	-421
▁ngeni	-422
▁sar	-423
▁bilang	-424
▁Me	-425
untuk	-426
▁yung	-427
aka	-428
▁ara	-429
ina	-430
▁kanita	-431
ptan	-432
▁kapamilatan	-433
mp	-434
▁Kanita	-435
hi	-436
▁miya	-437
▁balang	-438
▁Aring	-439
ilug	-440
▁tamu	-441
▁ninu	-442
▁pin	-443
▁kayabe	-444
uknangan	-445
▁Templo	-446
▁lub	-447
▁depat	-448
mo	-449
ises	-450
▁kekayung	-451
▁Moises	-452
pang	-453
▁kil	-454
▁tuk	-455
iri	-456
ake	-457
▁Ab	-458
▁ye	-459
▁il	-460
▁ibat	-461
alakad	-462
▁makas	-463
aku	-464
▁is	-465
▁kalaban	-466
▁sarili	-467
▁bie	-468
▁Z	-469
▁sabian	-470
▁pari	-471
▁kasalanan	-472
▁paman	-473
alam	-474
▁aliwa	-475
iramd	-476
▁Juda	-477
▁nu	-478
▁sukat	-479
urian	-480
bul	-481
lung	-482
▁Eh	-483
▁balen	-484
uran	-485
▁lag	-486
uli	-487
otang	-488
▁tata	-489
▁Ding	-490
ipto	-491
▁mete	-492
▁Ehipto	-493
▁R	-494
balik	-495
ilangan	-496
▁ika	-497
uyu	-498
una	-499
▁lalaking	-500
▁sasabian	-501
ata	-502
▁pib	-503
▁kapilan	-504
▁asa	-505
alap	-506
▁amp	-507
▁lin	-508
▁ila	-509
▁ampon	-510
▁ikit	-511
▁meg	-512
▁bat	-513
▁kare	-514
▁babai	-515
▁mabilug	-516
▁meng	-517
▁antimo	-518
▁iting	-519
▁pamil	-520
▁inya	-521
▁tupa	-522
pun	-523
▁Ma	-524
▁kapatad	-525
ong	-526
itang	-527
▁pi	-528
awan	-529
ungkul	-530
▁ak	-531
▁aku	-532
▁tan	-533
tagan	-534
▁nan	-535
ban	-536
▁ik	-537
▁kaybat	-538
▁kalupa	-539
▁balu	-540
▁mik	-541
pus	-542
ris	-543
intul	-544
▁dara	-545
▁ge	-546
▁kaku	-547
itung	-548
ulan	-549
et	-550
▁ba	-551
▁lab	-552
alig	-553
▁bale	-554
▁lagyu	-555
atili	-556
▁ngana	-557
ikan	-558
▁nganang	-559
awa	-560
▁namang	-561
▁maragul	-562
pas	-563
▁wa	-564
ling	-565
▁kekata	-566
▁pamilya	-567
▁Mag	-568
▁buri	-569
▁h	-570
▁Al	-571
akut	-572
imal	-573
une	-574
▁tri	-575
▁animal	-576
▁asawa	-577
▁kekam	-578
▁kami	-579
sang	-580
▁pasib	-581
umang	-582
▁aliwang	-583
▁tungkul	-584
wala	-585
▁upa	-586
▁libu	-587
ac	-588
▁pat	-589
▁pil	-590
▁apat	-591
▁ad	-592
▁Israelita	-593
▁kilub	-594
rin	-595
▁Sa	-596
▁manuknangan	-597
▁lahi	-598
io	-599
ur	-600
▁atin	-601
▁makanyan	-602
▁aman	-603
ukan	-604
▁gamat	-605
▁lim	-606
ulat	-607
gap	-608
peta	-609
risto	-610
▁Ala	-611
dala	-612
▁binie	-613
▁tutu	-614
rang	-615
▁sabla	-616
tar	-617
▁sana	-618
mon	-619
bud	-620
lag	-621
▁tang	-622
▁nita	-623
alangin	-624
▁kautusan	-625
▁bis	-626
▁dar	-627
lu	-628
▁Jos	-629
ananu	-630
▁nit	-631
▁babaing	-632
▁mata	-633
▁danum	-634
▁Iti	-635
sak	-636
iran	-637
▁mipa	-638
▁El	-639
▁Mi	-640
▁daptan	-641
▁Man	-642
▁pro	-643
▁miras	-644
ol	-645
asala	-646
▁inu	-647
▁kabang	-648
yaring	-649
▁keti	-650
▁tun	-651
▁pulu	-652
▁pasbul	-653
▁makatua	-654
di	-655
eg	-656
▁pasibayu	-657
ih	-658
▁meging	-659
▁lum	-660
isan	-661
▁dios	-662
▁tribu	-663
akitan	-664
▁altar	-665
ipun	-666
▁talas	-667
▁tanaman	-668
abil	-669
ugan	-670
uban	-671
▁mika	-672
▁Makanyan	-673
▁di	-674
▁mate	-675
andian	-676
▁ketang	-677
az	-678
▁Uling	-679
▁sum	-680
▁atlung	-681
lak	-682
▁kanakung	-683
▁pibandian	-684
▁ipus	-685
▁Judio	-686
paya	-687
▁dane	-688
▁gewa	-689
▁bunduk	-690
isyu	-691
▁Je	-692
▁kailangan	-693
kan	-694
upan	-695
▁pati	-696
ara	-697
▁As	-698
balu	-699
aling	-700
▁arapan	-701
era	-702
▁nune	-703
▁lel	-704
▁manibat	-705
sp	-706
▁im	-707
▁laban	-708
▁Anak	-709
▁nanumang	-710
tutu	-711
ibatan	-712
▁kaniti	-713
ela	-714
ukl	-715
adia	-716
▁Aku	-717
▁bab	-718
▁deting	-719
ilaban	-720
▁upaya	-721
kut	-722
ald	-723
dur	-724
▁datang	-725
▁pitung	-726
▁wari	-727
alag	-728
▁deti	-729
▁keya	-730
▁babie	-731
uguran	-732
▁imalan	-733
▁rin	-734
▁dapat	-735
▁pamuntuk	-736
▁limang	-737
▁batu	-738
▁peng	-739
▁propeta	-740
dam	-741
▁pen	-742
alapit	-743
▁Cristo	-744
▁minta	-745
▁ab	-746
ipan	-747
yal	-748
▁Le	-749
imuna	-750
▁detang	-751
▁amanu	-752
▁Am	-753
▁pinili	-754
iramdam	-755
na	-756
▁keng	-757
▁malyaring	-758
onia	-759
ni	-760
▁deng	-761
ilala	-762
▁pamangan	-763
▁ninumang	-764
▁ibie	-765
▁banal	-766
▁mua	-767
▁kanitang	-768
alung	-769
▁anting	-770
nang	-771
▁mib	-772
pu	-773
akas	-774
▁angg	-775
▁potang	-776
iling	-777
▁maki	-778
▁munaman	-779
▁tuknangan	-780
▁mekibat	-781
▁F	-782
▁kekami	-783
aran	-784
ulid	-785
▁Anti	-786
▁dake	-787
▁migsalita	-788
dan	-789
▁pek	-790
abas	-791
inis	-792
iritu	-793
spiritu	-794
ir	-795
▁Jo	-796
▁Sin	-797
alyari	-798
ram	-799
han	-800
rian	-801
amate	-802
▁ko	-803
▁Kautusan	-804
▁Atin	-805
unus	-806
der	-807
▁Saul	-808
▁pulung	-809
▁katawan	-810
▁akit	-811
▁w	-812
pam	-813
▁Sam	-814
▁nanu	-815
ham	-816
▁linu	-817
olo	-818
▁mapilan	-819
▁sak	-820
atayan	-821
▁manimuna	-822
▁paten	-823
ati	-824
eh	-825
▁Kab	-826
▁Mig	-827
▁manatili	-828
ah	-829
▁agpang	-830
▁pu	-831
▁kayarian	-832
ikut	-833
▁pamak	-834
▁tinu	-835
▁Babil	-836
end	-837
▁tal	-838
▁mabie	-839
ako	-840
▁rang	-841
▁buntuk	-842
▁Babilonia	-843
yuan	-844
▁makananu	-845
▁gintu	-846
▁sam	-847
usu	-848
▁adua	-849
▁kesa	-850
ese	-851
yali	-852
imdam	-853
hel	-854
but	-855
▁sik	-856
▁gawan	-857
▁pal	-858
▁kinu	-859
unduan	-860
▁dinatang	-861
▁kamatayan	-862
yanak	-863
▁sanang	-864
▁agyang	-865
▁Lev	-866
▁niti	-867
endisyu	-868
▁talasuyu	-869
ea	-870
ilis	-871
▁pilak	-872
▁anghel	-873
panta	-874
▁tapat	-875
▁Uli	-876
alpanta	-877
▁utus	-878
bur	-879
▁Mek	-880
▁pete	-881
▁masikan	-882
▁bu	-883
aus	-884
▁inutus	-885
▁marang	-886
om	-887
iramdaman	-888
aron	-889
▁dag	-890
▁gin	-891
ual	-892
gawa	-893
karin	-894
ibie	-895
yain	-896
buren	-897
agad	-898
asa	-899
▁tula	-900
▁Aaron	-901
▁Ika	-902
▁tat	-903
abal	-904
▁sus	-905
acob	-906
▁sag	-907
▁Jacob	-908
▁pis	-909
▁tamung	-910
akan	-911
▁Sim	-912
anaka	-913
▁Ila	-914
▁beng	-915
▁lugud	-916
▁Potang	-917
itak	-918
ed	-919
bang	-920
▁takut	-921
▁ub	-922
inum	-923
▁may	-924
▁Pek	-925
arang	-926
iasnan	-927
▁mitmung	-928
git	-929
ron	-930
▁Pepa	-931
▁Ib	-932
pakan	-933
▁tala	-934
rapat	-935
▁Ag	-936
▁pup	-937
▁kabiasnan	-938
wad	-939
▁arap	-940
abe	-941
▁dagat	-942
▁kekatamung	-943
▁us	-944
uman	-945
▁pader	-946
gal	-947
ukud	-948
tin	-949
abing	-950
▁pusu	-951
▁Ah	-952
▁Ban	-953
▁tune	-954
tutuan	-955
▁bansang	-956
▁libutad	-957
yanan	-958
eon	-959
iria	-960
▁lele	-961
ayan	-962
obra	-963
aldugan	-964
▁makapa	-965
▁daraptan	-966
▁Din	-967
▁pamik	-968
▁aldong	-969
▁Ninu	-970
▁sang	-971
se	-972
las	-973
▁malyari	-974
uel	-975
▁Il	-976
umpis	-977
▁mani	-978
▁mo	-979
ragul	-980
▁bulan	-981
undukan	-982
arin	-983
▁dis	-984
▁opis	-985
ulukan	-986
▁munta	-987
▁matulid	-988
we	-989
unang	-990
▁Mayu	-991
kutan	-992
▁kekatamu	-993
▁meka	-994
▁manga	-995
▁labanan	-996
su	-997
▁alak	-998
▁bang	-999
▁opisyal	-1000
utu	-1001
▁sal	-1002
ihag	-1003
intulut	-1004
▁alagad	-1005
▁ilang	-1006
umpe	-1007
ingat	-1008
▁Solo	-1009
▁dimdam	-1010
▁Solomon	-1011
▁malinis	-1012
▁Nga	-1013
▁api	-1014
▁oras	-1015
apit	-1016
▁akakit	-1017
aluguran	-1018
▁ninuman	-1019
▁miyayali	-1020
dang	-1021
▁kasakitan	-1022
uang	-1023
ening	-1024
▁anam	-1025
▁bayu	-1026
▁aslag	-1027
▁mum	-1028
▁papun	-1029
tug	-1030
teo	-1031
▁ima	-1032
▁Ngara	-1033
ez	-1034
▁Y	-1035
aral	-1036
ulud	-1037
durut	-1038
▁bias	-1039
bing	-1040
▁Jon	-1041
▁kin	-1042
rung	-1043
▁Filis	-1044
▁makap	-1045
raham	-1046
▁Abraham	-1047
▁katutuan	-1048
▁magsalita	-1049
▁lul	-1050
▁baka	-1051
▁bita	-1052
ale	-1053
unga	-1054
▁Ari	-1055
▁pani	-1056
▁bengi	-1057
ai	-1058
pate	-1059
▁gag	-1060
kapun	-1061
▁tauan	-1062
▁anggang	-1063
▁makiramdam	-1064
le	-1065
▁Mas	-1066
▁bar	-1067
gapan	-1068
tulan	-1069
▁ting	-1070
▁papunta	-1071
ape	-1072
iping	-1073
▁malapit	-1074
yabe	-1075
▁ipa	-1076
▁mim	-1077
▁meko	-1078
▁makapag	-1079
▁mitagan	-1080
▁kareting	-1081
akad	-1082
amitan	-1083
▁Sabian	-1084
▁kaniting	-1085
▁Ngeni	-1086
▁bel	-1087
▁big	-1088
▁abalu	-1089
▁pamam	-1090
▁sikanan	-1091
▁tum	-1092
▁Jose	-1093
▁kabaldugan	-1094
akap	-1095
▁Ben	-1096
▁Tol	-1097
▁mes	-1098
▁Balu	-1099
▁Nanu	-1100
▁babo	-1101
▁mismu	-1102
bug	-1103
gse	-1104
amit	-1105
▁kasunduan	-1106
isak	-1107
▁kul	-1108
utung	-1109
kap	-1110
▁Ba	-1111
agan	-1112
▁Bin	-1113
▁kat	-1114
▁Ating	-1115
▁pengaku	-1116
patan	-1117
wak	-1118
ablo	-1119
dolo	-1120
▁idolo	-1121
▁kareti	-1122
▁Mayupaya	-1123
endisyunan	-1124
utang	-1125
▁Alang	-1126
▁dinan	-1127
aria	-1128
▁ins	-1129
▁pik	-1130
▁apulung	-1131
▁Bet	-1132
intuan	-1133
▁sakup	-1134
▁Pekibat	-1135
▁Pas	-1136
▁tag	-1137
yapan	-1138
▁daya	-1139
▁labing	-1140
▁Ya	-1141
▁kik	-1142
anag	-1143
lib	-1144
▁tik	-1145
balitan	-1146
▁tinape	-1147
▁milyari	-1148
▁daratang	-1149
ura	-1150
ern	-1151
waran	-1152
▁pamang	-1153
alum	-1154
▁Kas	-1155
▁Men	-1156
▁miyayaliwang	-1157
eganag	-1158
unan	-1159
alita	-1160
▁Ibpa	-1161
ripis	-1162
ikuan	-1163
alinguan	-1164
kanta	-1165
▁dayuan	-1166
▁Sinabi	-1167
usa	-1168
dian	-1169
rala	-1170
ugud	-1171
▁dinalan	-1172
▁paburen	-1173
▁Espiritu	-1174
isi	-1175
▁dela	-1176
▁kala	-1177
▁lalam	-1178
▁palas	-1179
▁gaga	-1180
alpantayanan	-1181
yat	-1182
iras	-1183
aligan	-1184
▁minie	-1185
▁bisang	-1186
▁kasalpantayanan	-1187
yag	-1188
▁makal	-1189
ens	-1190
▁Isa	-1191
anakit	-1192
▁Levita	-1193
gu	-1194
ue	-1195
yer	-1196
▁ib	-1197
▁ti	-1198
isip	-1199
▁makapadurut	-1200
tud	-1201
▁tel	-1202
talan	-1203
yerto	-1204
▁salap	-1205
▁ar	-1206
akutan	-1207
▁matas	-1208
▁paralan	-1209
ot	-1210
▁ken	-1211
▁tor	-1212
▁magd	-1213
▁Josue	-1214
▁aslagan	-1215
▁libung	-1216
dia	-1217
▁ubas	-1218
▁Jonatan	-1219
▁Mib	-1220
ripisyu	-1221
tawaran	-1222
king	-1223
kapan	-1224
aganak	-1225
intulutan	-1226
dung	-1227
itis	-1228
▁palasyu	-1229
▁marangle	-1230
▁es	-1231
▁Aldo	-1232
▁pangan	-1233
▁disyerto	-1234
▁Meng	-1235
▁paganu	-1236
▁pig	-1237
▁Kaban	-1238
▁maygit	-1239
▁ngening	-1240
kas	-1241
▁mel	-1242
asabian	-1243
▁Filisteo	-1244
▁Ilug	-1245
kam	-1246
▁dininan	-1247
▁mikasala	-1248
▁kapayapan	-1249
▁De	-1250
▁Judas	-1251
▁bukud	-1252
▁ob	-1253
▁heganag	-1254
▁kakaluguran	-1255
ags	-1256
alaga	-1257
tunan	-1258
▁Pari	-1259
▁mayu	-1260
▁Pablo	-1261
▁panga	-1262
▁tatang	-1263
umpisa	-1264
▁pamikasala	-1265
▁lig	-1266
▁pem	-1267
▁mibalik	-1268
pad	-1269
walan	-1270
▁iligtas	-1271
ki	-1272
amal	-1273
▁Karin	-1274
▁darapat	-1275
▁Atyu	-1276
anting	-1277
▁Jor	-1278
▁bitasang	-1279
amin	-1280
ulut	-1281
▁ayu	-1282
▁Jordan	-1283
▁kekong	-1284
unta	-1285
▁mep	-1286
▁Obat	-1287
▁saka	-1288
▁dangalan	-1289
tubud	-1290
ligtas	-1291
ilab	-1292
▁Pak	-1293
▁pami	-1294
amu	-1295
sing	-1296
▁kapana	-1297
▁pakiramdaman	-1298
ukluk	-1299
▁purian	-1300
ila	-1301
▁bandi	-1302
▁kekaming	-1303
▁Mayap	-1304
▁keting	-1305
▁parusan	-1306
▁Min	-1307
▁tuntunan	-1308
dro	-1309
eba	-1310
akuan	-1311
▁Juan	-1312
▁Pedro	-1313
▁Kabang	-1314
▁bul	-1315
nasan	-1316
▁mita	-1317
▁dutung	-1318
ilalanan	-1319
esta	-1320
▁Mat	-1321
tasan	-1322
▁Ikit	-1323
▁bitis	-1324
▁isipan	-1325
▁mangan	-1326
▁niting	-1327
si	-1328
▁Gil	-1329
▁sim	-1330
ulatan	-1331
▁karetang	-1332
uku	-1333
alumd	-1334
yanakan	-1335
▁mangmang	-1336
ota	-1337
yaus	-1338
▁espa	-1339
▁kaming	-1340
▁ustu	-1341
sakripisyu	-1342
▁meb	-1343
▁sub	-1344
▁kinua	-1345
▁kasang	-1346
▁kasiran	-1347
▁Es	-1348
▁Tin	-1349
▁aduan	-1350
no	-1351
iel	-1352
▁Ad	-1353
▁Ke	-1354
▁no	-1355
kulan	-1356
▁mala	-1357
▁yeng	-1358
▁biasa	-1359
▁idala	-1360
▁kambing	-1361
ke	-1362
de	-1363
ultu	-1364
▁miyain	-1365
▁kikilalanan	-1366
co	-1367
▁Ef	-1368
▁Par	-1369
▁ikayu	-1370
▁makab	-1371
▁tinggap	-1372
iang	-1373
orti	-1374
▁masanting	-1375
▁Ta	-1376
▁agad	-1377
▁ditak	-1378
▁munie	-1379
▁Bunduk	-1380
▁kayanakan	-1381
bale	-1382
▁ming	-1383
▁kagul	-1384
bundukan	-1385
durulukan	-1386
mul	-1387
▁Lin	-1388
iawad	-1389
ria	-1390
▁bunga	-1391
▁katamu	-1392
▁kasangkapan	-1393
▁Jeo	-1394
▁nia	-1395
ahala	-1396
▁Mang	-1397
▁angin	-1398
▁kapan	-1399
salitang	-1400
pal	-1401
uluk	-1402
yugse	-1403
▁sala	-1404
usuban	-1405
▁norti	-1406
yun	-1407
▁sulat	-1408
▁nukarin	-1409
▁sangkan	-1410
ilian	-1411
tangan	-1412
▁biser	-1413
▁lubus	-1414
▁espada	-1415
▁kaburian	-1416
▁Mem	-1417
▁kut	-1418
▁yan	-1419
agsik	-1420
▁ausan	-1421
▁espiritu	-1422
af	-1423
par	-1424
▁Banal	-1425
tindian	-1426
▁Dan	-1427
▁kag	-1428
mdaman	-1429
▁saupan	-1430
▁kapurian	-1431
ok	-1432
▁Moab	-1433
▁lunus	-1434
▁tanggapan	-1435
ambut	-1436
payan	-1437
▁Sukat	-1438
ins	-1439
alat	-1440
▁mie	-1441
▁ayup	-1442
▁lung	-1443
▁katung	-1444
▁manakit	-1445
▁ig	-1446
lang	-1447
▁ikua	-1448
▁Maging	-1449
▁talam	-1450
▁likuan	-1451
▁talampakan	-1452
▁katungkulan	-1453
ase	-1454
til	-1455
▁id	-1456
ilit	-1457
lakbe	-1458
▁Kapa	-1459
▁keni	-1460
▁katul	-1461
▁Ngarang	-1462
▁kamaganak	-1463
mb	-1464
▁pr	-1465
▁pepas	-1466
▁abalitan	-1467
lus	-1468
paran	-1469
uanan	-1470
intunan	-1471
▁mabagsik	-1472
re	-1473
ada	-1474
▁Simon	-1475
aup	-1476
▁Elis	-1477
▁sakit	-1478
ingsing	-1479
▁bangke	-1480
▁mamintu	-1481
▁kayupayan	-1482
▁ri	-1483
aket	-1484
azar	-1485
▁Sab	-1486
▁magbalik	-1487
▁katapatan	-1488
▁heganaganang	-1489
▁Pam	-1490
rinan	-1491
amalan	-1492
▁kampu	-1493
maya	-1494
ukas	-1495
▁Tob	-1496
intun	-1497
▁toro	-1498
▁kapit	-1499
▁katuliran	-1500
ef	-1501
libo	-1502
tuki	-1503
▁Eli	-1504
▁miba	-1505
▁inaus	-1506
▁tuknang	-1507
▁tuparan	-1508
ero	-1509
ter	-1510
▁lis	-1511
asnan	-1512
▁mako	-1513
▁kapag	-1514
▁sasam	-1515
▁ligaya	-1516
▁paintulut	-1517
yi	-1518
yo	-1519
oam	-1520
anap	-1521
▁tol	-1522
▁kabayu	-1523
▁waring	-1524
▁angganan	-1525
▁manalangin	-1526
▁laman	-1527
▁mumunang	-1528
▁mapalyari	-1529
▁Ar	-1530
▁tron	-1531
▁mauli	-1532
▁mismung	-1533
pastangan	-1534
▁Dinatang	-1535
▁biserung	-1536
uar	-1537
lian	-1538
umpa	-1539
▁Meg	-1540
▁pip	-1541
▁abak	-1542
▁obra	-1543
▁Metung	-1544
▁kuanan	-1545
kad	-1546
uru	-1547
▁Mik	-1548
▁magobra	-1549
▁talapag	-1550
▁kutkutan	-1551
▁Kailangan	-1552
▁lupa	-1553
▁reting	-1554
▁kabilian	-1555
bath	-1556
daman	-1557
▁asno	-1558
alikut	-1559
▁kabud	-1560
▁insens	-1561
▁Pi	-1562
rawan	-1563
amdaman	-1564
▁Sabbath	-1565
▁gagawan	-1566
▁ni	-1567
▁tr	-1568
ating	-1569
ingan	-1570
▁milag	-1571
▁misan	-1572
▁pipag	-1573
▁buring	-1574
mdam	-1575
turu	-1576
▁Ali	-1577
▁Kal	-1578
▁tak	-1579
▁pagk	-1580
▁pangane	-1581
▁Kanitang	-1582
▁Be	-1583
▁ina	-1584
bugan	-1585
▁kuar	-1586
▁lalu	-1587
▁makamate	-1588
▁Pab	-1589
▁kuta	-1590
inutil	-1591
▁tronu	-1592
▁pepakit	-1593
iak	-1594
rap	-1595
▁Ik	-1596
▁Neb	-1597
▁Pat	-1598
oboam	-1599
▁prob	-1600
▁iyain	-1601
▁tubud	-1602
▁mamahala	-1603
yni	-1604
▁gr	-1605
uyuan	-1606
▁atlu	-1607
▁Asiria	-1608
▁Samuel	-1609
▁parang	-1610
▁pibale	-1611
▁Sasabian	-1612
ama	-1613
ehu	-1614
kun	-1615
▁Pa	-1616
ekia	-1617
ihim	-1618
ipen	-1619
▁Mal	-1620
alese	-1621
▁reng	-1622
▁Siria	-1623
▁olibo	-1624
▁Agyang	-1625
▁kinutang	-1626
▁panalangin	-1627
bi	-1628
uc	-1629
▁batung	-1630
▁bayung	-1631
▁miyabie	-1632
▁pekapun	-1633
▁kapatagan	-1634
ers	-1635
angis	-1636
dapat	-1637
▁dili	-1638
▁reti	-1639
▁apulu	-1640
▁tagumpe	-1641
dom	-1642
isa	-1643
▁hus	-1644
inuan	-1645
salam	-1646
ipensa	-1647
▁Manibat	-1648
▁akilala	-1649
▁miligtas	-1650
undu	-1651
▁saup	-1652
▁Elias	-1653
intulid	-1654
▁Eliseo	-1655
▁banuang	-1656
rapatdapat	-1657
▁Ti	-1658
▁reg	-1659
itnan	-1660
▁Edom	-1661
▁Joab	-1662
▁Manase	-1663
tun	-1664
▁Zi	-1665
esar	-1666
▁Hez	-1667
ayung	-1668
igura	-1669
▁leon	-1670
▁danup	-1671
▁keyang	-1672
▁tatakut	-1673
muan	-1674
umam	-1675
isabi	-1676
yamang	-1677
▁Dakal	-1678
▁kanan	-1679
maragul	-1680
▁milako	-1681
▁gintung	-1682
▁pibalebale	-1683
umb	-1684
ugal	-1685
uren	-1686
ipang	-1687
▁ipan	-1688
▁tolda	-1689
▁Mengari	-1690
▁Paburen	-1691
▁kakalinguan	-1692
▁dum	-1693
algal	-1694
▁lual	-1695
▁mula	-1696
iasawa	-1697
▁linub	-1698
▁makib	-1699
▁insenso	-1700
▁pangaku	-1701
salamatan	-1702
uliran	-1703
▁sagra	-1704
▁beluan	-1705
▁tinubud	-1706
▁lelangan	-1707
▁panginuan	-1708
▁aintindian	-1709
alik	-1710
▁mapag	-1711
▁nanuman	-1712
▁mayupaya	-1713
▁makilaban	-1714
▁pamintuan	-1715
ead	-1716
wal	-1717
yam	-1718
▁ga	-1719
idad	-1720
alawe	-1721
▁Meko	-1722
▁guar	-1723
tagumpe	-1724
▁it	-1725
isia	-1726
▁Mes	-1727
▁gera	-1728
▁malag	-1729
▁Gilead	-1730
▁subali	-1731
▁maniwala	-1732
aia	-1733
ibe	-1734
ungan	-1735
▁Efra	-1736
▁grup	-1737
abayat	-1738
▁Isaac	-1739
san	-1740
ayad	-1741
ukum	-1742
▁Mit	-1743
▁aka	-1744
▁gina	-1745
▁ngara	-1746
▁talat	-1747
▁mibait	-1748
▁pakibatan	-1749
him	-1750
▁lakuan	-1751
▁milabas	-1752
pi	-1753
▁Heb	-1754
▁san	-1755
▁biga	-1756
▁Kayari	-1757
▁Purian	-1758
▁salapi	-1759
▁Toldang	-1760
▁ikayung	-1761
▁kabalen	-1762
sari	-1763
amang	-1764
▁kasa	-1765
▁uran	-1766
ilugan	-1767
isanan	-1768
▁isanu	-1769
▁kalig	-1770
abaluan	-1771
▁masalese	-1772
uki	-1773
▁lam	-1774
▁Jesu	-1775
▁Kabi	-1776
▁Mete	-1777
▁ilug	-1778
▁maya	-1779
Cristo	-1780
▁Lawan	-1781
▁balamu	-1782
▁larung	-1783
▁linual	-1784
▁gamitan	-1785
▁kalabing	-1786
alil	-1787
ulus	-1788
agsak	-1789
▁pamani	-1790
▁pakamalan	-1791
▁makasalanan	-1792
▁makatalakad	-1793
▁karapatdapat	-1794
aldo	-1795
▁sel	-1796
▁siping	-1797
▁larawan	-1798
▁mabibie	-1799
▁Kabiasnan	-1800
buk	-1801
▁Map	-1802
▁sis	-1803
▁Ahab	-1804
▁Tutu	-1805
cai	-1806
inap	-1807
▁Mor	-1808
▁apa	-1809
▁apu	-1810
▁isip	-1811
▁lalung	-1812
▁walung	-1813
▁kaduang	-1814
▁mengari	-1815
▁pamakilaban	-1816
sil	-1817
nawa	-1818
uklat	-1819
▁pota	-1820
▁Baket	-1821
▁Binie	-1822
▁Gawan	-1823
▁Efraim	-1824
▁sasabi	-1825
▁albugan	-1826
▁ngarang	-1827
ino	-1828
les	-1829
ador	-1830
▁Mam	-1831
akung	-1832
akupan	-1833
ramdam	-1834
▁balita	-1835
▁Makamal	-1836
▁kabilugan	-1837
▁kapanayan	-1838
eko	-1839
ibala	-1840
▁Ibat	-1841
▁Zion	-1842
enesar	-1843
▁igles	-1844
▁wanan	-1845
▁tangsu	-1846
▁Pekapun	-1847
▁marangal	-1848
▁menuknangan	-1849
▁Nu	-1850
andi	-1851
▁tim	-1852
obern	-1853
▁ikong	-1854
ibiebie	-1855
▁Balita	-1856
obernador	-1857
▁Ge	-1858
tula	-1859
decai	-1860
utkut	-1861
▁sese	-1862
adiang	-1863
inlang	-1864
▁Makas	-1865
▁lusuban	-1866
▁Mordecai	-1867
ebel	-1868
abang	-1869
isyun	-1870
▁Ibie	-1871
▁Oyni	-1872
▁pitu	-1873
▁asias	-1874
▁pamagl	-1875
▁mangaintulid	-1876
▁le	-1877
ucad	-1878
▁Baal	-1879
abandi	-1880
isipan	-1881
▁Ammon	-1882
▁Kayabe	-1883
▁Nebucad	-1884
▁ingatan	-1885
▁kaguluan	-1886
▁mamangan	-1887
▁Nebucadenesar	-1888
ilo	-1889
uld	-1890
▁Ak	-1891
eleb	-1892
eran	-1893
▁mar	-1894
amant	-1895
▁sinu	-1896
▁Itang	-1897
▁Hezekia	-1898
▁amanung	-1899
▁iglesia	-1900
▁mitubud	-1901
▁minunang	-1902
▁munamang	-1903
▁peparala	-1904
▁menalangin	-1905
▁Asa	-1906
▁dur	-1907
▁leb	-1908
▁sib	-1909
ukasan	-1910
mayaran	-1911
▁antimu	-1912
▁kalulu	-1913
▁pakakal	-1914
▁kasulatan	-1915
▁Az	-1916
▁Dag	-1917
▁Tau	-1918
▁mira	-1919
▁asabi	-1920
▁libru	-1921
▁ngang	-1922
alumdum	-1923
▁diling	-1924
▁guardia	-1925
▁panintunan	-1926
▁makatuliran	-1927
nu	-1928
bag	-1929
esa	-1930
sadia	-1931
▁trum	-1932
▁Ester	-1933
▁grupu	-1934
▁mibie	-1935
wakasan	-1936
▁Samaria	-1937
alpantaya	-1938
▁trumpeta	-1939
▁pikabaluan	-1940
▁li	-1941
▁Linu	-1942
▁mulahan	-1943
akup	-1944
kampu	-1945
▁bisa	-1946
▁Tolda	-1947
▁bihag	-1948
kil	-1949
akpan	-1950
alawan	-1951
▁bakal	-1952
▁lihim	-1953
▁patyu	-1954
▁depatan	-1955
▁Makiramdam	-1956
▁makapagmul	-1957
ning	-1958
upad	-1959
▁ker	-1960
lakad	-1961
atiling	-1962
▁pamanyam	-1963
abu	-1964
lan	-1965
kapa	-1966
▁sil	-1967
uling	-1968
▁Cana	-1969
ipunan	-1970
▁ganap	-1971
▁mensa	-1972
▁miyabe	-1973
▁Kayarian	-1974
▁maniawad	-1975
▁Re	-1976
▁Uz	-1977
▁Pin	-1978
▁lal	-1979
ulian	-1980
▁Misan	-1981
▁ralan	-1982
untalan	-1983
▁sumuyu	-1984
▁Sem	-1985
▁kad	-1986
▁dikut	-1987
▁tanda	-1988
▁ulaga	-1989
irasung	-1990
▁kapulung	-1991
▁kaluguran	-1992
me	-1993
tol	-1994
▁suk	-1995
raman	-1996
ugali	-1997
▁Kinu	-1998
umangid	-1999
▁kuartu	-2000
▁megawa	-2001
▁katlung	-2002
▁menakit	-2003
▁magdalang	-2004
▁pamagsalita	-2005
ine	-2006
▁Mil	-2007
udtud	-2008
▁ipak	-2009
▁meki	-2010
▁muli	-2011
▁balat	-2012
▁Canaan	-2013
▁ginawa	-2014
▁Malyari	-2015
kasalanan	-2016
▁Kapatagan	-2017
▁paintulutan	-2018
kat	-2019
pia	-2020
ikas	-2021
▁Leb	-2022
▁Pen	-2023
▁katu	-2024
▁sulu	-2025
▁turu	-2026
inayan	-2027
▁lawan	-2028
▁pupul	-2029
▁Meging	-2030
▁silaban	-2031
yna	-2032
yakit	-2033
▁Bala	-2034
payang	-2035
▁barku	-2036
▁lasak	-2037
▁templo	-2038
ago	-2039
ding	-2040
ision	-2041
ostol	-2042
▁Mika	-2043
▁gawa	-2044
▁tuki	-2045
anakan	-2046
ulisak	-2047
▁Haman	-2048
▁ituru	-2049
▁Daniel	-2050
▁regalu	-2051
▁mabayat	-2052
▁mitipun	-2053
▁mibiebie	-2054
▁makasumam	-2055
gian	-2056
▁bes	-2057
▁tig	-2058
seleb	-2059
taska	-2060
▁paka	-2061
tanggap	-2062
▁Karing	-2063
▁minuli	-2064
▁siwala	-2065
endisyun	-2066
▁apostol	-2067
▁miyugse	-2068
▁antimong	-2069
▁talaturu	-2070
taskatasan	-2071
▁kalaraman	-2072
▁tinalakad	-2073
eru	-2074
utul	-2075
▁tit	-2076
▁Judea	-2077
▁Miras	-2078
▁asbuk	-2079
▁ilako	-2080
▁minum	-2081
▁masakit	-2082
▁makalukluk	-2083
dag	-2084
alal	-2085
usub	-2086
▁Jeh	-2087
ambat	-2088
yutus	-2089
▁Buri	-2090
▁Dela	-2091
▁mimua	-2092
▁batuin	-2093
▁darala	-2094
▁kalung	-2095
▁tutung	-2096
▁marawak	-2097
▁susulud	-2098
▁sundalung	-2099
▁pamanyamba	-2100
▁kalungkutan	-2101
lat	-2102
saya	-2103
▁Bel	-2104
▁Mel	-2105
▁Tim	-2106
▁Sara	-2107
▁Tinu	-2108
▁kuma	-2109
▁minu	-2110
▁papa	-2111
inguan	-2112
▁Absal	-2113
▁Minta	-2114
▁samba	-2115
▁inuman	-2116
▁minuna	-2117
sin	-2118
kuns	-2119
▁Ele	-2120
▁apan	-2121
karine	-2122
▁Dinan	-2123
▁mengan	-2124
▁mibili	-2125
▁simbut	-2126
▁ustung	-2127
arinayan	-2128
▁Absalom	-2129
▁mensahi	-2130
▁v	-2131
▁bib	-2132
▁bub	-2133
ising	-2134
pitan	-2135
▁Gewa	-2136
▁Kaka	-2137
▁hust	-2138
ayaran	-2139
▁Kinua	-2140
▁malas	-2141
alakuan	-2142
▁kekeng	-2143
▁parati	-2144
pastulan	-2145
▁kayapan	-2146
▁menatili	-2147
▁parangalan	-2148
uat	-2149
zia	-2150
bung	-2151
▁del	-2152
▁pep	-2153
▁buak	-2154
▁pung	-2155
▁ukum	-2156
▁katau	-2157
▁pakas	-2158
▁lungub	-2159
▁sigura	-2160
▁vision	-2161
▁lisuban	-2162
▁mabandi	-2163
▁tanggap	-2164
▁kapitung	-2165
▁gobernador	-2166
▁Kakataskatasan	-2167
gan	-2168
rus	-2169
oron	-2170
▁iya	-2171
ualas	-2172
▁agyu	-2173
▁siam	-2174
alangan	-2175
▁linigtas	-2176
sub	-2177
uti	-2178
abis	-2179
▁Lum	-2180
▁Pan	-2181
sinan	-2182
abilin	-2183
▁kaban	-2184
▁pakak	-2185
▁matula	-2186
▁mumuna	-2187
▁pamibiebie	-2188
abayu	-2189
anung	-2190
ulayi	-2191
alagua	-2192
▁Dagat	-2193
▁Galil	-2194
▁Makal	-2195
▁ibili	-2196
▁kawan	-2197
▁salaping	-2198
▁makasadia	-2199
▁kapagnasan	-2200
ild	-2201
seo	-2202
alad	-2203
▁Mis	-2204
▁besis	-2205
▁kapup	-2206
▁linto	-2207
▁Galilea	-2208
▁Mekibat	-2209
▁Pariseo	-2210
▁pengari	-2211
data	-2212
ipit	-2213
ablab	-2214
tawan	-2215
▁gras	-2216
▁pika	-2217
▁banda	-2218
▁butul	-2219
▁tutuk	-2220
▁Tobias	-2221
▁pilatan	-2222
pagsalita	-2223
▁agyamang	-2224
▁hustisia	-2225
▁aya	-2226
▁pul	-2227
▁akua	-2228
▁Ikayu	-2229
▁Paten	-2230
▁marin	-2231
▁Datang	-2232
▁mingat	-2233
▁Dininan	-2234
▁linapit	-2235
▁Kasunduan	-2236
▁bendisyun	-2237
▁kawakasan	-2238
sau	-2239
elek	-2240
iwan	-2241
▁Ang	-2242
▁Pag	-2243
tugut	-2244
▁Esau	-2245
irkuns	-2246
▁Lugal	-2247
▁katas	-2248
▁binili	-2249
▁samban	-2250
itakutan	-2251
▁pamania	-2252
▁kaisipan	-2253
▁matudtud	-2254
▁pasibayung	-2255
▁Bar	-2256
▁mip	-2257
banua	-2258
lasak	-2259
▁Kabud	-2260
▁Jeroboam	-2261
▁kamarinayan	-2262
ele	-2263
alako	-2264
▁kaba	-2265
▁pala	-2266
▁pangg	-2267
▁Ginawa	-2268
▁sumaup	-2269
▁tumula	-2270
▁tuturu	-2271
▁gisanan	-2272
kapamayaran	-2273
▁su	-2274
ugat	-2275
▁Sik	-2276
▁Tik	-2277
igera	-2278
rebel	-2279
▁buis	-2280
▁kenu	-2281
▁mebie	-2282
▁sadia	-2283
▁biasang	-2284
▁migkampu	-2285
▁sagradung	-2286
▁se	-2287
▁Pil	-2288
▁peg	-2289
knang	-2290
▁Neng	-2291
▁mabi	-2292
▁kasal	-2293
▁sinam	-2294
ananung	-2295
▁tinakas	-2296
▁mitakutan	-2297
▁magsalitang	-2298
adu	-2299
tut	-2300
▁sek	-2301
panan	-2302
▁ipag	-2303
▁lima	-2304
ungang	-2305
▁demon	-2306
▁Piesta	-2307
▁kasing	-2308
▁masaya	-2309
▁mebalu	-2310
▁pabanua	-2311
▁panggera	-2312
▁daramdaman	-2313
mas	-2314
abuk	-2315
asag	-2316
imut	-2317
iteo	-2318
▁Dar	-2319
▁dig	-2320
anako	-2321
butan	-2322
toria	-2323
▁obat	-2324
▁tand	-2325
▁kukul	-2326
takutan	-2327
▁Eleazar	-2328
▁makapan	-2329
▁Makananu	-2330
▁Migsalita	-2331
adua	-2332
igan	-2333
oreo	-2334
wani	-2335
▁ini	-2336
▁lil	-2337
emias	-2338
▁Jeos	-2339
▁peka	-2340
▁kadua	-2341
▁marayu	-2342
▁dumalan	-2343
ema	-2344
▁Tune	-2345
ikabuk	-2346
imelek	-2347
imunan	-2348
▁maina	-2349
▁sanga	-2350
uklukan	-2351
▁upayang	-2352
▁patawaran	-2353
▁kaligaligan	-2354
ukul	-2355
▁Ita	-2356
▁kum	-2357
▁Aliwa	-2358
▁pekam	-2359
igtasan	-2360
▁tinipun	-2361
▁manintun	-2362
▁magumpisa	-2363
afat	-2364
▁Gib	-2365
▁Meb	-2366
▁Reh	-2367
▁Sal	-2368
▁lun	-2369
aring	-2370
insia	-2371
▁asan	-2372
▁kati	-2373
abatan	-2374
▁matua	-2375
▁prope	-2376
▁trigu	-2377
▁pangas	-2378
▁tukian	-2379
▁lumapit	-2380
▁maganaka	-2381
▁probinsia	-2382
irkunsisyun	-2383
▁makananung	-2384
▁pakakalulu	-2385
▁pipagpastulan	-2386
▁Dap	-2387
amban	-2388
labis	-2389
ylian	-2390
▁Munta	-2391
▁Sarah	-2392
▁Amoreo	-2393
▁atulan	-2394
▁daralan	-2395
▁demonyu	-2396
▁insultu	-2397
▁lasakan	-2398
▁magdala	-2399
▁malugud	-2400
▁matatag	-2401
▁pangata	-2402
▁linalang	-2403
oc	-2404
tak	-2405
▁Ro	-2406
abak	-2407
lako	-2408
ayang	-2409
rusan	-2410
▁Ahaz	-2411
▁Levi	-2412
▁tiki	-2413
▁tulid	-2414
▁grasya	-2415
▁kapitna	-2416
▁pakibat	-2417
▁Abalitan	-2418
▁alikabuk	-2419
▁kayatulan	-2420
▁makasulat	-2421
▁pakakabayu	-2422
▁bendisyunan	-2423
apat	-2424
uben	-2425
usta	-2426
▁Job	-2427
ibayu	-2428
▁mong	-2429
ilitan	-2430
▁Ruben	-2431
kapilit	-2432
rebeldi	-2433
▁Antimo	-2434
▁ibalik	-2435
▁talaga	-2436
selebran	-2437
▁pamanga	-2438
▁talakad	-2439
▁Jeosafat	-2440
▁marayung	-2441
▁migbalik	-2442
▁pepagawa	-2443
▁mitalakad	-2444
▁propetang	-2445
ca	-2446
rat	-2447
▁Si	-2448
agang	-2449
▁Maka	-2450
▁maul	-2451
▁paki	-2452
▁payu	-2453
metung	-2454
▁milal	-2455
▁sumpa	-2456
alagang	-2457
▁Kuanan	-2458
▁kanyan	-2459
▁karung	-2460
▁parusa	-2461
▁telakad	-2462
alumduman	-2463
▁paniatang	-2464
▁manatiling	-2465
luk	-2466
▁Ko	-2467
▁Na	-2468
agal	-2469
ubin	-2470
▁Gad	-2471
▁Kin	-2472
▁Lib	-2473
▁Sus	-2474
▁Zac	-2475
tinda	-2476
▁apate	-2477
▁labis	-2478
▁Daptan	-2479
▁arapat	-2480
▁ipakit	-2481
atalakad	-2482
▁kerubin	-2483
▁patugut	-2484
▁megumpisa	-2485
▁Ne	-2486
idia	-2487
ocus	-2488
ugpa	-2489
▁tab	-2490
arias	-2491
asyun	-2492
sikan	-2493
▁Jehu	-2494
▁keta	-2495
▁linen	-2496
▁ugali	-2497
salamat	-2498
▁Dimdam	-2499
▁binutil	-2500
▁Antiocus	-2501
▁manibatan	-2502
▁or	-2503
▁Jez	-2504
▁Lis	-2505
adura	-2506
alili	-2507
danan	-2508
inung	-2509
iwala	-2510
luban	-2511
pusan	-2512
▁krus	-2513
ilalam	-2514
▁palig	-2515
▁galang	-2516
▁paring	-2517
▁pamisip	-2518
▁sasamba	-2519
▁kalinguan	-2520
ith	-2521
adad	-2522
▁Jeri	-2523
▁kari	-2524
▁labi	-2525
▁magk	-2526
ungkut	-2527
▁Banua	-2528
▁bukas	-2529
▁mitmu	-2530
insultu	-2531
▁inawad	-2532
▁masala	-2533
▁manalig	-2534
▁pamakamate	-2535
▁karalumduman	-2536
▁talasalpantaya	-2537
yad	-2538
kiat	-2539
▁Sel	-2540
▁tua	-2541
angun	-2542
tupad	-2543
ustan	-2544
▁taba	-2545
▁Angga	-2546
▁Idala	-2547
▁Pamag	-2548
▁batal	-2549
▁suluk	-2550
umpisan	-2551
▁Judith	-2552
▁Mananu	-2553
▁kayang	-2554
▁pastul	-2555
▁dinapat	-2556
ato	-2557
iya	-2558
tro	-2559
adab	-2560
iong	-2561
▁Gid	-2562
▁tib	-2563
nayan	-2564
▁Mipa	-2565
▁leko	-2566
▁kanta	-2567
▁magla	-2568
▁sakal	-2569
▁salut	-2570
▁sibul	-2571
ulusulu	-2572
▁pasabi	-2573
▁susuyu	-2574
▁pampang	-2575
▁Pasibayu	-2576
▁daralanan	-2577
▁milalablab	-2578
uf	-2579
ael	-2580
din	-2581
gsa	-2582
esti	-2583
▁gum	-2584
▁sed	-2585
ynawa	-2586
anggap	-2587
balita	-2588
▁aring	-2589
▁maran	-2590
▁paslu	-2591
▁tatag	-2592
binutil	-2593
isabian	-2594
▁Balaam	-2595
▁Hebron	-2596
▁lumual	-2597
▁makaba	-2598
▁malaya	-2599
▁makiabe	-2600
▁milagru	-2601
▁sinulat	-2602
▁damdaman	-2603
ten	-2604
▁Zed	-2605
▁kuk	-2606
▁les	-2607
angwa	-2608
dagan	-2609
ulala	-2610
▁Mate	-2611
▁pinu	-2612
▁makik	-2613
▁sedro	-2614
taulian	-2615
▁babala	-2616
▁matibe	-2617
▁lalawan	-2618
▁mayakit	-2619
▁tiparan	-2620
▁ubingan	-2621
▁pagnasan	-2622
▁sambutan	-2623
▁mikayanak	-2624
▁penibatan	-2625
▁Pakiramdaman	-2626
sam	-2627
▁kit	-2628
▁Gawa	-2629
▁Pete	-2630
▁deta	-2631
▁kina	-2632
▁laru	-2633
alugud	-2634
aralan	-2635
▁pamat	-2636
▁pepag	-2637
▁makibalu	-2638
▁Kasulatan	-2639
▁pepaburen	-2640
pastanganan	-2641
bus	-2642
rim	-2643
wen	-2644
imua	-2645
ulap	-2646
▁Mid	-2647
inyag	-2648
lasan	-2649
ugbug	-2650
engian	-2651
ilagan	-2652
▁bulub	-2653
▁koron	-2654
aganaka	-2655
▁pangab	-2656
pamulala	-2657
▁balabal	-2658
▁lungkut	-2659
▁panganib	-2660
▁pintalan	-2661
▁gagamitan	-2662
▁kabengian	-2663
▁kaligtasan	-2664
▁bulubundukan	-2665
od	-2666
asal	-2667
▁abe	-2668
bante	-2669
abiran	-2670
▁pidad	-2671
▁lamesa	-2672
▁malyap	-2673
▁pakpak	-2674
▁gagawang	-2675
▁pagkeran	-2676
▁mipatawaran	-2677
▁So	-2678
▁te	-2679
alus	-2680
apun	-2681
ubli	-2682
▁Ipa	-2683
alual	-2684
iayan	-2685
wanan	-2686
▁Keka	-2687
alakit	-2688
aragul	-2689
lagpus	-2690
ukuyan	-2691
▁Bukud	-2692
▁bulag	-2693
▁Gideon	-2694
▁gawang	-2695
▁lulanan	-2696
▁malalam	-2697
▁sukulan	-2698
isulusulu	-2699
▁mikutkut	-2700
▁pangatau	-2701
▁insultuan	-2702
▁mengutang	-2703
ipangalugud	-2704
▁pisasabian	-2705
▁Pamaglagpus	-2706
▁kapasalamatan	-2707
▁Dam	-2708
ganan	-2709
ilabut	-2710
ipitan	-2711
lalawe	-2712
▁Pilato	-2713
▁Sulung	-2714
▁kitang	-2715
▁malang	-2716
▁malati	-2717
▁mawala	-2718
asakitan	-2719
▁Zacarias	-2720
▁balugbug	-2721
▁dalumdum	-2722
▁magkanta	-2723
▁magtinda	-2724
emb	-2725
was	-2726
rins	-2727
sawa	-2728
▁Zeb	-2729
imbang	-2730
▁Babie	-2731
▁Betel	-2732
▁Inaus	-2733
▁Laban	-2734
▁kagal	-2735
▁kapat	-2736
▁malil	-2737
▁pakit	-2738
▁takap	-2739
▁Jerico	-2740
▁tikian	-2741
▁tupang	-2742
asanting	-2743
▁Judiong	-2744
▁dirinan	-2745
▁kekaban	-2746
▁maranun	-2747
▁talapan	-2748
▁malating	-2749
▁mepalyari	-2750
▁kagalangan	-2751
▁Bendisyunan	-2752
▁migsalitang	-2753
hag	-2754
abung	-2755
embru	-2756
ulual	-2757
▁Mina	-2758
▁Miya	-2759
▁apag	-2760
▁pagm	-2761
▁paya	-2762
bangan	-2763
▁makak	-2764
▁palub	-2765
▁sidia	-2766
hamakan	-2767
▁ayanak	-2768
▁lalapit	-2769
▁miembru	-2770
▁Manatili	-2771
▁sariling	-2772
▁sasakupan	-2773
▁tinuknang	-2774
▁magtagumpe	-2775
▁be	-2776
kluk	-2777
puan	-2778
▁Bas	-2779
▁Mar	-2780
ayunu	-2781
ernes	-2782
estro	-2783
patad	-2784
▁Pang	-2785
yaliwa	-2786
▁Ikong	-2787
▁karni	-2788
▁kayal	-2789
▁mikak	-2790
▁piesta	-2791
▁kalasag	-2792
▁kabukasan	-2793
▁pamilyang	-2794
he	-2795
tab	-2796
▁Se	-2797
anon	-2798
dili	-2799
erod	-2800
olof	-2801
ygit	-2802
▁Per	-2803
▁San	-2804
▁leg	-2805
ulapo	-2806
▁Sina	-2807
▁idad	-2808
uparan	-2809
▁Holof	-2810
▁Sikem	-2811
▁dugpa	-2812
▁pisas	-2813
inabang	-2814
▁kaninu	-2815
▁makaya	-2816
▁masias	-2817
▁tabing	-2818
▁tinuki	-2819
▁delanan	-2820
▁Abimelek	-2821
▁kasiping	-2822
▁manangis	-2823
▁Holofernes	-2824
▁kapahamakan	-2825
nub	-2826
emet	-2827
spir	-2828
▁ula	-2829
inawe	-2830
punan	-2831
tigan	-2832
uktut	-2833
▁ikam	-2834
igalig	-2835
▁talim	-2836
▁Jeoiak	-2837
iknangan	-2838
▁Kalabas	-2839
▁Lebanon	-2840
▁danuman	-2841
▁tipunan	-2842
▁italakad	-2843
▁kasuyuan	-2844
uma	-2845
▁dinu	-2846
▁pita	-2847
pakumb	-2848
▁baryu	-2849
▁minaus	-2850
▁kulisak	-2851
▁memintu	-2852
▁pepayaus	-2853
▁kabanalan	-2854
▁kinulisak	-2855
▁paniwalan	-2856
pamisulusulu	-2857
▁makapagmulalang	-2858
can	-2859
ind	-2860
▁Bo	-2861
▁No	-2862
elyu	-2863
agoga	-2864
rates	-2865
ulang	-2866
uluan	-2867
▁bala	-2868
▁mapa	-2869
▁puru	-2870
atmuan	-2871
▁lakad	-2872
▁mitak	-2873
▁papan	-2874
▁prins	-2875
ampanan	-2876
▁Inutus	-2877
alakaran	-2878
▁Memalen	-2879
▁kaladua	-2880
▁marinat	-2881
▁mikakal	-2882
▁Jeremias	-2883
▁lebadura	-2884
▁melalang	-2885
▁menalili	-2886
▁sasamban	-2887
▁Makalunus	-2888
▁kagulutan	-2889
▁menibatan	-2890
iwa	-2891
rio	-2892
▁Euf	-2893
▁Nef	-2894
ablas	-2895
▁Tara	-2896
▁Tiro	-2897
▁dila	-2898
▁magb	-2899
▁ping	-2900
asakit	-2901
enayan	-2902
▁ining	-2903
▁tukud	-2904
▁malutu	-2905
▁obrang	-2906
▁palalu	-2907
▁Maestro	-2908
▁Mapalad	-2909
▁Nukarin	-2910
▁dalanan	-2911
▁matupad	-2912
▁mirinan	-2913
spiritung	-2914
▁Eufrates	-2915
▁maniaman	-2916
▁pepasari	-2917
▁sinagoga	-2918
▁malungkut	-2919
▁mayupayang	-2920
lam	-2921
mer	-2922
suk	-2923
asco	-2924
ezer	-2925
sung	-2926
kuban	-2927
usang	-2928
▁Sams	-2929
▁salu	-2930
galang	-2931
▁Abram	-2932
▁liwal	-2933
▁mekat	-2934
▁probl	-2935
▁siran	-2936
▁Josias	-2937
▁dalaga	-2938
▁nitang	-2939
▁tandus	-2940
▁Damasco	-2941
▁Ganakan	-2942
▁	-2943
a	-2944
n	-2945
i	-2946
g	-2947
u	-2948
k	-2949
l	-2950
t	-2951
m	-2952
e	-2953
s	-2954
p	-2955
b	-2956
d	-2957
r	-2958
y	-2959
.	-2960
o	-2961
,	-2962
I	-2963
M	-2964
w	-2965
A	-2966
D	-2967
G	-2968
K	-2969
J	-2970
h	-2971
;	-2972
N	-2973
E	-2974
P	-2975
S	-2976
-	-2977
B	-2978
T	-2979
O	-2980
!	-2981
?	-2982
L	-2983
c	-2984
v	-2985
z	-2986
H	-2987
:	-2988
C	-2989
f	-2990
U	-2991
Z	-2992
R	-2993
'	-2994
F	-2995
Y	-2996
