<unk>	0
<s>	0
</s>	0
ng	-0
ing	-1
▁k	-2
an	-3
▁a	-4
▁m	-5
▁n	-6
ang	-7
la	-8
▁d	-9
▁ka	-10
▁p	-11
in	-12
▁ing	-13
ta	-14
al	-15
▁at	-16
▁na	-17
▁king	-18
ak	-19
ya	-20
▁b	-21
ung	-22
▁i	-23
▁s	-24
at	-25
▁ning	-26
▁la	-27
am	-28
ab	-29
yu	-30
ul	-31
as	-32
ar	-33
▁kar	-34
▁l	-35
▁ding	-36
▁me	-37
ag	-38
tu	-39
▁ya	-40
▁g	-41
▁e	-42
▁mi	-43
▁da	-44
▁ta	-45
il	-46
▁ke	-47
it	-48
un	-49
▁r	-50
▁ku	-51
inu	-52
ka	-53
us	-54
is	-55
▁nang	-56
▁t	-57
ap	-58
▁mak	-59
▁karing	-60
ri	-61
▁mu	-62
en	-63
ala	-64
▁ne	-65
ti	-66
yang	-67
▁an	-68
▁ban	-69
on	-70
▁j	-71
el	-72
▁di	-73
▁al	-74
▁ng	-75
ib	-76
os	-77
▁man	-78
pa	-79
uk	-80
ut	-81
ad	-82
▁kan	-83
▁pam	-84
▁ginu	-85
▁ring	-86
▁dios	-87
▁in	-88
ud	-89
abi	-90
ita	-91
anan	-92
▁lang	-93
ug	-94
▁pe	-95
ra	-96
▁de	-97
▁keka	-98
▁ma	-99
▁yu	-100
▁mag	-101
▁met	-102
um	-103
ik	-104
▁yang	-105
▁ngan	-106
es	-107
▁tu	-108
▁ul	-109
ub	-110
▁par	-111
eng	-112
▁o	-113
angan	-114
im	-115
ip	-116
▁kang	-117
▁is	-118
tang	-119
▁metung	-120
wa	-121
▁anak	-122
alan	-123
▁nung	-124
▁bal	-125
▁tau	-126
ig	-127
er	-128
sa	-129
ia	-130
ie	-131
▁kap	-132
yung	-133
ua	-134
lak	-135
yan	-136
▁kab	-137
bat	-138
▁sab	-139
lang	-140
ili	-141
▁kayu	-142
▁on	-143
▁pa	-144
▁oneng	-145
man	-146
▁kare	-147
▁kas	-148
aku	-149
uan	-150
pat	-151
ila	-152
▁pan	-153
▁uling	-154
yap	-155
do	-156
ur	-157
ting	-158
und	-159
ban	-160
tan	-161
mu	-162
em	-163
id	-164
▁ari	-165
▁sablang	-166
▁neng	-167
▁kek	-168
▁isra	-169
▁israel	-170
▁pang	-171
ir	-172
▁iti	-173
▁karin	-174
▁ak	-175
▁inya	-176
▁taung	-177
▁ra	-178
▁karela	-179
▁sin	-180
aman	-181
▁ar	-182
▁kung	-183
▁kak	-184
▁anti	-185
akit	-186
▁ala	-187
▁kam	-188
to	-189
up	-190
▁bab	-191
wan	-192
ga	-193
▁h	-194
▁ang	-195
▁gin	-196
ibat	-197
abian	-198
▁mal	-199
ian	-200
▁mayap	-201
▁ab	-202
▁aldo	-203
▁pas	-204
▁mem	-205
tus	-206
ata	-207
▁alang	-208
ias	-209
▁mar	-210
▁kaya	-211
▁si	-212
lo	-213
▁lalak	-214
▁kekayu	-215
kut	-216
▁mas	-217
▁mang	-218
▁kay	-219
▁inyang	-220
▁ngana	-221
alen	-222
▁kanaku	-223
▁pak	-224
▁ad	-225
▁mig	-226
▁para	-227
ula	-228
tas	-229
▁kanita	-230
▁din	-231
▁kaybat	-232
▁as	-233
upa	-234
▁mab	-235
▁jud	-236
nan	-237
▁ag	-238
uri	-239
▁ik	-240
▁sas	-241
▁dak	-242
▁kal	-243
▁mat	-244
▁jes	-245
▁pep	-246
ayu	-247
▁memalen	-248
▁ali	-249
be	-250
or	-251
▁ap	-252
▁nganang	-253
▁mek	-254
▁mung	-255
mang	-256
atang	-257
sal	-258
▁kala	-259
elang	-260
▁atyu	-261
▁naman	-262
ari	-263
▁kekang	-264
▁pat	-265
▁min	-266
▁lug	-267
ilan	-268
gan	-269
alang	-270
▁jesus	-271
▁tala	-272
ob	-273
uang	-274
▁mo	-275
▁dang	-276
▁uli	-277
▁men	-278
▁karelang	-279
aya	-280
▁ngen	-281
▁kapa	-282
▁nan	-283
udad	-284
▁siudad	-285
▁sinabi	-286
▁maging	-287
tuk	-288
▁dan	-289
▁ib	-290
▁map	-291
utus	-292
nangan	-293
pan	-294
tul	-295
▁dar	-296
▁mam	-297
wang	-298
▁kanit	-299
kad	-300
▁am	-301
▁re	-302
▁baba	-303
eo	-304
▁ita	-305
amd	-306
▁bin	-307
▁sa	-308
▁banua	-309
▁pag	-310
alanan	-311
eb	-312
▁tata	-313
▁mis	-314
apat	-315
and	-316
▁ain	-317
▁bansa	-318
▁tin	-319
▁ating	-320
mung	-321
▁dakal	-322
▁kata	-323
yari	-324
▁mala	-325
▁mib	-326
▁angga	-327
▁mun	-328
ana	-329
▁ip	-330
▁ninu	-331
▁ngeni	-332
▁lib	-333
▁jer	-334
ulung	-335
tad	-336
▁pamag	-337
▁ginung	-338
ali	-339
undal	-340
▁sundal	-341
agul	-342
ilang	-343
anyan	-344
▁ika	-345
alik	-346
▁lugal	-347
kul	-348
▁aku	-349
▁y	-350
itan	-351
▁lalaki	-352
▁makap	-353
atan	-354
▁makanyan	-355
▁bag	-356
▁suk	-357
▁ila	-358
▁itang	-359
▁sar	-360
ro	-361
ras	-362
amat	-363
▁sabian	-364
▁gab	-365
salita	-366
▁pana	-367
▁w	-368
aka	-369
▁sundalus	-370
pe	-371
akan	-372
▁gabun	-373
usal	-374
▁dalan	-375
vid	-376
▁david	-377
ilatan	-378
utusan	-379
▁lin	-380
▁yatu	-381
▁atin	-382
ulu	-383
unduk	-384
usalem	-385
▁kayung	-386
▁pin	-387
▁c	-388
▁miya	-389
▁kayabe	-390
▁aduang	-391
awa	-392
igtas	-393
▁jerusalem	-394
▁tem	-395
lu	-396
▁temp	-397
▁templo	-398
usan	-399
▁po	-400
▁kautusan	-401
▁kapam	-402
▁ibat	-403
alu	-404
▁makas	-405
▁sukat	-406
abie	-407
apan	-408
▁aring	-409
▁le	-410
▁pi	-411
lung	-412
▁panaun	-413
da	-414
▁meng	-415
▁mita	-416
▁kakung	-417
▁balu	-418
▁depat	-419
▁bage	-420
▁ikit	-421
▁tuk	-422
▁bilang	-423
et	-424
intu	-425
▁pari	-426
▁lub	-427
untuk	-428
▁paman	-429
▁balang	-430
▁sasabian	-431
▁yung	-432
ru	-433
▁mete	-434
▁kapamilatan	-435
pis	-436
▁es	-437
inan	-438
▁meg	-439
hi	-440
▁ge	-441
ilug	-442
▁tamu	-443
bu	-444
▁aliwa	-445
▁kekayung	-446
▁asa	-447
▁pab	-448
ises	-449
ungkul	-450
▁moises	-451
uran	-452
asan	-453
▁makat	-454
uknangan	-455
mo	-456
ulut	-457
▁ye	-458
pang	-459
▁lab	-460
▁kalaban	-461
▁kil	-462
▁sarili	-463
▁bie	-464
▁im	-465
▁z	-466
▁ba	-467
aran	-468
▁kasalanan	-469
▁antimo	-470
▁kapilan	-471
gyu	-472
iramd	-473
▁juda	-474
▁balen	-475
▁eh	-476
urian	-477
una	-478
awan	-479
ipto	-480
▁ehipto	-481
▁bat	-482
ilangan	-483
▁sam	-484
kap	-485
▁potang	-486
▁lalaking	-487
uyu	-488
▁iting	-489
▁kapatad	-490
ba	-491
pon	-492
▁tutu	-493
lakad	-494
iran	-495
▁pib	-496
▁ampon	-497
▁pek	-498
▁buri	-499
ulan	-500
▁kabang	-501
▁kalupa	-502
▁babai	-503
▁mabilug	-504
pi	-505
agan	-506
▁il	-507
▁bale	-508
▁pamil	-509
▁mik	-510
▁ngar	-511
▁manibat	-512
▁binie	-513
▁pasib	-514
▁maragul	-515
▁kaku	-516
▁mika	-517
▁el	-518
▁bunduk	-519
io	-520
te	-521
ran	-522
▁nu	-523
intul	-524
asala	-525
▁mata	-526
itung	-527
▁apat	-528
▁lagyu	-529
alig	-530
atili	-531
ek	-532
▁nanu	-533
▁kailangan	-534
▁tri	-535
▁namang	-536
bul	-537
ikan	-538
▁inu	-539
wala	-540
▁dap	-541
▁kilub	-542
ac	-543
ris	-544
▁miras	-545
▁tungkul	-546
gap	-547
▁pap	-548
▁manuknangan	-549
sak	-550
▁kekata	-551
▁pamilya	-552
▁mip	-553
▁meging	-554
▁anim	-555
▁asawa	-556
▁kekam	-557
▁nanum	-558
sang	-559
▁animal	-560
anu	-561
▁lum	-562
▁mil	-563
▁daptan	-564
▁kami	-565
▁sana	-566
akung	-567
kutan	-568
▁aliwang	-569
▁tun	-570
▁lim	-571
▁upa	-572
▁nit	-573
▁lahi	-574
▁aman	-575
ring	-576
▁tang	-577
▁banal	-578
utan	-579
▁israelita	-580
▁bala	-581
▁pasibayu	-582
▁gewa	-583
▁libu	-584
▁lala	-585
▁pala	-586
▁gamat	-587
ukan	-588
tar	-589
peta	-590
▁kanitang	-591
dala	-592
▁bis	-593
▁tan	-594
▁pen	-595
risto	-596
▁pasbul	-597
▁mate	-598
▁mila	-599
▁sabla	-600
ol	-601
uli	-602
▁sum	-603
rian	-604
▁judio	-605
▁nita	-606
alangin	-607
paya	-608
▁datang	-609
bud	-610
▁babaing	-611
▁jos	-612
▁ibie	-613
▁pro	-614
▁danum	-615
▁gag	-616
▁minta	-617
mon	-618
▁tupa	-619
▁nun	-620
kan	-621
ilala	-622
▁makanan	-623
▁keti	-624
▁laban	-625
pit	-626
ulat	-627
▁ketang	-628
tung	-629
upan	-630
yaring	-631
ong	-632
▁sim	-633
aling	-634
▁babie	-635
bie	-636
▁makatua	-637
▁atlung	-638
▁nune	-639
▁dinatang	-640
akitan	-641
▁tanaman	-642
arin	-643
▁tribu	-644
▁mekibat	-645
▁altar	-646
▁mayu	-647
unta	-648
▁san	-649
ugan	-650
andian	-651
▁deting	-652
uban	-653
▁mit	-654
▁linu	-655
▁agyang	-656
ma	-657
▁ipus	-658
▁kanakung	-659
▁ben	-660
▁migsalita	-661
▁pibandian	-662
▁ko	-663
▁je	-664
▁dane	-665
isyu	-666
▁sala	-667
ayan	-668
di	-669
ih	-670
▁detang	-671
ald	-672
▁kinu	-673
▁peng	-674
▁kayarian	-675
▁deti	-676
tag	-677
▁arapan	-678
▁tinu	-679
▁gawan	-680
itang	-681
▁kaniti	-682
▁makata	-683
▁pinili	-684
ipan	-685
▁nanumang	-686
uren	-687
az	-688
▁paten	-689
lan	-690
▁pitung	-691
ah	-692
▁pati	-693
adia	-694
ilaban	-695
era	-696
▁upaya	-697
▁propeta	-698
▁dapat	-699
▁pamuntuk	-700
▁sus	-701
▁malyaring	-702
nang	-703
▁keya	-704
▁limang	-705
tuan	-706
▁dag	-707
▁lel	-708
▁imalan	-709
aw	-710
▁rin	-711
▁makananu	-712
li	-713
▁sik	-714
▁amanu	-715
▁batu	-716
▁cristo	-717
iasnan	-718
▁anting	-719
▁kabiasnan	-720
▁keng	-721
▁wari	-722
▁he	-723
▁manatili	-724
▁kag	-725
gang	-726
▁mua	-727
imuna	-728
las	-729
▁akit	-730
▁pamangan	-731
ni	-732
iling	-733
iramdam	-734
lat	-735
onia	-736
▁deng	-737
uguran	-738
▁pulut	-739
▁ninumang	-740
pu	-741
adur	-742
but	-743
ria	-744
▁tuknangan	-745
▁adua	-746
▁munaman	-747
balik	-748
▁dake	-749
▁kekami	-750
▁pete	-751
▁inutus	-752
▁kin	-753
▁tol	-754
ritu	-755
isan	-756
unan	-757
ibatan	-758
▁dagat	-759
dam	-760
ulid	-761
▁espi	-762
▁espiritu	-763
▁ngara	-764
▁meb	-765
▁agpang	-766
▁malyari	-767
▁dim	-768
▁katu	-769
unus	-770
bing	-771
▁buk	-772
▁talas	-773
▁saul	-774
gad	-775
▁meko	-776
▁tune	-777
▁pulung	-778
inis	-779
lako	-780
▁katawan	-781
▁mapilan	-782
atayan	-783
han	-784
▁kat	-785
▁may	-786
olo	-787
tak	-788
▁pip	-789
▁manimuna	-790
▁mabie	-791
▁mayupaya	-792
akal	-793
yal	-794
▁pamak	-795
dan	-796
amate	-797
mp	-798
▁munta	-799
▁makiramdam	-800
▁jo	-801
▁mes	-802
▁kamatayan	-803
ham	-804
akup	-805
▁babil	-806
▁talasuyu	-807
▁paburen	-808
▁rang	-809
▁pis	-810
▁gintu	-811
▁buntuk	-812
▁babilonia	-813
▁pad	-814
ira	-815
yapan	-816
▁kesa	-817
gu	-818
▁bar	-819
▁tapat	-820
▁te	-821
▁masikan	-822
ese	-823
▁dimdam	-824
hel	-825
▁se	-826
unduan	-827
na	-828
▁sanang	-829
disyu	-830
ilis	-831
yali	-832
aus	-833
lag	-834
▁lev	-835
▁pus	-836
▁maki	-837
▁utus	-838
▁pilak	-839
▁niti	-840
▁anghel	-841
▁marang	-842
pas	-843
▁bel	-844
panta	-845
▁dinan	-846
▁pup	-847
aptan	-848
▁kasunduan	-849
ea	-850
▁dela	-851
▁tula	-852
iramdaman	-853
aron	-854
▁ilug	-855
▁beng	-856
▁jac	-857
▁aaron	-858
▁makab	-859
▁iya	-860
bas	-861
▁tik	-862
▁jacob	-863
▁bayu	-864
▁tamung	-865
pak	-866
▁dis	-867
▁purian	-868
le	-869
luk	-870
▁pu	-871
▁lugud	-872
▁takut	-873
▁mitmung	-874
▁ub	-875
▁us	-876
ron	-877
▁sal	-878
▁kasal	-879
ai	-880
git	-881
▁ah	-882
amdaman	-883
▁sag	-884
▁arap	-885
se	-886
akap	-887
inum	-888
aring	-889
▁bulan	-890
▁daraptan	-891
akas	-892
▁mani	-893
tin	-894
om	-895
▁pader	-896
gal	-897
dang	-898
ibie	-899
▁paintul	-900
▁kekatamung	-901
▁ting	-902
▁magsalita	-903
▁pik	-904
abe	-905
▁pusu	-906
▁kaban	-907
▁libutad	-908
▁ninuman	-909
▁mim	-910
▁akakit	-911
alas	-912
▁bansang	-913
▁malapit	-914
▁lele	-915
yanan	-916
▁aldong	-917
pag	-918
uel	-919
▁dininan	-920
▁anam	-921
aldugan	-922
▁matulid	-923
▁sang	-924
▁labanan	-925
obra	-926
mula	-927
lab	-928
tagan	-929
alyari	-930
▁mum	-931
umpis	-932
▁pamik	-933
▁ming	-934
▁abalu	-935
undukan	-936
▁opis	-937
▁daratang	-938
adu	-939
asa	-940
▁pepa	-941
ulukan	-942
▁kekatamu	-943
unang	-944
▁alak	-945
▁bang	-946
▁opisyal	-947
▁ilang	-948
▁lik	-949
▁oras	-950
▁big	-951
▁bias	-952
▁malinis	-953
▁maka	-954
▁obat	-955
▁alagad	-956
▁ngarang	-957
dian	-958
▁miyayali	-959
umpe	-960
▁api	-961
▁kinua	-962
▁pani	-963
▁solo	-964
▁solomon	-965
kas	-966
▁kasakitan	-967
▁gan	-968
▁pepas	-969
▁pekibat	-970
▁ima	-971
▁bukud	-972
aluguran	-973
▁makapag	-974
teo	-975
▁makal	-976
▁pal	-977
▁papunta	-978
lagan	-979
▁mitu	-980
▁anggang	-981
ulud	-982
lanan	-983
▁ikayu	-984
▁pepar	-985
▁katutuan	-986
dro	-987
▁bengi	-988
aral	-989
unga	-990
▁jon	-991
▁pig	-992
▁pengaku	-993
▁pakiramdaman	-994
kuan	-995
▁abra	-996
▁bita	-997
▁pekap	-998
▁kaniting	-999
ual	-1000
▁lul	-1001
▁abraham	-1002
alung	-1003
▁tinap	-1004
ati	-1005
▁itu	-1006
▁baka	-1007
▁minie	-1008
▁pamam	-1009
▁mitagan	-1010
aba	-1011
laga	-1012
▁kad	-1013
▁dinalan	-1014
▁kareting	-1015
▁maygit	-1016
▁iligtas	-1017
▁tauan	-1018
gse	-1019
ihag	-1020
▁milyari	-1021
▁pekapun	-1022
ina	-1023
▁be	-1024
gapan	-1025
tulan	-1026
iping	-1027
▁babo	-1028
amitan	-1029
▁tinape	-1030
▁mengari	-1031
▁sikanan	-1032
▁sinu	-1033
▁idala	-1034
▁kik	-1035
▁jose	-1036
▁ngening	-1037
▁kabaldugan	-1038
▁magd	-1039
▁misan	-1040
apit	-1041
ipun	-1042
yuan	-1043
▁ken	-1044
▁tag	-1045
▁labing	-1046
▁mismu	-1047
▁parusan	-1048
amit	-1049
▁ins	-1050
▁apulung	-1051
re	-1052
isak	-1053
rung	-1054
alitan	-1055
▁sakup	-1056
▁mangan	-1057
▁tatang	-1058
▁bet	-1059
▁aslagan	-1060
▁kareti	-1061
utu	-1062
dolo	-1063
▁idolo	-1064
disyunan	-1065
▁mikasala	-1066
▁no	-1067
ganan	-1068
▁daya	-1069
adurut	-1070
syu	-1071
▁tolda	-1072
▁kapatagan	-1073
bug	-1074
▁kul	-1075
▁manga	-1076
▁isipan	-1077
bang	-1078
intuan	-1079
paran	-1080
ilalanan	-1081
▁abalitan	-1082
alum	-1083
▁bak	-1084
▁ibpa	-1085
▁miyayaliwang	-1086
ags	-1087
ern	-1088
ins	-1089
waran	-1090
▁mibalik	-1091
▁balita	-1092
▁mer	-1093
▁hegan	-1094
▁kabud	-1095
su	-1096
▁gil	-1097
▁lalam	-1098
sing	-1099
ripis	-1100
▁makapadurut	-1101
▁jor	-1102
▁ob	-1103
▁dayuan	-1104
▁kakaluguran	-1105
ram	-1106
ayung	-1107
lam	-1108
mar	-1109
anting	-1110
alinguan	-1111
ugud	-1112
▁nuk	-1113
▁sak	-1114
▁sub	-1115
ilisteo	-1116
▁nukarin	-1117
iseo	-1118
▁lis	-1119
kanta	-1120
▁pamang	-1121
hu	-1122
utung	-1123
▁matas	-1124
pantayanan	-1125
▁tor	-1126
aligan	-1127
▁lawan	-1128
▁bisang	-1129
▁kuanan	-1130
▁kasalpantayanan	-1131
ot	-1132
isi	-1133
▁ni	-1134
alak	-1135
▁mir	-1136
ale	-1137
▁pr	-1138
▁mipa	-1139
ku	-1140
ens	-1141
kapan	-1142
▁kapayapan	-1143
▁levita	-1144
ue	-1145
yer	-1146
▁ula	-1147
▁disyer	-1148
amal	-1149
▁paralan	-1150
▁disyerto	-1151
▁id	-1152
▁pem	-1153
▁pepag	-1154
▁josue	-1155
▁libung	-1156
▁likuan	-1157
▁tinggap	-1158
▁marangle	-1159
dia	-1160
wad	-1161
aban	-1162
king	-1163
▁ubas	-1164
ayaran	-1165
▁inaus	-1166
isip	-1167
▁lig	-1168
▁tand	-1169
mpakan	-1170
▁jonatan	-1171
lib	-1172
ripisyu	-1173
▁pil	-1174
▁palasyu	-1175
du	-1176
▁pangan	-1177
▁tim	-1178
▁paganu	-1179
itis	-1180
awang	-1181
▁agad	-1182
de	-1183
tip	-1184
tawaran	-1185
alakad	-1186
▁ausan	-1187
ake	-1188
▁bandi	-1189
▁judas	-1190
tunan	-1191
▁pamani	-1192
▁bu	-1193
ipat	-1194
▁pablo	-1195
▁darapat	-1196
▁masanting	-1197
umpisa	-1198
▁pamikasala	-1199
utang	-1200
▁keting	-1201
▁miyain	-1202
▁gal	-1203
walan	-1204
▁kapan	-1205
▁lubus	-1206
▁ayu	-1207
▁ikua	-1208
▁maya	-1209
ungkulan	-1210
▁saka	-1211
▁bitasang	-1212
▁kekong	-1213
▁dangalan	-1214
iel	-1215
▁aduan	-1216
▁jordan	-1217
▁mangmang	-1218
ait	-1219
katas	-1220
ke	-1221
abal	-1222
ligtas	-1223
alikut	-1224
▁ditak	-1225
▁tuntunan	-1226
ase	-1227
▁mep	-1228
patan	-1229
▁biasa	-1230
ukluk	-1231
▁kekaming	-1232
aleb	-1233
▁munie	-1234
▁saupan	-1235
▁tanggapan	-1236
▁tip	-1237
▁juan	-1238
▁ustu	-1239
▁bitis	-1240
▁ainsak	-1241
dum	-1242
▁kit	-1243
uring	-1244
▁pedro	-1245
▁dutung	-1246
▁kasiran	-1247
▁magbalik	-1248
▁pepakit	-1249
▁karetang	-1250
ki	-1251
tud	-1252
usa	-1253
▁kut	-1254
nasan	-1255
▁espa	-1256
alumdum	-1257
▁ginawa	-1258
esta	-1259
ahala	-1260
▁niting	-1261
yag	-1262
ulatan	-1263
▁talapag	-1264
yanakan	-1265
▁tuparan	-1266
▁atlu	-1267
▁kaming	-1268
eba	-1269
aria	-1270
▁dum	-1271
ain	-1272
amin	-1273
▁makip	-1274
ok	-1275
si	-1276
▁isa	-1277
▁yan	-1278
▁kasang	-1279
tuki	-1280
▁kikilalanan	-1281
no	-1282
ibe	-1283
yun	-1284
▁ig	-1285
▁tak	-1286
▁yeng	-1287
▁kambing	-1288
▁paintulut	-1289
▁mako	-1290
▁iyain	-1291
▁miyabie	-1292
▁ainsakripisyu	-1293
co	-1294
lus	-1295
alam	-1296
▁kasulatan	-1297
▁kayanakan	-1298
alita	-1299
orti	-1300
▁sel	-1301
amdam	-1302
▁lung	-1303
▁ikong	-1304
▁ikayung	-1305
ayat	-1306
uluk	-1307
▁meka	-1308
▁tuknang	-1309
▁bunga	-1310
▁wa	-1311
bundukan	-1312
▁ainadur	-1313
▁manakit	-1314
▁kaburian	-1315
▁ainadurulukan	-1316
▁bundukbundukan	-1317
we	-1318
iawad	-1319
▁norti	-1320
uku	-1321
gawa	-1322
uluan	-1323
▁angin	-1324
▁tinubud	-1325
▁mie	-1326
▁nia	-1327
aganak	-1328
▁sulat	-1329
▁espada	-1330
salitang	-1331
▁kasangkapan	-1332
▁sig	-1333
yugse	-1334
▁lalu	-1335
▁katamu	-1336
▁sangkan	-1337
aup	-1338
kam	-1339
iras	-1340
usuban	-1341
▁lunus	-1342
▁manalangin	-1343
ilian	-1344
▁pitu	-1345
▁biser	-1346
▁pepab	-1347
▁linual	-1348
▁kapurian	-1349
agsik	-1350
▁katungkulan	-1351
ako	-1352
andi	-1353
ukum	-1354
ulus	-1355
adung	-1356
▁keni	-1357
tindian	-1358
abing	-1359
jamin	-1360
▁gawa	-1361
▁olib	-1362
ed	-1363
angis	-1364
▁moab	-1365
▁linub	-1366
▁kapana	-1367
▁subali	-1368
▁kamaganak	-1369
▁tum	-1370
payan	-1371
▁mela	-1372
▁mamintu	-1373
▁benjamin	-1374
▁ri	-1375
▁sis	-1376
tipun	-1377
▁katul	-1378
ingat	-1379
▁talampakan	-1380
ayad	-1381
▁sakit	-1382
▁sasam	-1383
▁magobra	-1384
▁asi	-1385
lakbe	-1386
▁lakuan	-1387
▁mabagsik	-1388
▁menuknangan	-1389
til	-1390
▁jeo	-1391
▁bayung	-1392
yanak	-1393
▁ayup	-1394
▁kabuk	-1395
▁akilala	-1396
▁mapalyari	-1397
ling	-1398
▁kampu	-1399
▁simon	-1400
intunan	-1401
▁gagawan	-1402
▁katapatan	-1403
▁kayupayan	-1404
▁hus	-1405
amalan	-1406
aganang	-1407
ingsing	-1408
▁bangke	-1409
▁ingatan	-1410
▁katuliran	-1411
▁heganaganang	-1412
ambut	-1413
▁kabayu	-1414
▁ligaya	-1415
▁pamintuan	-1416
▁makatalakad	-1417
bi	-1418
pad	-1419
▁tob	-1420
angalan	-1421
▁angganan	-1422
ihim	-1423
ilit	-1424
▁tir	-1425
intun	-1426
▁abak	-1427
▁toro	-1428
▁baket	-1429
▁olibo	-1430
▁milako	-1431
▁peparala	-1432
ter	-1433
rawan	-1434
▁pota	-1435
▁gamitan	-1436
▁mumunang	-1437
iak	-1438
oam	-1439
ador	-1440
lian	-1441
▁laman	-1442
▁waring	-1443
▁makamate	-1444
iang	-1445
▁alb	-1446
▁leb	-1447
▁sil	-1448
▁ipan	-1449
▁tron	-1450
uar	-1451
▁mauli	-1452
▁mismung	-1453
▁tatakut	-1454
▁biserung	-1455
▁obra	-1456
▁kanan	-1457
▁kapit	-1458
▁kutkutan	-1459
▁pagk	-1460
▁karapat	-1461
ami	-1462
upad	-1463
angal	-1464
ungan	-1465
▁asno	-1466
▁reting	-1467
▁kabilian	-1468
bath	-1469
▁insens	-1470
bal	-1471
▁tr	-1472
umpa	-1473
▁pipag	-1474
▁sabbath	-1475
▁oy	-1476
▁lupa	-1477
▁ilako	-1478
▁buring	-1479
▁miligtas	-1480
▁pakamalan	-1481
uc	-1482
arine	-1483
▁mula	-1484
▁piesta	-1485
▁pangane	-1486
▁toldang	-1487
▁tinalakad	-1488
▁mangaintul	-1489
▁gr	-1490
anaka	-1491
▁kuar	-1492
▁balamu	-1493
▁kuta	-1494
▁prob	-1495
▁mapag	-1496
▁tronu	-1497
▁mamahala	-1498
▁las	-1499
oboam	-1500
inutil	-1501
▁sigur	-1502
▁tubud	-1503
alebale	-1504
▁batung	-1505
aia	-1506
met	-1507
uyuan	-1508
▁oyni	-1509
▁masal	-1510
▁asiria	-1511
▁samuel	-1512
▁lusuban	-1513
▁mitipun	-1514
▁mitubud	-1515
▁pangaku	-1516
▁panalangin	-1517
kun	-1518
ekia	-1519
▁mel	-1520
▁reng	-1521
▁siria	-1522
▁albugan	-1523
▁tagumpe	-1524
▁kinutang	-1525
▁menatili	-1526
▁bendisyunan	-1527
▁sib	-1528
▁pulu	-1529
▁nanuman	-1530
▁lelangan	-1531
▁maniwala	-1532
▁aintindian	-1533
bung	-1534
dapat	-1535
▁gera	-1536
▁reti	-1537
dom	-1538
ensa	-1539
inuan	-1540
▁dili	-1541
▁makilaban	-1542
yi	-1543
yam	-1544
akab	-1545
undu	-1546
isabi	-1547
▁muli	-1548
▁saup	-1549
▁elias	-1550
abaluan	-1551
▁eliseo	-1552
▁banuang	-1553
▁karapatdapat	-1554
▁mangaintulid	-1555
ingan	-1556
▁edom	-1557
▁ipak	-1558
▁joab	-1559
▁leon	-1560
▁danup	-1561
▁isanu	-1562
▁mibait	-1563
▁pakibatan	-1564
▁menalangin	-1565
▁pibalebale	-1566
▁zi	-1567
esar	-1568
ilab	-1569
muan	-1570
▁hez	-1571
▁lual	-1572
▁binili	-1573
▁keyang	-1574
▁manase	-1575
▁siping	-1576
▁gintung	-1577
▁linapit	-1578
▁makamal	-1579
atas	-1580
▁mimua	-1581
maragul	-1582
▁lalung	-1583
▁mengan	-1584
▁panginuan	-1585
▁kaw	-1586
▁per	-1587
▁guar	-1588
▁kuma	-1589
▁sagr	-1590
▁antimu	-1591
▁mibili	-1592
▁kabalen	-1593
▁kakalinguan	-1594
ilin	-1595
▁lam	-1596
iasawa	-1597
▁makib	-1598
▁insenso	-1599
▁masalese	-1600
▁panintunan	-1601
po	-1602
yo	-1603
ead	-1604
idad	-1605
▁tig	-1606
pitan	-1607
yamang	-1608
▁mibie	-1609
▁beluan	-1610
▁milabas	-1611
▁pasalam	-1612
▁kaluguran	-1613
ine	-1614
▁ti	-1615
rang	-1616
▁mitakutan	-1617
▁parati	-1618
▁silaban	-1619
▁ker	-1620
uliran	-1621
▁pakas	-1622
▁pisas	-1623
▁gilead	-1624
▁bisa	-1625
▁grup	-1626
▁nebu	-1627
▁isaac	-1628
▁linigtas	-1629
▁pepagawa	-1630
bag	-1631
ino	-1632
▁tal	-1633
▁kapag	-1634
▁mabibie	-1635
▁agyamang	-1636
ama	-1637
udtud	-1638
▁paintulutan	-1639
od	-1640
▁heb	-1641
▁biga	-1642
▁ukum	-1643
▁uran	-1644
▁kalig	-1645
▁salapi	-1646
▁depatan	-1647
ko	-1648
isia	-1649
▁gob	-1650
▁apan	-1651
▁mags	-1652
amanta	-1653
ilugan	-1654
▁mipar	-1655
uat	-1656
▁jesuc	-1657
▁larung	-1658
▁megawa	-1659
▁simbut	-1660
▁lisuban	-1661
▁kalabing	-1662
▁makasadia	-1663
▁jesucristo	-1664
▁pikabaluan	-1665
▁makasalanan	-1666
raim	-1667
▁tuki	-1668
isanan	-1669
▁ibili	-1670
▁ituru	-1671
▁darala	-1672
▁larawan	-1673
▁makasulat	-1674
buk	-1675
aldo	-1676
yain	-1677
▁dur	-1678
▁miyabe	-1679
▁walung	-1680
▁kaduang	-1681
eon	-1682
▁apu	-1683
▁mor	-1684
agsak	-1685
alili	-1686
▁ahab	-1687
▁isip	-1688
▁labi	-1689
▁matula	-1690
▁sasabi	-1691
▁tangsu	-1692
▁talakad	-1693
▁marangal	-1694
cai	-1695
inap	-1696
▁tit	-1697
▁kasa	-1698
▁asabi	-1699
▁mamangan	-1700
▁mibiebie	-1701
▁makatuliran	-1702
▁pamakilaban	-1703
▁u	-1704
awak	-1705
nawa	-1706
▁sid	-1707
▁pami	-1708
▁makaya	-1709
ehu	-1710
les	-1711
▁kum	-1712
amang	-1713
akupan	-1714
asalam	-1715
▁libru	-1716
▁kabilugan	-1717
▁kapanayan	-1718
hag	-1719
ibala	-1720
▁zion	-1721
enesar	-1722
▁igles	-1723
▁mekap	-1724
▁wanan	-1725
▁maniawad	-1726
alag	-1727
▁bes	-1728
apate	-1729
ipensa	-1730
▁mitmu	-1731
ernador	-1732
▁kaguluan	-1733
▁makapagmula	-1734
▁v	-1735
him	-1736
decai	-1737
▁sese	-1738
adiang	-1739
▁asias	-1740
▁kalulu	-1741
▁minuli	-1742
▁menakit	-1743
▁mordecai	-1744
▁gobernador	-1745
pus	-1746
▁mingat	-1747
▁tutung	-1748
▁guardia	-1749
▁magdala	-1750
awe	-1751
cad	-1752
zar	-1753
▁baal	-1754
▁pita	-1755
akasan	-1756
▁ammon	-1757
tagumpe	-1758
▁amanung	-1759
▁nebucad	-1760
▁pamagari	-1761
▁makalukluk	-1762
▁nebucadenesar	-1763
eleb	-1764
▁kor	-1765
▁reg	-1766
▁sem	-1767
abang	-1768
talan	-1769
isipan	-1770
ulutan	-1771
▁ganap	-1772
▁kitang	-1773
▁hezekia	-1774
▁iglesia	-1775
▁marawak	-1776
▁masakit	-1777
▁minunang	-1778
▁munamang	-1779
tun	-1780
▁ele	-1781
isyun	-1782
▁peintul	-1783
▁or	-1784
▁eli	-1785
rinan	-1786
uklat	-1787
▁kinul	-1788
▁lihim	-1789
▁ngang	-1790
pantaya	-1791
▁diling	-1792
▁pangata	-1793
agk	-1794
sil	-1795
abas	-1796
lala	-1797
▁minu	-1798
▁trum	-1799
▁ester	-1800
▁samaria	-1801
▁trumpeta	-1802
ada	-1803
gyuan	-1804
atawan	-1805
▁makak	-1806
▁makar	-1807
▁minum	-1808
▁panga	-1809
▁masaya	-1810
▁pepaya	-1811
▁mulahan	-1812
umb	-1813
▁bib	-1814
inlang	-1815
▁tumula	-1816
▁ainakap	-1817
▁miyugse	-1818
esa	-1819
ebel	-1820
ugali	-1821
▁paki	-1822
▁bakal	-1823
▁patyu	-1824
▁makala	-1825
▁lumapit	-1826
▁tinakas	-1827
isa	-1828
ning	-1829
▁bas	-1830
▁kuk	-1831
kampu	-1832
▁mebie	-1833
alangan	-1834
atiling	-1835
▁mabayat	-1836
▁pamanyam	-1837
▁magdalang	-1838
eran	-1839
turu	-1840
▁sek	-1841
▁cana	-1842
kutkut	-1843
▁grupu	-1844
▁mensa	-1845
untalan	-1846
▁sumuyu	-1847
▁katlung	-1848
▁aldoaldo	-1849
▁kabukasan	-1850
▁uz	-1851
▁peg	-1852
ulian	-1853
▁peka	-1854
▁dikut	-1855
▁ralan	-1856
▁nanung	-1857
rap	-1858
apam	-1859
▁tanda	-1860
▁ulaga	-1861
irasung	-1862
▁ibalik	-1863
▁minuna	-1864
▁makasum	-1865
▁tiparan	-1866
▁kapulung	-1867
lual	-1868
▁rey	-1869
angid	-1870
▁turu	-1871
▁kuartu	-1872
▁lungub	-1873
amayaran	-1874
▁lasakan	-1875
▁mabandi	-1876
▁tinipun	-1877
endisyunan	-1878
▁pamagsalita	-1879
tol	-1880
▁bul	-1881
▁pika	-1882
▁siam	-1883
▁tiki	-1884
▁canaan	-1885
▁makapan	-1886
▁tanggap	-1887
kasalanan	-1888
abu	-1889
▁az	-1890
acar	-1891
alat	-1892
▁bub	-1893
▁sulu	-1894
disyun	-1895
tangan	-1896
▁asbuk	-1897
▁balat	-1898
▁barku	-1899
▁mumuna	-1900
arinayan	-1901
▁antimong	-1902
▁aya	-1903
raman	-1904
payang	-1905
▁linto	-1906
▁regalu	-1907
▁susulud	-1908
▁talaturu	-1909
▁parangalan	-1910
das	-1911
pia	-1912
akad	-1913
ising	-1914
ision	-1915
ostol	-1916
seleb	-1917
uling	-1918
▁agyu	-1919
kutang	-1920
▁haman	-1921
▁samba	-1922
▁daniel	-1923
▁tikian	-1924
ungkutan	-1925
▁memintu	-1926
kingkasalanan	-1927
gian	-1928
saya	-1929
yutus	-1930
▁leko	-1931
▁mikak	-1932
katasan	-1933
▁siwala	-1934
▁apostol	-1935
▁gisanan	-1936
▁kakatas	-1937
▁kalaraman	-1938
▁patawaran	-1939
▁kakataskatasan	-1940
ago	-1941
eru	-1942
sin	-1943
ping	-1944
sawa	-1945
▁lima	-1946
▁judea	-1947
▁pupul	-1948
▁tutuk	-1949
▁inuman	-1950
▁tuturu	-1951
▁alangalang	-1952
▁mayupayang	-1953
▁dig	-1954
▁pila	-1955
▁pekam	-1956
▁reyna	-1957
▁batuin	-1958
▁samban	-1959
▁vision	-1960
▁migkampu	-1961
▁pintalan	-1962
▁sundalung	-1963
▁pamanyamba	-1964
▁kalungkutan	-1965
a	-1966
▁	-1967
n	-1968
i	-1969
g	-1970
u	-1971
k	-1972
t	-1973
l	-1974
m	-1975
e	-1976
s	-1977
p	-1978
d	-1979
b	-1980
r	-1981
y	-1982
o	-1983
w	-1984
h	-1985
j	-1986
c	-1987
z	-1988
v	-1989
