<unk>	0
<s>	0
</s>	0
an	-0
ay	-1
▁s	-2
▁a	-3
▁t	-4
▁n	-5
in	-6
al	-7
ka	-8
▁m	-9
▁na	-10
ar	-11
en	-12
on	-13
▁e	-14
▁p	-15
▁d	-16
ak	-17
at	-18
▁to	-19
▁i	-20
ang	-21
▁k	-22
▁ed	-23
▁tan	-24
▁y	-25
am	-26
aw	-27
▁si	-28
▁l	-29
ad	-30
ag	-31
▁b	-32
▁ka	-33
aray	-34
ap	-35
to	-36
▁saray	-37
▁so	-38
ab	-39
ey	-40
ra	-41
as	-42
ray	-43
il	-44
▁ya	-45
et	-46
▁in	-47
▁A	-48
it	-49
▁I	-50
▁S	-51
▁K	-52
mp	-53
el	-54
is	-55
▁nen	-56
▁ag	-57
▁da	-58
er	-59
▁D	-60
un	-61
oy	-62
▁man	-63
▁sika	-64
angg	-65
os	-66
eg	-67
ud	-68
ul	-69
▁pan	-70
ol	-71
▁J	-72
▁di	-73
eng	-74
▁am	-75
ip	-76
awan	-77
aka	-78
ib	-79
od	-80
▁on	-81
▁Di	-82
▁N	-83
▁iray	-84
atawan	-85
ir	-86
▁Katawan	-87
▁say	-88
▁ray	-89
▁"	-90
▁an	-91
awa	-92
▁toto	-93
ing	-94
▁g	-95
us	-96
ayo	-97
▁bal	-98
▁ar	-99
▁ko	-100
▁mo	-101
▁M	-102
▁et	-103
es	-104
▁yo	-105
ew	-106
ung	-107
▁ak	-108
▁Dios	-109
aan	-110
ik	-111
▁ra	-112
▁In	-113
▁angg	-114
ep	-115
ig	-116
akey	-117
▁amin	-118
▁diad	-119
▁B	-120
▁ta	-121
uan	-122
san	-123
ran	-124
inm	-125
im	-126
apud	-127
yan	-128
um	-129
og	-130
▁sakey	-131
ari	-132
aman	-133
▁nan	-134
▁P	-135
ot	-136
▁T	-137
▁totoo	-138
wal	-139
atey	-140
uk	-141
▁imp	-142
iw	-143
."	-144
▁dal	-145
em	-146
ek	-147
ita	-148
si	-149
▁no	-150
▁sikato	-151
anan	-152
▁ira	-153
amay	-154
▁Is	-155
op	-156
alo	-157
id	-158
mb	-159
▁la	-160
▁mang	-161
▁wal	-162
tan	-163
or	-164
▁ton	-165
▁anak	-166
▁maka	-167
▁kan	-168
amp	-169
▁siak	-170
neng	-171
ok	-172
ta	-173
▁E	-174
▁sik	-175
ong	-176
▁lab	-177
bat	-178
▁al	-179
ika	-180
inga	-181
sal	-182
ob	-183
▁kin	-184
ut	-185
▁ma	-186
rael	-187
▁kay	-188
▁Israel	-189
aga	-190
▁toy	-191
om	-192
ng	-193
rad	-194
ilay	-195
▁Say	-196
▁o	-197
kuan	-198
▁dalin	-199
▁Ag	-200
ur	-201
▁tod	-202
alang	-203
▁singa	-204
lo	-205
▁ni	-206
▁lapud	-207
anggan	-208
▁Bal	-209
▁L	-210
apoy	-211
▁met	-212
▁pin	-213
▁kayo	-214
alak	-215
▁balet	-216
ia	-217
▁sikara	-218
▁kab	-219
engneng	-220
▁ab	-221
▁kinen	-222
ian	-223
epeg	-224
agey	-225
▁pang	-226
aban	-227
sa	-228
▁ib	-229
▁Balet	-230
ri	-231
asen	-232
aran	-233
▁G	-234
ton	-235
▁may	-236
▁Jud	-237
▁ari	-238
▁mam	-239
▁O	-240
▁day	-241
akar	-242
aliw	-243
▁ang	-244
▁sikayo	-245
▁agew	-246
▁ran	-247
▁Jes	-248
▁mi	-249
ara	-250
▁Diad	-251
▁ap	-252
atan	-253
▁ban	-254
▁dan	-255
eb	-256
man	-257
▁anggapoy	-258
▁ip	-259
salanan	-260
▁gin	-261
▁lalak	-262
▁lak	-263
kan	-264
▁No	-265
▁yan	-266
▁kar	-267
dan	-268
ump	-269
▁as	-270
away	-271
▁int	-272
▁arum	-273
udad	-274
▁kal	-275
▁kap	-276
lapud	-277
awaen	-278
▁Jesus	-279
ond	-280
ili	-281
▁it	-282
▁Si	-283
▁siudad	-284
▁totoon	-285
▁imb	-286
▁san	-287
▁Kan	-288
▁kam	-289
▁H	-290
▁samay	-291
agat	-292
▁tin	-293
▁Am	-294
di	-295
ya	-296
▁too	-297
▁Insan	-298
▁anggad	-299
▁lay	-300
▁pian	-301
▁mat	-302
▁rad	-303
alan	-304
ias	-305
▁aka	-306
▁makap	-307
▁Kanyan	-308
▁nap	-309
▁insan	-310
ino	-311
imp	-312
ala	-313
akan	-314
eral	-315
up	-316
maliw	-317
iket	-318
wan	-319
▁nepeg	-320
▁Jer	-321
oley	-322
ayari	-323
asan	-324
▁nip	-325
▁toon	-326
▁Nen	-327
▁pana	-328
▁iran	-329
▁is	-330
tak	-331
abi	-332
odino	-333
▁Ang	-334
▁kanyan	-335
io	-336
▁C	-337
alem	-338
ulo	-339
▁sayan	-340
▁odino	-341
▁inkuan	-342
▁lan	-343
la	-344
▁panag	-345
▁nag	-346
arin	-347
▁pam	-348
▁sal	-349
▁kon	-350
▁kod	-351
▁du	-352
▁bansa	-353
ayam	-354
▁Man	-355
uloy	-356
ub	-357
olan	-358
eo	-359
yang	-360
▁omp	-361
▁sond	-362
ulong	-363
▁kuan	-364
▁dad	-365
▁pasen	-366
▁walay	-367
▁walad	-368
▁ganggan	-369
▁tr	-370
▁tayo	-371
awil	-372
▁ing	-373
do	-374
▁Inkuan	-375
▁panang	-376
av	-377
irap	-378
▁An	-379
▁pa	-380
engel	-381
usalem	-382
▁irad	-383
▁Saray	-384
▁Jerusalem	-385
▁Mo	-386
▁linm	-387
avid	-388
akal	-389
▁David	-390
implo	-391
▁natan	-392
agmaliw	-393
▁lakin	-394
▁Angg	-395
▁kabyang	-396
▁Ab	-397
▁inka	-398
may	-399
▁lalaki	-400
▁saman	-401
▁para	-402
oges	-403
ipen	-404
oleg	-405
ed	-406
lang	-407
▁yon	-408
alagey	-409
▁pap	-410
egl	-411
▁On	-412
▁kom	-413
▁yoy	-414
▁labat	-415
▁kasalanan	-416
▁mab	-417
alon	-418
▁impan	-419
▁totood	-420
▁Ari	-421
▁bilay	-422
egley	-423
▁labay	-424
bay	-425
iter	-426
▁paka	-427
ilin	-428
da	-429
▁bagat	-430
ebat	-431
▁ons	-432
▁panam	-433
▁boleg	-434
▁anto	-435
ayon	-436
▁sondalo	-437
ris	-438
▁Timplo	-439
awag	-440
lan	-441
onan	-442
ro	-443
uar	-444
▁map	-445
umpal	-446
▁anggan	-447
iwan	-448
▁onung	-449
aen	-450
akel	-451
iron	-452
▁maoges	-453
iber	-454
▁lam	-455
▁Israelita	-456
▁sin	-457
gip	-458
unot	-459
ii	-460
egan	-461
isk	-462
ises	-463
▁imay	-464
▁taga	-465
bilay	-466
engat	-467
▁Moises	-468
▁ol	-469
epet	-470
▁gawaen	-471
▁maung	-472
▁pat	-473
▁panaon	-474
▁koy	-475
yag	-476
▁lim	-477
agawa	-478
ac	-479
▁aripen	-480
▁bengat	-481
!"	-482
?"	-483
▁kum	-484
▁moy	-485
▁sanka	-486
ayn	-487
rin	-488
▁Juda	-489
▁dili	-490
aakar	-491
▁inm	-492
▁ng	-493
iskeg	-494
alin	-495
▁panamegley	-496
iba	-497
▁sar	-498
▁arap	-499
▁kami	-500
▁Inm	-501
sian	-502
itan	-503
awen	-504
▁Egip	-505
▁kabyangay	-506
▁ay	-507
▁kalaban	-508
▁komun	-509
agalang	-510
▁mar	-511
aro	-512
▁pak	-513
▁R	-514
▁yod	-515
▁siop	-516
apo	-517
▁kaka	-518
▁balut	-519
▁ontan	-520
▁'	-521
amb	-522
▁kuanto	-523
▁balang	-524
aynan	-525
▁Sika	-526
▁W	-527
▁ins	-528
▁kad	-529
▁nad	-530
ilak	-531
▁taon	-532
▁mon	-533
inawa	-534
▁intiron	-535
▁manlapud	-536
asak	-537
ulat	-538
isi	-539
ug	-540
▁wala	-541
▁kat	-542
▁pangulo	-543
pan	-544
▁sikatoy	-545
▁nipaakar	-546
▁sirin	-547
▁mod	-548
batan	-549
▁ibab	-550
aryan	-551
▁mamp	-552
▁at	-553
imey	-554
undo	-555
▁abung	-556
tar	-557
▁ama	-558
▁bin	-559
▁kag	-560
▁andi	-561
▁El	-562
oob	-563
▁ki	-564
▁manl	-565
▁il	-566
araan	-567
▁baley	-568
▁patey	-569
iro	-570
ayew	-571
▁lib	-572
▁kayod	-573
asi	-574
ali	-575
ngel	-576
asn	-577
▁Jos	-578
ulan	-579
ungan	-580
▁aliwan	-581
asnuk	-582
rop	-583
▁saramay	-584
▁sak	-585
sia	-586
isip	-587
ayamay	-588
▁Egipto	-589
agan	-590
pa	-591
▁bat	-592
▁kaw	-593
▁mana	-594
▁pad	-595
aba	-596
yakar	-597
alab	-598
aki	-599
▁ina	-600
▁ingg	-601
asus	-602
abig	-603
▁sinm	-604
▁din	-605
asanton	-606
erew	-607
▁nat	-608
ayarin	-609
risto	-610
▁Imp	-611
▁bib	-612
riy	-613
akep	-614
isia	-615
▁lad	-616
ito	-617
▁ond	-618
▁Nan	-619
▁ginawa	-620
alek	-621
▁trib	-622
yagel	-623
▁diman	-624
▁Inmebat	-625
atak	-626
▁tawen	-627
imb	-628
▁anengneng	-629
dey	-630
int	-631
▁satan	-632
▁tribu	-633
▁mangg	-634
alandey	-635
▁prop	-636
Ag	-637
▁lamet	-638
yal	-639
▁nib	-640
▁kuar	-641
▁Judio	-642
▁namp	-643
ger	-644
▁laman	-645
oolan	-646
▁kayaryan	-647
▁ompatey	-648
▁nil	-649
▁karn	-650
▁pinm	-651
▁lalakin	-652
ulang	-653
▁Pan	-654
mi	-655
▁kas	-656
ipon	-657
▁kaog	-658
▁altar	-659
pir	-660
ingger	-661
▁inkuanto	-662
▁yay	-663
▁inter	-664
men	-665
▁nin	-666
▁laki	-667
lon	-668
▁mundo	-669
ayarian	-670
▁amayamay	-671
▁balit	-672
aklang	-673
▁pal	-674
alangan	-675
amin	-676
▁op	-677
ti	-678
pirit	-679
ua	-680
▁dilin	-681
▁danum	-682
▁duaran	-683
mbuk	-684
riyos	-685
▁diriyos	-686
▁As	-687
agawaen	-688
▁opis	-689
ipan	-690
ukolan	-691
▁opisyal	-692
▁nanlapud	-693
alay	-694
ingk	-695
▁magmaliw	-696
ila	-697
tay	-698
aliket	-699
awas	-700
▁balituk	-701
aalagey	-702
uy	-703
elag	-704
▁Anggapoy	-705
▁kaogsan	-706
▁Ta	-707
agak	-708
uir	-709
alus	-710
angat	-711
▁kayon	-712
ikas	-713
▁bii	-714
▁kawes	-715
▁gagawaen	-716
▁Pin	-717
▁sikami	-718
ma	-719
▁ont	-720
salita	-721
▁pamil	-722
apew	-723
ilon	-724
▁ngaran	-725
▁kiew	-726
▁manaayam	-727
▁Lapud	-728
▁pakayari	-729
▁Ma	-730
kasalanan	-731
▁Z	-732
iin	-733
▁dalan	-734
bal	-735
▁ig	-736
▁Maka	-737
▁saya	-738
az	-739
awad	-740
,"	-741
aron	-742
onur	-743
awaan	-744
apan	-745
awit	-746
▁iter	-747
▁lawas	-748
kas	-749
takot	-750
▁bengatla	-751
▁Ak	-752
ikasi	-753
▁talo	-754
▁naka	-755
▁Cristo	-756
awam	-757
▁og	-758
abuloy	-759
▁propita	-760
▁apat	-761
itdan	-762
▁panan	-763
▁papari	-764
awi	-765
usa	-766
▁siopaman	-767
▁pig	-768
ist	-769
kaman	-770
▁imbaga	-771
.'	-772
▁mak	-773
▁Tin	-774
amplo	-775
piritu	-776
▁sikay	-777
▁Sikato	-778
▁kawal	-779
▁onl	-780
ayaman	-781
▁sarayan	-782
▁Sa	-783
▁niy	-784
onung	-785
▁puir	-786
yarin	-787
▁nayarian	-788
▁antokaman	-789
een	-790
ind	-791
agam	-792
insi	-793
agew	-794
alik	-795
atagey	-796
▁Ib	-797
▁Jo	-798
owan	-799
▁nab	-800
awat	-801
▁mas	-802
unotan	-803
ona	-804
▁asawa	-805
▁sang	-806
▁tinm	-807
▁manag	-808
aloy	-809
▁Bab	-810
▁salita	-811
apasen	-812
▁deral	-813
▁padir	-814
dad	-815
▁Le	-816
▁dia	-817
engeg	-818
hil	-819
▁mans	-820
▁ingganggan	-821
ingkur	-822
▁kakan	-823
▁labi	-824
abay	-825
kay	-826
oman	-827
▁ingen	-828
▁kaiba	-829
▁masanton	-830
▁baleg	-831
▁inatey	-832
▁San	-833
ilonia	-834
ingan	-835
▁mamb	-836
▁impang	-837
▁Babilonia	-838
▁ginagawa	-839
ras	-840
deral	-841
▁bakal	-842
▁legan	-843
▁panl	-844
▁amta	-845
alita	-846
wa	-847
kal	-848
apay	-849
▁tapew	-850
▁abay	-851
▁nadngel	-852
▁pateyen	-853
aten	-854
amt	-855
▁pamilya	-856
tit	-857
ayep	-858
lay	-859
▁tak	-860
▁anghil	-861
abiy	-862
uran	-863
▁tay	-864
▁dalem	-865
▁pito	-866
eba	-867
▁Lev	-868
▁antoy	-869
gg	-870
▁mabilay	-871
▁matonung	-872
▁nanl	-873
▁lasus	-874
ogp	-875
▁Sam	-876
▁talin	-877
amat	-878
etang	-879
▁kato	-880
igalang	-881
▁Inkuanto	-882
tong	-883
▁nayarin	-884
otak	-885
An	-886
▁Ganggan	-887
oor	-888
ter	-889
agay	-890
▁Inkuanen	-891
▁Saul	-892
▁olo	-893
▁manan	-894
▁manoley	-895
ada	-896
▁ayayep	-897
▁pamp	-898
▁bang	-899
▁Al	-900
▁bibii	-901
▁talinta	-902
▁sil	-903
▁dayat	-904
▁kimey	-905
▁totook	-906
▁sikaray	-907
amanan	-908
▁kalak	-909
▁mangib	-910
▁omb	-911
arap	-912
anggawa	-913
▁pati	-914
ermen	-915
▁Linm	-916
No	-917
apa	-918
▁min	-919
▁dinm	-920
no	-921
amut	-922
olom	-923
▁makas	-924
▁tulong	-925
▁sikayon	-926
▁bay	-927
▁angga	-928
▁nas	-929
▁Siak	-930
▁pari	-931
igon	-932
▁agag	-933
▁pilak	-934
▁bengatlan	-935
acob	-936
▁apoy	-937
ic	-938
apag	-939
olung	-940
▁linma	-941
dayew	-942
▁pika	-943
▁Jacob	-944
▁Aaron	-945
▁r	-946
▁disip	-947
▁Imb	-948
ec	-949
atik	-950
liber	-951
Si	-952
▁Amin	-953
ibakal	-954
▁nanengneng	-955
na	-956
awak	-957
▁Wala	-958
Say	-959
lam	-960
▁linawa	-961
abal	-962
▁Siop	-963
▁bulan	-964
▁pasnuk	-965
▁nakaukolan	-966
▁w	-967
inom	-968
kakan	-969
ea	-970
unigon	-971
▁itayo	-972
okd	-973
▁Ar	-974
umpad	-975
iwa	-976
▁alak	-977
▁kuantod	-978
▁sikaton	-979
eh	-980
yay	-981
▁aw	-982
▁ayep	-983
▁pigaran	-984
amtaan	-985
ano	-986
omp	-987
apatey	-988
▁matoor	-989
tol	-990
iria	-991
irb	-992
▁kip	-993
▁lima	-994
titipon	-995
▁puirta	-996
▁Makapan	-997
▁mapal	-998
ador	-999
etan	-1000
▁pus	-1001
ilang	-1002
▁katoowan	-1003
usaen	-1004
▁sikat	-1005
▁iy	-1006
▁Anak	-1007
▁anggapo	-1008
▁kagalangan	-1009
wanan	-1010
olus	-1011
toy	-1012
awakan	-1013
olomon	-1014
▁Solomon	-1015
▁makapan	-1016
alm	-1017
▁karniro	-1018
▁naan	-1019
▁mangip	-1020
abaingan	-1021
ongg	-1022
▁pas	-1023
ogpaan	-1024
▁Makapanyarin	-1025
abigan	-1026
▁disipulo	-1027
alig	-1028
itay	-1029
▁baka	-1030
agad	-1031
ina	-1032
era	-1033
mpo	-1034
imon	-1035
▁Bet	-1036
kulang	-1037
▁kalakyan	-1038
▁kawalaan	-1039
ogan	-1040
▁nar	-1041
▁impa	-1042
bayan	-1043
▁agawa	-1044
▁linmad	-1045
▁kalawakan	-1046
ekal	-1047
tombuk	-1048
▁nagmaliw	-1049
hi	-1050
mpet	-1051
angan	-1052
▁Jon	-1053
arian	-1054
▁arari	-1055
isaklang	-1056
▁kayamanan	-1057
mat	-1058
▁ebat	-1059
▁kipapasen	-1060
aloan	-1061
▁mank	-1062
▁ibaga	-1063
waan	-1064
▁kor	-1065
kat	-1066
uay	-1067
uel	-1068
▁Kas	-1069
▁kaliber	-1070
ham	-1071
▁bato	-1072
ulda	-1073
▁onla	-1074
▁kapag	-1075
opoolan	-1076
anengneng	-1077
ez	-1078
▁mairap	-1079
▁pinatey	-1080
▁kakabatan	-1081
▁sanl	-1082
umlang	-1083
▁marotak	-1084
alongg	-1085
alonggar	-1086
▁totoom	-1087
▁Na	-1088
▁Nepeg	-1089
▁sumpad	-1090
yo	-1091
ron	-1092
irbir	-1093
irapan	-1094
empet	-1095
▁Levita	-1096
▁sikatayo	-1097
▁iner	-1098
mon	-1099
▁kasi	-1100
▁biskeg	-1101
▁agi	-1102
eenan	-1103
▁angib	-1104
▁pinal	-1105
isan	-1106
ooban	-1107
▁kakanen	-1108
▁Ip	-1109
▁amb	-1110
▁wad	-1111
raham	-1112
put	-1113
kasi	-1114
▁pay	-1115
ilist	-1116
ilig	-1117
▁lin	-1118
▁dengel	-1119
▁Abraham	-1120
▁kanen	-1121
▁liket	-1122
▁tinapay	-1123
▁kareenan	-1124
igo	-1125
▁Ben	-1126
otan	-1127
▁makasengeg	-1128
Di	-1129
osul	-1130
gneng	-1131
▁biin	-1132
▁nengneng	-1133
▁kanunotan	-1134
ista	-1135
▁inaatey	-1136
▁pinmawil	-1137
▁Jose	-1138
ablo	-1139
ilaban	-1140
▁tinepet	-1141
ago	-1142
ekan	-1143
▁mambilay	-1144
alonggaring	-1145
▁Il	-1146
▁nid	-1147
▁Walay	-1148
▁nagawa	-1149
agar	-1150
arak	-1151
ampol	-1152
▁agagi	-1153
agem	-1154
▁ogaw	-1155
ilalek	-1156
dok	-1157
daan	-1158
▁mit	-1159
▁katwaan	-1160
▁mibakal	-1161
▁bu	-1162
▁onur	-1163
▁nansalita	-1164
eyag	-1165
iton	-1166
▁akap	-1167
▁Ispiritu	-1168
▁isp	-1169
▁Jor	-1170
sakey	-1171
isal	-1172
ulon	-1173
▁Akin	-1174
▁anem	-1175
On	-1176
was	-1177
▁bok	-1178
▁dala	-1179
epegan	-1180
▁panoy	-1181
▁naamtaan	-1182
▁Judas	-1183
ingwanan	-1184
asikas	-1185
so	-1186
aya	-1187
ion	-1188
▁Natan	-1189
▁Jonatan	-1190
Diad	-1191
▁popoolan	-1192
asa	-1193
iel	-1194
apat	-1195
disi	-1196
▁namb	-1197
▁tampol	-1198
don	-1199
antak	-1200
ilong	-1201
▁insipan	-1202
alim	-1203
▁Es	-1204
amta	-1205
asio	-1206
elan	-1207
▁mangan	-1208
oma	-1209
▁mid	-1210
▁dios	-1211
▁kapara	-1212
iy	-1213
kab	-1214
▁Ac	-1215
iran	-1216
▁Singa	-1217
▁mansian	-1218
ald	-1219
▁bung	-1220
▁anggaman	-1221
▁kayoy	-1222
▁manayam	-1223
▁palasio	-1224
ef	-1225
iseo	-1226
▁par	-1227
▁bindisi	-1228
ue	-1229
sam	-1230
ilan	-1231
▁pans	-1232
▁angip	-1233
nengneng	-1234
▁inkuanen	-1235
▁kabyangan	-1236
agalangan	-1237
▁makabat	-1238
▁sondalon	-1239
▁trigo	-1240
abiskeg	-1241
▁Josue	-1242
akanengneng	-1243
amba	-1244
kana	-1245
▁pananisia	-1246
▁lik	-1247
▁gilig	-1248
▁impam	-1249
▁tayon	-1250
▁palandey	-1251
▁Sin	-1252
▁libo	-1253
▁panka	-1254
anggaan	-1255
indan	-1256
▁Agew	-1257
▁ongg	-1258
▁Maung	-1259
▁kanepegan	-1260
▁sikan	-1261
wasan	-1262
asanto	-1263
▁kampo	-1264
▁sikaran	-1265
▁Ped	-1266
▁Sik	-1267
▁kil	-1268
▁samp	-1269
▁malin	-1270
▁bangkay	-1271
ayat	-1272
▁imbaki	-1273
say	-1274
Sika	-1275
▁mabiskeg	-1276
olo	-1277
▁kaat	-1278
▁Pablo	-1279
almo	-1280
eneg	-1281
▁puso	-1282
ananey	-1283
atawag	-1284
▁loob	-1285
▁Jordan	-1286
▁asingger	-1287
naan	-1288
▁onuren	-1289
▁Manlapud	-1290
▁kaatapan	-1291
li	-1292
alet	-1293
ipat	-1294
▁baybay	-1295
▁initdan	-1296
▁panangaro	-1297
▁lalon	-1298
▁kuarta	-1299
▁sananey	-1300
▁kairapan	-1301
▁nanarian	-1302
aks	-1303
abas	-1304
ekias	-1305
kakanaan	-1306
▁maliket	-1307
oen	-1308
▁Nab	-1309
▁Pedro	-1310
▁kasak	-1311
abin	-1312
▁deralen	-1313
▁kababaingan	-1314
upa	-1315
▁Nad	-1316
▁ompawil	-1317
▁er	-1318
ikan	-1319
angon	-1320
apwan	-1321
▁libon	-1322
▁silong	-1323
▁Masanton	-1324
▁Mar	-1325
▁sip	-1326
▁kinm	-1327
uc	-1328
▁iya	-1329
▁mil	-1330
dakep	-1331
▁itdan	-1332
asal	-1333
talus	-1334
▁Pang	-1335
▁mand	-1336
▁karakel	-1337
!'	-1338
▁Ah	-1339
indisi	-1340
▁inkuantod	-1341
▁iny	-1342
▁Kayari	-1343
▁inyakar	-1344
▁nanayam	-1345
▁talintaoy	-1346
dom	-1347
▁ink	-1348
▁nak	-1349
▁nis	-1350
insiaan	-1351
▁mangiter	-1352
▁Ap	-1353
▁Isa	-1354
▁kamid	-1355
▁ibabaga	-1356
tok	-1357
aria	-1358
inan	-1359
oluk	-1360
▁Ilog	-1361
▁onya	-1362
▁onlad	-1363
▁sangka	-1364
obir	-1365
▁abal	-1366
abuloyan	-1367
▁gunigon	-1368
aing	-1369
▁makaoley	-1370
Ak	-1371
ding	-1372
▁Ama	-1373
▁mag	-1374
intil	-1375
ompon	-1376
▁Moab	-1377
▁nand	-1378
▁nans	-1379
▁paway	-1380
isipanan	-1381
▁manonan	-1382
▁sikayoy	-1383
oot	-1384
▁Ef	-1385
agel	-1386
▁Legan	-1387
▁larak	-1388
ilisteo	-1389
▁Palandey	-1390
In	-1391
▁Sip	-1392
▁gan	-1393
▁sig	-1394
▁Juan	-1395
▁inar	-1396
ibilay	-1397
▁takot	-1398
umpalen	-1399
kap	-1400
aker	-1401
▁tua	-1402
insia	-1403
▁manang	-1404
▁pitoran	-1405
▁onk	-1406
▁bokig	-1407
▁komuy	-1408
▁Asiria	-1409
▁Hintil	-1410
▁ispiritu	-1411
ilo	-1412
utan	-1413
lamang	-1414
▁aliwa	-1415
▁impir	-1416
ulongan	-1417
▁lamlamang	-1418
tog	-1419
ukor	-1420
upan	-1421
▁Dan	-1422
▁tepet	-1423
▁kabalik	-1424
▁panaayaman	-1425
af	-1426
ah	-1427
aol	-1428
▁manal	-1429
co	-1430
agano	-1431
aylay	-1432
uloyan	-1433
aay	-1434
ngg	-1435
▁duan	-1436
▁sulat	-1437
iten	-1438
▁binm	-1439
▁panagp	-1440
▁Tinepet	-1441
▁manepeg	-1442
▁akin	-1443
▁ando	-1444
▁dusaen	-1445
▁nankasalanan	-1446
▁pinili	-1447
abid	-1448
▁lol	-1449
asawa	-1450
▁mama	-1451
▁Kaban	-1452
▁ontombuk	-1453
▁kabaliksan	-1454
▁iyagel	-1455
▁makulang	-1456
alng	-1457
apal	-1458
▁patar	-1459
▁kapald	-1460
▁It	-1461
Akin	-1462
ayar	-1463
ogip	-1464
▁mant	-1465
▁Tulda	-1466
▁bakan	-1467
▁ispada	-1468
ko	-1469
apas	-1470
apod	-1471
▁dua	-1472
▁nal	-1473
iiter	-1474
▁Mang	-1475
alusan	-1476
▁iyakar	-1477
▁ik	-1478
itad	-1479
loob	-1480
▁Pat	-1481
▁Kaka	-1482
alogan	-1483
atakot	-1484
▁kanding	-1485
▁Anggaman	-1486
▁pakaoley	-1487
olis	-1488
erewen	-1489
▁kuarto	-1490
▁onsabi	-1491
▁taloran	-1492
▁lolooban	-1493
▁panangar	-1494
▁kasakbayan	-1495
aal	-1496
ken	-1497
▁tir	-1498
iliket	-1499
▁kamin	-1500
▁To	-1501
baleg	-1502
▁Sinm	-1503
▁dagem	-1504
▁kabat	-1505
▁nadngelan	-1506
▁Tob	-1507
▁balon	-1508
painawa	-1509
▁liw	-1510
▁Ontan	-1511
▁Simon	-1512
asalita	-1513
asingger	-1514
anak	-1515
▁ononan	-1516
apu	-1517
lur	-1518
ario	-1519
etma	-1520
▁Kab	-1521
▁malinis	-1522
awang	-1523
▁sankam	-1524
ool	-1525
mplo	-1526
aatagey	-1527
agmaliwen	-1528
eon	-1529
Angg	-1530
osis	-1531
▁rig	-1532
▁Tinm	-1533
▁nana	-1534
▁sali	-1535
ikimey	-1536
▁insin	-1537
▁manok	-1538
▁parti	-1539
▁labind	-1540
▁panags	-1541
▁sigput	-1542
▁pinalsa	-1543
alandeyan	-1544
alad	-1545
kaka	-1546
▁akas	-1547
▁kama	-1548
▁ermen	-1549
▁nangg	-1550
▁Sipanan	-1551
indisionan	-1552
ben	-1553
agur	-1554
▁sipan	-1555
igan	-1556
yari	-1557
unong	-1558
▁sian	-1559
alaban	-1560
▁Panag	-1561
umb	-1562
elat	-1563
▁tanaman	-1564
▁abalaten	-1565
▁Kakabatan	-1566
kod	-1567
▁itay	-1568
ambaan	-1569
▁dakel	-1570
ataktakot	-1571
▁isaklang	-1572
▁kamaungan	-1573
gawa	-1574
ooley	-1575
▁mitro	-1576
▁tagey	-1577
▁Pangulon	-1578
akd	-1579
iset	-1580
▁inl	-1581
urang	-1582
▁Pari	-1583
▁Sulat	-1584
▁baton	-1585
▁kumad	-1586
▁manng	-1587
matalek	-1588
▁pinmaway	-1589
lano	-1590
▁ket	-1591
▁ibabagay	-1592
▁kabwasan	-1593
▁mapalaloy	-1594
akm	-1595
▁Dengel	-1596
▁kapokd	-1597
▁pangip	-1598
ekn	-1599
tug	-1600
▁Sakey	-1601
▁abayag	-1602
▁duamplo	-1603
▁masanto	-1604
▁kaalogan	-1605
▁kagawaan	-1606
▁kapokdulan	-1607
tek	-1608
ases	-1609
riso	-1610
▁araw	-1611
▁ilog	-1612
▁ginag	-1613
asakbay	-1614
enengneng	-1615
▁bindision	-1616
.'"	-1617
day	-1618
obo	-1619
ewen	-1620
▁Ingg	-1621
▁Egipsi	-1622
▁mangigalang	-1623
▁matalonggaring	-1624
mas	-1625
ogaw	-1626
arawi	-1627
endan	-1628
▁Edom	-1629
▁Pinm	-1630
▁dapag	-1631
▁Manases	-1632
▁onggendan	-1633
▁pakatalus	-1634
▁kapalandeyan	-1635
Ib	-1636
orem	-1637
wahi	-1638
▁Din	-1639
insira	-1640
olisay	-1641
▁pangg	-1642
▁bilang	-1643
▁saksakey	-1644
▁Ez	-1645
▁Tan	-1646
oboam	-1647
▁Andi	-1648
▁balo	-1649
oleyan	-1650
▁katak	-1651
▁lorem	-1652
▁Idayew	-1653
▁Sikara	-1654
▁niiter	-1655
▁sanlasus	-1656
▁makasalanan	-1657
▁Panagpainawa	-1658
tal	-1659
azar	-1660
emben	-1661
▁bosis	-1662
▁ilalo	-1663
▁pakap	-1664
ilonget	-1665
▁saraya	-1666
▁wadman	-1667
▁apatiran	-1668
▁tirinsira	-1669
ogpa	-1670
▁tron	-1671
ageyan	-1672
▁Anengneng	-1673
akis	-1674
ilib	-1675
▁Heb	-1676
Antoy	-1677
▁simb	-1678
▁bansan	-1679
▁bibiin	-1680
▁kayari	-1681
tonungan	-1682
▁Egipsio	-1683
usek	-1684
▁Eli	-1685
akelaw	-1686
kasakey	-1687
aleg	-1688
Saray	-1689
aliis	-1690
arias	-1691
▁Joab	-1692
alabay	-1693
ataynan	-1694
▁bandad	-1695
▁kawalaay	-1696
umog	-1697
▁Jeh	-1698
▁amp	-1699
ibaga	-1700
▁lion	-1701
amplon	-1702
asakit	-1703
▁alaen	-1704
▁lusek	-1705
amsam	-1706
undoan	-1707
▁ikuan	-1708
▁kabayo	-1709
▁insinso	-1710
▁ketegan	-1711
igalangan	-1712
▁manggawa	-1713
ai	-1714
dat	-1715
▁Gala	-1716
▁Jesu	-1717
▁asno	-1718
Cristo	-1719
▁Elias	-1720
apairap	-1721
ilat	-1722
▁lil	-1723
▁oras	-1724
▁bilin	-1725
▁gobir	-1726
▁Eliseo	-1727
▁sengeg	-1728
akerakel	-1729
▁sinmabi	-1730
▁tinawag	-1731
▁katakelan	-1732
oro	-1733
abet	-1734
okey	-1735
imbawa	-1736
▁tayod	-1737
▁ibagak	-1738
▁ibagam	-1739
▁pegley	-1740
▁Siopamay	-1741
▁manggaway	-1742
▁manlingkur	-1743
▁Mat	-1744
▁Isaac	-1745
▁Linma	-1746
▁inala	-1747
▁makapoy	-1748
▁tulongan	-1749
Man	-1750
tam	-1751
Siop	-1752
iken	-1753
▁Sar	-1754
▁alog	-1755
▁oliba	-1756
▁sankamundoan	-1757
alom	-1758
ubas	-1759
▁bas	-1760
okdul	-1761
▁Namp	-1762
▁sint	-1763
▁Samuel	-1764
▁apatap	-1765
▁Anggapo	-1766
▁Kasumpal	-1767
osor	-1768
▁miy	-1769
▁tok	-1770
▁iman	-1771
▁sakit	-1772
▁karwahi	-1773
kar	-1774
aral	-1775
ekta	-1776
▁inmebat	-1777
▁sumpalen	-1778
▁labinduan	-1779
diro	-1780
▁kol	-1781
alaan	-1782
▁oran	-1783
tonton	-1784
▁samplo	-1785
▁toktok	-1786
▁napatey	-1787
▁onsabiy	-1788
loy	-1789
raim	-1790
▁Lib	-1791
akmom	-1792
mamat	-1793
Katawan	-1794
▁Ginawa	-1795
▁Inkuantod	-1796
neg	-1797
asoot	-1798
dokeo	-1799
▁ubas	-1800
apaway	-1801
▁bangat	-1802
▁ibagat	-1803
▁Mardokeo	-1804
▁panagbilay	-1805
▁ti	-1806
odon	-1807
anaan	-1808
▁tuan	-1809
alabas	-1810
ucodon	-1811
▁adakep	-1812
▁impaka	-1813
▁Nayarin	-1814
ucodonosor	-1815
▁sangkaili	-1816
▁makapanyarin	-1817
asin	-1818
obuk	-1819
iling	-1820
kasan	-1821
▁Nabucodonosor	-1822
reo	-1823
ebeg	-1824
▁pag	-1825
▁kaab	-1826
▁Efraim	-1827
▁atilak	-1828
amparaan	-1829
▁abuloyan	-1830
▁talintao	-1831
▁nengnengen	-1832
▁Sim	-1833
abeba	-1834
▁Acab	-1835
▁mata	-1836
apawil	-1837
ederal	-1838
▁Sayan	-1839
▁Siria	-1840
▁lobuk	-1841
▁napan	-1842
▁onaan	-1843
▁Anggan	-1844
▁Siopay	-1845
▁ngalng	-1846
uaru	-1847
▁Ons	-1848
▁igl	-1849
aloob	-1850
▁guar	-1851
▁kumap	-1852
▁liman	-1853
▁milag	-1854
▁pista	-1855
▁talon	-1856
▁tanda	-1857
intinsiaan	-1858
▁kaabungan	-1859
Siak	-1860
elaw	-1861
▁eras	-1862
▁onloob	-1863
▁Samaria	-1864
▁ibabagak	-1865
olup	-1866
oran	-1867
▁Bin	-1868
▁Sion	-1869
adalan	-1870
alagar	-1871
▁mayaman	-1872
▁salitay	-1873
▁pambilay	-1874
▁tinaynan	-1875
▁Par	-1876
▁nik	-1877
aandi	-1878
▁pamb	-1879
▁Imbaga	-1880
▁ipawil	-1881
▁ogogaw	-1882
▁kumalab	-1883
▁makapang	-1884
wer	-1885
apen	-1886
▁nig	-1887
dipat	-1888
endat	-1889
ingit	-1890
nador	-1891
ombuk	-1892
alapud	-1893
ubasan	-1894
▁Antoy	-1895
▁trump	-1896
▁aderal	-1897
alangwer	-1898
▁Ezekias	-1899
▁pakayar	-1900
▁Magmaliw	-1901
ael	-1902
ewan	-1903
▁olup	-1904
aranan	-1905
▁Ester	-1906
▁sagur	-1907
▁taloy	-1908
▁Nadngel	-1909
▁impatey	-1910
▁kaubasan	-1911
apon	-1912
▁tab	-1913
aligwas	-1914
▁timplo	-1915
tontonen	-1916
▁Sikatoy	-1917
igagalang	-1918
son	-1919
okel	-1920
▁tal	-1921
▁tum	-1922
akseb	-1923
etneg	-1924
irdon	-1925
orung	-1926
▁pina	-1927
angulo	-1928
▁batik	-1929
▁awaten	-1930
▁mamaarap	-1931
▁mangoman	-1932
▁katonungan	-1933
▁totontonen	-1934
ubok	-1935
▁Asa	-1936
alikdo	-1937
▁matak	-1938
▁onyay	-1939
ongtong	-1940
▁gendat	-1941
▁pilalek	-1942
▁panangasi	-1943
akid	-1944
▁Judea	-1945
▁iiter	-1946
lingkur	-1947
▁nandor	-1948
▁naderal	-1949
▁Pas	-1950
▁bunga	-1951
▁trono	-1952
▁idayew	-1953
▁pangib	-1954
▁pikakasi	-1955
▁panayaman	-1956
▁h	-1957
lin	-1958
sil	-1959
ura	-1960
agos	-1961
▁bit	-1962
▁mankasalanan	-1963
▁Ay	-1964
▁Gin	-1965
▁Mic	-1966
▁Omp	-1967
▁pet	-1968
▁Patar	-1969
▁Samay	-1970
▁salit	-1971
aparaan	-1972
▁Galaad	-1973
▁Inatey	-1974
▁atagey	-1975
▁Aminsan	-1976
:"	-1977
oan	-1978
asto	-1979
▁amak	-1980
▁papa	-1981
otakan	-1982
▁Dayat	-1983
▁Haman	-1984
▁bungay	-1985
intinsia	-1986
▁linmoob	-1987
▁trumpita	-1988
▁mansiansia	-1989
▁mapaatagey	-1990
▁manalalagey	-1991
sab	-1992
arad	-1993
ewet	-1994
▁Int	-1995
▁big	-1996
kalen	-1997
▁laen	-1998
▁Ammon	-1999
▁arawi	-2000
▁armas	-2001
▁libro	-2002
▁ipatey	-2003
▁kuanda	-2004
isalamat	-2005
▁sankaabigan	-2006
dia	-2007
kaw	-2008
ekep	-2009
▁Nip	-2010
▁Amta	-2011
▁Baal	-2012
▁pand	-2013
walaan	-2014
▁Tobias	-2015
ilingkur	-2016
▁samploran	-2017
Al	-2018
ayag	-2019
▁Gal	-2020
▁sum	-2021
salat	-2022
▁kaib	-2023
agaway	-2024
onuran	-2025
▁ikana	-2026
▁kanta	-2027
▁sakop	-2028
▁tayoy	-2029
umpalan	-2030
tongtong	-2031
▁karniron	-2032
awet	-2033
abaga	-2034
▁Sara	-2035
▁pank	-2036
▁getma	-2037
▁likud	-2038
▁Canaan	-2039
▁agawad	-2040
▁impisipanan	-2041
ban	-2042
elec	-2043
iwit	-2044
▁apo	-2045
▁pis	-2046
aloen	-2047
maung	-2048
rasan	-2049
▁karak	-2050
asikaso	-2051
▁rigalo	-2052
taktakot	-2053
▁mamatey	-2054
▁nampikasi	-2055
▁mambibilay	-2056
▁kl	-2057
▁Ant	-2058
▁Ged	-2059
isiad	-2060
▁kakap	-2061
▁kumat	-2062
▁tuloy	-2063
dro	-2064
dona	-2065
eket	-2066
etel	-2067
ilik	-2068
ulag	-2069
▁bob	-2070
▁Labay	-2071
abangat	-2072
upulong	-2073
▁Aliwan	-2074
▁kasian	-2075
▁pankan	-2076
asakbayan	-2077
▁gobirnador	-2078
▁pangulowan	-2079
ern	-2080
igl	-2081
▁Az	-2082
alaw	-2083
apig	-2084
▁Med	-2085
agaan	-2086
uldan	-2087
▁abel	-2088
▁dusa	-2089
▁tila	-2090
osilan	-2091
unoten	-2092
▁Makap	-2093
▁Mapal	-2094
▁ginawak	-2095
▁iglisia	-2096
▁nanoley	-2097
▁panooley	-2098
▁mampikasi	-2099
▁mansalita	-2100
▁manlalapud	-2101
▁pagmaliwen	-2102
▁Aw	-2103
▁kr	-2104
abang	-2105
itaan	-2106
ostol	-2107
▁dayew	-2108
erengel	-2109
▁apatey	-2110
▁arapen	-2111
▁maksil	-2112
▁managp	-2113
▁dinogpaan	-2114
▁pinapatey	-2115
▁nandoroman	-2116
giw	-2117
noy	-2118
oyur	-2119
raan	-2120
▁mip	-2121
iwgiw	-2122
▁amam	-2123
▁ipap	-2124
▁tulda	-2125
▁inkato	-2126
▁liwawa	-2127
▁samput	-2128
▁dengelen	-2129
▁ngalngali	-2130
▁Ingganggan	-2131
rup	-2132
▁Ka	-2133
eraan	-2134
▁Gaba	-2135
asiray	-2136
▁kindi	-2137
▁Daniel	-2138
▁manari	-2139
▁pokdul	-2140
▁siopay	-2141
▁anggaay	-2142
▁narengel	-2143
▁kakanayon	-2144
uis	-2145
▁Per	-2146
▁lupa	-2147
▁sumis	-2148
asirayew	-2149
▁bitewen	-2150
▁nagawaan	-2151
ana	-2152
alat	-2153
ilea	-2154
alima	-2155
bayar	-2156
dokey	-2157
▁gawa	-2158
atyang	-2159
▁Santo	-2160
atawagen	-2161
▁Galilea	-2162
▁kaonuran	-2163
▁karaklan	-2164
▁nagagawa	-2165
aam	-2166
akn	-2167
awir	-2168
okul	-2169
iirap	-2170
aolyan	-2171
idayew	-2172
irdona	-2173
ermenan	-2174
▁daiset	-2175
▁inonur	-2176
▁marakep	-2177
▁Amayamay	-2178
▁balatyang	-2179
▁impaalagey	-2180
ga	-2181
onda	-2182
▁Abs	-2183
dngel	-2184
▁Impir	-2185
▁dimon	-2186
▁maptek	-2187
▁nianak	-2188
▁Absalom	-2189
▁dogpaan	-2190
▁nawalaan	-2191
▁lamparaan	-2192
▁pagalangan	-2193
lag	-2194
▁Ig	-2195
abuk	-2196
kanta	-2197
tonung	-2198
▁Antio	-2199
▁beneg	-2200
▁kasiy	-2201
▁kilaw	-2202
▁kakaaro	-2203
▁nilaban	-2204
▁saraman	-2205
▁mangiiter	-2206
▁natatakot	-2207
▁makanengneng	-2208
▁Et	-2209
Laka	-2210
egat	-2211
olid	-2212
▁bag	-2213
mplon	-2214
▁nika	-2215
▁Walad	-2216
▁klasi	-2217
atakken	-2218
▁Sankat	-2219
▁inagew	-2220
▁poolan	-2221
▁Antioco	-2222
▁apostol	-2223
▁ompaway	-2224
mamatalek	-2225
▁kaabigan	-2226
▁impirador	-2227
▁inkatonung	-2228
▁nantitipon	-2229
awn	-2230
ebel	-2231
alkan	-2232
liket	-2233
tanem	-2234
▁Onyay	-2235
▁itayod	-2236
▁nisulat	-2237
▁Jeroboam	-2238
▁ondengel	-2239
▁dakerakel	-2240
atn	-2241
elek	-2242
▁Ele	-2243
▁pur	-2244
▁sol	-2245
▁Onung	-2246
▁labin	-2247
▁siopa	-2248
embenan	-2249
ingayew	-2250
▁inkuanda	-2251
▁kumadwan	-2252
Ma	-2253
yam	-2254
yeg	-2255
akim	-2256
utang	-2257
▁anta	-2258
▁buis	-2259
▁inkar	-2260
▁nanka	-2261
ingkuran	-2262
▁napelag	-2263
▁narumog	-2264
▁kumapiton	-2265
▁manngaray	-2266
▁pankanawn	-2267
▁makapaliket	-2268
▁pakanengneng	-2269
ata	-2270
ukb	-2271
unan	-2272
usad	-2273
▁Ins	-2274
akdul	-2275
▁mika	-2276
imelec	-2277
▁lamis	-2278
▁Tuldan	-2279
▁Agaylay	-2280
▁limaran	-2281
▁milagro	-2282
▁Nanggawa	-2283
▁manliket	-2284
nap	-2285
agon	-2286
alsa	-2287
▁Esa	-2288
▁mal	-2289
kayat	-2290
▁huis	-2291
▁Inala	-2292
▁salot	-2293
▁Pariseo	-2294
▁dimonyo	-2295
▁imbagak	-2296
▁ipanengneng	-2297
▁nanenengneng	-2298
bun	-2299
ezer	-2300
umba	-2301
▁sob	-2302
ariay	-2303
emias	-2304
ibaki	-2305
▁Esau	-2306
▁akan	-2307
▁ikakan	-2308
▁napnoy	-2309
▁abaloan	-2310
▁karokey	-2311
▁ipapasen	-2312
▁lamisaan	-2313
▁nanggawa	-2314
▁sinmabiy	-2315
▁mamatakken	-2316
ico	-2317
sak	-2318
tik	-2319
▁Ad	-2320
▁lu	-2321
epel	-2322
igen	-2323
uben	-2324
▁Her	-2325
▁pon	-2326
engan	-2327
▁siam	-2328
▁mamap	-2329
▁ginawam	-2330
▁kerewen	-2331
▁kordiro	-2332
▁Kagalang	-2333
▁Panariay	-2334
▁panangarom	-2335
▁mangigagalang	-2336
▁panangigalangan	-2337
oter	-2338
ukat	-2339
upak	-2340
▁Nin	-2341
akaran	-2342
wanwan	-2343
▁dabuk	-2344
▁onsas	-2345
▁pinas	-2346
▁Ibagam	-2347
▁naandi	-2348
▁dineral	-2349
▁kuartan	-2350
▁angibaki	-2351
▁ontulong	-2352
▁siopamay	-2353
▁lilingwanan	-2354
iig	-2355
lim	-2356
oli	-2357
arum	-2358
rung	-2359
uban	-2360
▁Mam	-2361
▁kak	-2362
▁tat	-2363
▁Timp	-2364
▁bobun	-2365
▁tobun	-2366
▁Balita	-2367
▁kagagawa	-2368
▁malangwer	-2369
▁tatawagen	-2370
tor	-2371
und	-2372
rupo	-2373
▁Job	-2374
▁Amor	-2375
▁pant	-2376
kabayo	-2377
▁gansa	-2378
▁makal	-2379
asawaan	-2380
iwanwan	-2381
▁Eleazar	-2382
▁kinerew	-2383
kakabaleg	-2384
▁marunong	-2385
▁sinambaan	-2386
▁Sankatageyan	-2387
Sik	-2388
ado	-2389
erel	-2390
▁Gad	-2391
▁amo	-2392
▁lug	-2393
angasi	-2394
▁Impan	-2395
▁Itdan	-2396
▁dimay	-2397
▁dinan	-2398
▁maruk	-2399
▁priso	-2400
abetang	-2401
kaindan	-2402
▁akisal	-2403
anggoyur	-2404
▁Initdan	-2405
▁impaway	-2406
▁nibantak	-2407
▁Impirador	-2408
eel	-2409
les	-2410
▁Nap	-2411
▁kur	-2412
Balet	-2413
nunot	-2414
tekan	-2415
▁dian	-2416
▁diay	-2417
▁amtay	-2418
▁manka	-2419
▁pitoy	-2420
▁silew	-2421
ukbukor	-2422
▁petang	-2423
▁asumpal	-2424
▁nagawad	-2425
▁talomplo	-2426
▁makapataktakot	-2427
araw	-2428
eken	-2429
ugat	-2430
▁Nil	-2431
▁kir	-2432
oblay	-2433
▁inom	-2434
▁kurt	-2435
aabeba	-2436
aknaan	-2437
ilalak	-2438
yorung	-2439
▁inyan	-2440
▁lugar	-2441
▁gansan	-2442
▁ilaban	-2443
▁andokey	-2444
▁Nengneng	-2445
▁kaptekan	-2446
▁pakayarim	-2447
▁id	-2448
ibon	-2449
▁Mes	-2450
▁Too	-2451
▁sus	-2452
abawi	-2453
ayaga	-2454
▁krus	-2455
abaing	-2456
ateyen	-2457
▁inaro	-2458
▁sobul	-2459
▁impanp	-2460
▁klasiy	-2461
▁kaasawaan	-2462
▁kumikimey	-2463
▁makapakelaw	-2464
ela	-2465
gen	-2466
Andi	-2467
ampi	-2468
▁Kap	-2469
▁Sem	-2470
▁mib	-2471
▁pum	-2472
▁tuay	-2473
akmomo	-2474
▁kogip	-2475
▁pakal	-2476
▁pinag	-2477
ayaryan	-2478
▁Judion	-2479
▁taklay	-2480
▁Amorreo	-2481
▁bayaran	-2482
▁inerman	-2483
▁sipanan	-2484
▁impagmaliw	-2485
uko	-2486
yod	-2487
▁Mag	-2488
tayan	-2489
▁itan	-2490
irapen	-2491
▁Kapag	-2492
▁Ruben	-2493
▁angan	-2494
▁karni	-2495
▁linen	-2496
▁manga	-2497
▁ompan	-2498
▁ekalen	-2499
▁mapalalon	-2500
▁inabuloyan	-2501
▁ankakabaleg	-2502
▁mansiansian	-2503
agi	-2504
ama	-2505
akin	-2506
arod	-2507
diad	-2508
ikit	-2509
ilad	-2510
osan	-2511
▁sir	-2512
eetan	-2513
▁Mamp	-2514
▁nalmo	-2515
▁piton	-2516
▁plano	-2517
▁inawit	-2518
▁sankat	-2519
ram	-2520
afat	-2521
raid	-2522
iklam	-2523
isiya	-2524
saray	-2525
ungot	-2526
▁nant	-2527
ilaloan	-2528
▁balita	-2529
▁angiter	-2530
▁panagpa	-2531
▁salitan	-2532
▁mankimey	-2533
▁sankaawit	-2534
eft	-2535
▁Du	-2536
iang	-2537
▁Kin	-2538
▁pab	-2539
▁buek	-2540
▁dika	-2541
▁sira	-2542
▁Ingen	-2543
eknekan	-2544
siansia	-2545
▁tinalo	-2546
asakitan	-2547
ilalekan	-2548
▁Maliket	-2549
kanengneng	-2550
▁Mapalaloy	-2551
ipanengneng	-2552
akb	-2553
oks	-2554
rat	-2555
adad	-2556
lurey	-2557
sikas	-2558
▁awit	-2559
▁nank	-2560
oguran	-2561
▁amtak	-2562
▁bulag	-2563
▁Hebron	-2564
▁betang	-2565
▁mangis	-2566
▁nidoma	-2567
▁taynan	-2568
Anggapoy	-2569
▁Josafat	-2570
▁Saramay	-2571
▁nipompon	-2572
▁akakabayo	-2573
▁mananisia	-2574
▁tinmaynan	-2575
▁pankaabigan	-2576
▁pansumpalan	-2577
▁impanengneng	-2578
uf	-2579
emet	-2580
iram	-2581
iray	-2582
▁Sed	-2583
▁Zac	-2584
Natan	-2585
ateng	-2586
▁Onya	-2587
aganon	-2588
amuran	-2589
▁Inter	-2590
▁arina	-2591
▁bario	-2592
▁onton	-2593
▁tanul	-2594
ayorung	-2595
udlurey	-2596
▁akaparaan	-2597
▁mangibagat	-2598
▁makapanyari	-2599
▁manlilingkur	-2600
Am	-2601
Nan	-2602
imo	-2603
ipi	-2604
ira	-2605
yab	-2606
yat	-2607
imat	-2608
▁isk	-2609
iktar	-2610
kawes	-2611
ondon	-2612
apiger	-2613
▁Judit	-2614
▁malet	-2615
▁napno	-2616
▁Kasabi	-2617
▁ebatan	-2618
▁mananap	-2619
asalitaen	-2620
▁kumalabin	-2621
▁pasingayew	-2622
▁manggagaway	-2623
iga	-2624
kua	-2625
mam	-2626
uek	-2627
▁pl	-2628
alis	-2629
ikal	-2630
king	-2631
asion	-2632
batik	-2633
▁Dinm	-2634
▁oleg	-2635
▁sako	-2636
▁inkat	-2637
▁payak	-2638
▁inomen	-2639
▁nadusa	-2640
▁igalang	-2641
▁kaawang	-2642
▁kurtina	-2643
▁panliket	-2644
?'	-2645
ner	-2646
aplo	-2647
ubon	-2648
▁Aka	-2649
▁Tim	-2650
aknul	-2651
amput	-2652
asias	-2653
kapoy	-2654
▁abut	-2655
atikan	-2656
ebatan	-2657
ngaran	-2658
▁Pasen	-2659
▁anton	-2660
▁onona	-2661
▁Ayamay	-2662
▁totooy	-2663
ilalakan	-2664
▁atateng	-2665
▁manisia	-2666
▁pinoolan	-2667
▁makapaing	-2668
▁natalusan	-2669
▁nisaklang	-2670
▁kailalakan	-2671
▁bindisionan	-2672
▁mangisaklang	-2673
agp	-2674
luk	-2675
oga	-2676
way	-2677
▁At	-2678
eban	-2679
gaan	-2680
olof	-2681
onla	-2682
▁nit	-2683
eknek	-2684
imano	-2685
irung	-2686
▁amiy	-2687
awgawa	-2688
▁sinag	-2689
arontal	-2690
▁Paskua	-2691
▁arawid	-2692
▁nagnap	-2693
▁oninom	-2694
▁tumang	-2695
asalamat	-2696
▁nanlapu	-2697
▁simbawa	-2698
▁siansian	-2699
▁manmamatalek	-2700
oz	-2701
?""	-2702
gal	-2703
lad	-2704
lak	-2705
yak	-2706
▁Abi	-2707
asian	-2708
egyeg	-2709
eksab	-2710
▁Jehu	-2711
▁Roma	-2712
Dengel	-2713
▁Betel	-2714
▁inkap	-2715
▁patio	-2716
▁sanga	-2717
irbiren	-2718
▁Josias	-2719
▁guardia	-2720
▁inyagel	-2721
▁Sedekias	-2722
▁kumatlon	-2723
▁limamplo	-2724
▁inggalang	-2725
▁naandipat	-2726
iz	-2727
mak	-2728
eman	-2729
saew	-2730
▁Mac	-2731
ikuan	-2732
▁gapo	-2733
▁Canan	-2734
▁Holof	-2735
▁grupo	-2736
▁kaaro	-2737
▁kilon	-2738
▁pokel	-2739
apastol	-2740
▁Balaam	-2741
▁samper	-2742
▁Abaloan	-2743
▁intuloy	-2744
▁Inkuanda	-2745
▁ontaynan	-2746
▁nanalagey	-2747
▁pakayarin	-2748
ibo	-2749
non	-2750
uno	-2751
▁bi	-2752
balo	-2753
idad	-2754
umpa	-2755
▁Mad	-2756
▁Mer	-2757
▁ona	-2758
▁pib	-2759
ernes	-2760
insan	-2761
siaen	-2762
▁Talo	-2763
abaleg	-2764
▁samba	-2765
▁Jerico	-2766
▁Sikayo	-2767
▁magano	-2768
▁nayari	-2769
▁kapigan	-2770
▁kuarton	-2771
▁mabayag	-2772
▁kaatagey	-2773
▁mangawat	-2774
▁nasumpal	-2775
▁inkaindan	-2776
▁mangyagel	-2777
▁Holofernes	-2778
▁makapaingungot	-2779
se	-2780
Pan	-2781
lut	-2782
amas	-2783
▁Jez	-2784
▁dok	-2785
ogpad	-2786
olyan	-2787
toluk	-2788
tosan	-2789
▁iskr	-2790
▁sing	-2791
ebekta	-2792
▁luyag	-2793
▁manta	-2794
▁sidro	-2795
awalaan	-2796
▁itayon	-2797
asinagem	-2798
▁Intuloy	-2799
▁katekep	-2800
▁kawanan	-2801
akaukolan	-2802
ilongetan	-2803
▁akabatan	-2804
totongtong	-2805
mo	-2806
akap	-2807
ayaw	-2808
▁aro	-2809
▁dap	-2810
▁ipa	-2811
angga	-2812
▁Levi	-2813
raidor	-2814
▁Salmo	-2815
▁kasin	-2816
ilistia	-2817
▁nampap	-2818
▁pirdon	-2819
▁tombuk	-2820
ikasakey	-2821
▁impasen	-2822
▁kakaiba	-2823
▁nanlapwan	-2824
▁akisalitad	-2825
▁sintinsiaan	-2826
ani	-2827
mab	-2828
oti	-2829
tad	-2830
war	-2831
▁ad	-2832
amar	-2833
arid	-2834
ilim	-2835
unga	-2836
▁Nib	-2837
rates	-2838
▁Mank	-2839
abagat	-2840
▁duara	-2841
▁pagew	-2842
▁patit	-2843
asnukan	-2844
yabuloy	-2845
▁Linmad	-2846
▁sankab	-2847
aganggan	-2848
▁antakot	-2849
▁impirio	-2850
▁kabaleg	-2851
▁onkerew	-2852
▁siansia	-2853
▁Abimelec	-2854
▁duamplon	-2855
▁kasumpal	-2856
▁mapalalo	-2857
▁mapagalang	-2858
▁sasalitaen	-2859
rio	-2860
esel	-2861
inup	-2862
nang	-2863
oput	-2864
otut	-2865
▁Sal	-2866
▁Iter	-2867
▁akar	-2868
▁taba	-2869
aralan	-2870
ekerew	-2871
▁Demet	-2872
▁Pilat	-2873
▁nakan	-2874
▁kuanen	-2875
▁linman	-2876
▁taloen	-2877
undasion	-2878
▁naitdan	-2879
▁anggapod	-2880
▁impamatey	-2881
▁ipaalagey	-2882
▁mangyakar	-2883
▁mantitipon	-2884
egt	-2885
osas	-2886
rins	-2887
taan	-2888
▁Cor	-2889
▁Nis	-2890
▁and	-2891
▁pit	-2892
▁yad	-2893
asimb	-2894
eeyag	-2895
lasus	-2896
▁Tiro	-2897
inomay	-2898
inupan	-2899
▁Timpl	-2900
▁katat	-2901
▁kerew	-2902
▁makab	-2903
▁naani	-2904
▁Persia	-2905
▁Pilato	-2906
▁awiten	-2907
▁bantug	-2908
▁ipasen	-2909
▁mareen	-2910
▁iskriba	-2911
▁Demetrio	-2912
▁Nagmaliw	-2913
▁Zacarias	-2914
▁dinengel	-2915
▁nambilay	-2916
▁pundasion	-2917
▁sinmempet	-2918
ubo	-2919
▁Be	-2920
▁Ni	-2921
iahi	-2922
▁Bar	-2923
▁Euf	-2924
▁ind	-2925
duaru	-2926
inyag	-2927
istro	-2928
kabat	-2929
skasi	-2930
▁Kuan	-2931
▁Nanl	-2932
▁duay	-2933
▁igos	-2934
awenan	-2935
iklamo	-2936
ondaan	-2937
sangan	-2938
▁Herod	-2939
▁Maria	-2940
▁Sikem	-2941
▁kolus	-2942
a	-2943
▁	-2944
n	-2945
i	-2946
o	-2947
t	-2948
e	-2949
s	-2950
y	-2951
k	-2952
l	-2953
g	-2954
m	-2955
d	-2956
r	-2957
p	-2958
b	-2959
u	-2960
,	-2961
w	-2962
.	-2963
A	-2964
"	-2965
S	-2966
I	-2967
K	-2968
D	-2969
N	-2970
J	-2971
M	-2972
;	-2973
B	-2974
P	-2975
T	-2976
-	-2977
!	-2978
E	-2979
?	-2980
L	-2981
c	-2982
h	-2983
O	-2984
G	-2985
v	-2986
'	-2987
:	-2988
H	-2989
z	-2990
C	-2991
f	-2992
W	-2993
R	-2994
—	-2995
Z	-2996
