<unk>	0
<s>	0
</s>	0
an	-0
▁s	-1
▁a	-2
ay	-3
▁t	-4
▁n	-5
in	-6
ka	-7
▁m	-8
al	-9
▁na	-10
▁d	-11
on	-12
ar	-13
en	-14
▁p	-15
▁e	-16
▁i	-17
▁to	-18
ak	-19
▁ka	-20
ang	-21
▁k	-22
▁si	-23
▁ed	-24
▁l	-25
▁tan	-26
▁y	-27
▁b	-28
am	-29
aw	-30
at	-31
ad	-32
ag	-33
▁sar	-34
▁saray	-35
ap	-36
to	-37
▁so	-38
▁in	-39
▁di	-40
▁r	-41
ey	-42
ab	-43
as	-44
▁ya	-45
et	-46
▁ag	-47
il	-48
▁ir	-49
▁nen	-50
it	-51
▁da	-52
mp	-53
▁man	-54
er	-55
angg	-56
el	-57
▁sika	-58
is	-59
▁say	-60
un	-61
oy	-62
▁am	-63
▁pan	-64
▁bal	-65
os	-66
▁on	-67
aka	-68
eg	-69
ud	-70
▁g	-71
▁an	-72
ul	-73
▁kat	-74
▁mo	-75
▁j	-76
eng	-77
ol	-78
▁ar	-79
awan	-80
ir	-81
ip	-82
ib	-83
▁ko	-84
ayo	-85
▁katawan	-86
▁iray	-87
▁ray	-88
▁yo	-89
▁diad	-90
awa	-91
▁toto	-92
ing	-93
us	-94
▁ak	-95
▁et	-96
▁angg	-97
es	-98
ra	-99
ew	-100
ung	-101
▁dios	-102
▁o	-103
▁no	-104
aan	-105
▁ra	-106
▁amin	-107
▁ta	-108
▁sak	-109
ep	-110
▁totoo	-111
ik	-112
ig	-113
wal	-114
▁nan	-115
▁is	-116
uan	-117
inm	-118
apud	-119
yan	-120
▁kan	-121
san	-122
▁imp	-123
▁sakey	-124
um	-125
▁balet	-126
ari	-127
tan	-128
im	-129
aman	-130
▁wal	-131
▁sikato	-132
og	-133
atey	-134
uk	-135
▁dal	-136
iw	-137
▁maka	-138
em	-139
or	-140
ita	-141
▁mang	-142
▁siak	-143
id	-144
▁anak	-145
▁ira	-146
amay	-147
anan	-148
▁la	-149
▁al	-150
▁ma	-151
si	-152
ek	-153
▁ab	-154
mb	-155
ot	-156
▁sik	-157
▁lab	-158
▁ton	-159
alo	-160
▁kayo	-161
lo	-162
ur	-163
▁ari	-164
▁anggap	-165
▁lapud	-166
▁mam	-167
ta	-168
ong	-169
▁pin	-170
bat	-171
▁insan	-172
▁sing	-173
op	-174
▁kin	-175
neng	-176
ok	-177
▁ni	-178
▁singa	-179
sal	-180
▁kanyan	-181
ut	-182
rael	-183
▁israel	-184
▁ink	-185
▁toy	-186
aga	-187
▁ib	-188
▁kab	-189
ilay	-190
▁dalin	-191
▁tod	-192
ob	-193
alang	-194
▁sikara	-195
▁pi	-196
anggan	-197
▁inkuan	-198
▁met	-199
▁pang	-200
▁kay	-201
▁as	-202
engneng	-203
▁anggapoy	-204
aki	-205
om	-206
ia	-207
▁kinen	-208
agey	-209
epeg	-210
▁pas	-211
▁ip	-212
▁mi	-213
▁ang	-214
▁kal	-215
▁agew	-216
amp	-217
aran	-218
▁ap	-219
▁lal	-220
▁day	-221
▁may	-222
▁tin	-223
▁sikayo	-224
▁jud	-225
akar	-226
▁gin	-227
▁san	-228
▁dan	-229
▁imb	-230
▁it	-231
▁makap	-232
aban	-233
sa	-234
aliw	-235
▁kap	-236
ton	-237
▁ran	-238
▁int	-239
▁jes	-240
▁ban	-241
▁manl	-242
▁aka	-243
eb	-244
man	-245
akin	-246
iy	-247
▁kar	-248
salanan	-249
ara	-250
▁inm	-251
▁nepeg	-252
▁yan	-253
dan	-254
ump	-255
▁mat	-256
▁arum	-257
▁samay	-258
▁h	-259
ond	-260
away	-261
▁nap	-262
udad	-263
▁siudad	-264
▁jesus	-265
▁too	-266
awaen	-267
kan	-268
▁ganggan	-269
▁totoon	-270
▁kam	-271
od	-272
agat	-273
▁sal	-274
▁anggad	-275
▁pian	-276
▁walay	-277
asan	-278
ias	-279
▁nip	-280
akan	-281
▁lay	-282
▁linm	-283
ika	-284
▁rad	-285
▁dil	-286
▁sayan	-287
atan	-288
▁panag	-289
▁nag	-290
imp	-291
eral	-292
▁natan	-293
▁ing	-294
ino	-295
ya	-296
▁jer	-297
up	-298
maliw	-299
iket	-300
wan	-301
oley	-302
▁pana	-303
io	-304
▁omp	-305
▁and	-306
▁anto	-307
▁toon	-308
▁du	-309
▁iran	-310
dino	-311
▁tayo	-312
▁odino	-313
▁c	-314
▁pam	-315
▁walad	-316
ulo	-317
alem	-318
▁kuan	-319
▁siop	-320
▁lan	-321
arin	-322
▁kon	-323
▁pasen	-324
▁nay	-325
▁pa	-326
▁sin	-327
▁kod	-328
▁bansa	-329
ayam	-330
uloy	-331
la	-332
ub	-333
olan	-334
yang	-335
▁sond	-336
eo	-337
▁tr	-338
alan	-339
ulong	-340
▁timp	-341
ng	-342
▁dad	-343
tak	-344
▁panang	-345
▁tal	-346
▁wala	-347
awil	-348
▁pap	-349
▁timplo	-350
▁inka	-351
▁maung	-352
▁ons	-353
▁paka	-354
▁labay	-355
irap	-356
▁map	-357
▁aliw	-358
▁impan	-359
engel	-360
▁mag	-361
usalem	-362
▁irad	-363
▁jerusalem	-364
▁anggan	-365
vid	-366
▁david	-367
▁para	-368
▁kabyang	-369
▁mab	-370
akel	-371
▁lakin	-372
lan	-373
▁pat	-374
▁saman	-375
▁sanka	-376
▁nanl	-377
▁lalaki	-378
ed	-379
▁totood	-380
may	-381
ipen	-382
oges	-383
lang	-384
oleg	-385
sak	-386
▁onung	-387
▁yon	-388
alagey	-389
▁sir	-390
▁kasalanan	-391
▁kom	-392
egl	-393
▁mar	-394
▁yoy	-395
▁labat	-396
▁nad	-397
▁bilay	-398
aen	-399
egley	-400
iter	-401
▁kaka	-402
▁manlapud	-403
▁bagat	-404
ayon	-405
▁maoges	-406
▁panam	-407
▁sondalo	-408
ebat	-409
onan	-410
▁ontan	-411
do	-412
▁il	-413
▁boleg	-414
akal	-415
▁gawaen	-416
▁ay	-417
da	-418
▁inkuanto	-419
awag	-420
▁mal	-421
ris	-422
uar	-423
▁ama	-424
umpal	-425
bay	-426
abi	-427
gip	-428
iber	-429
iron	-430
▁lam	-431
▁iy	-432
▁israelita	-433
▁bin	-434
ala	-435
▁ol	-436
egan	-437
▁taga	-438
ro	-439
ii	-440
isk	-441
ises	-442
▁imay	-443
▁moises	-444
▁lim	-445
engat	-446
▁kum	-447
aakar	-448
epet	-449
▁ng	-450
▁aripen	-451
▁sikatoy	-452
▁panaon	-453
▁ibab	-454
bilay	-455
▁koy	-456
▁bengat	-457
▁at	-458
▁moy	-459
arian	-460
▁mamp	-461
▁juda	-462
sian	-463
agawa	-464
iskeg	-465
▁kag	-466
▁panamegley	-467
▁nil	-468
▁balang	-469
▁arap	-470
▁kabyangay	-471
iba	-472
▁masan	-473
▁aliwan	-474
▁kalaban	-475
▁sinm	-476
awen	-477
▁egip	-478
▁lib	-479
▁komun	-480
nan	-481
asen	-482
▁din	-483
agel	-484
▁dili	-485
▁pak	-486
aro	-487
▁kad	-488
▁ingg	-489
▁ins	-490
▁yod	-491
▁patey	-492
mon	-493
ayew	-494
▁kuanto	-495
▁balut	-496
alangan	-497
▁kami	-498
▁taon	-499
itan	-500
▁anengneng	-501
aynan	-502
▁nipaakar	-503
ac	-504
▁el	-505
▁isp	-506
▁mon	-507
▁pangulo	-508
▁intiron	-509
▁saramay	-510
ulat	-511
▁ginawa	-512
kal	-513
▁inmebat	-514
▁mod	-515
▁abung	-516
▁pinm	-517
▁sirin	-518
ug	-519
batan	-520
▁namp	-521
aryan	-522
undo	-523
▁bat	-524
▁nab	-525
isi	-526
imey	-527
▁ki	-528
▁pr	-529
tar	-530
oob	-531
▁nat	-532
▁mangg	-533
amb	-534
ilak	-535
▁pakay	-536
▁mana	-537
▁baley	-538
araan	-539
iro	-540
otan	-541
▁kayod	-542
ngel	-543
▁jos	-544
▁ina	-545
▁sikar	-546
▁ond	-547
▁nib	-548
ulan	-549
ungan	-550
ali	-551
nuk	-552
▁lin	-553
ayamay	-554
▁magmaliw	-555
▁antoy	-556
sia	-557
▁diman	-558
▁amayamay	-559
▁satan	-560
aing	-561
▁pad	-562
▁egipto	-563
▁nin	-564
▁kaw	-565
▁inter	-566
kaka	-567
di	-568
▁bib	-569
▁ompatey	-570
ili	-571
▁makapan	-572
abig	-573
▁pag	-574
▁kayaryan	-575
▁gag	-576
▁kas	-577
▁pal	-578
asus	-579
▁tawen	-580
erew	-581
▁iny	-582
▁masanton	-583
ano	-584
risto	-585
▁lad	-586
▁akin	-587
▁inkuanen	-588
akep	-589
asak	-590
alon	-591
▁bab	-592
▁legan	-593
ipan	-594
▁trib	-595
▁tinm	-596
pa	-597
▁ig	-598
isia	-599
▁prop	-600
▁imbaga	-601
dey	-602
oolan	-603
kur	-604
imb	-605
▁tribu	-606
onur	-607
uy	-608
alandey	-609
▁nanlapud	-610
▁kuar	-611
atak	-612
▁karn	-613
▁lamet	-614
ger	-615
▁judio	-616
▁laman	-617
▁lalakin	-618
▁sikam	-619
▁pakayari	-620
ulang	-621
alek	-622
int	-623
▁naka	-624
▁iter	-625
▁kaog	-626
▁sip	-627
ipon	-628
▁altar	-629
▁laki	-630
▁yay	-631
▁mundo	-632
▁ont	-633
▁bang	-634
▁balit	-635
lon	-636
asi	-637
▁saya	-638
ingger	-639
yal	-640
▁op	-641
▁duaran	-642
▁inatey	-643
irit	-644
▁nadngel	-645
iyos	-646
▁danum	-647
ti	-648
elag	-649
ua	-650
▁dir	-651
▁dilin	-652
▁diriyos	-653
mbuk	-654
amin	-655
▁ibag	-656
▁opis	-657
▁ingganggan	-658
men	-659
▁gagawaen	-660
▁opisyal	-661
▁ad	-662
ukolan	-663
▁pu	-664
▁makapany	-665
▁nayarian	-666
▁amta	-667
▁law	-668
awi	-669
▁apat	-670
▁balituk	-671
▁sarayan	-672
▁nayarin	-673
▁mas	-674
ingkur	-675
▁dalan	-676
▁kaogsan	-677
▁pari	-678
▁impa	-679
▁manaayam	-680
▁bii	-681
▁puir	-682
▁sikay	-683
▁kawes	-684
▁kayon	-685
salita	-686
▁pamil	-687
▁linma	-688
▁dengel	-689
▁ingen	-690
apew	-691
▁ngaran	-692
awaan	-693
▁ispirit	-694
tay	-695
ilon	-696
▁andi	-697
▁lawas	-698
▁kiew	-699
▁manag	-700
▁onl	-701
▁deral	-702
▁sikami	-703
▁pig	-704
▁anggapo	-705
▁z	-706
▁dayat	-707
▁kawal	-708
▁sa	-709
iin	-710
ma	-711
▁og	-712
▁propita	-713
awad	-714
awit	-715
▁siopaman	-716
▁pab	-717
▁bengatla	-718
▁mans	-719
▁kaiba	-720
▁papari	-721
▁cristo	-722
aron	-723
awam	-724
takot	-725
aklang	-726
▁niy	-727
abuloy	-728
▁panan	-729
itdan	-730
alus	-731
usa	-732
ikas	-733
unot	-734
▁antoka	-735
bal	-736
sakey	-737
▁antokaman	-738
▁id	-739
▁pateyen	-740
▁salita	-741
▁dia	-742
ea	-743
onung	-744
▁baleg	-745
▁tinepet	-746
een	-747
▁aw	-748
▁kakabatan	-749
disi	-750
oran	-751
▁mamb	-752
ila	-753
atagey	-754
taan	-755
▁sang	-756
▁ispiritu	-757
▁jo	-758
awat	-759
owan	-760
ayaman	-761
▁pito	-762
▁makapanyarin	-763
▁mapal	-764
apan	-765
▁abay	-766
unotan	-767
▁w	-768
▁dinm	-769
▁f	-770
▁sam	-771
▁asawa	-772
▁padir	-773
▁ginagawa	-774
▁kakan	-775
▁panl	-776
ona	-777
apasen	-778
▁itayo	-779
▁bil	-780
engeg	-781
ev	-782
alab	-783
kasalanan	-784
▁mak	-785
▁labi	-786
▁anggaman	-787
sip	-788
▁impang	-789
▁palandey	-790
▁pamp	-791
▁nangg	-792
▁matonung	-793
▁tul	-794
hil	-795
▁omb	-796
▁tak	-797
▁babilon	-798
ran	-799
▁sikaray	-800
▁babilonia	-801
kay	-802
▁agag	-803
▁bet	-804
▁bakal	-805
▁sil	-806
▁nakaukolan	-807
ira	-808
oman	-809
▁nar	-810
▁mangib	-811
inta	-812
wa	-813
apay	-814
aray	-815
gneng	-816
▁tapew	-817
▁ibabag	-818
▁nengneng	-819
▁mabilay	-820
▁pamilya	-821
▁anghil	-822
tit	-823
aten	-824
ayep	-825
▁ben	-826
lay	-827
abiy	-828
▁nal	-829
▁dalem	-830
ogp	-831
▁sikayon	-832
▁lev	-833
▁lasus	-834
ikasi	-835
eba	-836
▁manoley	-837
▁manan	-838
ist	-839
amat	-840
▁kato	-841
igalang	-842
▁tulong	-843
tong	-844
alita	-845
otak	-846
▁min	-847
▁pis	-848
▁nanengneng	-849
▁olo	-850
▁kapag	-851
oor	-852
▁saul	-853
▁totook	-854
▁iner	-855
▁ayayep	-856
agew	-857
ada	-858
angat	-859
▁bibii	-860
▁talinta	-861
▁nagmaliw	-862
agan	-863
abaing	-864
▁bay	-865
dad	-866
agalang	-867
alik	-868
▁nis	-869
▁samp	-870
▁kimey	-871
▁wad	-872
amanan	-873
▁linmad	-874
▁ik	-875
▁pati	-876
aalagey	-877
▁par	-878
▁puirta	-879
▁er	-880
arap	-881
▁makas	-882
▁kayari	-883
▁angga	-884
▁bulan	-885
▁mib	-886
amut	-887
▁naan	-888
▁pilak	-889
igon	-890
▁apoy	-891
▁ilog	-892
▁bengatlan	-893
acob	-894
▁nas	-895
▁jacob	-896
olung	-897
ermen	-898
liber	-899
▁aaron	-900
▁disip	-901
uc	-902
▁mank	-903
▁ibaga	-904
ec	-905
ins	-906
▁agawa	-907
▁sulat	-908
▁linawa	-909
▁onla	-910
▁matoor	-911
hi	-912
▁pinatey	-913
▁akap	-914
tol	-915
▁amb	-916
▁angib	-917
▁arari	-918
mpet	-919
▁naam	-920
▁pasnuk	-921
▁sikaton	-922
awak	-923
inom	-924
▁pinap	-925
▁inkuantod	-926
▁kor	-927
▁kuantod	-928
iberliber	-929
no	-930
okd	-931
unigon	-932
▁sikat	-933
▁pinal	-934
▁pigaran	-935
umpad	-936
▁alak	-937
▁panoy	-938
▁mangip	-939
asnuk	-940
angan	-941
▁kawalaan	-942
▁ayep	-943
▁baka	-944
▁imbag	-945
anengneng	-946
na	-947
irb	-948
lam	-949
yay	-950
abay	-951
▁kip	-952
▁talo	-953
titipon	-954
omp	-955
az	-956
▁katoowan	-957
ador	-958
▁pus	-959
▁kagalangan	-960
usaen	-961
▁itdan	-962
ekal	-963
inis	-964
▁labin	-965
eh	-966
wanan	-967
▁lima	-968
▁karniro	-969
olus	-970
▁maliket	-971
▁pinmawil	-972
▁kalaw	-973
atik	-974
amplo	-975
lomon	-976
▁solomon	-977
▁kalawakan	-978
ongg	-979
▁naamtaan	-980
ogpaan	-981
▁sanl	-982
▁initdan	-983
▁disipulo	-984
abigan	-985
▁kalak	-986
mpo	-987
mo	-988
etan	-989
▁ong	-990
▁ebat	-991
itay	-992
▁kalakyan	-993
▁mairap	-994
ogan	-995
aring	-996
bayan	-997
kulang	-998
▁gil	-999
▁agagi	-1000
▁bindisi	-1001
▁mambilay	-1002
▁kayamanan	-1003
mat	-1004
▁jon	-1005
tombuk	-1006
▁namb	-1007
▁onur	-1008
▁patar	-1009
▁kipapasen	-1010
insi	-1011
aloan	-1012
▁bato	-1013
▁sikatayo	-1014
waan	-1015
▁marotak	-1016
▁impir	-1017
uel	-1018
▁kaliberliber	-1019
ham	-1020
aloy	-1021
▁ibagam	-1022
▁sumpad	-1023
▁loob	-1024
▁kanen	-1025
opoolan	-1026
apo	-1027
alig	-1028
▁onya	-1029
ez	-1030
ri	-1031
uay	-1032
▁fil	-1033
umlang	-1034
▁siopay	-1035
▁tinapay	-1036
onggaring	-1037
▁tulda	-1038
▁totoom	-1039
abaingan	-1040
▁mil	-1041
▁idayew	-1042
▁dag	-1043
▁kareen	-1044
▁mansian	-1045
irbir	-1046
irapan	-1047
▁nagawa	-1048
yo	-1049
ron	-1050
▁agi	-1051
empet	-1052
▁levita	-1053
▁kakanen	-1054
co	-1055
daan	-1056
▁anem	-1057
▁biskeg	-1058
▁inaatey	-1059
▁manayam	-1060
▁nid	-1061
▁imbaki	-1062
▁kareenan	-1063
▁pikaka	-1064
▁nansalita	-1065
raham	-1066
▁kasak	-1067
▁abraham	-1068
▁pay	-1069
▁liket	-1070
▁makasengeg	-1071
put	-1072
igo	-1073
▁akis	-1074
▁filist	-1075
▁bu	-1076
▁mit	-1077
▁tay	-1078
▁tob	-1079
▁kinm	-1080
▁angip	-1081
osul	-1082
▁biin	-1083
▁kasi	-1084
▁mand	-1085
▁insipan	-1086
▁siopamay	-1087
▁kanunotan	-1088
aya	-1089
loob	-1090
▁aliwa	-1091
▁nanayam	-1092
▁inl	-1093
▁mibakal	-1094
ekan	-1095
▁bok	-1096
▁pil	-1097
▁ogaw	-1098
▁tamp	-1099
alonggaring	-1100
apag	-1101
▁katwaan	-1102
agar	-1103
iton	-1104
▁jose	-1105
▁manal	-1106
▁tampol	-1107
airap	-1108
inawa	-1109
▁ibabaga	-1110
▁kanepeg	-1111
▁dala	-1112
arak	-1113
ilin	-1114
▁jor	-1115
▁lik	-1116
▁deralen	-1117
kas	-1118
was	-1119
abas	-1120
▁inyakar	-1121
▁kabyangan	-1122
ulon	-1123
▁judas	-1124
▁mangan	-1125
▁es	-1126
ingwanan	-1127
alim	-1128
▁panagpa	-1129
▁sipanan	-1130
▁binm	-1131
asikas	-1132
▁andika	-1133
anak	-1134
▁jonatan	-1135
▁asingger	-1136
▁popoolan	-1137
▁mamap	-1138
▁iyagel	-1139
don	-1140
▁sig	-1141
antak	-1142
▁dusaen	-1143
okey	-1144
▁ika	-1145
▁mapalaloy	-1146
▁sikan	-1147
▁kapara	-1148
▁makabat	-1149
iel	-1150
ion	-1151
asio	-1152
▁onyay	-1153
▁iyakar	-1154
▁kanepegan	-1155
ana	-1156
▁mid	-1157
▁mabiskeg	-1158
aba	-1159
▁pans	-1160
▁inala	-1161
▁ac	-1162
duan	-1163
iran	-1164
etang	-1165
▁bung	-1166
sam	-1167
▁ongg	-1168
yagel	-1169
▁kayoy	-1170
▁lalon	-1171
▁ompawil	-1172
▁palasio	-1173
ef	-1174
iseo	-1175
deral	-1176
ue	-1177
▁tua	-1178
oen	-1179
▁sondalon	-1180
▁trigo	-1181
▁nadngelan	-1182
▁iya	-1183
▁impam	-1184
▁josue	-1185
akanengneng	-1186
amba	-1187
amta	-1188
▁kil	-1189
▁manang	-1190
▁pananisia	-1191
▁gilig	-1192
▁tayon	-1193
▁sikaran	-1194
▁nankasalanan	-1195
asa	-1196
▁kampo	-1197
anggaan	-1198
indan	-1199
▁kaban	-1200
ilan	-1201
kanaan	-1202
▁kabat	-1203
kab	-1204
▁inar	-1205
▁dakel	-1206
▁pakap	-1207
▁onuren	-1208
▁bangkay	-1209
▁mangiter	-1210
kana	-1211
▁ped	-1212
wasan	-1213
▁sanan	-1214
▁baybay	-1215
▁gan	-1216
ooban	-1217
▁kaat	-1218
▁libo	-1219
▁pablo	-1220
eyag	-1221
▁abal	-1222
▁puso	-1223
▁sananey	-1224
apat	-1225
▁tat	-1226
▁kasakbayan	-1227
▁andikakanaan	-1228
▁jordan	-1229
▁nanarian	-1230
▁andianggaan	-1231
▁mairapbilay	-1232
ago	-1233
aleg	-1234
naan	-1235
▁kaatapan	-1236
▁panangaro	-1237
ai	-1238
▁mant	-1239
▁kairapan	-1240
▁nand	-1241
▁pangg	-1242
isaklang	-1243
▁kasumpal	-1244
▁pinmaway	-1245
ekias	-1246
▁manggawa	-1247
▁pedro	-1248
▁kuarta	-1249
▁kababaingan	-1250
say	-1251
▁tepet	-1252
▁sikayoy	-1253
aliis	-1254
▁paway	-1255
▁onsabi	-1256
▁pagmaliw	-1257
aks	-1258
apwan	-1259
▁libon	-1260
▁onlad	-1261
▁silong	-1262
▁tinawag	-1263
ina	-1264
asal	-1265
▁nans	-1266
▁kapal	-1267
▁sangka	-1268
ipat	-1269
▁ipap	-1270
▁ba	-1271
aker	-1272
▁gunigon	-1273
▁karakel	-1274
▁makaoley	-1275
▁laka	-1276
▁bokig	-1277
▁sinmabi	-1278
aylay	-1279
▁talintaoy	-1280
upa	-1281
▁mis	-1282
ilaban	-1283
insiaan	-1284
▁isa	-1285
▁tir	-1286
▁asir	-1287
▁nana	-1288
▁pina	-1289
▁kamid	-1290
▁pinili	-1291
▁sumpal	-1292
kat	-1293
aria	-1294
ipanan	-1295
olo	-1296
ding	-1297
obir	-1298
oluk	-1299
▁balon	-1300
▁sigput	-1301
▁moab	-1302
▁takot	-1303
▁abuloy	-1304
abuloyan	-1305
▁pitoran	-1306
oot	-1307
abin	-1308
▁manepeg	-1309
▁manonan	-1310
▁ef	-1311
▁or	-1312
intil	-1313
▁juan	-1314
▁kerew	-1315
▁larak	-1316
▁pangulon	-1317
ompon	-1318
ibilay	-1319
▁panka	-1320
▁masanto	-1321
▁filisteo	-1322
▁makulang	-1323
ter	-1324
tok	-1325
▁onk	-1326
insia	-1327
▁duan	-1328
▁asiria	-1329
ba	-1330
lamang	-1331
▁komuy	-1332
▁hintil	-1333
▁panagp	-1334
▁kabalik	-1335
▁makulangkulang	-1336
utan	-1337
talus	-1338
▁nanggawa	-1339
▁lamlamang	-1340
tog	-1341
ukor	-1342
upan	-1343
▁pista	-1344
▁panaayaman	-1345
▁ando	-1346
aatagey	-1347
▁matalonggaring	-1348
▁wadman	-1349
▁taloran	-1350
▁impirador	-1351
▁nak	-1352
▁pinalsa	-1353
▁agaylay	-1354
▁ontombuk	-1355
iten	-1356
▁gala	-1357
▁abayag	-1358
▁onsabiy	-1359
aay	-1360
uran	-1361
▁lol	-1362
▁nik	-1363
asawa	-1364
▁siopa	-1365
▁duamplo	-1366
▁kabaliksan	-1367
▁sankat	-1368
abid	-1369
▁pinas	-1370
▁abaloan	-1371
▁malinis	-1372
alng	-1373
ilong	-1374
jamin	-1375
▁ispada	-1376
▁kanding	-1377
▁tinaynan	-1378
ogip	-1379
▁bakan	-1380
▁ibagak	-1381
▁kuarto	-1382
▁abuloyan	-1383
▁benjamin	-1384
▁ikuan	-1385
▁simon	-1386
▁saraya	-1387
▁isaklang	-1388
▁lolooban	-1389
▁panangar	-1390
olis	-1391
angon	-1392
▁pakaoley	-1393
ken	-1394
▁dagem	-1395
▁manas	-1396
▁adakep	-1397
ian	-1398
▁akas	-1399
▁alaen	-1400
▁kamin	-1401
▁ah	-1402
etma	-1403
arawi	-1404
baleg	-1405
▁amak	-1406
▁mama	-1407
ko	-1408
▁rig	-1409
olyan	-1410
▁sali	-1411
▁niiter	-1412
▁talomp	-1413
▁tirins	-1414
af	-1415
orem	-1416
▁dua	-1417
▁liw	-1418
atakot	-1419
asalita	-1420
▁ononan	-1421
▁ibabagay	-1422
alit	-1423
▁bos	-1424
▁kumad	-1425
▁balita	-1426
▁inkuanda	-1427
apu	-1428
ben	-1429
ario	-1430
▁iman	-1431
iliket	-1432
▁ermen	-1433
awang	-1434
▁kama	-1435
▁manok	-1436
▁sankam	-1437
ool	-1438
▁saksakey	-1439
▁tulongan	-1440
eon	-1441
▁kord	-1442
ikimey	-1443
▁pagmaliwen	-1444
▁panagpainawa	-1445
mas	-1446
▁gr	-1447
▁sian	-1448
oleyan	-1449
▁arawi	-1450
▁batik	-1451
▁manng	-1452
alandeyan	-1453
agur	-1454
unong	-1455
▁sipan	-1456
▁kamaungan	-1457
▁kapalandeyan	-1458
zar	-1459
▁abalaten	-1460
kod	-1461
lur	-1462
elat	-1463
▁ket	-1464
▁araw	-1465
ulongan	-1466
▁tanaman	-1467
oma	-1468
ambaan	-1469
▁tagey	-1470
▁sanlasus	-1471
akd	-1472
gawa	-1473
ilik	-1474
▁kaal	-1475
▁mitro	-1476
▁makapoy	-1477
sil	-1478
iset	-1479
▁sint	-1480
▁ginag	-1481
matalek	-1482
▁kapokd	-1483
asingger	-1484
▁ibabagak	-1485
lano	-1486
▁simb	-1487
alaban	-1488
aliket	-1489
▁linmoob	-1490
▁kabwasan	-1491
igl	-1492
tek	-1493
walaan	-1494
▁aderal	-1495
▁insins	-1496
▁pangip	-1497
▁kapokdulan	-1498
tam	-1499
alusan	-1500
▁gobir	-1501
▁ngalng	-1502
▁kaalogan	-1503
▁bindision	-1504
ekn	-1505
tug	-1506
▁ti	-1507
diad	-1508
igan	-1509
iiter	-1510
ataktakot	-1511
▁kagawaan	-1512
riso	-1513
▁apatap	-1514
enengneng	-1515
▁angibaki	-1516
▁apatiran	-1517
▁mangigalang	-1518
akm	-1519
obo	-1520
agad	-1521
akis	-1522
ewen	-1523
▁balo	-1524
▁edom	-1525
▁egipsi	-1526
▁onggen	-1527
▁pakatalus	-1528
ogaw	-1529
ilang	-1530
ooley	-1531
▁ekal	-1532
▁dapag	-1533
▁parti	-1534
▁manases	-1535
▁onggendan	-1536
wahi	-1537
awagen	-1538
olisay	-1539
▁amtak	-1540
▁bilang	-1541
▁napatey	-1542
▁kagalang	-1543
▁makasalanan	-1544
▁ez	-1545
akid	-1546
aral	-1547
▁ant	-1548
oboam	-1549
▁pand	-1550
▁tron	-1551
▁bosis	-1552
▁ilalo	-1553
▁lorem	-1554
▁bibiin	-1555
▁kabayo	-1556
dat	-1557
kasi	-1558
▁eli	-1559
emben	-1560
▁aminsan	-1561
▁kawalaay	-1562
▁tirinsira	-1563
abl	-1564
abal	-1565
ogpa	-1566
ageyan	-1567
▁bansan	-1568
ilingkur	-1569
▁sumpalen	-1570
▁manlingkur	-1571
abet	-1572
▁heb	-1573
▁tum	-1574
▁napan	-1575
▁egipsio	-1576
▁nisulat	-1577
usek	-1578
▁tab	-1579
▁tuan	-1580
akelaw	-1581
▁ipawil	-1582
▁panags	-1583
▁manliket	-1584
alay	-1585
inan	-1586
arias	-1587
▁joab	-1588
▁lion	-1589
akelan	-1590
▁lusek	-1591
▁bandad	-1592
▁ibagat	-1593
▁bas	-1594
anaan	-1595
▁oras	-1596
▁bilin	-1597
▁nawalaan	-1598
▁mansiansia	-1599
▁ipanengneng	-1600
undoan	-1601
▁elias	-1602
▁pinat	-1603
▁insinso	-1604
▁ketegan	-1605
igalangan	-1606
▁impaalagey	-1607
akseb	-1608
▁asno	-1609
amplon	-1610
asakit	-1611
▁jesuc	-1612
▁kasian	-1613
▁intuloy	-1614
day	-1615
dok	-1616
tal	-1617
▁alog	-1618
▁eliseo	-1619
▁pegley	-1620
▁samuel	-1621
▁sengeg	-1622
akerakel	-1623
▁naderal	-1624
▁katakelan	-1625
▁manggaway	-1626
▁jesucristo	-1627
▁nengnengen	-1628
iling	-1629
indisi	-1630
▁sagur	-1631
▁tayod	-1632
▁labinduan	-1633
▁nig	-1634
▁sim	-1635
imbawa	-1636
▁isaac	-1637
▁oliba	-1638
▁sampl	-1639
▁talon	-1640
aab	-1641
ubas	-1642
▁kol	-1643
ibaga	-1644
▁mangy	-1645
▁sakit	-1646
▁nampap	-1647
▁sankamundoan	-1648
ael	-1649
alom	-1650
ktok	-1651
▁pir	-1652
amsam	-1653
okdul	-1654
▁mayaman	-1655
▁sankatageyan	-1656
▁miy	-1657
▁pet	-1658
▁gawa	-1659
▁nunot	-1660
▁taloy	-1661
abiskeg	-1662
▁atilak	-1663
▁toktok	-1664
▁karwahi	-1665
▁pinapatey	-1666
▁sangkaili	-1667
aam	-1668
ekta	-1669
▁sus	-1670
▁oran	-1671
ilalek	-1672
▁makal	-1673
▁impaka	-1674
ah	-1675
etn	-1676
ebel	-1677
iken	-1678
osor	-1679
▁likud	-1680
▁sakop	-1681
▁dinogpaan	-1682
era	-1683
oro	-1684
olup	-1685
raim	-1686
▁big	-1687
▁gal	-1688
akmom	-1689
mamat	-1690
▁guar	-1691
▁pamb	-1692
▁ubas	-1693
▁manlal	-1694
▁naandi	-1695
▁bindisionan	-1696
▁manalalagey	-1697
asin	-1698
dokeo	-1699
▁bangat	-1700
▁mardokeo	-1701
▁panagbilay	-1702
odon	-1703
tonton	-1704
ucodon	-1705
▁talintao	-1706
ucodonosor	-1707
▁dakerakel	-1708
ebeg	-1709
▁jeh	-1710
▁nabucodonosor	-1711
kap	-1712
reo	-1713
obuk	-1714
▁ind	-1715
▁eras	-1716
▁kaab	-1717
▁olup	-1718
ederal	-1719
ekerew	-1720
▁liman	-1721
▁lobuk	-1722
▁onaan	-1723
onungan	-1724
▁awaten	-1725
▁efraim	-1726
▁imbagak	-1727
▁pambilay	-1728
ado	-1729
umog	-1730
▁gen	-1731
▁kir	-1732
▁abel	-1733
▁acab	-1734
▁mata	-1735
▁iiter	-1736
▁siria	-1737
▁onloob	-1738
▁ginawak	-1739
▁makapang	-1740
ako	-1741
uaru	-1742
▁igl	-1743
kanta	-1744
▁ikana	-1745
▁kumap	-1746
▁milag	-1747
▁tanda	-1748
▁atagey	-1749
▁inonur	-1750
▁dogpaan	-1751
▁kaabungan	-1752
elaw	-1753
▁laen	-1754
▁onsas	-1755
▁inagew	-1756
▁kordiro	-1757
▁kumalab	-1758
▁salitay	-1759
▁samaria	-1760
▁ngalngali	-1761
▁inagewagew	-1762
uz	-1763
▁sion	-1764
adalan	-1765
aligwas	-1766
▁kuanda	-1767
▁nantitipon	-1768
yag	-1769
▁bar	-1770
▁matak	-1771
▁ompap	-1772
▁kapald	-1773
▁nandor	-1774
▁ogogaw	-1775
▁katonungan	-1776
loy	-1777
wer	-1778
ewan	-1779
ilat	-1780
imon	-1781
dipat	-1782
ingit	-1783
nador	-1784
ubasan	-1785
▁ester	-1786
▁impis	-1787
▁trump	-1788
▁gendat	-1789
▁ezekias	-1790
▁kinerew	-1791
apen	-1792
isan	-1793
aranan	-1794
▁apatey	-1795
▁rigalo	-1796
▁impatey	-1797
▁kaubasan	-1798
▁pikakasi	-1799
▁sinmabiy	-1800
▁gobirnador	-1801
alin	-1802
etneg	-1803
▁salit	-1804
agmaliw	-1805
▁pilalek	-1806
igagalang	-1807
▁mamaarap	-1808
▁samploran	-1809
tad	-1810
apas	-1811
okel	-1812
▁bit	-1813
tontonen	-1814
▁mangoman	-1815
▁panayaman	-1816
▁mapaatagey	-1817
▁pagalangan	-1818
▁totontonen	-1819
ban	-1820
ubok	-1821
▁amp	-1822
▁mip	-1823
ariay	-1824
▁kaib	-1825
alikdo	-1826
▁trono	-1827
▁managp	-1828
▁nanoley	-1829
▁mansalita	-1830
▁tinmaynan	-1831
▁makapataktakot	-1832
ayaga	-1833
alagar	-1834
▁baton	-1835
▁judea	-1836
▁libro	-1837
▁pinag	-1838
agos	-1839
▁mic	-1840
▁papa	-1841
▁bunga	-1842
▁tuloy	-1843
▁pangib	-1844
▁napelag	-1845
▁sankaabigan	-1846
▁lil	-1847
osilan	-1848
▁narengel	-1849
▁panangasi	-1850
▁mankasalanan	-1851
las	-1852
eneg	-1853
▁sob	-1854
alitad	-1855
▁kanta	-1856
ongtong	-1857
▁bungay	-1858
▁galaad	-1859
▁ilaban	-1860
▁poolan	-1861
▁marakep	-1862
▁dengelen	-1863
akim	-1864
onda	-1865
batik	-1866
▁amam	-1867
otakan	-1868
▁haman	-1869
▁maksil	-1870
▁maptek	-1871
▁tobias	-1872
▁asumpal	-1873
▁trumpita	-1874
▁nampikasi	-1875
▁manlalapud	-1876
kar	-1877
ura	-1878
asto	-1879
ayag	-1880
ewet	-1881
▁sum	-1882
▁baal	-1883
alamat	-1884
▁ammon	-1885
▁armas	-1886
▁agawad	-1887
▁ipatey	-1888
tongtong	-1889
▁mambibilay	-1890
son	-1891
wes	-1892
ekep	-1893
▁pur	-1894
angulo	-1895
▁inyan	-1896
▁karak	-1897
▁nianak	-1898
taktakot	-1899
▁igalang	-1900
▁nanenengneng	-1901
ga	-1902
ito	-1903
sab	-1904
▁bob	-1905
onuran	-1906
▁getma	-1907
▁kumat	-1908
▁tayoy	-1909
asikaso	-1910
umpalan	-1911
intinsia	-1912
▁kakaaro	-1913
▁mamatey	-1914
▁karniron	-1915
alis	-1916
awet	-1917
ayat	-1918
ibra	-1919
olid	-1920
▁apo	-1921
alima	-1922
▁dusa	-1923
▁napn	-1924
▁panon	-1925
▁canaan	-1926
▁ekalen	-1927
▁manari	-1928
▁kerewen	-1929
▁nanlapu	-1930
▁anggapod	-1931
▁impisipanan	-1932
dro	-1933
elec	-1934
iwan	-1935
iwit	-1936
▁ged	-1937
▁anta	-1938
▁inawit	-1939
▁dineral	-1940
alaw	-1941
okul	-1942
▁kur	-1943
isiad	-1944
▁pank	-1945
▁kakap	-1946
▁daiset	-1947
▁daniel	-1948
▁tinalo	-1949
▁kaonuran	-1950
▁uz	-1951
dona	-1952
eket	-1953
ulag	-1954
▁med	-1955
maung	-1956
orung	-1957
▁pitoy	-1958
alangen	-1959
upulong	-1960
▁pokdul	-1961
▁impaway	-1962
intinsiaan	-1963
▁mampikasi	-1964
▁pangulowan	-1965
▁makapaliket	-1966
ern	-1967
▁kr	-1968
▁nant	-1969
kabayo	-1970
▁inaro	-1971
▁tuldan	-1972
alangwer	-1973
▁iglisia	-1974
▁kuankod	-1975
▁nilaban	-1976
▁talomplo	-1977
aew	-1978
akn	-1979
dia	-1980
oli	-1981
sik	-1982
iger	-1983
aandi	-1984
ostol	-1985
salat	-1986
agaway	-1987
▁dayew	-1988
erengel	-1989
▁arapen	-1990
▁inkato	-1991
▁samput	-1992
indisionan	-1993
▁kakanayon	-1994
▁natatakot	-1995
▁sinambaan	-1996
▁nandoroman	-1997
giw	-1998
▁az	-1999
etel	-2000
oyur	-2001
▁amo	-2002
▁bag	-2003
▁riy	-2004
iwgiw	-2005
▁liwawa	-2006
▁ginawam	-2007
▁saraman	-2008
▁karaklan	-2009
▁nagawaan	-2010
▁makanengneng	-2011
alat	-2012
▁per	-2013
▁gaba	-2014
irayew	-2015
▁kindi	-2016
▁sumis	-2017
aparaan	-2018
lingkur	-2019
amparaan	-2020
▁anggaay	-2021
▁ipapasen	-2022
nag	-2023
uis	-2024
igen	-2025
eraan	-2026
ombuk	-2027
▁santo	-2028
▁pankan	-2029
▁bitewen	-2030
▁ompaway	-2031
▁nagagawa	-2032
▁mangiiter	-2033
ilea	-2034
rung	-2035
atyang	-2036
▁riyna	-2037
▁napnoy	-2038
▁andokey	-2039
▁apostol	-2040
▁galilea	-2041
▁nibantak	-2042
▁balatyang	-2043
▁impagmaliw	-2044
awir	-2045
aloen	-2046
asoot	-2047
iirap	-2048
▁awit	-2049
atawag	-2050
idayew	-2051
▁dimon	-2052
▁nanka	-2053
abangat	-2054
▁taynan	-2055
▁limaran	-2056
▁narumog	-2057
▁akaparaan	-2058
▁kumalabin	-2059
arad	-2060
epel	-2061
▁abs	-2062
▁esa	-2063
bayar	-2064
dngel	-2065
▁amal	-2066
▁amtam	-2067
▁angan	-2068
▁pasak	-2069
▁absalom	-2070
▁kabosul	-2071
▁kapigan	-2072
▁ondengel	-2073
▁panooley	-2074
▁lamparaan	-2075
▁tatawagen	-2076
lag	-2077
abuk	-2078
ilal	-2079
▁pon	-2080
▁akan	-2081
▁nika	-2082
tonung	-2083
▁antio	-2084
▁beneg	-2085
▁inkar	-2086
▁kasiy	-2087
▁kilaw	-2088
▁linmay	-2089
▁inyagel	-2090
▁inkatonung	-2091
▁impanengneng	-2092
egat	-2093
▁sol	-2094
agaan	-2095
aabeba	-2096
▁nalmo	-2097
▁antioco	-2098
mamatalek	-2099
▁kaabigan	-2100
▁inabuloyan	-2101
▁makapakelaw	-2102
ata	-2103
awn	-2104
elek	-2105
alkan	-2106
saray	-2107
tanem	-2108
▁siam	-2109
▁sobul	-2110
▁wadya	-2111
asawaan	-2112
atakken	-2113
▁itayod	-2114
▁jeroboam	-2115
▁kumadwan	-2116
▁marunong	-2117
▁manngaray	-2118
▁mangigagalang	-2119
▁aro	-2120
▁dinan	-2121
▁gawam	-2122
embenan	-2123
ingayew	-2124
▁angiter	-2125
▁naandipat	-2126
▁pankanawn	-2127
yeg	-2128
usad	-2129
utang	-2130
▁buis	-2131
▁huis	-2132
▁mika	-2133
▁impanp	-2134
asirayew	-2135
▁inkaindan	-2136
▁kumapiton	-2137
▁pakanengneng	-2138
ukb	-2139
unan	-2140
▁lis	-2141
akdul	-2142
engan	-2143
nunot	-2144
▁lupa	-2145
▁nank	-2146
imelec	-2147
ununot	-2148
▁lamis	-2149
▁tombuk	-2150
▁milagro	-2151
▁inmalagey	-2152
unb	-2153
umba	-2154
iketan	-2155
▁bobun	-2156
▁gansa	-2157
▁salot	-2158
▁ebatan	-2159
▁dimonyo	-2160
▁impasen	-2161
▁pariseo	-2162
▁akabatan	-2163
▁magmaung	-2164
▁malangwer	-2165
ato	-2166
ezer	-2167
emias	-2168
▁esau	-2169
▁sara	-2170
▁andid	-2171
▁dabuk	-2172
▁napno	-2173
▁ompan	-2174
▁kasabi	-2175
▁antakot	-2176
▁karokey	-2177
▁lamisaan	-2178
▁mamatakken	-2179
▁mansiansian	-2180
uben	-2181
upak	-2182
▁her	-2183
▁job	-2184
itaan	-2185
▁diay	-2186
▁pant	-2187
▁pika	-2188
irdona	-2189
▁manisia	-2190
▁ontulong	-2191
▁panariay	-2192
▁akakabayo	-2193
▁sankaawit	-2194
▁panangarom	-2195
▁sipaparaan	-2196
▁panangigalangan	-2197
iya	-2198
oter	-2199
ukat	-2200
▁inom	-2201
wanwan	-2202
▁dimay	-2203
▁maruk	-2204
asakbay	-2205
▁inekal	-2206
▁tobunb	-2207
▁kuartan	-2208
▁mangala	-2209
▁pinoolan	-2210
▁nanalagey	-2211
▁lilingwanan	-2212
ico	-2213
iig	-2214
lim	-2215
yam	-2216
uban	-2217
▁amor	-2218
▁tuay	-2219
akmomo	-2220
▁amtay	-2221
▁anton	-2222
▁pakas	-2223
ermenan	-2224
▁ipasen	-2225
▁magano	-2226
▁bayaran	-2227
▁inerman	-2228
▁nagawad	-2229
kakabaleg	-2230
▁kagagawa	-2231
▁nipompon	-2232
▁inkuandad	-2233
ki	-2234
re	-2235
arum	-2236
▁mad	-2237
eazar	-2238
▁napap	-2239
▁pakal	-2240
iwanwan	-2241
▁eleazar	-2242
▁dinengel	-2243
▁mankimey	-2244
▁ankakabaleg	-2245
▁makapanyari	-2246
▁sintinsiaan	-2247
▁mangisaklang	-2248
li	-2249
▁gad	-2250
▁lug	-2251
▁pum	-2252
abang	-2253
insan	-2254
▁akal	-2255
▁grup	-2256
▁kapt	-2257
▁naim	-2258
▁malet	-2259
▁priso	-2260
▁silew	-2261
▁ituloy	-2262
anggoyur	-2263
▁imbagad	-2264
▁kayariy	-2265
nap	-2266
usan	-2267
▁gat	-2268
kayat	-2269
▁buek	-2270
▁dian	-2271
▁sira	-2272
▁nidom	-2273
ukbukor	-2274
▁petang	-2275
▁paolyan	-2276
▁iyabuloy	-2277
▁kaptekan	-2278
▁mangibab	-2279
▁inggalang	-2280
▁mapalalon	-2281
so	-2282
tor	-2283
ugat	-2284
igliw	-2285
oblay	-2286
▁itan	-2287
▁kurt	-2288
aknaan	-2289
▁kaaro	-2290
▁lugar	-2291
▁onona	-2292
▁gansan	-2293
▁mangis	-2294
▁mapang	-2295
▁sanlib	-2296
▁kumikimey	-2297
▁pakayarim	-2298
▁mantitipon	-2299
ela	-2300
nay	-2301
agon	-2302
▁mes	-2303
lasiy	-2304
santo	-2305
▁krus	-2306
alabay	-2307
amuran	-2308
yorung	-2309
▁manga	-2310
▁piton	-2311
▁klasiy	-2312
▁nadusa	-2313
▁pirdon	-2314
▁pitomp	-2315
▁sinumpal	-2316
▁kaasawaan	-2317
▁manmamatalek	-2318
les	-2319
ampi	-2320
apoy	-2321
▁pib	-2322
▁sem	-2323
asion	-2324
iktar	-2325
▁ginm	-2326
▁kogip	-2327
▁linen	-2328
▁ruben	-2329
ilonget	-2330
▁ibawag	-2331
▁judion	-2332
▁taklay	-2333
▁amorreo	-2334
▁nidomad	-2335
▁mangibagat	-2336
▁pankaabigan	-2337
yod	-2338
agem	-2339
iray	-2340
onget	-2341
tayan	-2342
urang	-2343
▁ikan	-2344
▁bulag	-2345
▁karni	-2346
▁onton	-2347
aingung	-2348
▁linman	-2349
▁mananap	-2350
▁mangyakar	-2351
▁nisaklang	-2352
gal	-2353
▁bi	-2354
arod	-2355
ikit	-2356
osan	-2357
▁sib	-2358
eetan	-2359
▁plano	-2360
▁ararid	-2361
▁balitan	-2362
▁labalabay	-2363
adad	-2364
afat	-2365
anon	-2366
erel	-2367
raid	-2368
iklam	-2369
isiya	-2370
kasan	-2371
sikas	-2372
▁laban	-2373
ilaloan	-2374
▁arawid	-2375
▁ambelat	-2376
▁ibangat	-2377
▁impirio	-2378
▁salitan	-2379
kakasakey	-2380
▁mapalalo	-2381
▁nambilay	-2382
▁pasingayew	-2383
eft	-2384
und	-2385
eken	-2386
king	-2387
▁mer	-2388
▁sed	-2389
▁tim	-2390
▁betel	-2391
▁pawil	-2392
eknekan	-2393
ilalekan	-2394
▁ontaynan	-2395
▁manlilingkur	-2396
uf	-2397
mam	-2398
ram	-2399
anem	-2400
inew	-2401
▁aki	-2402
▁nit	-2403
lurey	-2404
▁atat	-2405
▁bario	-2406
▁manam	-2407
abetang	-2408
▁betang	-2409
▁hebron	-2410
▁mampap	-2411
▁josafat	-2412
▁papatey	-2413
aingungot	-2414
▁mananisia	-2415
▁pansumpalan	-2416
uko	-2417
emet	-2418
ilad	-2419
▁zac	-2420
abawi	-2421
▁arina	-2422
▁sinag	-2423
▁tanul	-2424
udlurey	-2425
▁sankab	-2426
▁atateng	-2427
▁misalamat	-2428
▁nanlapwan	-2429
▁sinmempet	-2430
▁aderalderal	-2431
▁manggagaway	-2432
▁makapaingungot	-2433
imo	-2434
▁pl	-2435
yari	-2436
▁isk	-2437
alaan	-2438
ondon	-2439
▁dika	-2440
▁oleg	-2441
apiger	-2442
oguran	-2443
▁asabi	-2444
▁judit	-2445
▁kolus	-2446
ayorung	-2447
saklang	-2448
▁ayamay	-2449
▁inomen	-2450
▁nabwas	-2451
▁nagnap	-2452
▁guardia	-2453
▁iyaagel	-2454
▁kalabas	-2455
asalitaen	-2456
▁imparaan	-2457
▁siansian	-2458
▁akisalitad	-2459
▁manmatalek	-2460
kua	-2461
yab	-2462
yat	-2463
▁eg	-2464
uyag	-2465
▁aan	-2466
▁ona	-2467
▁ram	-2468
isaew	-2469
▁inng	-2470
▁sako	-2471
atikan	-2472
ibraan	-2473
▁inkap	-2474
▁inkat	-2475
▁luyag	-2476
▁payak	-2477
▁salmo	-2478
▁awiten	-2479
▁inawat	-2480
▁maabig	-2481
▁oninom	-2482
▁taloen	-2483
▁abirbir	-2484
▁kaawang	-2485
▁kurtina	-2486
▁naitdan	-2487
▁andisaew	-2488
▁limamplo	-2489
▁natalusan	-2490
ipanengneng	-2491
▁akanengneng	-2492
luk	-2493
ner	-2494
rat	-2495
uek	-2496
iram	-2497
ubon	-2498
asias	-2499
eksab	-2500
siaen	-2501
▁abut	-2502
ebatan	-2503
▁duara	-2504
▁manta	-2505
▁asikas	-2506
▁kailal	-2507
▁paskua	-2508
▁totooy	-2509
▁mabayag	-2510
▁insaklang	-2511
▁kailalakan	-2512
▁sasalitaen	-2513
lem	-2514
mak	-2515
way	-2516
▁ob	-2517
gaan	-2518
inup	-2519
olof	-2520
onla	-2521
▁del	-2522
amput	-2523
eknek	-2524
irung	-2525
▁akar	-2526
▁amiy	-2527
awgawa	-2528
▁tipon	-2529
arontal	-2530
▁naawat	-2531
▁tumang	-2532
asalamat	-2533
▁aliling	-2534
▁kuarton	-2535
▁simbawa	-2536
agalangan	-2537
▁impanalo	-2538
▁nasumpal	-2539
▁pabiskeg	-2540
▁sedekias	-2541
bo	-2542
lut	-2543
ubo	-2544
▁abi	-2545
▁dap	-2546
▁mac	-2547
▁sis	-2548
anias	-2549
egyeg	-2550
ikyab	-2551
▁iyan	-2552
▁jehu	-2553
▁roma	-2554
▁patio	-2555
▁pokel	-2556
irbiren	-2557
▁bantug	-2558
▁biglan	-2559
▁josias	-2560
▁katekep	-2561
▁kumatlon	-2562
▁sinmabid	-2563
▁impolisay	-2564
▁ipaalagey	-2565
oga	-2566
yak	-2567
▁dok	-2568
asian	-2569
ikuan	-2570
▁akib	-2571
▁gapo	-2572
▁canan	-2573
▁grupo	-2574
▁holof	-2575
▁kilon	-2576
▁melag	-2577
▁samba	-2578
▁sidro	-2579
▁balaam	-2580
▁samper	-2581
▁kawanan	-2582
▁salitaen	-2583
▁sinalita	-2584
totongtong	-2585
▁nanunotan	-2586
▁pakayarin	-2587
uno	-2588
▁be	-2589
agay	-2590
idad	-2591
umpa	-2592
▁jez	-2593
ernes	-2594
▁apal	-2595
▁anemap	-2596
▁jerico	-2597
▁talagan	-2598
▁kaatagey	-2599
▁mangawat	-2600
▁mangyagel	-2601
▁holofernes	-2602
ayaw	-2603
▁pit	-2604
▁tag	-2605
ogpad	-2606
▁duay	-2607
▁iskr	-2608
aingan	-2609
ebekta	-2610
▁itayon	-2611
▁mareen	-2612
asinagem	-2613
santosan	-2614
▁takotan	-2615
ilongetan	-2616
▁duamplon	-2617
▁kabebekta	-2618
▁panlingkur	-2619
▁makapasinagem	-2620
akik	-2621
anti	-2622
▁dam	-2623
▁pel	-2624
▁pip	-2625
angga	-2626
toluk	-2627
▁levi	-2628
okasan	-2629
raidor	-2630
▁amimp	-2631
▁kasin	-2632
▁libad	-2633
▁pinon	-2634
▁kakaiba	-2635
▁ondalan	-2636
▁onkerew	-2637
▁tandaan	-2638
▁bukbukor	-2639
▁filistia	-2640
▁ginapwan	-2641
▁inngaran	-2642
bon	-2643
a	-2644
▁	-2645
n	-2646
i	-2647
o	-2648
t	-2649
s	-2650
e	-2651
y	-2652
k	-2653
l	-2654
g	-2655
d	-2656
m	-2657
r	-2658
p	-2659
b	-2660
u	-2661
w	-2662
j	-2663
c	-2664
h	-2665
z	-2666
v	-2667
f	-2668
