<unk>	0
<s>	0
</s>	0
an	-0
▁k	-1
▁n	-2
▁a	-3
in	-4
on	-5
▁h	-6
▁m	-7
ay	-8
ta	-9
al	-10
pa	-11
▁na	-12
▁ha	-13
▁ma	-14
ang	-15
▁y	-16
om	-17
la	-18
▁b	-19
▁ka	-20
▁ta	-21
oy	-22
ot	-23
▁kon	-24
▁pa	-25
▁hi	-26
▁i	-27
▁t	-28
ka	-29
▁an	-30
ol	-31
▁d	-32
▁p	-33
ga	-34
ri	-35
wan	-36
▁ay	-37
ma	-38
▁l	-39
os	-40
▁nin	-41
▁yay	-42
ali	-43
▁tan	-44
▁ya	-45
▁la	-46
▁nan	-47
sa	-48
▁am	-49
ra	-50
ya	-51
to	-52
ti	-53
ba	-54
▁di	-55
il	-56
wa	-57
mo	-58
▁dios	-59
▁j	-60
▁moy	-61
ko	-62
taw	-63
ala	-64
▁ni	-65
it	-66
es	-67
▁hin	-68
▁taw	-69
or	-70
▁hil	-71
▁kay	-72
▁jes	-73
▁jesu	-74
▁ko	-75
bi	-76
▁main	-77
ong	-78
da	-79
is	-80
▁wan	-81
▁in	-82
li	-83
ana	-84
▁kom	-85
▁no	-86
▁jesus	-87
pol	-88
aw	-89
▁moyo	-90
▁bi	-91
▁hilay	-92
▁kot	-93
bo	-94
alita	-95
ro	-96
▁ang	-97
go	-98
ban	-99
▁kan	-100
rin	-101
▁is	-102
pi	-103
▁ana	-104
▁pama	-105
ina	-106
maot	-107
▁s	-108
tin	-109
bay	-110
▁ot	-111
▁hila	-112
▁kanya	-113
gaw	-114
gan	-115
ilang	-116
anga	-117
▁im	-118
alan	-119
▁yad	-120
oman	-121
▁ampa	-122
kit	-123
▁ambo	-124
▁bisa	-125
▁lan	-126
▁hal	-127
▁konan	-128
yay	-129
mon	-130
lan	-131
▁ba	-132
do	-133
▁halban	-134
pan	-135
lo	-136
▁kona	-137
▁o	-138
mi	-139
▁hom	-140
bat	-141
▁komoy	-142
pat	-143
ris	-144
▁mo	-145
▁bana	-146
▁para	-147
▁koni	-148
▁tawtaw	-149
▁nay	-150
▁homin	-151
▁yan	-152
man	-153
▁mas	-154
▁konlan	-155
▁yarin	-156
▁komoyo	-157
oma	-158
say	-159
▁mag	-160
alo	-161
▁pi	-162
▁aw	-163
min	-164
▁bilang	-165
▁kapa	-166
ki	-167
▁kata	-168
▁lo	-169
im	-170
▁kaw	-171
▁namaot	-172
yan	-173
▁man	-174
▁mi	-175
▁g	-176
▁itaw	-177
▁wana	-178
▁asay	-179
ogo	-180
wanin	-181
▁hawanin	-182
moy	-183
pang	-184
▁tamo	-185
cris	-186
aya	-187
eli	-188
▁ani	-189
gat	-190
▁kamo	-191
▁da	-192
kol	-193
▁konla	-194
orin	-195
▁pina	-196
pon	-197
▁kong	-198
tan	-199
ompol	-200
cristo	-201
balita	-202
▁tawtawo	-203
po	-204
▁tawo	-205
▁kongko	-206
▁kawka	-207
ton	-208
▁katawan	-209
▁pigaw	-210
▁sa	-211
elita	-212
raelita	-213
▁nag	-214
▁maka	-215
si	-216
gay	-217
▁iti	-218
▁bon	-219
▁angka	-220
olo	-221
▁paw	-222
▁ant	-223
▁pin	-224
▁mang	-225
▁tong	-226
▁asa	-227
▁baw	-228
▁naka	-229
ola	-230
▁anamaot	-231
ha	-232
alanan	-233
gamin	-234
▁impa	-235
▁ngamin	-236
▁nak	-237
▁israelita	-238
yon	-239
▁sy	-240
yari	-241
▁yadtin	-242
▁bongat	-243
▁labay	-244
pto	-245
ing	-246
bah	-247
ron	-248
ob	-249
▁antompol	-250
kon	-251
▁lal	-252
▁pam	-253
▁lala	-254
salanan	-255
▁anorin	-256
dti	-257
onol	-258
▁gaw	-259
kay	-260
ral	-261
gawa	-262
rito	-263
angga	-264
▁tongkol	-265
▁kala	-266
na	-267
▁hika	-268
▁hilan	-269
ogoan	-270
▁tanda	-271
▁cristo	-272
▁ispi	-273
alang	-274
bali	-275
▁anak	-276
▁pang	-277
▁ispirito	-278
mba	-279
ibat	-280
▁moyon	-281
▁kat	-282
kot	-283
▁lay	-284
haw	-285
imp	-286
▁balo	-287
▁daw	-288
ili	-289
oloy	-290
▁par	-291
angaral	-292
▁mon	-293
hal	-294
og	-295
hi	-296
▁ando	-297
panogoan	-298
▁tamon	-299
▁tin	-300
▁bawba	-301
▁moyoy	-302
isi	-303
di	-304
▁komon	-305
▁labah	-306
▁nokay	-307
dya	-308
▁nang	-309
pag	-310
▁pamag	-311
ayan	-312
▁yadtaw	-313
▁pan	-314
otol	-315
▁pana	-316
▁kapara	-317
▁ampag	-318
▁mai	-319
▁li	-320
▁yadti	-321
▁kaa	-322
▁pahal	-323
sin	-324
▁anggan	-325
ran	-326
▁wanan	-327
ilbi	-328
wari	-329
▁hinoman	-330
▁pro	-331
▁katot	-332
▁koy	-333
▁tawon	-334
kin	-335
▁dapat	-336
▁ampang	-337
▁katotpol	-338
ptog	-339
han	-340
dad	-341
▁wani	-342
ilangan	-343
won	-344
oro	-345
bin	-346
▁halita	-347
▁mak	-348
▁naor	-349
▁panaon	-350
▁nakit	-351
▁nakom	-352
byay	-353
▁ali	-354
alin	-355
polos	-356
▁bin	-357
rili	-358
▁kamon	-359
sola	-360
▁pamak	-361
▁nil	-362
ok	-363
▁biyay	-364
ari	-365
inwa	-366
▁ju	-367
lon	-368
▁nako	-369
▁ison	-370
wat	-371
▁kailangan	-372
▁pab	-373
kaka	-374
orong	-375
▁konta	-376
er	-377
mbawa	-378
▁anan	-379
koy	-380
▁tawtawon	-381
▁doman	-382
gar	-383
▁ano	-384
▁magin	-385
ayo	-386
tra	-387
▁maw	-388
▁ibat	-389
ed	-390
▁syimp	-391
tala	-392
▁ari	-393
▁imp	-394
▁ipa	-395
angit	-396
▁komo	-397
▁wanla	-398
▁kawkapanogoan	-399
ngo	-400
▁ama	-401
main	-402
odad	-403
bot	-404
dan	-405
▁wari	-406
▁syodad	-407
dtin	-408
▁anya	-409
▁tala	-410
▁langit	-411
▁din	-412
▁masan	-413
▁sarili	-414
▁pari	-415
▁masanton	-416
bol	-417
alngo	-418
▁kami	-419
▁pablo	-420
▁si	-421
big	-422
▁bawbagay	-423
▁mama	-424
pangyari	-425
dtaw	-426
▁law	-427
▁lako	-428
▁haw	-429
alato	-430
daan	-431
oka	-432
pita	-433
anggap	-434
▁kalamo	-435
▁ibalita	-436
pangyarian	-437
▁ampi	-438
▁manga	-439
ona	-440
st	-441
▁bali	-442
▁pot	-443
▁lota	-444
▁gawon	-445
▁ginwa	-446
bon	-447
▁jesucristo	-448
▁laloma	-449
▁kali	-450
▁potog	-451
ho	-452
▁maptog	-453
alih	-454
▁kapangyarian	-455
ring	-456
▁syimpri	-457
omwa	-458
honol	-459
▁hiko	-460
way	-461
▁doka	-462
▁balang	-463
poon	-464
pya	-465
▁ayon	-466
▁kla	-467
sasa	-468
▁kamoy	-469
edro	-470
gawan	-471
▁pedro	-472
hil	-473
kan	-474
▁babay	-475
▁maskin	-476
san	-477
rbi	-478
▁ga	-479
▁pamang	-480
eo	-481
hogo	-482
halita	-483
em	-484
▁hikamoy	-485
▁kaparan	-486
us	-487
▁pami	-488
pos	-489
mbay	-490
intin	-491
omo	-492
olan	-493
▁ako	-494
▁awlo	-495
▁kontamo	-496
so	-497
▁imbalita	-498
▁pinaka	-499
▁mako	-500
talakaka	-501
▁lalaman	-502
▁klasin	-503
kala	-504
▁logar	-505
obat	-506
mbali	-507
▁om	-508
dor	-509
bigan	-510
stang	-511
▁tamoy	-512
▁pati	-513
alem	-514
▁amp	-515
▁pat	-516
▁dawd	-517
▁jer	-518
sirbi	-519
▁pawpa	-520
usalem	-521
tay	-522
▁al	-523
▁akon	-524
▁juan	-525
ia	-526
▁jerusalem	-527
▁min	-528
ongkot	-529
▁anongkot	-530
mat	-531
▁angk	-532
don	-533
osa	-534
bins	-535
▁paralan	-536
▁inom	-537
ak	-538
yo	-539
tok	-540
gawon	-541
tagay	-542
gari	-543
oyot	-544
pyas	-545
▁mapa	-546
▁lalaki	-547
▁probins	-548
▁kaabigan	-549
▁gawgawa	-550
galan	-551
rapat	-552
▁pawp	-553
▁tawtalakaka	-554
ongan	-555
▁naman	-556
no	-557
▁inobat	-558
▁kasalanan	-559
ayari	-560
otolon	-561
ea	-562
ist	-563
dyadya	-564
solatan	-565
hom	-566
hon	-567
sta	-568
lala	-569
▁mawma	-570
▁laloman	-571
▁kasolatan	-572
omato	-573
▁taga	-574
toring	-575
▁ngalan	-576
isipolos	-577
▁dawdisipolos	-578
▁mam	-579
▁disi	-580
▁probinsyan	-581
imbi	-582
▁oman	-583
▁pamaka	-584
dong	-585
▁anay	-586
▁ampan	-587
▁po	-588
anak	-589
▁anyay	-590
▁maari	-591
▁propita	-592
asasa	-593
▁orin	-594
sya	-595
syon	-596
▁nati	-597
tol	-598
▁mab	-599
▁awit	-600
ibatan	-601
▁ampaka	-602
olat	-603
ongo	-604
▁makit	-605
▁pawpoon	-606
kop	-607
ayon	-608
▁mala	-609
got	-610
doka	-611
▁awlon	-612
▁ina	-613
hiban	-614
▁gawa	-615
▁pamakayari	-616
▁mondo	-617
alimbawa	-618
mot	-619
rna	-620
▁panga	-621
▁nalngo	-622
gwa	-623
ismo	-624
▁awa	-625
tanggap	-626
sak	-627
▁ab	-628
▁talagan	-629
alili	-630
rapan	-631
▁inti	-632
▁balita	-633
▁inimbi	-634
▁c	-635
▁totolon	-636
▁anti	-637
▁dawdoka	-638
wanak	-639
▁anipa	-640
▁kal	-641
▁disipolos	-642
▁timp	-643
tandaan	-644
solat	-645
ptogan	-646
▁magka	-647
▁anodti	-648
▁timplo	-649
▁kawkasalanan	-650
▁bayo	-651
▁babayi	-652
dyan	-653
▁intiron	-654
ir	-655
rap	-656
▁anta	-657
▁mali	-658
▁mami	-659
▁anghil	-660
▁hilarin	-661
▁go	-662
▁bab	-663
▁alimbawa	-664
oto	-665
anas	-666
▁hos	-667
pari	-668
▁ban	-669
▁hiya	-670
poy	-671
tawo	-672
postol	-673
patoloy	-674
op	-675
▁isi	-676
▁loway	-677
gka	-678
ham	-679
pin	-680
moon	-681
▁inhogo	-682
▁lomato	-683
▁nangyari	-684
son	-685
▁paibat	-686
mit	-687
▁komi	-688
▁nami	-689
▁awanak	-690
▁kapanogoan	-691
abig	-692
▁mati	-693
el	-694
bri	-695
gon	-696
abot	-697
roka	-698
toro	-699
▁ika	-700
▁mangyari	-701
▁bo	-702
▁anggawon	-703
pot	-704
birna	-705
kiasasa	-706
birnador	-707
▁kaambali	-708
▁gro	-709
▁pano	-710
rang	-711
ilin	-712
biyay	-713
otoro	-714
▁hino	-715
▁napa	-716
sim	-717
simala	-718
▁wanlan	-719
▁hinalita	-720
▁nakasolat	-721
▁gobirnador	-722
pay	-723
bang	-724
mpol	-725
ilbian	-726
▁babalin	-727
dani	-728
▁anggawan	-729
war	-730
▁ti	-731
▁kor	-732
▁sat	-733
bayan	-734
▁mangan	-735
▁satanas	-736
lamo	-737
matyan	-738
▁hiyay	-739
▁nagpa	-740
▁anyaka	-741
▁hikamo	-742
▁patoloy	-743
ria	-744
▁tina	-745
osawan	-746
▁mamag	-747
▁maski	-748
▁sin	-749
hawayan	-750
▁oy	-751
bati	-752
▁kina	-753
▁kamatyan	-754
▁kalabayan	-755
awit	-756
dios	-757
ises	-758
▁kap	-759
daton	-760
▁ayti	-761
▁moises	-762
kasalanan	-763
moan	-764
toy	-765
baba	-766
dawat	-767
rokaan	-768
▁kamin	-769
mati	-770
▁pir	-771
▁paka	-772
▁bagay	-773
▁gamot	-774
▁yapon	-775
▁mabyay	-776
▁lalakin	-777
git	-778
riseo	-779
▁bayon	-780
▁binyan	-781
▁angkabyay	-782
▁e	-783
papo	-784
kal	-785
▁ibi	-786
raham	-787
▁awis	-788
▁mata	-789
sinsya	-790
▁abraham	-791
▁kaptogan	-792
inakit	-793
▁arapan	-794
▁pinastang	-795
yir	-796
omon	-797
▁bos	-798
▁pol	-799
longo	-800
patna	-801
▁halitaon	-802
▁pamangan	-803
angako	-804
▁dinan	-805
kalamoan	-806
▁pamagari	-807
omi	-808
▁ala	-809
▁hita	-810
▁nagin	-811
▁tatay	-812
▁tongwa	-813
pangaral	-814
▁pamilbian	-815
itoy	-816
▁tana	-817
▁bosis	-818
postolis	-819
▁f	-820
onan	-821
▁olo	-822
bilbi	-823
omoob	-824
▁nika	-825
▁marapat	-826
ig	-827
inawa	-828
▁angg	-829
▁kaka	-830
▁anhom	-831
intindyan	-832
isipan	-833
▁alang	-834
▁nabyay	-835
▁angkakit	-836
▁akoy	-837
▁lipi	-838
lalaman	-839
▁matanggap	-840
labi	-841
▁saw	-842
▁maist	-843
▁tinom	-844
▁tampol	-845
▁komoyon	-846
▁alangalang	-847
as	-848
kil	-849
byon	-850
alilikot	-851
▁tinompol	-852
alimbawaan	-853
ero	-854
bing	-855
▁kwar	-856
bilang	-857
▁ampama	-858
▁anhawayan	-859
▁magkamain	-860
pis	-861
aypa	-862
alimo	-863
▁daan	-864
▁naki	-865
▁oyay	-866
▁makhaw	-867
▁pawpariseo	-868
▁kaalimbawaan	-869
may	-870
ros	-871
▁hay	-872
patan	-873
▁kros	-874
▁masa	-875
▁wanay	-876
kitotol	-877
▁norong	-878
▁naglalaman	-879
tawa	-880
▁odti	-881
▁nadti	-882
▁totoro	-883
▁awisraelita	-884
riso	-885
omawat	-886
▁lanom	-887
▁anhomonol	-888
dalo	-889
▁pag	-890
gotan	-891
▁hikoy	-892
▁pamako	-893
▁pinakama	-894
en	-895
tak	-896
▁anl	-897
▁ing	-898
a	-899
▁	-900
n	-901
o	-902
i	-903
t	-904
m	-905
y	-906
k	-907
l	-908
p	-909
g	-910
h	-911
s	-912
b	-913
w	-914
r	-915
d	-916
e	-917
u	-918
j	-919
c	-920
f	-921
2	-922
