<unk>	0
<s>	0
</s>	0
an	-0
▁n	-1
▁a	-2
in	-3
▁k	-4
on	-5
▁h	-6
ay	-7
ta	-8
▁m	-9
al	-10
pa	-11
▁na	-12
▁ha	-13
ang	-14
▁ma	-15
om	-16
la	-17
▁y	-18
▁ta	-19
oy	-20
ot	-21
▁ka	-22
▁b	-23
▁kon	-24
ka	-25
il	-26
▁pa	-27
aw	-28
▁t	-29
ol	-30
▁an	-31
ri	-32
ma	-33
▁ay	-34
▁i	-35
os	-36
▁l	-37
▁nin	-38
▁p	-39
ali	-40
▁nan	-41
▁yay	-42
▁tan	-43
▁hi	-44
ra	-45
▁ya	-46
▁la	-47
to	-48
taw	-49
sa	-50
ya	-51
ti	-52
▁am	-53
ga	-54
▁D	-55
ios	-56
mo	-57
▁K	-58
ba	-59
▁Dios	-60
▁J	-61
▁moy	-62
ko	-63
ana	-64
▁d	-65
▁ni	-66
es	-67
ala	-68
it	-69
or	-70
▁H	-71
▁taw	-72
▁ko	-73
esu	-74
▁Jesu	-75
is	-76
▁hil	-77
▁A	-78
gaw	-79
bi	-80
ong	-81
▁"	-82
▁kay	-83
▁main	-84
da	-85
▁kom	-86
wa	-87
▁Jesus	-88
▁moyo	-89
▁in	-90
pol	-91
wan	-92
bo	-93
alita	-94
ro	-95
▁hilay	-96
▁no	-97
ban	-98
rin	-99
go	-100
▁ang	-101
▁hin	-102
pi	-103
li	-104
▁I	-105
▁P	-106
maot	-107
tin	-108
▁B	-109
▁N	-110
ab	-111
anya	-112
▁ot	-113
ilang	-114
▁ana	-115
gan	-116
alan	-117
ina	-118
oman	-119
."	-120
▁M	-121
▁hila	-122
yay	-123
lo	-124
▁lan	-125
▁im	-126
▁o	-127
▁ampa	-128
▁s	-129
mon	-130
kit	-131
lan	-132
do	-133
bay	-134
alban	-135
▁bi	-136
pang	-137
▁kona	-138
▁konan	-139
▁yad	-140
pan	-141
mi	-142
bat	-143
ki	-144
▁komoy	-145
ris	-146
▁ambo	-147
▁halban	-148
as	-149
▁mo	-150
pat	-151
omin	-152
▁aw	-153
▁para	-154
▁koni	-155
▁tawtaw	-156
▁nay	-157
▁yan	-158
man	-159
ili	-160
▁konlan	-161
▁komoyo	-162
▁Is	-163
▁Kot	-164
awan	-165
na	-166
min	-167
▁mag	-168
▁bana	-169
▁homin	-170
say	-171
alo	-172
im	-173
▁namaot	-174
▁pi	-175
oma	-176
▁bilang	-177
▁Kanya	-178
▁lo	-179
▁kaw	-180
yan	-181
▁kot	-182
ari	-183
▁kapa	-184
ogo	-185
moy	-186
▁mi	-187
▁mang	-188
▁tamo	-189
Cris	-190
▁man	-191
▁Ka	-192
ar	-193
▁wan	-194
gat	-195
▁Hin	-196
▁T	-197
▁kamo	-198
▁An	-199
▁itaw	-200
kol	-201
tawan	-202
▁konla	-203
awa	-204
po	-205
tan	-206
▁kong	-207
ompol	-208
eli	-209
Cristo	-210
balita	-211
pon	-212
▁tawtawo	-213
▁Y	-214
yon	-215
▁kongko	-216
▁w	-217
ton	-218
orin	-219
▁kawka	-220
yo	-221
kay	-222
▁pigaw	-223
▁g	-224
elita	-225
raelita	-226
mag	-227
▁gaw	-228
▁pina	-229
▁wana	-230
gay	-231
▁maka	-232
▁tawo	-233
▁bon	-234
▁Katawan	-235
si	-236
▁Bi	-237
▁ba	-238
mb	-239
dti	-240
▁da	-241
ha	-242
olo	-243
▁paw	-244
▁angka	-245
▁ant	-246
▁iti	-247
ola	-248
▁baw	-249
▁naka	-250
▁anamaot	-251
alanan	-252
isi	-253
▁impa	-254
▁Israelita	-255
yari	-256
▁bongat	-257
▁[	-258
▁mas	-259
pto	-260
▁W	-261
tot	-262
▁pin	-263
way	-264
▁Nga	-265
bah	-266
kon	-267
▁Ma	-268
ing	-269
ongkol	-270
ob	-271
▁antompol	-272
▁nag	-273
▁nang	-274
▁lal	-275
▁Pa	-276
kom	-277
▁S	-278
▁lala	-279
salanan	-280
▁kala	-281
onol	-282
▁is	-283
▁kanya	-284
rito	-285
awanin	-286
ron	-287
▁pang	-288
▁hilan	-289
▁bab	-290
▁Yay	-291
▁labay	-292
ogoan	-293
▁tongkol	-294
alang	-295
▁Cristo	-296
▁yadtin	-297
aya	-298
pirito	-299
ibat	-300
▁moyon	-301
aral	-302
▁lay	-303
kot	-304
▁Hawanin	-305
imp	-306
no	-307
▁daw	-308
pag	-309
oloy	-310
▁Wan	-311
▁L	-312
▁ampag	-313
▁ampang	-314
▁par	-315
hal	-316
hi	-317
kala	-318
panogoan	-319
angga	-320
▁tamon	-321
og	-322
▁bawba	-323
▁moyoy	-324
dya	-325
sin	-326
▁Hi	-327
kin	-328
▁Mas	-329
▁kapara	-330
▁tin	-331
▁mai	-332
▁Na	-333
▁yadtaw	-334
anda	-335
▁komon	-336
abi	-337
dtin	-338
ilbi	-339
▁nokay	-340
▁koy	-341
▁tawon	-342
▁sa	-343
bin	-344
totpol	-345
▁katotpol	-346
ptog	-347
▁anggan	-348
ilangan	-349
main	-350
▁mon	-351
▁wa	-352
anaon	-353
oro	-354
▁dapat	-355
▁naor	-356
▁anorin	-357
dad	-358
isipol	-359
▁nakom	-360
▁li	-361
tamo	-362
gawa	-363
byay	-364
▁panaon	-365
▁'	-366
wanin	-367
▁hawanin	-368
haw	-369
mang	-370
rili	-371
▁kamon	-372
▁tanda	-373
kal	-374
isipolos	-375
▁anak	-376
▁biyay	-377
▁hika	-378
inwa	-379
alin	-380
?"	-381
▁Ju	-382
olat	-383
koy	-384
kaka	-385
lon	-386
orong	-387
er	-388
nak	-389
▁bin	-390
▁Ispirito	-391
▁No	-392
gawan	-393
mbawa	-394
▁tawtawon	-395
▁nil	-396
▁pro	-397
di	-398
▁ison	-399
ngo	-400
ed	-401
yimp	-402
▁doman	-403
tala	-404
▁syimp	-405
dan	-406
angit	-407
▁anan	-408
▁komo	-409
▁G	-410
▁ali	-411
ran	-412
dtaw	-413
▁nako	-414
tra	-415
yodad	-416
▁ibat	-417
▁wari	-418
▁yadti	-419
▁maw	-420
han	-421
▁langit	-422
▁hinoman	-423
gar	-424
anton	-425
ablo	-426
▁kami	-427
▁sarili	-428
asa	-429
▁syodad	-430
▁Masanton	-431
omo	-432
▁Am	-433
▁Pablo	-434
wayan	-435
pangyari	-436
▁balo	-437
▁bawbagay	-438
st	-439
▁Ama	-440
▁tot	-441
▁kawkapanogoan	-442
▁law	-443
▁kailangan	-444
oka	-445
▁din	-446
anggap	-447
pita	-448
won	-449
pangyarian	-450
▁ipa	-451
▁pari	-452
An	-453
awat	-454
▁bali	-455
▁lota	-456
otog	-457
▁ando	-458
▁laloma	-459
ho	-460
▁ampi	-461
Ma	-462
alih	-463
ring	-464
▁kan	-465
▁kapangyarian	-466
omwa	-467
honol	-468
▁labah	-469
▁syimpri	-470
▁La	-471
▁kalamo	-472
▁maptog	-473
▁tala	-474
nga	-475
▁wanan	-476
poon	-477
▁doka	-478
.'	-479
pya	-480
▁kla	-481
▁kamoy	-482
hil	-483
san	-484
▁Ya	-485
edro	-486
olan	-487
▁haw	-488
▁Pedro	-489
▁ginwa	-490
amb	-491
▁lako	-492
▁kali	-493
ila	-494
▁wani	-495
eo	-496
hogo	-497
▁awlo	-498
halita	-499
▁wanla	-500
pos	-501
tanda	-502
lala	-503
mbay	-504
em	-505
rbi	-506
tay	-507
ongo	-508
▁kaparan	-509
maka	-510
▁halita	-511
us	-512
olon	-513
▁Ha	-514
intin	-515
▁dawd	-516
▁ako	-517
▁ayon	-518
▁kontamo	-519
▁potog	-520
kan	-521
▁anya	-522
so	-523
sirbi	-524
▁balang	-525
▁babay	-526
bali	-527
▁pam	-528
talakaka	-529
▁lalaman	-530
▁klasin	-531
▁Sa	-532
omonol	-533
▁ga	-534
▁E	-535
▁]	-536
ambali	-537
▁Ari	-538
abigan	-539
▁tamoy	-540
▁ibalita	-541
dor	-542
alem	-543
▁Jer	-544
olatan	-545
gka	-546
usalem	-547
obat	-548
▁akon	-549
▁ano	-550
stang	-551
▁Juan	-552
▁Jerusalem	-553
▁pati	-554
ongkot	-555
mat	-556
don	-557
got	-558
ipa	-559
nan	-560
▁logar	-561
bins	-562
▁paralan	-563
tok	-564
▁min	-565
alngo	-566
kalato	-567
oyot	-568
pyas	-569
galan	-570
▁kaabigan	-571
▁lalaki	-572
▁maskin	-573
▁gawgawa	-574
▁probins	-575
ok	-576
rapat	-577
▁imbalita	-578
ongan	-579
▁naman	-580
▁kasalanan	-581
ist	-582
pin	-583
hon	-584
▁Kas	-585
pay	-586
▁taga	-587
▁pinaka	-588
▁laloman	-589
ea	-590
▁ampaka	-591
omato	-592
toring	-593
▁ngalan	-594
▁dawdisipolos	-595
▁om	-596
▁Main	-597
▁Kasolatan	-598
lin	-599
▁oman	-600
▁probinsyan	-601
mot	-602
dong	-603
▁Kay	-604
lay	-605
tol	-606
pari	-607
▁anay	-608
abot	-609
▁orin	-610
ibatan	-611
▁mak	-612
▁Balo	-613
▁mawma	-614
anga	-615
▁O	-616
abig	-617
▁hiko	-618
▁ampan	-619
▁Anorin	-620
▁ispirito	-621
bol	-622
ros	-623
▁inom	-624
▁pawpoon	-625
kop	-626
▁nati	-627
doka	-628
bon	-629
▁pan	-630
makay	-631
▁awit	-632
▁gawa	-633
alimbawa	-634
makayari	-635
▁po	-636
imbi	-637
▁Labah	-638
▁mondo	-639
ira	-640
rna	-641
son	-642
maki	-643
ir	-644
ismo	-645
tanggap	-646
gwa	-647
sak	-648
▁mab	-649
▁manga	-650
▁pangang	-651
▁Taw	-652
▁dawdoka	-653
▁totolon	-654
▁pat	-655
solat	-656
▁mako	-657
Pa	-658
op	-659
▁inti	-660
▁disipolos	-661
▁C	-662
tandaan	-663
▁nalngo	-664
Hi	-665
implo	-666
ptogan	-667
pangaral	-668
poy	-669
▁maari	-670
▁kawkasalanan	-671
mit	-672
pal	-673
▁In	-674
▁timplo	-675
dyan	-676
andaan	-677
▁Anak	-678
▁anghil	-679
anas	-680
▁magka	-681
▁babayi	-682
▁intiron	-683
ilin	-684
▁hos	-685
ako	-686
tawo	-687
postol	-688
patoloy	-689
bilbi	-690
ropita	-691
▁inimbi	-692
ia	-693
Yay	-694
▁mala	-695
▁mali	-696
▁Bana	-697
▁loway	-698
paka	-699
▁Balita	-700
ib	-701
moon	-702
▁ban	-703
pot	-704
▁awa	-705
gon	-706
ham	-707
▁Ambo	-708
▁komi	-709
▁mami	-710
▁anyay	-711
▁kapanogoan	-712
roka	-713
toro	-714
!"	-715
▁Ba	-716
▁Nag	-717
▁Tan	-718
▁Halita	-719
ni	-720
alib	-721
▁ika	-722
▁hikamoy	-723
▁nangyari	-724
big	-725
dani	-726
birna	-727
totol	-728
▁lomato	-729
birnador	-730
▁kaambali	-731
toy	-732
syon	-733
▁gro	-734
▁kata	-735
▁mata	-736
▁nami	-737
▁Wanan	-738
el	-739
▁al	-740
▁anggaw	-741
magsirbi	-742
biyay	-743
▁Wani	-744
▁anodti	-745
oto	-746
imala	-747
▁inhogo	-748
moan	-749
mpol	-750
rang	-751
▁isi	-752
▁mati	-753
mangan	-754
▁babalin	-755
bas	-756
▁Si	-757
▁anta	-758
▁talagan	-759
▁anggawan	-760
▁mangyari	-761
may	-762
war	-763
▁Mo	-764
▁bo	-765
▁Sat	-766
▁imp	-767
▁Satanas	-768
ilay	-769
▁anh	-770
bayan	-771
ilbian	-772
matyan	-773
▁Ab	-774
awit	-775
rapan	-776
▁maki	-777
mpa	-778
▁Wana	-779
▁mangan	-780
▁anyaka	-781
▁nakasolat	-782
ises	-783
▁hina	-784
▁paros	-785
▁Moises	-786
▁kalabayan	-787
bati	-788
mati	-789
▁pag	-790
ilikot	-791
simala	-792
▁si	-793
rokaan	-794
▁kamatyan	-795
git	-796
baba	-797
longo	-798
▁bagay	-799
▁gamot	-800
▁kamin	-801
▁yapon	-802
lalaman	-803
▁lalakin	-804
▁hinalita	-805
sins	-806
riseo	-807
▁pawp	-808
▁mabyay	-809
ayo	-810
▁bas	-811
▁naki	-812
▁angkabyay	-813
mba	-814
awon	-815
raham	-816
▁kana	-817
inakit	-818
▁Abraham	-819
▁kaptogan	-820
Ka	-821
▁Da	-822
ilipyas	-823
▁arapan	-824
noy	-825
rap	-826
yir	-827
omon	-828
dawat	-829
patna	-830
▁mama	-831
▁Tanda	-832
▁paibat	-833
▁tawtalakaka	-834
osis	-835
kalamoan	-836
ongwa	-837
Is	-838
▁anha	-839
▁tana	-840
▁bosis	-841
▁tatay	-842
postolis	-843
pis	-844
▁olo	-845
omoob	-846
labi	-847
nawan	-848
▁dinan	-849
intindyan	-850
▁halitaon	-851
▁F	-852
▁tina	-853
isipan	-854
▁nagpa	-855
▁ampaki	-856
▁alimbawa	-857
lamo	-858
mata	-859
▁pir	-860
▁akoy	-861
▁hiya	-862
▁nabyay	-863
▁propita	-864
kasalanan	-865
▁pamilbian	-866
.]	-867
Israelita	-868
bot	-869
▁ala	-870
▁ibi	-871
▁saw	-872
▁mahi	-873
▁marapat	-874
obirnador	-875
alimbawaan	-876
▁matanggap	-877
ero	-878
▁pay	-879
▁Hika	-880
▁angg	-881
▁kwar	-882
Pariseo	-883
▁Gobirnador	-884
vi	-885
▁sin	-886
abing	-887
▁Ando	-888
▁komoyon	-889
▁tinompol	-890
nin	-891
aypa	-892
itoy	-893
▁daan	-894
▁kros	-895
▁lipi	-896
▁binyan	-897
▁R	-898
tak	-899
lato	-900
▁odti	-901
▁awlon	-902
▁nadti	-903
▁makhaw	-904
▁totoro	-905
riso	-906
istro	-907
omawat	-908
▁Hilay	-909
▁alang	-910
▁hikamo	-911
▁anongkot	-912
dalo	-913
mako	-914
gotan	-915
kalngo	-916
▁lanom	-917
▁norong	-918
▁anhomonol	-919
▁Anti	-920
▁Hila	-921
▁hiyay	-922
▁konta	-923
▁ampama	-924
▁pangangaral	-925
omba	-926
▁ari	-927
▁Tawo	-928
▁magkamain	-929
en	-930
▁Aw	-931
ngap	-932
oloh	-933
▁ing	-934
koman	-935
▁paka	-936
▁babon	-937
▁ingat	-938
#2	-939
&#2	-940
omi	-941
▁kal	-942
sakit	-943
▁Pina	-944
▁lalo	-945
patandaan	-946
pati	-947
angan	-948
layan	-949
sondo	-950
▁ayti	-951
babaan	-952
▁anaor	-953
▁maski	-954
▁nanay	-955
pangako	-956
Hin	-957
papo	-958
▁asa	-959
▁gropo	-960
▁tambay	-961
▁tampol	-962
▁patoloy	-963
byon	-964
itan	-965
▁anl	-966
▁kin	-967
▁kaho	-968
▁toloy	-969
ih	-970
▁kari	-971
tambay	-972
▁labin	-973
▁pinastang	-974
▁Naglalaman	-975
kil	-976
sala	-977
▁Ano	-978
▁labi	-979
▁bilbi	-980
▁pinal	-981
rangalan	-982
alil	-983
alilea	-984
istron	-985
▁Yadti	-986
▁impagka	-987
].	-988
kotan	-989
▁Tongwa	-990
▁Galilea	-991
▁karapat	-992
▁mangang	-993
▁karokaan	-994
▁anyakaman	-995
Am	-996
et	-997
▁kor	-998
▁hino	-999
▁isip	-1000
▁odtin	-1001
▁pitoy	-1002
▁Yadtin	-1003
▁tinapay	-1004
▁kababaan	-1005
▁kanakoman	-1006
gro	-1007
has	-1008
ras	-1009
sta	-1010
▁and	-1011
radon	-1012
tipon	-1013
▁bato	-1014
▁daya	-1015
mainan	-1016
▁inomalih	-1017
▁kontamon	-1018
ayat	-1019
kali	-1020
yawan	-1021
▁nama	-1022
papoan	-1023
▁kontra	-1024
▁wanlan	-1025
▁nakalato	-1026
ac	-1027
wah	-1028
Ando	-1029
▁pon	-1030
omani	-1031
▁sang	-1032
▁anggomwa	-1033
▁hiladtin	-1034
▁kamainan	-1035
tog	-1036
hing	-1037
▁bal	-1038
arian	-1039
▁ikon	-1040
galang	-1041
▁gomwa	-1042
ibalita	-1043
▁katamo	-1044
▁pinili	-1045
▁pangibatan	-1046
,"	-1047
ad	-1048
Wana	-1049
aria	-1050
▁pol	-1051
halan	-1052
toklo	-1053
▁ipag	-1054
▁Simon	-1055
▁biyan	-1056
▁hawang	-1057
▁tompol	-1058
▁kaisipan	-1059
ag	-1060
gi	-1061
par	-1062
Hika	-1063
▁taon	-1064
bilang	-1065
▁Homin	-1066
▁Maria	-1067
▁lalon	-1068
itoring	-1069
titipon	-1070
bang	-1071
taya	-1072
▁pini	-1073
sinsya	-1074
▁hosto	-1075
▁maipa	-1076
▁pinang	-1077
▁kaligawan	-1078
oo	-1079
bok	-1080
vid	-1081
▁Im	-1082
hasay	-1083
tamoy	-1084
▁anla	-1085
▁kina	-1086
▁David	-1087
makiasa	-1088
▁madani	-1089
alibhasay	-1090
apostolis	-1091
▁impangako	-1092
mor	-1093
isip	-1094
alaga	-1095
riwon	-1096
▁hoyot	-1097
▁masya	-1098
▁Halban	-1099
▁Propita	-1100
▁mawmaistron	-1101
.'"	-1102
bri	-1103
omt	-1104
pir	-1105
bolta	-1106
▁apoy	-1107
▁oras	-1108
▁hikoy	-1109
▁malin	-1110
Katawan	-1111
mainawa	-1112
▁ampami	-1113
▁kalamoan	-1114
▁talakaka	-1115
▁pawpropita	-1116
▁kawkalamoan	-1117
No	-1118
dis	-1119
wis	-1120
dabo	-1121
ipon	-1122
mano	-1123
▁may	-1124
▁Roma	-1125
▁ayop	-1126
anghil	-1127
ringoy	-1128
▁Awlon	-1129
anggapon	-1130
boy	-1131
▁amp	-1132
ingat	-1133
loway	-1134
▁tama	-1135
▁inoma	-1136
▁odtaw	-1137
▁babayin	-1138
▁homonol	-1139
▁kaalimbawaan	-1140
gla	-1141
goga	-1142
khaw	-1143
▁mam	-1144
labay	-1145
inagoga	-1146
▁inganga	-1147
dam	-1148
▁og	-1149
ilig	-1150
angih	-1151
hakop	-1152
hiyay	-1153
ilato	-1154
▁Wanla	-1155
▁banal	-1156
honolon	-1157
intindi	-1158
▁Pilato	-1159
rni	-1160
olog	-1161
osga	-1162
omwah	-1163
▁Itaw	-1164
▁kaka	-1165
anakom	-1166
▁basta	-1167
▁mismo	-1168
▁babali	-1169
manglabi	-1170
▁Tawtalakaka	-1171
pas	-1172
▁Jos	-1173
boyot	-1174
▁poon	-1175
alagan	-1176
▁omnoy	-1177
Criston	-1178
▁nasyon	-1179
▁bawbabay	-1180
▁hiladtaw	-1181
Ya	-1182
ig	-1183
bal	-1184
non	-1185
bong	-1186
ling	-1187
▁dis	-1188
▁hay	-1189
▁kat	-1190
▁mis	-1191
bilin	-1192
wanan	-1193
▁Juda	-1194
▁lowa	-1195
▁Wanay	-1196
▁tinom	-1197
▁hitamoy	-1198
▁masakit	-1199
▁nangaral	-1200
▁anhonolon	-1201
▁karapatan	-1202
▁pinaorong	-1203
mil	-1204
abol	-1205
ompa	-1206
otismo	-1207
Anongkot	-1208
▁ampamoon	-1209
▁parosawan	-1210
▁makasalanan	-1211
bro	-1212
ipag	-1213
isti	-1214
mahi	-1215
bonan	-1216
▁anti	-1217
▁yabi	-1218
patnag	-1219
▁alila	-1220
▁inawit	-1221
▁maipag	-1222
▁Anodtaw	-1223
▁anlabyon	-1224
ani	-1225
ibi	-1226
lal	-1227
uti	-1228
win	-1229
▁di	-1230
Ambo	-1231
onan	-1232
paki	-1233
wari	-1234
magka	-1235
oroka	-1236
yirno	-1237
▁Hero	-1238
▁dios	-1239
lalaki	-1240
▁magan	-1241
▁panging	-1242
▁labinloway	-1243
pil	-1244
lili	-1245
omok	-1246
rono	-1247
tind	-1248
▁ayi	-1249
▁anto	-1250
▁polo	-1251
Maistro	-1252
▁pangongo	-1253
▁panganggawan	-1254
aron	-1255
olok	-1256
sari	-1257
tawad	-1258
omalan	-1259
▁hilap	-1260
▁nilom	-1261
halitaon	-1262
▁Hikamoy	-1263
▁Hinoman	-1264
▁makapag	-1265
Kay	-1266
hol	-1267
pik	-1268
▁naw	-1269
pamin	-1270
▁kano	-1271
utista	-1272
▁konay	-1273
▁trono	-1274
sondoan	-1275
▁alipon	-1276
▁ogotan	-1277
▁Bautista	-1278
tor	-1279
wat	-1280
Dios	-1281
awlo	-1282
otol	-1283
▁Eli	-1284
▁abig	-1285
▁pino	-1286
▁nagka	-1287
ngamati	-1288
▁patyon	-1289
makalato	-1290
ronongan	-1291
ipangaral	-1292
▁palibhasay	-1293
▁angkaintindyan	-1294
des	-1295
lig	-1296
▁Ta	-1297
iton	-1298
▁tom	-1299
ontra	-1300
pitan	-1301
polon	-1302
tawon	-1303
▁Jose	-1304
ayaman	-1305
swayan	-1306
▁hakop	-1307
▁lawah	-1308
▁lawlo	-1309
▁kwarta	-1310
▁ampango	-1311
▁kaliswayan	-1312
por	-1313
▁it	-1314
arap	-1315
dios	-1316
toyn	-1317
▁Ber	-1318
▁mah	-1319
kalma	-1320
winta	-1321
omoklo	-1322
▁parti	-1323
▁naibat	-1324
inakitan	-1325
▁dinomani	-1326
▁hawhalita	-1327
▁ampanalita	-1328
▁karangalan	-1329
▁pinakapoon	-1330
ayah	-1331
miton	-1332
salamat	-1333
▁baloto	-1334
▁impaki	-1335
Ha	-1336
co	-1337
tri	-1338
alot	-1339
▁Ang	-1340
▁Isa	-1341
▁Mag	-1342
▁lom	-1343
lingo	-1344
ogali	-1345
▁biig	-1346
▁kodti	-1347
▁lawla	-1348
▁malipyas	-1349
▁nilomoob	-1350
▁syimprin	-1351
▁karonongan	-1352
▁pinakamata	-1353
hob	-1354
yat	-1355
handa	-1356
ispan	-1357
manda	-1358
▁Feli	-1359
▁bara	-1360
▁bola	-1361
alotoy	-1362
▁pawpa	-1363
▁nanogo	-1364
▁Herodes	-1365
▁makamon	-1366
▁malinis	-1367
nab	-1368
&#22	-1369
abay	-1370
hado	-1371
ilap	-1372
olay	-1373
pali	-1374
rael	-1375
▁amo	-1376
▁dob	-1377
pirmi	-1378
priso	-1379
diosan	-1380
▁bigla	-1381
▁wamoy	-1382
▁sangka	-1383
ongkolan	-1384
simalaan	-1385
▁balitok	-1386
▁mangangaral	-1387
dea	-1388
sag	-1389
▁ti	-1390
rniro	-1391
hawang	-1392
kontra	-1393
omamba	-1394
▁Judas	-1395
▁Judea	-1396
▁impag	-1397
▁ogali	-1398
pangyay	-1399
▁kwinta	-1400
▁bokotan	-1401
▁kalakan	-1402
magkatawo	-1403
▁nanalita	-1404
▁nangibat	-1405
▁katongkolan	-1406
gos	-1407
lok	-1408
rom	-1409
wit	-1410
anti	-1411
kati	-1412
dyaan	-1413
koyon	-1414
lahan	-1415
▁inta	-1416
▁lawli	-1417
hondalo	-1418
rosawan	-1419
▁lawlal	-1420
anabonan	-1421
milipyas	-1422
ombabali	-1423
patnagan	-1424
▁mangaral	-1425
▁antokoyon	-1426
bya	-1427
ulo	-1428
yim	-1429
▁go	-1430
▁ho	-1431
▁ki	-1432
lako	-1433
polo	-1434
tlon	-1435
▁bob	-1436
awali	-1437
ingka	-1438
▁Impa	-1439
▁bini	-1440
▁loob	-1441
roroka	-1442
▁bonga	-1443
▁lamang	-1444
▁Masbali	-1445
▁malabong	-1446
▁makamondo	-1447
▁anhalitaon	-1448
▁impatandaan	-1449
▁ampangibatan	-1450
mal	-1451
oya	-1452
Mako	-1453
baho	-1454
nabe	-1455
poti	-1456
▁gin	-1457
▁hon	-1458
▁kas	-1459
hompa	-1460
rowan	-1461
▁alak	-1462
iliwon	-1463
onolon	-1464
▁Konan	-1465
▁pirmi	-1466
▁Israel	-1467
▁Wanlan	-1468
▁morong	-1469
▁Bernabe	-1470
▁anodtin	-1471
▁hondalo	-1472
kalilikot	-1473
pe	-1474
kor	-1475
Anya	-1476
alos	-1477
hira	-1478
inom	-1479
irap	-1480
kbat	-1481
lind	-1482
onia	-1483
▁hob	-1484
alako	-1485
aloob	-1486
biyan	-1487
▁obat	-1488
magdya	-1489
▁bakil	-1490
▁bandan	-1491
▁dobali	-1492
▁kapapo	-1493
▁nagawa	-1494
▁omalih	-1495
▁wamoyo	-1496
lindayat	-1497
▁lawlogar	-1498
▁magtanda	-1499
pangyayari	-1500
▁kasondoan	-1501
bl	-1502
ago	-1503
▁ri	-1504
kaso	-1505
▁mal	-1506
▁ola	-1507
▁pal	-1508
intri	-1509
noman	-1510
▁Hiko	-1511
▁Oyay	-1512
▁kada	-1513
inghan	-1514
▁bolag	-1515
▁lopot	-1516
kalabah	-1517
▁niabot	-1518
▁pinati	-1519
▁nagkamain	-1520
▁hawhondalo	-1521
44	-1522
Bi	-1523
mis	-1524
▁Lo	-1525
Main	-1526
glig	-1527
itil	-1528
lano	-1529
libo	-1530
plon	-1531
robl	-1532
ooban	-1533
▁Lako	-1534
▁bang	-1535
▁pami	-1536
ayagan	-1537
intins	-1538
▁Santi	-1539
▁angga	-1540
▁daoto	-1541
▁datin	-1542
limbawa	-1543
tindyan	-1544
▁ayhing	-1545
▁magawa	-1546
▁honolon	-1547
▁masbali	-1548
▁sinolat	-1549
▁ampanglongo	-1550
▁maintindyan	-1551
doy	-1552
ord	-1553
ria	-1554
tar	-1555
▁Ni	-1556
ilya	-1557
toon	-1558
▁gra	-1559
manan	-1560
▁ling	-1561
pangan	-1562
▁ambay	-1563
▁bowis	-1564
▁lolog	-1565
▁tanay	-1566
payabol	-1567
▁mismon	-1568
▁pamomo	-1569
▁parosa	-1570
▁malabay	-1571
▁Anongkot	-1572
▁Santiago	-1573
▁impyirno	-1574
▁makalato	-1575
▁impanakom	-1576
▁maitoring	-1577
Na	-1578
lak	-1579
ona	-1580
▁Ti	-1581
boan	-1582
bori	-1583
igwa	-1584
isis	-1585
alimo	-1586
banal	-1587
gawon	-1588
pikna	-1589
samba	-1590
▁Kina	-1591
▁mato	-1592
oloyan	-1593
▁doloh	-1594
asasari	-1595
konwari	-1596
▁Bilang	-1597
▁angkom	-1598
▁gropon	-1599
▁liglig	-1600
▁anggano	-1601
▁sinagoga	-1602
ng	-1603
lag	-1604
nas	-1605
▁Ca	-1606
golo	-1607
idor	-1608
osta	-1609
siho	-1610
taan	-1611
▁kol	-1612
▁nai	-1613
holot	-1614
kitan	-1615
oroan	-1616
toloy	-1617
▁Amen	-1618
▁Naka	-1619
▁kalo	-1620
panomt	-1621
yimbro	-1622
▁dalan	-1623
▁hinoy	-1624
goradon	-1625
intriga	-1626
traidor	-1627
▁Felipe	-1628
▁anaman	-1629
▁imbati	-1630
alimokor	-1631
▁domawat	-1632
▁masyado	-1633
▁naboyot	-1634
▁inomabig	-1635
▁magpatoloy	-1636
:"	-1637
oh	-1638
44;	-1639
mas	-1640
▁ar	-1641
para	-1642
samb	-1643
▁Kord	-1644
&#244;	-1645
amanan	-1646
bangon	-1647
damsak	-1648
irapan	-1649
nasyon	-1650
ronong	-1651
tangih	-1652
▁isipon	-1653
▁lomoob	-1654
▁Kordero	-1655
▁konsiho	-1656
▁ampangan	-1657
▁manalita	-1658
▁nilooban	-1659
▁tinanggap	-1660
▁pangingintindi	-1661
iba	-1662
lah	-1663
oli	-1664
▁oy	-1665
aran	-1666
imot	-1667
oson	-1668
siwa	-1669
▁bar	-1670
▁gol	-1671
▁ina	-1672
gipto	-1673
▁bina	-1674
▁pain	-1675
alipon	-1676
antawo	-1677
imoteo	-1678
▁Saulo	-1679
▁boboy	-1680
▁kanon	-1681
▁ladti	-1682
▁pinag	-1683
bibilin	-1684
▁gawgro	-1685
▁hobhob	-1686
baotismo	-1687
▁Ibalita	-1688
▁ampanga	-1689
sinsyawan	-1690
▁antimano	-1691
▁kasogoan	-1692
panomtoman	-1693
],	-1694
aliw	-1695
▁Pis	-1696
ipaki	-1697
laban	-1698
pinta	-1699
ralan	-1700
▁Hiya	-1701
▁long	-1702
▁saws	-1703
▁yapo	-1704
awaton	-1705
morong	-1706
tindin	-1707
▁halos	-1708
▁likol	-1709
▁nanga	-1710
▁solat	-1711
Hawanin	-1712
Hikamoy	-1713
ngasiwa	-1714
▁Egipto	-1715
▁tawtot	-1716
sagradon	-1717
▁tambayan	-1718
▁Kailangan	-1719
▁anyakamay	-1720
▁impangaral	-1721
▁nangasasari	-1722
bog	-1723
ias	-1724
mak	-1725
aloy	-1726
isan	-1727
▁kar	-1728
alabi	-1729
▁oyay	-1730
alibri	-1731
olohan	-1732
omikol	-1733
▁ipaki	-1734
▁kalin	-1735
▁laman	-1736
orongon	-1737
▁alihon	-1738
▁impapi	-1739
▁pontin	-1740
▁moyodti	-1741
palilikot	-1742
▁matindin	-1743
▁manglongo	-1744
▁nakatoklo	-1745
▁tanggapon	-1746
▁ampangaral	-1747
▁pinanabonan	-1748
eb	-1749
ita	-1750
kob	-1751
▁to	-1752
dila	-1753
omay	-1754
▁Pin	-1755
itoro	-1756
kinab	-1757
mowan	-1758
▁bino	-1759
▁ikal	-1760
▁ilig	-1761
maptog	-1762
rangal	-1763
▁Angka	-1764
▁Nokay	-1765
▁bisis	-1766
▁priso	-1767
ogalian	-1768
tawaron	-1769
▁Pistan	-1770
▁pirmin	-1771
▁Timoteo	-1772
▁angkali	-1773
▁bangkay	-1774
▁maalaga	-1775
▁pahakop	-1776
▁pangako	-1777
▁inomdong	-1778
▁magandan	-1779
▁magbiyay	-1780
▁alindayat	-1781
▁bawbabayi	-1782
▁hinomonol	-1783
▁kayamanan	-1784
▁nawnasyon	-1785
▁ampakapamin	-1786
bag	-1787
Hiko	-1788
alog	-1789
ikon	-1790
iliw	-1791
▁oba	-1792
▁pri	-1793
nodon	-1794
yirto	-1795
▁mabli	-1796
▁panga	-1797
▁tawta	-1798
Hinoman	-1799
dilapan	-1800
▁hitamo	-1801
▁obasan	-1802
▁gamiton	-1803
▁ilipyas	-1804
▁pastang	-1805
▁disyirto	-1806
▁kabilang	-1807
▁kalotaan	-1808
▁lawlabah	-1809
▁apostolis	-1810
▁lawlalaki	-1811
▁pinangibatan	-1812
roy	-1813
▁Po	-1814
hako	-1815
migo	-1816
pisa	-1817
▁oma	-1818
ilyon	-1819
lagro	-1820
manok	-1821
ripis	-1822
▁maan	-1823
▁pala	-1824
bantay	-1825
istigo	-1826
pariho	-1827
pyasan	-1828
▁bolan	-1829
▁ingka	-1830
▁polta	-1831
analita	-1832
bilbion	-1833
hakopan	-1834
trabaho	-1835
▁Maskin	-1836
▁awiton	-1837
▁golpin	-1838
▁hikami	-1839
▁nayari	-1840
▁tatala	-1841
sakripis	-1842
▁biliwon	-1843
▁manosga	-1844
▁pawpari	-1845
▁sintins	-1846
▁maronong	-1847
▁ambilbion	-1848
▁kalipyasan	-1849
,'	-1850
ec	-1851
hag	-1852
raw	-1853
sis	-1854
▁ab	-1855
abri	-1856
alig	-1857
aret	-1858
dayo	-1859
sora	-1860
toya	-1861
▁kai	-1862
Kanya	-1863
libol	-1864
▁ampo	-1865
▁gina	-1866
▁kaon	-1867
▁nana	-1868
ingkap	-1869
▁handa	-1870
▁plano	-1871
ispanta	-1872
▁kaling	-1873
▁mapoti	-1874
magbiyay	-1875
maotismo	-1876
pasinsya	-1877
robloman	-1878
▁Patoloy	-1879
▁apostol	-1880
▁kapitan	-1881
▁mahonol	-1882
▁mayaman	-1883
▁ampagbiyay	-1884
▁naintindyan	-1885
▁pangongokom	-1886
Kot	-1887
law	-1888
rit	-1889
acob	-1890
alsa	-1891
ayam	-1892
goro	-1893
abori	-1894
aghaw	-1895
aliti	-1896
awang	-1897
bagat	-1898
mpapo	-1899
▁hawh	-1900
▁mawm	-1901
abolan	-1902
dasyon	-1903
panogo	-1904
▁Elias	-1905
▁Jacob	-1906
▁balin	-1907
toynong	-1908
▁ampana	-1909
▁intoro	-1910
▁Antipas	-1911
▁ikaabig	-1912
▁lawlipi	-1913
▁pinalsa	-1914
▁Antimano	-1915
▁kanaboan	-1916
▁ipangaral	-1917
pasinsyawan	-1918
aro	-1919
eso	-1920
nom	-1921
balo	-1922
alamo	-1923
ginwa	-1924
matan	-1925
takda	-1926
▁inda	-1927
▁obas	-1928
▁paot	-1929
bongan	-1930
isipon	-1931
khawon	-1932
toroan	-1933
▁dawdi	-1934
▁ibati	-1935
▁komin	-1936
lilihan	-1937
patawad	-1938
magsamba	-1939
▁kaarian	-1940
▁kwartan	-1941
makalabah	-1942
▁dinomawat	-1943
▁gawgropon	-1944
▁kalimpapo	-1945
▁paorongon	-1946
▁patawaron	-1947
▁ampagsirbi	-1948
▁ampangyari	-1949
▁ampasimala	-1950
▁bawbabayin	-1951
▁karobloman	-1952
?'	-1953
loy	-1954
pah	-1955
tos	-1956
yti	-1957
▁Ef	-1958
bayi	-1959
lang	-1960
oron	-1961
▁amb	-1962
▁ris	-1963
Homin	-1964
gamit	-1965
isyon	-1966
krito	-1967
otbot	-1968
pagal	-1969
▁Ampa	-1970
▁Inom	-1971
▁apos	-1972
▁mita	-1973
▁toma	-1974
batwan	-1975
edonia	-1976
osondo	-1977
plonon	-1978
▁Isaac	-1979
▁bawal	-1980
▁kowon	-1981
▁minom	-1982
▁hoston	-1983
▁nangan	-1984
balitaan	-1985
pintasan	-1986
▁pamilya	-1987
makalibri	-1988
salamatan	-1989
▁Alimbawa	-1990
▁pamomori	-1991
pasimalaan	-1992
▁konsinsya	-1993
▁sigoradon	-1994
▁tawtotoro	-1995
▁matoantawo	-1996
▁angkomontra	-1997
!'	-1998
ilo	-1999
rik	-2000
ril	-2001
sar	-2002
ayon	-2003
ayop	-2004
ista	-2005
▁Mac	-2006
▁raw	-2007
dawan	-2008
doloh	-2009
gasan	-2010
omali	-2011
tinto	-2012
tokso	-2013
▁Nako	-2014
▁aral	-2015
▁inli	-2016
▁mika	-2017
wawali	-2018
▁Efeso	-2019
▁altar	-2020
▁laban	-2021
▁makon	-2022
▁wanay	-2023
aborido	-2024
galotoy	-2025
pariril	-2026
▁hakala	-2027
▁konlay	-2028
▁lomwah	-2029
▁pawpin	-2030
▁Ninghan	-2031
▁anodtaw	-2032
▁katamon	-2033
▁komoyoy	-2034
▁poriwon	-2035
▁paraliti	-2036
▁Macedonia	-2037
▁ampanglabi	-2038
▁kawkarniro	-2039
▁impagpatoloy	-2040
cia	-2041
oso	-2042
uia	-2043
Hino	-2044
liga	-2045
mola	-2046
rado	-2047
▁Iti	-2048
▁lim	-2049
▁lol	-2050
▁tob	-2051
ganan	-2052
ombok	-2053
rilih	-2054
riton	-2055
sakon	-2056
sawan	-2057
▁Maka	-2058
▁Nang	-2059
▁dati	-2060
▁mana	-2061
idawat	-2062
kolang	-2063
sarili	-2064
tonsis	-2065
▁Antio	-2066
▁Ginwa	-2067
▁Komon	-2068
▁bowat	-2069
▁holok	-2070
▁ihogo	-2071
▁kayon	-2072
▁mawmi	-2073
istawan	-2074
▁hinoma	-2075
▁mapolo	-2076
kinabang	-2077
parihado	-2078
paringoy	-2079
▁itoring	-2080
▁intatala	-2081
▁prisowan	-2082
▁lawlaloma	-2083
▁ampakalngo	-2084
▁ampamaptog	-2085
▁nagpatoloy	-2086
Wan	-2087
byo	-2088
evi	-2089
kat	-2090
res	-2091
ste	-2092
bron	-2093
loan	-2094
noro	-2095
stol	-2096
▁Hay	-2097
▁Mar	-2098
▁Nil	-2099
Yadti	-2100
maria	-2101
tinok	-2102
▁Adan	-2103
▁Este	-2104
▁Levi	-2105
▁Mang	-2106
alidad	-2107
anggit	-2108
bantog	-2109
isolat	-2110
lalako	-2111
▁Hiyay	-2112
▁Labay	-2113
▁bawbo	-2114
▁kadya	-2115
▁lolom	-2116
▁panon	-2117
▁pilak	-2118
▁Pinaka	-2119
▁dawdya	-2120
▁idawat	-2121
▁mabyat	-2122
damsakon	-2123
hawangan	-2124
▁Samaria	-2125
▁ambiyan	-2126
▁ginomwa	-2127
▁ikatlon	-2128
moralidad	-2129
▁bawbanal	-2130
▁magsirbi	-2131
▁marangal	-2132
▁moyodtin	-2133
▁pinaabig	-2134
▁imparalan	-2135
▁tinomoklo	-2136
sakripisyon	-2137
▁gobirnador	-2138
▁mamibalita	-2139
▁pananalita	-2140
▁antanggapon	-2141
▁nanalimokor	-2142
▁sawsinagoga	-2143
Iya	-2144
hoy	-2145
awal	-2146
esar	-2147
mpar	-2148
▁Mel	-2149
▁ans	-2150
▁hom	-2151
alila	-2152
angon	-2153
gayan	-2154
lilih	-2155
maton	-2156
olayo	-2157
pasak	-2158
rawat	-2159
▁Anya	-2160
▁dina	-2161
▁kama	-2162
▁kayo	-2163
aralan	-2164
bantak	-2165
okloan	-2166
omilbi	-2167
sigoro	-2168
sikaso	-2169
▁Bakil	-2170
▁hikay	-2171
▁kinwa	-2172
▁klasi	-2173
▁konli	-2174
▁koron	-2175
▁otang	-2176
abriyan	-2177
omtomon	-2178
parihon	-2179
▁Paibat	-2180
▁kolang	-2181
▁lingon	-2182
▁nangwa	-2183
▁tongwa	-2184
▁Maistro	-2185
▁Makalma	-2186
▁maboyot	-2187
▁parihon	-2188
▁dawdikot	-2189
▁intoring	-2190
▁mabotbot	-2191
▁magbolta	-2192
▁nilomwah	-2193
▁pinakama	-2194
▁Pinastang	-2195
▁mananggap	-2196
▁mangairap	-2197
▁nititipon	-2198
▁namibalita	-2199
▁Kinadilapan	-2200
▁Kaalimbawaan	-2201
um	-2202
kwa	-2203
lom	-2204
moh	-2205
pno	-2206
▁gi	-2207
awka	-2208
ghaw	-2209
inga	-2210
omas	-2211
rosa	-2212
▁bay	-2213
▁tri	-2214
Anyay	-2215
basta	-2216
kogit	-2217
mpolo	-2218
omobo	-2219
paran	-2220
rimon	-2221
▁kawk	-2222
omosta	-2223
▁libri	-2224
▁limay	-2225
▁manok	-2226
Ibalita	-2227
ostawon	-2228
▁Anodti	-2229
▁inigwa	-2230
paptogan	-2231
rimonyan	-2232
▁dalanan	-2233
▁domalan	-2234
▁ginamit	-2235
▁mawmain	-2236
▁somamba	-2237
toynongan	-2238
▁aboloyan	-2239
▁maiparis	-2240
▁nakalngo	-2241
▁nilomato	-2242
▁pakhawon	-2243
▁ingkatawo	-2244
▁kawkarokaan	-2245
▁makatanggap	-2246
loh	-2247
sia	-2248
▁ol	-2249
hila	-2250
mili	-2251
pira	-2252
siya	-2253
▁Bin	-2254
▁Din	-2255
▁Lib	-2256
▁dan	-2257
▁ida	-2258
▁mil	-2259
agwan	-2260
gwaan	-2261
oloan	-2262
omtog	-2263
yonan	-2264
▁Asia	-2265
▁igos	-2266
▁kaga	-2267
aloyon	-2268
asahan	-2269
palbag	-2270
tingka	-2271
▁ampam	-2272
▁tiyan	-2273
golowan	-2274
rompita	-2275
tindyon	-2276
▁Isaias	-2277
▁grabin	-2278
sambawan	-2279
▁Esteban	-2280
▁Poriwon	-2281
▁Talagan	-2282
▁ikalwan	-2283
▁intakda	-2284
▁painsan	-2285
▁tomoklo	-2286
otismowan	-2287
▁Imbalita	-2288
▁kahakopan	-2289
▁nakapriso	-2290
▁ipatandaan	-2291
▁kalabongan	-2292
▁kaparosawan	-2293
le	-2294
re	-2295
Mag	-2296
Mas	-2297
asi	-2298
ida	-2299
mpo	-2300
oni	-2301
per	-2302
ram	-2303
syo	-2304
wak	-2305
apos	-2306
bayo	-2307
daog	-2308
ilas	-2309
raon	-2310
▁Bet	-2311
▁Tin	-2312
bokon	-2313
toral	-2314
▁mipa	-2315
esarea	-2316
▁Maski	-2317
▁Potog	-2318
▁Silas	-2319
▁nobyo	-2320
▁pibot	-2321
▁pinan	-2322
ibilang	-2323
▁Libron	-2324
▁itsora	-2325
▁lampar	-2326
▁maliga	-2327
▁tobalo	-2328
masimala	-2329
tambayan	-2330
▁Cesarea	-2331
▁dawaton	-2332
▁impasak	-2333
▁koronil	-2334
▁tinipon	-2335
galotoyan	-2336
▁nagbolta	-2337
▁namihogo	-2338
▁trompita	-2339
angailangan	-2340
▁lawlaloman	-2341
▁magtraidor	-2342
▁pibotlayan	-2343
▁sirimonyan	-2344
▁kalinggasan	-2345
▁magkaambali	-2346
▁manganggawan	-2347
▁sintinsyawan	-2348
".	-2349
:'	-2350
yal	-2351
Ayti	-2352
alak	-2353
ayno	-2354
ayos	-2355
mami	-2356
ming	-2357
naum	-2358
otan	-2359
▁bot	-2360
▁gob	-2361
▁kam	-2362
▁nal	-2363
▁tol	-2364
Tanda	-2365
odong	-2366
tiboy	-2367
▁angk	-2368
▁dani	-2369
▁opis	-2370
▁palo	-2371
bastan	-2372
ompolo	-2373
paabig	-2374
pantay	-2375
poolan	-2376
▁Ampag	-2377
▁Caper	-2378
▁dawat	-2379
▁kohaw	-2380
▁laloy	-2381
▁mamin	-2382
▁panin	-2383
▁pista	-2384
▁rawri	-2385
▁rilih	-2386
anyatos	-2387
dimanda	-2388
ostinto	-2389
palayah	-2390
▁Anggan	-2391
▁Balang	-2392
▁balita	-2393
▁dalaga	-2394
▁mairap	-2395
▁malngo	-2396
▁naabot	-2397
▁pawpar	-2398
▁Tandaan	-2399
▁anyamay	-2400
▁hobokon	-2401
▁karniro	-2402
▁makalog	-2403
▁mawmaka	-2404
▁natoral	-2405
▁palasyo	-2406
▁pangong	-2407
▁Intonsis	-2408
▁kaloloan	-2409
▁masyadon	-2410
makahalita	-2411
parangalan	-2412
▁Capernaum	-2413
▁ambomilbi	-2414
▁andomawat	-2415
▁binokotan	-2416
▁makapamin	-2417
▁pastangon	-2418
▁sawsarili	-2419
▁imoralidad	-2420
▁ampananggap	-2421
▁ampagsambawan	-2422
▁makapangyayari	-2423
ika	-2424
lop	-2425
uis	-2426
wil	-2427
alay	-2428
gwar	-2429
ilan	-2430
kpon	-2431
pori	-2432
tigo	-2433
▁lin	-2434
▁san	-2435
▁tra	-2436
amigo	-2437
angal	-2438
dapat	-2439
dyaon	-2440
homin	-2441
ilyan	-2442
masco	-2443
matin	-2444
miasa	-2445
minto	-2446
parah	-2447
ponan	-2448
poyan	-2449
singa	-2450
▁Pari	-2451
▁igwa	-2452
▁kahi	-2453
▁lopa	-2454
▁pono	-2455
alatay	-2456
ibilin	-2457
omipay	-2458
tayaan	-2459
▁Kawka	-2460
▁bawbi	-2461
▁danin	-2462
▁habot	-2463
▁mahos	-2464
▁makwa	-2465
alangan	-2466
milbian	-2467
paglako	-2468
▁bastan	-2469
▁bitoon	-2470
▁domani	-2471
▁hostoy	-2472
▁kawkan	-2473
▁maaypa	-2474
▁mangab	-2475
▁mayari	-2476
▁talaga	-2477
ibilinan	-2478
▁Damasco	-2479
▁bolohan	-2480
▁disipol	-2481
▁ibantak	-2482
▁katamoy	-2483
▁myimbro	-2484
▁payabol	-2485
makatinok	-2486
tingkapon	-2487
▁disnodon	-2488
▁kawkadya	-2489
▁rilihyon	-2490
▁tinoroan	-2491
▁intindyon	-2492
▁nilomikol	-2493
▁nilomolan	-2494
▁Masagradon	-2495
▁ampagpirmi	-2496
▁mawmilagro	-2497
▁pakinabang	-2498
▁pawpayabol	-2499
▁pangingisip	-2500
Om	-2501
am	-2502
od	-2503
har	-2504
kos	-2505
oti	-2506
reo	-2507
sor	-2508
toh	-2509
▁as	-2510
alis	-2511
edec	-2512
ilaw	-2513
loko	-2514
mori	-2515
obok	-2516
osob	-2517
pala	-2518
▁And	-2519
▁ita	-2520
acari	-2521
binsi	-2522
iraan	-2523
lapot	-2524
mayar	-2525
milan	-2526
onaoy	-2527
ritso	-2528
towan	-2529
▁Anta	-2530
▁gwar	-2531
▁hogo	-2532
▁inga	-2533
▁olay	-2534
▁prim	-2535
▁tolo	-2536
abigon	-2537
diskos	-2538
knawan	-2539
ompisa	-2540
ptogon	-2541
takwil	-2542
▁dawda	-2543
▁kilaw	-2544
▁libro	-2545
▁pinon	-2546
acarias	-2547
ibangon	-2548
pirador	-2549
ramilan	-2550
tamolaw	-2551
uisedec	-2552
▁bantog	-2553
▁maalih	-2554
▁partin	-2555
▁pinami	-2556
▁poltan	-2557
kaambali	-2558
maroroka	-2559
▁anyaman	-2560
▁bawbato	-2561
▁ipapati	-2562
▁kawkama	-2563
▁palokob	-2564
▁pawpang	-2565
▁tandaan	-2566
▁tawtaga	-2567
misosondo	-2568
▁Kabatwan	-2569
▁ampanoro	-2570
▁antoroan	-2571
▁hosgawon	-2572
▁makaloob	-2573
▁mapatnag	-2574
▁pinalsan	-2575
▁andomalan	-2576
▁angkaibat	-2577
▁kaogalian	-2578
▁matoynong	-2579
▁antiplonon	-2580
▁impabalita	-2581
▁magkasalanan	-2582
▁mangombabali	-2583
▁ampagkasalanan	-2584
",	-2585
Po	-2586
Si	-2587
amo	-2588
igo	-2589
iro	-2590
pak	-2591
ryo	-2592
sya	-2593
wag	-2594
yor	-2595
▁Ac	-2596
away	-2597
ayag	-2598
basa	-2599
esto	-2600
nong	-2601
okat	-2602
pora	-2603
▁kaa	-2604
Wanan	-2605
banan	-2606
gogwa	-2607
goloy	-2608
kanta	-2609
linis	-2610
nowan	-2611
pilit	-2612
ranas	-2613
rongo	-2614
tindi	-2615
▁Hino	-2616
▁Tito	-2617
▁baba	-2618
▁paki	-2619
alikol	-2620
banglo	-2621
inggit	-2622
otolon	-2623
▁Festo	-2624
▁Solat	-2625
▁kahal	-2626
▁kapag	-2627
▁losob	-2628
▁tanan	-2629
▁trigo	-2630
hominan	-2631
▁Hikamo	-2632
▁baryon	-2633
▁dakpon	-2634
▁mahira	-2635
▁miabot	-2636
▁naalih	-2637
▁ampamin	-2638
▁bilbion	-2639
▁gwardya	-2640
▁kagogwa	-2641
▁makalma	-2642
▁payagan	-2643
▁talagay	-2644
▁tinotol	-2645
▁magpirmi	-2646
▁nibantog	-2647
▁pinalsay	-2648
▁tinomobo	-2649
▁binanggit	-2650
▁naiknawan	-2651
▁namastang	-2652
▁pinayagan	-2653
▁kapintasan	-2654
▁makatambay	-2655
▁pangaponan	-2656
magkasalanan	-2657
▁kagalotoyan	-2658
▁ampasimalaan	-2659
▁angkalilikot	-2660
▁nagkasalanan	-2661
at	-2662
ale	-2663
bir	-2664
bit	-2665
ego	-2666
mpi	-2667
ray	-2668
Oyay	-2669
bwat	-2670
haol	-2671
idad	-2672
ilyo	-2673
kaba	-2674
raan	-2675
sada	-2676
tika	-2677
yoma	-2678
▁Bab	-2679
▁Ipa	-2680
▁Jor	-2681
▁aso	-2682
▁gom	-2683
▁opa	-2684
▁sar	-2685
▁sob	-2686
Labay	-2687
alino	-2688
aynop	-2689
bisti	-2690
bolos	-2691
hoyot	-2692
inyor	-2693
olong	-2694
panon	-2695
rason	-2696
riego	-2697
sabay	-2698
▁Bara	-2699
▁asno	-2700
▁aypa	-2701
▁imba	-2702
▁ispa	-2703
▁libo	-2704
▁lima	-2705
▁nali	-2706
▁nipa	-2707
▁noli	-2708
▁pama	-2709
▁sari	-2710
inamba	-2711
kabyay	-2712
mabayi	-2713
monmon	-2714
▁Anyay	-2715
▁grabi	-2716
▁howis	-2717
▁magpa	-2718
▁namal	-2719
▁payti	-2720
▁tawoy	-2721
▁tilan	-2722
▁tipon	-2723
bayaran	-2724
handaan	-2725
ilingan	-2726
lalakin	-2727
misawan	-2728
▁Angkom	-2729
▁Jordan	-2730
▁Kalamo	-2731
▁ampako	-2732
▁botlay	-2733
▁impang	-2734
▁mismoy	-2735
▁omabig	-2736
▁pastol	-2737
▁tomgon	-2738
milalabi	-2739
sambawon	-2740
▁ampagka	-2741
▁aytimay	-2742
▁bibilin	-2743
▁hinonol	-2744
▁kongkoy	-2745
▁konwari	-2746
▁mabitil	-2747
▁makapoy	-2748
▁maparah	-2749
▁matokso	-2750
▁nakapag	-2751
▁sangkal	-2752
▁sarilin	-2753
▁Hiladtaw	-2754
▁anlalako	-2755
▁bawbolag	-2756
▁mangibat	-2757
▁Impirador	-2758
▁ansomamba	-2759
▁matibolos	-2760
▁Palibhasay	-2761
▁lawlalakin	-2762
▁paralitiko	-2763
▁binibilinan	-2764
▁ampagkonwari	-2765
▁ampagpatoloy	-2766
▁Makapangyayari	-2767
In	-2768
dir	-2769
goy	-2770
pit	-2771
▁Mi	-2772
akit	-2773
mbal	-2774
olta	-2775
omob	-2776
tino	-2777
useo	-2778
▁Heb	-2779
▁iba	-2780
▁sik	-2781
Hikoy	-2782
Potog	-2783
abala	-2784
anias	-2785
bagay	-2786
balol	-2787
ganda	-2788
ipapa	-2789
lasin	-2790
libon	-2791
piasa	-2792
pinom	-2793
▁alas	-2794
▁alon	-2795
▁bawb	-2796
▁idad	-2797
▁kopa	-2798
▁ning	-2799
Yadtin	-2800
gandan	-2801
ilingo	-2802
imaton	-2803
kanyan	-2804
rihado	-2805
▁Olibo	-2806
▁alaga	-2807
▁bitil	-2808
▁kinom	-2809
▁kogit	-2810
▁nakal	-2811
▁padir	-2812
▁ribol	-2813
gwardya	-2814
ombabal	-2815
riklamo	-2816
▁Binyan	-2817
▁Griego	-2818
▁aligon	-2819
▁gomawa	-2820
▁hinira	-2821
▁mababa	-2822
▁magdya	-2823
▁mamoon	-2824
▁nonaoy	-2825
▁pinori	-2826
▁poolan	-2827
alibolan	-2828
awaliwan	-2829
disyonan	-2830
kokontra	-2831
makalngo	-2832
mangmati	-2833
pibalita	-2834
▁antoklo	-2835
▁bawbali	-2836
▁dinakop	-2837
▁igalang	-2838
▁imparna	-2839
▁indawat	-2840
▁tistigo	-2841
diskosyon	-2842
makahiyay	-2843
mititipon	-2844
paglakoan	-2845
parosawan	-2846
▁ampagdya	-2847
▁anlomato	-2848
▁gobyirno	-2849
▁kakatlon	-2850
▁mainakit	-2851
▁nangawit	-2852
▁pabanglo	-2853
▁pinomtog	-2854
▁hakalakoy	-2855
▁nakaodong	-2856
▁nanglongo	-2857
▁pinatawad	-2858
▁anggamiton	-2859
▁pawpinalsa	-2860
▁ampakirawat	-2861
▁ampititipon	-2862
▁katoynongan	-2863
▁Angkomostawon	-2864
▁Kawkapanogoan	-2865
Ama	-2866
Iti	-2867
Taw	-2868
ama	-2869
bli	-2870
gri	-2871
las	-2872
sab	-2873
▁Be	-2874
▁ip	-2875
abli	-2876
bbas	-2877
dale	-2878
gana	-2879
kaon	-2880
onoy	-2881
pako	-2882
rana	-2883
sway	-2884
taga	-2885
tali	-2886
▁Dis	-2887
▁Nan	-2888
▁Pan	-2889
▁Tol	-2890
▁dra	-2891
▁mar	-2892
▁pla	-2893
▁pob	-2894
abwag	-2895
angko	-2896
dakop	-2897
dipin	-2898
gatan	-2899
gripa	-2900
ihogo	-2901
kakan	-2902
kohaw	-2903
monga	-2904
soran	-2905
tania	-2906
timon	-2907
▁Hina	-2908
▁Ison	-2909
▁anda	-2910
▁baka	-2911
▁imbo	-2912
▁kasi	-2913
▁maba	-2914
▁nila	-2915
dalena	-2916
gorado	-2917
ilibri	-2918
ilonia	-2919
iwanan	-2920
malita	-2921
mbayan	-2922
▁Acaya	-2923
▁Marta	-2924
▁bakol	-2925
▁baryo	-2926
▁binom	-2927
▁hinom	-2928
▁insin	-2929
▁kolor	-2930
▁lowan	-2931
▁magwa	-2932
▁tawti	-2933
▁tonoy	-2934
▁yaong	-2935
Talagan	-2936
ipanogo	-2937
a	-2938
▁	-2939
n	-2940
o	-2941
i	-2942
t	-2943
m	-2944
y	-2945
l	-2946
k	-2947
g	-2948
p	-2949
s	-2950
h	-2951
b	-2952
-	-2953
w	-2954
r	-2955
,	-2956
d	-2957
.	-2958
e	-2959
"	-2960
K	-2961
D	-2962
u	-2963
J	-2964
H	-2965
A	-2966
I	-2967
P	-2968
M	-2969
N	-2970
B	-2971
C	-2972
Y	-2973
T	-2974
?	-2975
'	-2976
W	-2977
[	-2978
]	-2979
S	-2980
L	-2981
:	-2982
!	-2983
c	-2984
G	-2985
O	-2986
E	-2987
2	-2988
;	-2989
v	-2990
F	-2991
f	-2992
R	-2993
4	-2994
#	-2995
&	-2996
