<unk>	0
<s>	0
</s>	0
an	-0
in	-1
▁s	-2
▁n	-3
iy	-4
▁m	-5
▁k	-6
▁h	-7
▁in	-8
ang	-9
ag	-10
un	-11
iya	-12
▁p	-13
▁sin	-14
▁t	-15
la	-16
ay	-17
am	-18
▁d	-19
▁b	-20
▁na	-21
ab	-22
▁ha	-23
ak	-24
at	-25
aw	-26
ar	-27
al	-28
as	-29
▁mang	-30
iyu	-31
▁i	-32
▁tu	-33
▁manga	-34
amu	-35
▁hi	-36
ila	-37
au	-38
▁niya	-39
han	-40
ban	-41
sa	-42
tu	-43
▁iban	-44
ung	-45
▁tau	-46
uk	-47
▁tuhan	-48
▁kan	-49
ud	-50
▁pa	-51
ad	-52
▁pag	-53
ah	-54
▁ku	-55
bu	-56
▁mag	-57
▁la	-58
▁y	-59
ug	-60
▁amu	-61
ta	-62
▁niyu	-63
▁su	-64
▁ī	-65
il	-66
▁nila	-67
▁day	-68
ap	-69
ān	-70
▁di	-71
▁dayn	-72
▁īsa	-73
▁l	-74
uun	-75
awa	-76
▁nag	-77
▁siya	-78
▁bang	-79
▁kamu	-80
ul	-81
▁w	-82
um	-83
ik	-84
▁da	-85
it	-86
ala	-87
▁am	-88
im	-89
us	-90
aya	-91
inang	-92
▁tuud	-93
▁mak	-94
▁yan	-95
▁sab	-96
ara	-97
▁biya	-98
aku	-99
▁sila	-100
▁is	-101
▁sabab	-102
▁kat	-103
pa	-104
ih	-105
awn	-106
ing	-107
agawa	-108
▁isab	-109
▁laung	-110
▁kiya	-111
asal	-112
▁law	-113
▁ini	-114
▁katān	-115
▁al	-116
▁aku	-117
▁sagawa	-118
ula	-119
▁ka	-120
ayaw	-121
buuk	-122
asi	-123
▁lawm	-124
▁kā	-125
▁hang	-126
bay	-127
▁mar	-128
aun	-129
▁mu	-130
ambuuk	-131
uw	-132
▁kaniyu	-133
kan	-134
ku	-135
ch	-136
▁alm	-137
▁pang	-138
▁ampa	-139
▁pasal	-140
agad	-141
is	-142
ut	-143
▁g	-144
▁hambuuk	-145
atay	-146
ubu	-147
▁un	-148
▁kab	-149
▁kaniya	-150
▁awn	-151
▁almasi	-152
ind	-153
ra	-154
ukun	-155
usa	-156
▁nak	-157
and	-158
▁bukun	-159
san	-160
▁kaw	-161
▁hangkan	-162
▁way	-163
siyu	-164
▁subay	-165
uwa	-166
ayta	-167
▁natu	-168
▁hinang	-169
▁kar	-170
insan	-171
bi	-172
▁kit	-173
ita	-174
aniyu	-175
na	-176
anak	-177
iyan	-178
ti	-179
▁mat	-180
▁kam	-181
▁kas	-182
▁kāku	-183
adtu	-184
ingat	-185
▁magp	-186
▁marayaw	-187
anj	-188
uh	-189
▁duun	-190
ari	-191
▁piya	-192
▁kanila	-193
▁mab	-194
adj	-195
▁yah	-196
agi	-197
uli	-198
ga	-199
aym	-200
aran	-201
ali	-202
tan	-203
▁j	-204
uunu	-205
ilan	-206
▁unuunu	-207
ayan	-208
▁wala	-209
▁sak	-210
▁anak	-211
▁sup	-212
▁supaya	-213
ruun	-214
▁pagk	-215
▁wayruun	-216
nal	-217
bal	-218
chara	-219
▁miya	-220
īh	-221
▁mān	-222
asa	-223
man	-224
law	-225
iyag	-226
ubus	-227
ng	-228
▁minsan	-229
▁mah	-230
una	-231
▁pangh	-232
akan	-233
usiya	-234
▁ad	-235
▁mayan	-236
▁mānusiya	-237
adja	-238
▁kitaniyu	-239
▁hula	-240
indu	-241
balik	-242
▁namu	-243
tun	-244
unnal	-245
dtu	-246
aba	-247
▁sam	-248
hinang	-249
ingatan	-250
āy	-251
▁wak	-252
up	-253
▁tag	-254
ungug	-255
▁waktu	-256
ya	-257
▁yahud	-258
āti	-259
▁sadja	-260
▁sim	-261
▁sakali	-262
uy	-263
▁par	-264
▁panghu	-265
▁hisiyu	-266
▁ma	-267
▁piyag	-268
aul	-269
▁bayta	-270
uga	-271
▁karna	-272
▁bih	-273
pun	-274
▁bat	-275
angan	-276
▁bāy	-277
ur	-278
▁sum	-279
iban	-280
▁yahudi	-281
▁lim	-282
ama	-283
▁at	-284
anjari	-285
gi	-286
▁dun	-287
▁mal	-288
▁pagubus	-289
▁kah	-290
▁nagp	-291
▁ta	-292
▁dunya	-293
▁sara	-294
aud	-295
uku	-296
▁kami	-297
ihil	-298
▁mangī	-299
▁dum	-300
ulid	-301
abang	-302
ichara	-303
atung	-304
▁magk	-305
sin	-306
▁atay	-307
▁mulid	-308
▁bihaun	-309
▁baran	-310
ili	-311
▁hip	-312
gu	-313
antu	-314
▁amuna	-315
▁kaingatan	-316
bung	-317
ibanan	-318
▁kaibanan	-319
rū	-320
▁adlaw	-321
▁kap	-322
arach	-323
arachaya	-324
uhi	-325
akita	-326
untu	-327
▁agi	-328
▁magt	-329
angh	-330
▁baba	-331
īn	-332
pay	-333
▁nam	-334
▁pam	-335
alam	-336
▁pagp	-337
ayaan	-338
▁rū	-339
▁tim	-340
▁manjari	-341
▁atawa	-342
ūng	-343
▁hisiyusiyu	-344
▁dā	-345
▁hindu	-346
▁kabayaan	-347
andul	-348
angg	-349
▁map	-350
lam	-351
▁ayaw	-352
▁kaym	-353
▁agad	-354
▁babai	-355
āgi	-356
▁lāgi	-357
▁dusa	-358
▁mala	-359
aan	-360
▁paul	-361
ahi	-362
▁kaymu	-363
▁im	-364
ikil	-365
akas	-366
▁bakas	-367
▁mataud	-368
▁mas	-369
▁tum	-370
▁hik	-371
▁ag	-372
▁kum	-373
▁yadtu	-374
ayu	-375
but	-376
ukum	-377
ūy	-378
▁dīh	-379
▁duwa	-380
▁daakan	-381
▁nahinang	-382
aymangh	-383
▁tantu	-384
▁ama	-385
ira	-386
apan	-387
rus	-388
▁pagkahi	-389
hi	-390
īhat	-391
▁kī	-392
▁bichara	-393
▁nap	-394
▁mawn	-395
aymanghud	-396
ūd	-397
▁mari	-398
▁pagd	-399
▁pagh	-400
▁suku	-401
▁magbalik	-402
▁dāira	-403
si	-404
usug	-405
tuniyu	-406
ata	-407
lan	-408
▁kiyas	-409
▁madtu	-410
▁iya	-411
▁hum	-412
▁mam	-413
▁asal	-414
▁nang	-415
▁kātuniyu	-416
▁taymanghud	-417
▁kīta	-418
ugaing	-419
▁rūsin	-420
abunnal	-421
▁dam	-422
▁unu	-423
▁magtūy	-424
pas	-425
▁pit	-426
▁bunnal	-427
ba	-428
inta	-429
▁diy	-430
▁bangsa	-431
ahagad	-432
▁kitab	-433
▁kawasa	-434
kura	-435
▁pan	-436
▁pitrus	-437
ji	-438
ulat	-439
asīhat	-440
▁makap	-441
▁nakura	-442
▁kal	-443
ir	-444
▁hāti	-445
aytan	-446
▁mabaya	-447
abunnalan	-448
▁kasabunnalan	-449
ikk	-450
ikkiyan	-451
▁sambung	-452
▁damikkiyan	-453
▁dugaing	-454
▁maka	-455
▁mags	-456
▁sampay	-457
pu	-458
yu	-459
wan	-460
kat	-461
▁saytan	-462
rga	-463
▁aw	-464
▁ng	-465
ikat	-466
ugay	-467
▁sar	-468
āikat	-469
anji	-470
ka	-471
▁nas	-472
▁nagbalik	-473
▁pak	-474
▁taniyu	-475
▁kak	-476
▁malāikat	-477
▁bay	-478
▁nagt	-479
▁sapan	-480
▁sapantun	-481
nasīhat	-482
īg	-483
aas	-484
dat	-485
asih	-486
andu	-487
▁pik	-488
untul	-489
akula	-490
▁agama	-491
▁surga	-492
▁lu	-493
▁dakula	-494
▁miyadtu	-495
▁didtu	-496
alu	-497
▁yahiya	-498
▁kiyaw	-499
ant	-500
▁mayta	-501
bichara	-502
▁um	-503
indug	-504
▁tiya	-505
dan	-506
unu	-507
▁sul	-508
▁bah	-509
asihin	-510
▁almasihin	-511
bul	-512
▁pagga	-513
kal	-514
sug	-515
▁nagd	-516
kaw	-517
▁pal	-518
▁makar	-519
▁kabuhi	-520
arinta	-521
sud	-522
abut	-523
aggu	-524
akun	-525
▁dim	-526
▁gin	-527
▁pagt	-528
▁ib	-529
▁hinangun	-530
bayta	-531
▁kala	-532
▁nakar	-533
▁bar	-534
▁parman	-535
▁diya	-536
▁salam	-537
▁hīn	-538
ran	-539
inda	-540
▁kamatay	-541
yag	-542
ahun	-543
rusa	-544
▁lum	-545
▁magd	-546
ukuman	-547
akaniya	-548
▁pila	-549
insanaan	-550
▁kabinsanaan	-551
anggal	-552
▁mabuntul	-553
su	-554
ppas	-555
▁nagh	-556
▁tung	-557
ām	-558
▁kusug	-559
akitaan	-560
▁pikilan	-561
▁dih	-562
▁pangandul	-563
lat	-564
▁hir	-565
▁kiyasulat	-566
tal	-567
ugal	-568
▁magparachaya	-569
▁lima	-570
▁landu	-571
ub	-572
utan	-573
▁siyu	-574
▁hīnang	-575
▁dumatung	-576
aum	-577
dis	-578
▁magad	-579
araakun	-580
▁nagk	-581
▁dihilan	-582
▁daraakun	-583
▁lupa	-584
āk	-585
▁ikaw	-586
▁mahinang	-587
▁as	-588
▁magkahagad	-589
rusalam	-590
▁baytal	-591
▁makdis	-592
▁awrusalam	-593
gat	-594
▁labi	-595
inu	-596
▁addat	-597
sang	-598
▁kakaun	-599
itu	-600
▁kakitaan	-601
▁him	-602
▁tagna	-603
auna	-604
▁yaun	-605
▁huminang	-606
ūp	-607
▁kaagi	-608
isi	-609
kud	-610
▁sa	-611
itan	-612
amung	-613
▁usug	-614
▁mangh	-615
▁sumagawa	-616
li	-617
ana	-618
mu	-619
ulan	-620
abaran	-621
▁dīha	-622
▁bag	-623
▁diin	-624
agg	-625
▁nags	-626
▁nakauna	-627
tung	-628
▁tuwan	-629
▁sultan	-630
▁ngān	-631
▁man	-632
▁patay	-633
ūg	-634
haw	-635
iling	-636
ayawan	-637
▁hukuman	-638
▁karayawan	-639
tay	-640
▁kim	-641
▁kiyawak	-642
▁si	-643
▁pamarinta	-644
aga	-645
und	-646
akat	-647
▁musa	-648
▁kiyawakilan	-649
asam	-650
▁sas	-651
▁saw	-652
▁guwa	-653
uru	-654
inap	-655
▁tand	-656
▁biyu	-657
▁namung	-658
wn	-659
iyagad	-660
▁ingat	-661
uuk	-662
▁sus	-663
▁duwaa	-664
rah	-665
▁dag	-666
alama	-667
▁pags	-668
▁taas	-669
▁piyap	-670
▁salamalama	-671
sahan	-672
▁sarta	-673
▁hā	-674
uwat	-675
rahim	-676
▁ibrahim	-677
awag	-678
▁dug	-679
▁kay	-680
ūngun	-681
▁sabu	-682
▁piyak	-683
chi	-684
alil	-685
▁ubus	-686
▁yari	-687
janji	-688
▁guru	-689
▁nabi	-690
▁sulat	-691
tipun	-692
▁hant	-693
▁sang	-694
▁tanda	-695
▁hantang	-696
apu	-697
aug	-698
angī	-699
iksa	-700
▁kāmu	-701
▁lasa	-702
▁makapag	-703
alay	-704
▁masa	-705
▁īman	-706
▁susūngun	-707
big	-708
▁makas	-709
▁tubig	-710
▁miyatay	-711
▁pamikil	-712
yng	-713
aman	-714
bili	-715
ha	-716
bun	-717
arun	-718
duwa	-719
▁sal	-720
yngkan	-721
▁malayngkan	-722
bug	-723
▁bili	-724
▁bilibili	-725
▁pas	-726
angayu	-727
pal	-728
ahan	-729
ahalay	-730
ānan	-731
▁angg	-732
ahalayak	-733
▁maghinang	-734
pat	-735
▁imam	-736
▁lugal	-737
ukul	-738
▁masi	-739
▁diyungug	-740
▁dān	-741
ugdan	-742
akit	-743
ugut	-744
ālan	-745
▁piy	-746
▁kiyah	-747
▁tabang	-748
▁pagdatung	-749
▁ū	-750
tug	-751
asubu	-752
any	-753
uman	-754
wa	-755
▁mur	-756
▁buhi	-757
▁magh	-758
agguan	-759
▁miyawn	-760
▁kalagguan	-761
lung	-762
▁min	-763
ihilan	-764
ina	-765
tum	-766
▁batu	-767
ātihan	-768
udj	-769
▁miyam	-770
▁hangpu	-771
ann	-772
▁taga	-773
▁biyay	-774
▁nakap	-775
īl	-776
uas	-777
subu	-778
usan	-779
▁hiyu	-780
asampay	-781
▁biyayta	-782
▁langgal	-783
atan	-784
▁gim	-785
▁pah	-786
▁batab	-787
bas	-788
arap	-789
baya	-790
rail	-791
▁bin	-792
▁mahuli	-793
angandul	-794
āsin	-795
akkal	-796
▁israil	-797
▁nagtat	-798
▁panubu	-799
▁parisi	-800
▁pagdungug	-801
▁dī	-802
▁us	-803
▁bal	-804
▁masuuk	-805
ulaan	-806
▁lang	-807
▁ginhaw	-808
▁baytaan	-809
▁mapatay	-810
▁ginhawabaran	-811
▁hinda	-812
▁imiyan	-813
▁langit	-814
▁miyamagad	-815
▁alta	-816
▁napī	-817
▁naug	-818
▁miyagad	-819
▁kiyabayta	-820
angs	-821
▁mis	-822
▁nar	-823
▁usuk	-824
▁pagkita	-825
kab	-826
▁hipag	-827
▁kiyap	-828
▁ina	-829
▁dagat	-830
▁batabata	-831
dj	-832
anny	-833
ariya	-834
uta	-835
▁kahuy	-836
amahalayak	-837
▁nagparachaya	-838
ri	-839
adlaw	-840
▁kadtu	-841
▁kiyar	-842
▁makab	-843
▁sat	-844
akaniyap	-845
▁pakaniyap	-846
▁sīn	-847
ilasa	-848
▁hirihil	-849
uran	-850
pak	-851
apsu	-852
tabang	-853
ungsud	-854
▁maksud	-855
▁dumihil	-856
▁kahālan	-857
▁kalasahan	-858
lun	-859
anan	-860
ulak	-861
upan	-862
tangan	-863
▁makah	-864
isan	-865
▁hay	-866
bayan	-867
▁janji	-868
▁hangkat	-869
a	-870
▁	-871
n	-872
i	-873
u	-874
s	-875
m	-876
g	-877
k	-878
y	-879
t	-880
h	-881
b	-882
l	-883
d	-884
p	-885
w	-886
r	-887
ā	-888
ī	-889
j	-890
ū	-891
c	-892
