<unk>	0
<s>	0
</s>	0
an	-0
in	-1
▁s	-2
iy	-3
▁n	-4
▁m	-5
▁k	-6
▁h	-7
ang	-8
▁in	-9
ag	-10
un	-11
iya	-12
▁sin	-13
ay	-14
am	-15
la	-16
▁p	-17
▁d	-18
ta	-19
ak	-20
sa	-21
▁b	-22
▁ha	-23
tu	-24
ar	-25
▁mang	-26
iyu	-27
ab	-28
aw	-29
▁manga	-30
at	-31
▁na	-32
amu	-33
▁i	-34
ila	-35
▁niya	-36
▁hi	-37
al	-38
han	-39
ban	-40
▁pa	-41
▁ta	-42
as	-43
▁T	-44
ung	-45
ud	-46
▁tau	-47
uhan	-48
uk	-49
▁Tuhan	-50
▁iban	-51
▁kan	-52
ad	-53
bu	-54
▁ku	-55
ah	-56
▁mag	-57
ug	-58
▁niyu	-59
▁amu	-60
ul	-61
il	-62
▁pag	-63
▁nila	-64
ayn	-65
▁la	-66
▁N	-67
▁tu	-68
um	-69
▁t	-70
ān	-71
▁A	-72
▁P	-73
▁S	-74
▁I	-75
▁Ī	-76
▁Īsa	-77
ap	-78
▁dayn	-79
▁y	-80
▁di	-81
▁Na	-82
awa	-83
▁nag	-84
wa	-85
▁siya	-86
▁kamu	-87
▁l	-88
us	-89
▁da	-90
ik	-91
▁"	-92
aya	-93
im	-94
▁ka	-95
▁M	-96
aku	-97
inang	-98
▁tuud	-99
▁su	-100
ara	-101
sab	-102
▁yan	-103
uun	-104
▁bang	-105
it	-106
pa	-107
unu	-108
▁sila	-109
abab	-110
sal	-111
asi	-112
▁am	-113
▁biya	-114
▁mak	-115
▁kat	-116
ing	-117
agawa	-118
▁isab	-119
',	-120
awn	-121
▁katān	-122
▁In	-123
▁law	-124
▁ini	-125
▁sabab	-126
ata	-127
▁kiya	-128
ula	-129
ih	-130
buuk	-131
▁aku	-132
▁lawm	-133
▁kā	-134
▁w	-135
angk	-136
bay	-137
'.	-138
ayaw	-139
ambuuk	-140
▁kaniyu	-141
aun	-142
masi	-143
▁B	-144
▁Al	-145
ch	-146
▁Almasi	-147
is	-148
▁H	-149
▁pasal	-150
ku	-151
agad	-152
du	-153
ita	-154
atay	-155
ari	-156
▁mu	-157
▁K	-158
▁ampa	-159
▁hambuuk	-160
▁L	-161
ra	-162
."	-163
ayta	-164
▁kaniya	-165
▁kab	-166
ubu	-167
angh	-168
arayaw	-169
ut	-170
ukun	-171
san	-172
▁g	-173
▁ma	-174
▁laung	-175
▁Y	-176
angkan	-177
▁nak	-178
▁awn	-179
angan	-180
▁D	-181
aniyu	-182
na	-183
▁natu	-184
▁unu	-185
insan	-186
▁hinang	-187
iyan	-188
mu	-189
usa	-190
▁bukun	-191
uli	-192
ama	-193
atan	-194
▁Sagawa	-195
ti	-196
▁kāku	-197
▁Pag	-198
tan	-199
adtu	-200
uwa	-201
ga	-202
▁way	-203
uh	-204
bi	-205
anj	-206
ali	-207
▁kanila	-208
siyu	-209
adj	-210
▁Yah	-211
agi	-212
aran	-213
ayan	-214
▁subay	-215
▁magp	-216
ilan	-217
▁kam	-218
▁duun	-219
paya	-220
▁kaw	-221
▁supaya	-222
▁piya	-223
una	-224
law	-225
ruun	-226
▁mab	-227
▁wa	-228
nal	-229
chara	-230
bal	-231
īh	-232
man	-233
▁wala	-234
iyag	-235
▁La	-236
akan	-237
usiya	-238
▁miya	-239
▁mayan	-240
ānusiya	-241
adja	-242
itaniyu	-243
▁Laung	-244
▁kitaniyu	-245
▁hula	-246
indu	-247
balik	-248
▁namu	-249
▁pagk	-250
▁Iban	-251
'-	-252
▁sagawa	-253
unnal	-254
ubus	-255
dtu	-256
anak	-257
▁mah	-258
▁marayaw	-259
▁ad	-260
arna	-261
gu	-262
ingatan	-263
āy	-264
hinang	-265
▁wak	-266
▁Hangkan	-267
▁wayruun	-268
aba	-269
▁minsan	-270
ungug	-271
up	-272
▁tag	-273
▁waktu	-274
anghu	-275
▁Yahud	-276
▁sadja	-277
āti	-278
amp	-279
▁mānusiya	-280
akali	-281
da	-282
ng	-283
ma	-284
uw	-285
uga	-286
▁Sakali	-287
ya	-288
▁piyag	-289
iban	-290
▁Yahudi	-291
▁Panghu	-292
▁mata	-293
▁bih	-294
anjari	-295
gi	-296
uhi	-297
▁kay	-298
▁dun	-299
▁mal	-300
▁dunya	-301
▁sara	-302
pun	-303
ihil	-304
▁anak	-305
▁kah	-306
uku	-307
▁kami	-308
▁lim	-309
sin	-310
▁j	-311
ulid	-312
▁dum	-313
▁mangī	-314
atung	-315
ichara	-316
▁atay	-317
▁magk	-318
▁mulid	-319
uy	-320
atu	-321
ala	-322
▁baran	-323
ili	-324
▁(	-325
bung	-326
ibanan	-327
▁kaibanan	-328
▁nagp	-329
arach	-330
▁amuna	-331
arachaya	-332
untu	-333
apan	-334
akita	-335
▁R	-336
▁baba	-337
aul	-338
ur	-339
▁agi	-340
▁bihaun	-341
▁adlaw	-342
bang	-343
ayu	-344
asa	-345
amik	-346
▁hip	-347
▁sum	-348
īn	-349
ayaan	-350
▁Rū	-351
▁hangkan	-352
antu	-353
▁sim	-354
ampay	-355
amung	-356
dul	-357
▁hisiyu	-358
ir	-359
ūng	-360
▁ata	-361
▁pagp	-362
▁kabayaan	-363
▁bāy	-364
angg	-365
▁babai	-366
▁hindu	-367
āgi	-368
▁dusa	-369
▁agad	-370
▁dā	-371
▁kaymu	-372
but	-373
▁kaingatan	-374
akas	-375
ahi	-376
aym	-377
▁atawa	-378
▁Paul	-379
In	-380
▁Karna	-381
ambung	-382
▁Manjari	-383
▁kas	-384
▁kātu	-385
▁map	-386
awasa	-387
▁kap	-388
uman	-389
▁An	-390
▁hik	-391
ūy	-392
▁duwa	-393
▁'	-394
▁yadtu	-395
▁daakan	-396
si	-397
▁tim	-398
▁Bang	-399
▁magt	-400
▁ī	-401
rus	-402
▁ag	-403
▁Par	-404
▁nahinang	-405
ira	-406
angandul	-407
▁dīh	-408
▁bakas	-409
▁pagkahi	-410
▁bichara	-411
▁mawn	-412
lasa	-413
anghud	-414
aymanghud	-415
tun	-416
ūd	-417
aan	-418
pas	-419
▁mari	-420
usug	-421
lan	-422
▁suku	-423
īhat	-424
▁sal	-425
▁sa	-426
niyu	-427
akura	-428
▁pik	-429
▁magbalik	-430
▁kum	-431
▁J	-432
▁dāira	-433
▁mataud	-434
▁Kita	-435
pu	-436
▁pagh	-437
▁kī	-438
▁madtu	-439
▁taymanghud	-440
▁pang	-441
kan	-442
ugaing	-443
▁Rūsin	-444
sabunnal	-445
ba	-446
▁kal	-447
▁tum	-448
▁bayta	-449
▁Sabab	-450
?"	-451
inta	-452
ulat	-453
taw	-454
▁pan	-455
ahagad	-456
▁hum	-457
arinta	-458
▁bangsa	-459
itrus	-460
ji	-461
▁Kitab	-462
▁Pitrus	-463
▁kawasa	-464
!"	-465
▁makap	-466
▁Aw	-467
asīhat	-468
asal	-469
aytan	-470
▁nakura	-471
▁magtūy	-472
sabunnalan	-473
amikk	-474
▁sambung	-475
amikkiyan	-476
▁kasabunnalan	-477
▁kiyas	-478
▁Anak	-479
▁Lāgi	-480
▁mam	-481
▁kīta	-482
▁dugaing	-483
ikat	-484
▁mas	-485
▁nang	-486
yag	-487
araak	-488
āikat	-489
▁maka	-490
hi	-491
anji	-492
rga	-493
▁ng	-494
ugay	-495
▁sampay	-496
▁taniyu	-497
▁nagbalik	-498
▁Ama	-499
apantun	-500
▁Mak	-501
▁diy	-502
▁kak	-503
dug	-504
▁iya	-505
angka	-506
ingat	-507
▁malāikat	-508
▁sapantun	-509
▁nap	-510
īg	-511
ingk	-512
▁nam	-513
Na	-514
nasīhat	-515
arā	-516
ran	-517
untul	-518
akula	-519
▁agama	-520
alu	-521
▁bunnal	-522
▁lu	-523
▁asal	-524
▁surga	-525
ru	-526
yu	-527
aggu	-528
▁Yahiya	-529
▁bat	-530
bichara	-531
dan	-532
indug	-533
▁Damikkiyan	-534
tang	-535
▁Bayta	-536
▁tantu	-537
hin	-538
▁pak	-539
▁mabaya	-540
▁Almasihin	-541
bul	-542
▁um	-543
▁bah	-544
abi	-545
sud	-546
▁pam	-547
ka	-548
▁kabuhi	-549
kaw	-550
abut	-551
bayta	-552
▁Marayaw	-553
dat	-554
andu	-555
salam	-556
▁al	-557
sug	-558
▁im	-559
▁miyadtu	-560
▁hinangun	-561
hun	-562
▁gin	-563
▁Parman	-564
ultan	-565
su	-566
inda	-567
▁sar	-568
Bayta	-569
baran	-570
ukuman	-571
▁didtu	-572
▁pal	-573
akaniya	-574
ana	-575
insanaan	-576
▁kabinsanaan	-577
anggal	-578
akit	-579
▁hang	-580
▁hāti	-581
lap	-582
lam	-583
▁kusug	-584
akitaan	-585
▁pikilan	-586
wak	-587
▁ayaw	-588
▁tiya	-589
▁nakar	-590
yaw	-591
tung	-592
▁lum	-593
▁han	-594
▁mabuntul	-595
▁pangandul	-596
▁nagh	-597
▁Is	-598
▁Su	-599
ugal	-600
▁lima	-601
▁tung	-602
▁Ib	-603
īnang	-604
dis	-605
lat	-606
araakun	-607
▁daraakun	-608
li	-609
▁dumatung	-610
▁magparachaya	-611
kita	-612
wn	-613
▁Di	-614
▁lupa	-615
▁nagk	-616
aga	-617
▁Awru	-618
Baytal	-619
▁pagga	-620
▁Makdis	-621
▁hangka	-622
▁Awrusalam	-623
▁magkahagad	-624
▁diya	-625
.'	-626
inu	-627
itu	-628
▁addat	-629
▁mahinang	-630
▁Ha	-631
sang	-632
▁kakaun	-633
▁kiyasulat	-634
auna	-635
lappas	-636
▁karna	-637
▁magad	-638
▁kamatay	-639
▁dih	-640
▁bata	-641
▁kaagi	-642
ub	-643
sar	-644
▁usug	-645
▁saytan	-646
▁dim	-647
▁siyu	-648
▁mangh	-649
lun	-650
▁kar	-651
▁labi	-652
▁dīha	-653
▁tagna	-654
▁huminang	-655
ūp	-656
▁pagd	-657
▁dihilan	-658
ahal	-659
itan	-660
uwan	-661
▁diin	-662
▁yaun	-663
gat	-664
tay	-665
▁Biya	-666
▁mags	-667
▁makar	-668
▁kakitaan	-669
ām	-670
tau	-671
▁ngān	-672
▁Subay	-673
isiyu	-674
▁masa	-675
▁patay	-676
▁nakauna	-677
ūg	-678
ugu	-679
ha	-680
▁Am	-681
arayawan	-682
▁mat	-683
▁hīnang	-684
▁hukuman	-685
▁karayawan	-686
ny	-687
kal	-688
ayng	-689
▁pamarinta	-690
uru	-691
ulan	-692
▁Sim	-693
wakilan	-694
ip	-695
baya	-696
ariya	-697
▁Musa	-698
ibu	-699
inap	-700
▁Bāy	-701
▁kim	-702
▁tan	-703
angayu	-704
▁dakula	-705
arak	-706
▁Amu	-707
▁saw	-708
▁guwa	-709
tug	-710
und	-711
duwa	-712
usūng	-713
,"	-714
▁kasa	-715
▁duwaa	-716
▁kiyawakilan	-717
▁taas	-718
asawa	-719
agg	-720
rah	-721
uuk	-722
▁Mal	-723
▁him	-724
āk	-725
▁man	-726
rahim	-727
▁kasi	-728
▁nagta	-729
▁Ibrahim	-730
nu	-731
lama	-732
▁ingat	-733
▁ikaw	-734
▁salama	-735
chi	-736
isi	-737
alil	-738
angī	-739
▁makas	-740
bun	-741
uwat	-742
▁masi	-743
amikil	-744
▁landu	-745
janji	-746
▁ba	-747
aman	-748
▁Pagd	-749
iyagad	-750
▁hantang	-751
ikil	-752
iksa	-753
▁kāmu	-754
▁lasa	-755
ihilan	-756
arun	-757
ukum	-758
ingkud	-759
▁makapag	-760
Bang	-761
subu	-762
usūngun	-763
▁namung	-764
▁susūngun	-765
big	-766
lil	-767
▁hā	-768
▁īman	-769
▁pamikil	-770
▁biyu	-771
▁dugu	-772
▁tanda	-773
▁tubig	-774
agun	-775
bili	-776
▁magd	-777
▁magh	-778
▁piyap	-779
ulut	-780
▁sulat	-781
ayngkan	-782
▁miyatay	-783
tipun	-784
ayak	-785
abang	-786
ānan	-787
rihil	-788
).	-789
▁angg	-790
tabang	-791
ahalayak	-792
▁dag	-793
▁lugal	-794
▁maghinang	-795
asan	-796
dusa	-797
ukul	-798
▁nab	-799
bug	-800
ugdan	-801
ayruun	-802
ina	-803
ugut	-804
ālan	-805
▁dān	-806
▁Mag	-807
▁taga	-808
▁batu	-809
arap	-810
usan	-811
agguan	-812
umagawa	-813
▁kalagguan	-814
lung	-815
tas	-816
▁buhi	-817
ātihan	-818
asubu	-819
akuyag	-820
▁sarta	-821
▁hangpu	-822
id	-823
▁Nag	-824
▁kiyah	-825
yta	-826
▁Ayaw	-827
▁tabang	-828
bus	-829
▁Sumagawa	-830
rail	-831
▁min	-832
▁guru	-833
▁yari	-834
▁miyawn	-835
▁diyungug	-836
īl	-837
udj	-838
anga	-839
▁piy	-840
▁nags	-841
▁miyam	-842
▁Israil	-843
▁Parisi	-844
▁panubu	-845
tum	-846
▁us	-847
bata	-848
▁gim	-849
▁Ampa	-850
▁mayta	-851
▁pangh	-852
▁langgal	-853
'."	-854
hawa	-855
Tuwan	-856
ulaan	-857
▁lang	-858
unahan	-859
▁nakap	-860
▁ginhawa	-861
▁mapatay	-862
▁bu	-863
▁dī	-864
▁bal	-865
▁lāgi	-866
▁hinda	-867
▁langit	-868
▁ū	-869
apu	-870
▁alta	-871
▁hiyu	-872
▁naug	-873
▁imiyan	-874
▁usuk	-875
bah	-876
anan	-877
▁bin	-878
▁pas	-879
akkal	-880
▁napī	-881
▁hipag	-882
ahinang	-883
▁pangan	-884
▁miyamagad	-885
amud	-886
▁kiyabayta	-887
ūm	-888
▁ina	-889
sakit	-890
▁kahuy	-891
asampay	-892
▁biyayta	-893
amahalayak	-894
adlaw	-895
▁nagd	-896
▁kiyap	-897
▁Malayngkan	-898
pakaniya	-899
▁pakaniya	-900
▁naka	-901
▁makab	-902
▁kalasa	-903
▁masuuk	-904
ri	-905
iki	-906
▁sīn	-907
▁miyagad	-908
▁nar	-909
▁sak	-910
▁sat	-911
▁Kiya	-912
ungsud	-913
▁Hisiyu	-914
▁maksud	-915
▁dumihil	-916
▁kahālan	-917
anny	-918
▁nas	-919
tangan	-920
▁pagtaw	-921
▁nagparachaya	-922
awg	-923
uwi	-924
isan	-925
▁Siya	-926
▁hirihil	-927
aud	-928
tap	-929
uti	-930
sarang	-931
▁Bukun	-932
▁janji	-933
ig	-934
any	-935
pama	-936
bayan	-937
▁nabi	-938
▁kalasahan	-939
iyug	-940
upan	-941
sukul	-942
▁pila	-943
ura	-944
anta	-945
▁dap	-946
huwat	-947
ngānan	-948
▁dīhil	-949
▁sultan	-950
dj	-951
alan	-952
duun	-953
maas	-954
▁Hir	-955
▁baha	-956
▁mahuli	-957
▁makarihil	-958
▁pagngānan	-959
mam	-960
pak	-961
angl	-962
▁pags	-963
umulan	-964
▁Tantu	-965
▁piyan	-966
ihinang	-967
▁sawpama	-968
▁sas	-969
▁bili	-970
▁kāyu	-971
▁sund	-972
sangsa	-973
▁gimuwa	-974
bas	-975
▁Ya	-976
aray	-977
ihun	-978
▁pah	-979
angkat	-980
▁salugay	-981
▁sundalu	-982
▁Mānusiya	-983
isa	-984
pal	-985
uas	-986
wara	-987
▁asawa	-988
▁barak	-989
▁suwara	-990
▁nakarungug	-991
▁Awn	-992
▁siki	-993
▁Jalil	-994
▁dagat	-995
▁magpa	-996
▁kasaumulan	-997
tuwa	-998
▁nan	-999
▁Pila	-1000
▁nagt	-1001
▁Saytan	-1002
▁sattuwa	-1003
.)	-1004
lu	-1005
pan	-1006
▁tū	-1007
▁buta	-1008
▁piyak	-1009
▁Dakula	-1010
▁makusug	-1011
aug	-1012
kub	-1013
udji	-1014
ulak	-1015
▁Daud	-1016
▁Hirud	-1017
),	-1018
jij	-1019
abay	-1020
upat	-1021
uunan	-1022
▁alupan	-1023
▁lawang	-1024
▁malasa	-1025
▁kiyaingatan	-1026
and	-1027
suy	-1028
jari	-1029
▁Rūm	-1030
ulang	-1031
inapay	-1032
▁pikil	-1033
▁tulung	-1034
agan	-1035
ahun	-1036
utan	-1037
▁har	-1038
uting	-1039
▁kaim	-1040
▁sakit	-1041
▁tiyan	-1042
▁Minsan	-1043
▁Pilatu	-1044
▁kawman	-1045
▁barakat	-1046
▁kaimaman	-1047
igi	-1048
tab	-1049
▁ama	-1050
▁kubul	-1051
▁nagnasīhat	-1052
lug	-1053
iyuk	-1054
▁bahasa	-1055
▁kumaun	-1056
agunahan	-1057
▁iyasubu	-1058
▁nakarusa	-1059
ūs	-1060
pit	-1061
▁is	-1062
▁nah	-1063
▁īpun	-1064
▁Puntu	-1065
▁mamayta	-1066
▁Pagdatung	-1067
▁Piya	-1068
adjaan	-1069
usahan	-1070
▁pakar	-1071
▁mabuhi	-1072
iingatan	-1073
▁pakaradjaan	-1074
!'	-1075
ibi	-1076
pug	-1077
apsu	-1078
ahāti	-1079
▁liya	-1080
ariyam	-1081
▁dayaw	-1082
▁sasuku	-1083
▁tumabang	-1084
▁pagtawagun	-1085
gad	-1086
ulug	-1087
ataud	-1088
▁Imam	-1089
▁miyu	-1090
▁muna	-1091
▁mataas	-1092
aingatan	-1093
akuyagan	-1094
▁Mariyam	-1095
▁tagduwa	-1096
▁kakuyagan	-1097
▁pangannal	-1098
gp	-1099
▁un	-1100
apand	-1101
ulian	-1102
iksaan	-1103
▁Simun	-1104
▁kangī	-1105
▁naabut	-1106
▁hibayta	-1107
▁tinapay	-1108
▁kahātihan	-1109
▁kasiksaan	-1110
▁pagparachaya	-1111
kab	-1112
tag	-1113
Ayaw	-1114
amut	-1115
umba	-1116
▁Duun	-1117
▁baya	-1118
▁pitu	-1119
butang	-1120
▁mabuga	-1121
▁saruun	-1122
inapusan	-1123
▁mangayu	-1124
▁aw	-1125
▁Yus	-1126
▁atu	-1127
tulun	-1128
▁kama	-1129
▁hādtu	-1130
▁Sultan	-1131
▁kasanny	-1132
▁kiyajanji	-1133
▁kahinapusan	-1134
▁kasannyangan	-1135
agna	-1136
lang	-1137
▁Bar	-1138
aruli	-1139
sahan	-1140
▁sūng	-1141
agarun	-1142
amatay	-1143
▁nagpap	-1144
▁nangayu	-1145
▁Puntukan	-1146
Mayta	-1147
aggaw	-1148
▁nasa	-1149
awgbug	-1150
▁binhi	-1151
▁pilak	-1152
▁anggul	-1153
▁baytaan	-1154
▁kangīan	-1155
dju	-1156
akap	-1157
▁bil	-1158
jijat	-1159
rahan	-1160
▁taud	-1161
▁ubus	-1162
▁naawn	-1163
▁kabbun	-1164
▁nabuhi	-1165
▁dīhilan	-1166
hali	-1167
ulas	-1168
▁pap	-1169
punun	-1170
bantug	-1171
itindug	-1172
▁nasasakit	-1173
agay	-1174
asat	-1175
jamu	-1176
▁Isa	-1177
▁Tim	-1178
aguwa	-1179
▁kiyar	-1180
▁nagpa	-1181
▁kamaasan	-1182
▁kasusahan	-1183
add	-1184
tuyu	-1185
▁kur	-1186
ulung	-1187
▁Dayn	-1188
▁kapatu	-1189
▁namayta	-1190
▁nagbichara	-1191
▁pagnasīhat	-1192
'?	-1193
lak	-1194
▁gum	-1195
islam	-1196
▁pagb	-1197
gpitan	-1198
▁Yusup	-1199
▁tahun	-1200
janjian	-1201
▁kiyawa	-1202
▁ampunun	-1203
angandulan	-1204
▁Kaingatan	-1205
▁magnasīhat	-1206
tud	-1207
ugtu	-1208
ayuun	-1209
karna	-1210
napsu	-1211
▁sibu	-1212
▁itung	-1213
▁mahal	-1214
amungun	-1215
murahan	-1216
▁maabut	-1217
▁malugay	-1218
▁tiyanum	-1219
▁dimatung	-1220
▁nagtatau	-1221
amb	-1222
akat	-1223
ūsan	-1224
antug	-1225
sabab	-1226
▁magm	-1227
▁nala	-1228
▁minīg	-1229
▁naraak	-1230
▁pagbalik	-1231
▁pagpudji	-1232
dl	-1233
ain	-1234
apa	-1235
daak	-1236
▁hay	-1237
akaun	-1238
banan	-1239
▁bana	-1240
▁matan	-1241
▁ginisan	-1242
▁panghāti	-1243
▁tamungun	-1244
▁kiyaiingatan	-1245
arh	-1246
ilu	-1247
awta	-1248
ipat	-1249
unga	-1250
āsin	-1251
▁Mis	-1252
▁sul	-1253
wahan	-1254
▁liyu	-1255
Hisiyu	-1256
ayahan	-1257
iyanun	-1258
▁simud	-1259
▁kumpit	-1260
▁naghuh	-1261
butangan	-1262
▁pagkita	-1263
▁parinta	-1264
▁anggawta	-1265
▁manghindu	-1266
▁naghinang	-1267
adji	-1268
siya	-1269
uran	-1270
▁asi	-1271
igidl	-1272
anyata	-1273
▁hayup	-1274
▁kadtu	-1275
▁suchi	-1276
▁itungun	-1277
▁dumungug	-1278
▁namichara	-1279
▁magpasampay	-1280
di	-1281
ati	-1282
tus	-1283
abaw	-1284
taat	-1285
▁iyu	-1286
duwaa	-1287
kuyag	-1288
ūngan	-1289
▁dapit	-1290
▁harap	-1291
▁hikap	-1292
▁tudju	-1293
utangan	-1294
▁agarun	-1295
▁tungud	-1296
▁kapūsan	-1297
▁makaingat	-1298
pi	-1299
āw	-1300
ipu	-1301
arga	-1302
▁ngī	-1303
▁Hāti	-1304
langan	-1305
▁Mataud	-1306
▁diyaak	-1307
▁makata	-1308
▁makawa	-1309
▁paghali	-1310
apandayan	-1311
▁Pagdungug	-1312
▁pagdungug	-1313
wag	-1314
wan	-1315
▁Hi	-1316
▁nā	-1317
unan	-1318
ādtu	-1319
īpun	-1320
▁dūm	-1321
bahagi	-1322
▁piyas	-1323
▁sasat	-1324
▁talun	-1325
▁baldusa	-1326
▁bihādtu	-1327
▁nagdaak	-1328
▁patayun	-1329
▁biyaytaan	-1330
▁piyatulun	-1331
▁kasigpitan	-1332
isk	-1333
āng	-1334
īat	-1335
ilas	-1336
angat	-1337
▁Pili	-1338
▁kita	-1339
▁maas	-1340
abihan	-1341
tabīat	-1342
▁Misir	-1343
▁higad	-1344
▁siyus	-1345
▁tindug	-1346
▁Yahudiya	-1347
▁pangayuun	-1348
▁nagkahagad	-1349
▁piyapanjari	-1350
hu	-1351
jib	-1352
iyas	-1353
jaga	-1354
lami	-1355
udas	-1356
▁Mah	-1357
arāsin	-1358
atayan	-1359
▁bunga	-1360
▁maawn	-1361
atungan	-1362
▁dungug	-1363
▁puting	-1364
lappasan	-1365
▁tungbas	-1366
▁kagunahan	-1367
▁kapatutan	-1368
▁karihilan	-1369
▁kasawahan	-1370
▁kalappasan	-1371
aksi	-1372
atud	-1373
tara	-1374
uruk	-1375
ysuy	-1376
▁jīl	-1377
▁mur	-1378
abaya	-1379
▁imam	-1380
ulutan	-1381
arakala	-1382
▁gumuwa	-1383
▁puunan	-1384
▁timindug	-1385
▁kanabihan	-1386
▁paghulaan	-1387
ād	-1388
baw	-1389
agga	-1390
inum	-1391
arman	-1392
gaibu	-1393
lawag	-1394
tuhan	-1395
▁hiya	-1396
▁Judas	-1397
▁Mayta	-1398
▁bagay	-1399
▁maana	-1400
▁makarā	-1401
ahambuuk	-1402
▁kumugdan	-1403
▁sumagawa	-1404
uj	-1405
.'"	-1406
kay	-1407
lis	-1408
lawm	-1409
niya	-1410
unit	-1411
▁mān	-1412
▁naa	-1413
ababa	-1414
andul	-1415
iskin	-1416
sipak	-1417
tuman	-1418
▁Miya	-1419
▁barh	-1420
▁magb	-1421
▁upat	-1422
▁makal	-1423
▁narka	-1424
▁hulaan	-1425
▁barhala	-1426
▁maharga	-1427
▁mangandul	-1428
▁paljanjian	-1429
iha	-1430
unj	-1431
anjal	-1432
▁Asal	-1433
▁hipa	-1434
▁tuyu	-1435
▁asibi	-1436
▁murka	-1437
▁hangin	-1438
▁mattan	-1439
▁ngaibu	-1440
▁umiyan	-1441
▁kimugdan	-1442
▁mangarap	-1443
▁piyanaug	-1444
▁magpamahalayak	-1445
mur	-1446
uchi	-1447
aligu	-1448
▁Saul	-1449
▁ista	-1450
kaniyu	-1451
undung	-1452
unjung	-1453
ungugan	-1454
▁miskin	-1455
▁pamung	-1456
▁Pagkita	-1457
▁mahunit	-1458
▁makajari	-1459
▁makakita	-1460
▁parakala	-1461
▁makapagbaya	-1462
▁naghihinang	-1463
buk	-1464
nab	-1465
nul	-1466
▁Ad	-1467
▁pī	-1468
tiya	-1469
▁sah	-1470
▁tuu	-1471
nabas	-1472
▁Mura	-1473
▁balu	-1474
▁jaga	-1475
▁kunu	-1476
▁Tuwan	-1477
▁salam	-1478
▁maagad	-1479
▁naglil	-1480
▁Barnabas	-1481
▁hansipak	-1482
▁magpikil	-1483
▁piyangayu	-1484
ūl	-1485
tuk	-1486
uba	-1487
▁bī	-1488
amaa	-1489
labi	-1490
ujud	-1491
▁duw	-1492
▁mar	-1493
▁par	-1494
▁suk	-1495
angay	-1496
nyawa	-1497
uhala	-1498
▁Nabi	-1499
▁piyu	-1500
alabay	-1501
hulaan	-1502
▁jamaa	-1503
▁kursi	-1504
ulbanan	-1505
kapandayan	-1506
▁panghindu	-1507
▁kiyarihilan	-1508
▁naglilingkud	-1509
▁kapangandulan	-1510
ūn	-1511
lag	-1512
lus	-1513
adju	-1514
ukab	-1515
danan	-1516
ubnul	-1517
▁kura	-1518
▁tiyu	-1519
▁lapal	-1520
▁miyari	-1521
▁miyuga	-1522
▁sahaya	-1523
▁naghuhula	-1524
▁paghambuuk	-1525
aka	-1526
▁Il	-1527
arta	-1528
tuma	-1529
ūlan	-1530
▁būd	-1531
ihaun	-1532
▁awla	-1533
▁hawa	-1534
bangan	-1535
ilibut	-1536
ilingk	-1537
▁mangl	-1538
▁nangh	-1539
▁piyar	-1540
▁Timuti	-1541
▁suysuy	-1542
ilingkal	-1543
▁dayahan	-1544
▁matanug	-1545
▁pagjamu	-1546
▁piyakita	-1547
▁kiyaulian	-1548
▁makasulut	-1549
▁nangasubu	-1550
▁pagdatung	-1551
▁katilingkal	-1552
▁nagtitindug	-1553
ayl	-1554
▁as	-1555
ayun	-1556
idun	-1557
▁adj	-1558
▁uli	-1559
butan	-1560
▁suga	-1561
▁Pilip	-1562
▁adjung	-1563
▁aturan	-1564
▁malawm	-1565
▁sangat	-1566
▁bangkay	-1567
▁labayan	-1568
▁magdusa	-1569
▁pasalan	-1570
▁hikarayaw	-1571
▁magpakita	-1572
'?"	-1573
iti	-1574
lah	-1575
tanum	-1576
▁Bili	-1577
▁bula	-1578
uhukum	-1579
▁Iblis	-1580
▁Landu	-1581
▁bilik	-1582
▁makak	-1583
▁nainu	-1584
▁nakal	-1585
▁piyam	-1586
labayan	-1587
▁bahagi	-1588
▁kahula	-1589
▁nakawa	-1590
▁diyalil	-1591
▁magbaya	-1592
▁suluhan	-1593
▁katilibut	-1594
'!	-1595
Pag	-1596
isu	-1597
kus	-1598
ruk	-1599
▁sab	-1600
laman	-1601
untut	-1602
uwara	-1603
▁iyam	-1604
sabbut	-1605
▁Pagga	-1606
▁amura	-1607
▁dāhun	-1608
▁kapag	-1609
▁matūp	-1610
▁nakab	-1611
udjihun	-1612
▁halaman	-1613
▁magparuli	-1614
▁manghuhukum	-1615
Awn	-1616
rat	-1617
umu	-1618
▁ny	-1619
atut	-1620
baba	-1621
ukup	-1622
yaga	-1623
āran	-1624
▁sap	-1625
Bukun	-1626
iling	-1627
ākawn	-1628
▁ilaw	-1629
agguun	-1630
apanaw	-1631
▁hikar	-1632
▁manuk	-1633
▁saksi	-1634
▁ītung	-1635
▁kulang	-1636
▁ulihan	-1637
▁bulawan	-1638
▁limabay	-1639
▁mahugut	-1640
angkatiyu	-1641
▁magbichara	-1642
▁kiyahātihan	-1643
Di	-1644
isun	-1645
jina	-1646
tawb	-1647
▁Nak	-1648
▁kug	-1649
▁lug	-1650
ampun	-1651
andal	-1652
usaha	-1653
āniya	-1654
▁budj	-1655
agaran	-1656
ahugut	-1657
▁hipap	-1658
▁papag	-1659
▁nalawa	-1660
▁budjang	-1661
▁iyaagad	-1662
▁maingat	-1663
▁tagnaan	-1664
▁kiyasuku	-1665
▁nakakita	-1666
dd	-1667
hūp	-1668
pat	-1669
tin	-1670
▁Iy	-1671
abbu	-1672
ahil	-1673
ayma	-1674
liya	-1675
▁pil	-1676
abaak	-1677
ingug	-1678
isita	-1679
kuran	-1680
lugat	-1681
sarit	-1682
▁diyā	-1683
▁mamu	-1684
Sagawa	-1685
baakan	-1686
ulatan	-1687
▁Manga	-1688
▁huwat	-1689
▁sukay	-1690
tawanan	-1691
▁mapuas	-1692
iyaganta	-1693
▁junjung	-1694
▁pagkaun	-1695
▁simujud	-1696
igidluman	-1697
▁kugdanan	-1698
▁parachaya	-1699
▁pagkulbanan	-1700
dil	-1701
run	-1702
▁Ar	-1703
daan	-1704
ligu	-1705
ūgan	-1706
▁Ant	-1707
▁dak	-1708
▁taw	-1709
ambag	-1710
ampal	-1711
▁daig	-1712
▁kawl	-1713
▁badju	-1714
▁napsu	-1715
▁tūpun	-1716
▁Antiyuk	-1717
▁lagguun	-1718
▁magkaun	-1719
▁tiyawag	-1720
▁malappas	-1721
▁paghinang	-1722
▁hangkatiyu	-1723
▁katigidluman	-1724
Ya	-1725
uuy	-1726
ayhu	-1727
ista	-1728
piil	-1729
▁Aku	-1730
addat	-1731
aylan	-1732
laggu	-1733
lahan	-1734
tipan	-1735
ungan	-1736
upang	-1737
▁bitu	-1738
Panghu	-1739
iyanaw	-1740
▁lugay	-1741
▁matay	-1742
▁nyawa	-1743
▁sanga	-1744
▁mabiya	-1745
lalappas	-1746
▁Istipan	-1747
▁dakuman	-1748
▁kapitan	-1749
▁mapatut	-1750
▁hibutang	-1751
▁pangatud	-1752
bā	-1753
cha	-1754
puk	-1755
pus	-1756
apun	-1757
arat	-1758
sahi	-1759
ulay	-1760
▁hīh	-1761
▁liy	-1762
▁juba	-1763
anglit	-1764
▁Nasarit	-1765
▁pangayu	-1766
▁siyusūd	-1767
▁kamulahan	-1768
▁kiyahindu	-1769
▁paslangan	-1770
ani	-1771
gin	-1772
yan	-1773
alik	-1774
iyun	-1775
▁Tum	-1776
▁may	-1777
abuga	-1778
bunga	-1779
utang	-1780
▁diyu	-1781
▁kasā	-1782
▁maīg	-1783
ariyas	-1784
▁makah	-1785
▁maray	-1786
▁sumūd	-1787
iluhala	-1788
▁Mabaya	-1789
▁bantug	-1790
▁baytai	-1791
▁bituun	-1792
▁magsusa	-1793
▁makasūd	-1794
▁manjari	-1795
▁tiyatag	-1796
▁biyutang	-1797
▁butangan	-1798
▁hiungsud	-1799
▁makarusa	-1800
▁makawasa	-1801
▁nagtipun	-1802
▁limingkud	-1803
atū	-1804
▁Ip	-1805
▁iy	-1806
Biya	-1807
amin	-1808
▁Sal	-1809
▁buh	-1810
▁tūp	-1811
Kadtu	-1812
agang	-1813
iipat	-1814
itung	-1815
▁buga	-1816
▁kiyu	-1817
▁lana	-1818
▁para	-1819
▁Amura	-1820
▁panaw	-1821
▁Bunnal	-1822
▁gubnul	-1823
▁kasāan	-1824
▁nagtat	-1825
▁unahan	-1826
▁Kamatay	-1827
▁nasīhat	-1828
▁duwangka	-1829
▁mapakita	-1830
▁makahinang	-1831
bid	-1832
kud	-1833
nag	-1834
yas	-1835
▁Ma	-1836
▁Si	-1837
anti	-1838
atas	-1839
kaan	-1840
tata	-1841
urul	-1842
▁pin	-1843
aynga	-1844
▁luun	-1845
▁pais	-1846
▁īyan	-1847
amahan	-1848
anaman	-1849
anyaga	-1850
▁Ilyas	-1851
▁timpu	-1852
hambuuk	-1853
▁taynga	-1854
▁lumabay	-1855
▁magjina	-1856
▁miyanaw	-1857
▁napikil	-1858
▁nāsakit	-1859
▁timagna	-1860
▁dīkaniyu	-1861
▁limanjal	-1862
▁magsarang	-1863
▁manghukum	-1864
▁parasahan	-1865
hal	-1866
haw	-1867
lul	-1868
nan	-1869
īta	-1870
dapu	-1871
ilun	-1872
tawa	-1873
yata	-1874
āhan	-1875
▁Kir	-1876
▁Lim	-1877
▁pus	-1878
aluuy	-1879
bārat	-1880
▁Diya	-1881
▁sapi	-1882
aylaya	-1883
itipun	-1884
▁ginis	-1885
▁simūd	-1886
▁biyuhi	-1887
▁kumawa	-1888
▁magkap	-1889
▁naubus	-1890
▁tagdapu	-1891
bibichara	-1892
▁nasabbut	-1893
▁paagarun	-1894
▁kiyaganta	-1895
▁mamichara	-1896
▁nakalabay	-1897
▁damikkiyan	-1898
▁makatabang	-1899
▁kiyalabayan	-1900
biya	-1901
ulig	-1902
ānat	-1903
▁Diy	-1904
▁Mat	-1905
▁Sam	-1906
▁kun	-1907
Manga	-1908
aakan	-1909
iyagg	-1910
mahal	-1911
sarus	-1912
ānila	-1913
▁puti	-1914
▁tubu	-1915
ingkat	-1916
irihil	-1917
▁Atawa	-1918
▁diyar	-1919
▁nakas	-1920
▁amānat	-1921
▁ibārat	-1922
▁piyang	-1923
▁Lasarus	-1924
▁Makidun	-1925
▁hātihan	-1926
▁mahalga	-1927
▁nagkaun	-1928
▁nakapag	-1929
▁piyapag	-1930
▁kabaakan	-1931
▁makaiyan	-1932
▁kabtangan	-1933
▁mamarinta	-1934
▁nakarihil	-1935
▁pangantin	-1936
▁hipahinang	-1937
'"	-1938
-'	-1939
Ha	-1940
kil	-1941
sul	-1942
abun	-1943
akun	-1944
asip	-1945
sibi	-1946
ukus	-1947
ungg	-1948
uwal	-1949
▁Kap	-1950
▁his	-1951
▁pab	-1952
▁uma	-1953
itaan	-1954
manuk	-1955
uysuy	-1956
▁Kīta	-1957
▁Libi	-1958
▁Tiya	-1959
▁sibi	-1960
▁tūng	-1961
bahasa	-1962
▁Sarta	-1963
▁liyan	-1964
▁namam	-1965
iyugalan	-1966
liyasahi	-1967
tumtuman	-1968
▁dumayaw	-1969
▁makuyag	-1970
▁mangang	-1971
▁timulak	-1972
kabtangan	-1973
▁hīhinang	-1974
▁makahāti	-1975
▁hibichara	-1976
▁nanghindu	-1977
▁nagpanyata	-1978
▁pagpangayu	-1979
din	-1980
upa	-1981
▁sī	-1982
bana	-1983
lagi	-1984
▁pul	-1985
apuan	-1986
patan	-1987
umuan	-1988
▁Malk	-1989
▁nagm	-1990
iyānan	-1991
▁Didtu	-1992
▁binīn	-1993
▁bulan	-1994
▁minum	-1995
▁pagbu	-1996
▁tiyay	-1997
▁tuhan	-1998
ginisan	-1999
▁mamung	-2000
▁tūngka	-2001
▁mahamut	-2002
▁pakukus	-2003
▁siyulat	-2004
▁hikaruwa	-2005
▁nagtanum	-2006
▁sumandal	-2007
▁kahagarun	-2008
▁nagsuwara	-2009
▁karungugan	-2010
▁kiyabaakan	-2011
▁pangatayan	-2012
Su	-2013
dik	-2014
hak	-2015
pul	-2016
alap	-2017
awnu	-2018
ayas	-2019
ibut	-2020
itus	-2021
ptap	-2022
pung	-2023
tubu	-2024
ubat	-2025
▁Pir	-2026
▁hil	-2027
▁hiy	-2028
▁lul	-2029
▁tam	-2030
aggut	-2031
akala	-2032
basan	-2033
iligu	-2034
suhan	-2035
▁giyu	-2036
▁kawa	-2037
▁luuy	-2038
▁nagb	-2039
▁tina	-2040
lungan	-2041
tawbat	-2042
▁Silas	-2043
▁Titus	-2044
▁bugtu	-2045
▁kaapu	-2046
▁magta	-2047
▁palih	-2048
addatan	-2049
annyang	-2050
iyaggaw	-2051
labutan	-2052
▁Isahak	-2053
▁Isayas	-2054
▁iyagad	-2055
▁piyagh	-2056
▁taptap	-2057
▁tunggu	-2058
▁pagtaat	-2059
▁tumtuma	-2060
▁kalumuan	-2061
▁magtipun	-2062
▁Paglappas	-2063
▁pagjamuhan	-2064
gan	-2065
jal	-2066
jīl	-2067
▁si	-2068
Huun	-2069
Ikaw	-2070
Kari	-2071
abtu	-2072
ahan	-2073
apas	-2074
asag	-2075
giya	-2076
uasa	-2077
uunu	-2078
ūran	-2079
▁Jay	-2080
▁Kur	-2081
▁nim	-2082
Subay	-2083
ahagi	-2084
akbul	-2085
angsa	-2086
awnun	-2087
bulan	-2088
ingud	-2089
tantu	-2090
tugas	-2091
▁Adam	-2092
▁hipu	-2093
▁kata	-2094
▁mala	-2095
▁pagt	-2096
▁unud	-2097
sariya	-2098
▁gadji	-2099
▁luwal	-2100
▁sawan	-2101
▁siyum	-2102
apsuhan	-2103
assalam	-2104
▁babaan	-2105
▁liling	-2106
▁nākawn	-2107
▁pakain	-2108
▁unuunu	-2109
sangsaan	-2110
▁luggiya	-2111
▁makabāk	-2112
▁marāsin	-2113
▁naislam	-2114
▁Samariya	-2115
▁Sisariya	-2116
▁magbunga	-2117
▁humambuuk	-2118
▁kiyarihil	-2119
▁magbantug	-2120
▁nagpaligu	-2121
▁nagparman	-2122
▁pagsarang	-2123
▁palihālan	-2124
▁piyakadtu	-2125
▁simambung	-2126
▁kiyapamung	-2127
▁magkamatay	-2128
▁kiyabutangan	-2129
▁nagpapanjari	-2130
▁magtaymanghud	-2131
ika	-2132
kat	-2133
sap	-2134
tul	-2135
▁pū	-2136
abuy	-2137
apit	-2138
guwa	-2139
ikan	-2140
illa	-2141
isus	-2142
sibu	-2143
uhun	-2144
▁Dim	-2145
▁miy	-2146
▁mus	-2147
▁sag	-2148
aykud	-2149
sabal	-2150
suchi	-2151
tawag	-2152
▁bala	-2153
▁hadd	-2154
▁marā	-2155
▁tutu	-2156
bangun	-2157
iksaun	-2158
umanam	-2159
▁Sabtu	-2160
▁diyām	-2161
▁laggu	-2162
▁luruk	-2163
▁mahan	-2164
▁matun	-2165
▁piyah	-2166
▁simus	-2167
iyugdan	-2168
▁Bihaun	-2169
▁Hīnang	-2170
▁Ipisus	-2171
▁minuwi	-2172
▁paguwa	-2173
▁pahāti	-2174
▁hikapag	-2175
▁magbana	-2176
▁masipug	-2177
▁napinda	-2178
▁haddarat	-2179
▁iyungsud	-2180
▁ngiyānan	-2181
▁pagtipun	-2182
▁piyakawa	-2183
▁diyugalan	-2184
▁magpaguwa	-2185
▁mangasubu	-2186
▁piyanyata	-2187
▁tutulungan	-2188
▁ā	-2189
day	-2190
dur	-2191
āna	-2192
▁Ak	-2193
abug	-2194
ayad	-2195
ilig	-2196
mata	-2197
udju	-2198
unud	-2199
▁Apu	-2200
▁jim	-2201
anaug	-2202
ugaan	-2203
▁patu	-2204
▁pinī	-2205
agnaan	-2206
amuhan	-2207
aymaun	-2208
isadik	-2209
mandil	-2210
saplag	-2211
tangis	-2212
wakkal	-2213
▁Mangl	-2214
▁ganta	-2215
▁giyan	-2216
▁hiyūp	-2217
▁kapan	-2218
▁kiyam	-2219
angarap	-2220
atauran	-2221
▁Rūniya	-2222
▁dagbus	-2223
▁dupang	-2224
▁narusa	-2225
▁sumūng	-2226
palangay	-2227
tataatan	-2228
▁Haylaya	-2229
▁Miyadtu	-2230
▁kaulian	-2231
▁limahil	-2232
▁makalap	-2233
▁nahulug	-2234
▁sanglit	-2235
▁tiyayma	-2236
▁tumayma	-2237
parachaya	-2238
▁diyaakan	-2239
▁kumandil	-2240
▁makabaak	-2241
▁sabunnal	-2242
▁siyaggaw	-2243
▁kasulutan	-2244
▁piyaingat	-2245
▁tungbasan	-2246
▁Malkisadik	-2247
▁kamatauran	-2248
▁magpahugut	-2249
▁nakahinang	-2250
▁tiyatagama	-2251
An	-2252
'!"	-2253
dji	-2254
lal	-2255
▁Sa	-2256
▁lī	-2257
▁ād	-2258
hula	-2259
imam	-2260
irik	-2261
isag	-2262
iyus	-2263
tiyu	-2264
umul	-2265
umun	-2266
▁Būd	-2267
▁Dam	-2268
▁Sin	-2269
▁hal	-2270
▁isa	-2271
▁kiy	-2272
▁pīp	-2273
▁siy	-2274
▁uwi	-2275
ahaba	-2276
angis	-2277
inasa	-2278
labut	-2279
lahil	-2280
tapuk	-2281
unung	-2282
yapan	-2283
▁Amin	-2284
▁Pagk	-2285
▁hila	-2286
▁magl	-2287
▁napa	-2288
▁puun	-2289
▁ālam	-2290
adtuun	-2291
tungan	-2292
ugalan	-2293
▁Kiyas	-2294
▁akkal	-2295
▁dalil	-2296
▁kaawn	-2297
▁mutas	-2298
▁timuk	-2299
upangan	-2300
▁mababa	-2301
▁manipu	-2302
▁masusa	-2303
▁nākita	-2304
▁pagkūg	-2305
▁sagbut	-2306
angkaray	-2307
▁iyampun	-2308
▁lumugay	-2309
▁numanam	-2310
▁pagkasi	-2311
▁palmata	-2312
▁pangita	-2313
▁tumatas	-2314
▁hipakita	-2315
▁paguwaun	-2316
▁hiyuhuwat	-2317
▁lalabutan	-2318
▁nakaingat	-2319
▁Mangliligu	-2320
▁kapanyapan	-2321
▁makarungug	-2322
▁nakapamung	-2323
▁maghihinang	-2324
▁magkagunahan	-2325
▁nagbibichara	-2326
Aku	-2327
tak	-2328
tūy	-2329
Kita	-2330
awag	-2331
iyak	-2332
ugun	-2333
īndu	-2334
▁Dag	-2335
▁Tir	-2336
▁lik	-2337
Kitaa	-2338
askus	-2339
bugtu	-2340
āiban	-2341
agihan	-2342
akaput	-2343
insana	-2344
nakura	-2345
ulugan	-2346
▁Salam	-2347
▁babaw	-2348
▁banta	-2349
▁bayhu	-2350
▁bihān	-2351
▁buhuk	-2352
▁dapat	-2353
▁hikab	-2354
▁kātas	-2355
▁lisag	-2356
▁napas	-2357
▁ulung	-2358
▁ūniya	-2359
abuntul	-2360
langgal	-2361
▁Mahuli	-2362
▁hipang	-2363
▁kimawa	-2364
▁makasi	-2365
▁matuyu	-2366
▁naagad	-2367
▁nasusa	-2368
▁sambag	-2369
▁ukuman	-2370
▁kumangī	-2371
▁likusan	-2372
▁makainu	-2373
▁mapinda	-2374
▁siksaun	-2375
▁taymaun	-2376
▁Damaskus	-2377
▁dungugun	-2378
▁kiyugdan	-2379
▁makaagad	-2380
▁nagdihil	-2381
▁paghukum	-2382
▁pakawnun	-2383
▁hangkaray	-2384
▁kananaman	-2385
▁liyansang	-2386
▁nagsarang	-2387
▁magdirihil	-2388
▁malayngkan	-2389
▁mangangawa	-2390
▁nagtatagad	-2391
▁paratungan	-2392
▁himahambuuk	-2393
▁naghahambuuk	-2394
▁piyamahalayak	-2395
wi	-2396
?""	-2397
dak	-2398
git	-2399
mal	-2400
wnu	-2401
▁sā	-2402
Andu	-2403
anam	-2404
irna	-2405
ktuk	-2406
lupa	-2407
muna	-2408
ugas	-2409
▁Jak	-2410
▁Nap	-2411
▁biy	-2412
▁lam	-2413
▁lap	-2414
▁nat	-2415
Tantu	-2416
angun	-2417
gatus	-2418
manaw	-2419
tahun	-2420
umbay	-2421
āniyu	-2422
▁atas	-2423
▁kari	-2424
▁nata	-2425
▁sali	-2426
▁subu	-2427
amudji	-2428
ayaran	-2429
ihindu	-2430
kabbun	-2431
▁babuy	-2432
▁gabun	-2433
▁ganti	-2434
▁haram	-2435
▁hawnu	-2436
▁hipan	-2437
▁liyul	-2438
▁nagbu	-2439
▁namān	-2440
▁singu	-2441
▁tutug	-2442
Baytaan	-2443
Hangkan	-2444
igidlum	-2445
umūngan	-2446
▁bilang	-2447
▁daakun	-2448
▁hikatū	-2449
▁mamunu	-2450
▁nanubu	-2451
▁tuntut	-2452
▁Baytaan	-2453
▁Hambuuk	-2454
▁diyuhal	-2455
▁malaggu	-2456
▁marugal	-2457
▁matugas	-2458
▁nagdarā	-2459
▁pagtiya	-2460
▁simakat	-2461
▁siyulak	-2462
nanasīhat	-2463
▁himinang	-2464
▁kalangan	-2465
▁kulangan	-2466
▁nagsulat	-2467
▁nangarap	-2468
▁palangay	-2469
▁palitaan	-2470
▁iyaagaran	-2471
▁lumingkud	-2472
▁nangandul	-2473
▁tagkabbun	-2474
▁kanapsuhan	-2475
▁karupangan	-2476
▁simusulang	-2477
▁pagtataatan	-2478
▁manglalappas	-2479
▁piyagnasīhat	-2480
?'	-2481
anu	-2482
duk	-2483
lub	-2484
luk	-2485
muh	-2486
mus	-2487
say	-2488
tūg	-2489
uki	-2490
▁bi	-2491
ayat	-2492
ihak	-2493
intu	-2494
iran	-2495
urus	-2496
utud	-2497
uyup	-2498
āmag	-2499
▁Bab	-2500
▁luh	-2501
▁pat	-2502
▁tiy	-2503
akari	-2504
amula	-2505
babai	-2506
buhan	-2507
hawal	-2508
iriya	-2509
labay	-2510
murul	-2511
▁Mang	-2512
▁alun	-2513
▁hika	-2514
▁narā	-2515
▁puas	-2516
▁umul	-2517
ananam	-2518
ansang	-2519
sangan	-2520
ukutan	-2521
▁Asiya	-2522
▁Dagat	-2523
▁Piyag	-2524
▁bingk	-2525
▁hikas	-2526
▁jukup	-2527
▁kiyan	-2528
▁lamud	-2529
▁nagtu	-2530
▁pihak	-2531
▁pilay	-2532
▁sangk	-2533
▁umbul	-2534
▁wakil	-2535
anggung	-2536
atabang	-2537
untulan	-2538
▁kumita	-2539
▁kīkita	-2540
▁nagdur	-2541
▁paghuh	-2542
▁piyagk	-2543
angayuan	-2544
anghuran	-2545
▁Babilun	-2546
▁dimagan	-2547
▁dumāmag	-2548
▁hiyuhūp	-2549
▁liyulūn	-2550
▁nagdusa	-2551
▁kabugaan	-2552
▁maghulas	-2553
▁magpabaw	-2554
▁Jakariyas	-2555
▁Simambung	-2556
▁hipapatay	-2557
▁kiyawajib	-2558
▁magpahāti	-2559
▁magtawbat	-2560
▁nagbangun	-2561
▁kabuhianan	-2562
▁pagbawgbug	-2563
▁sangkakala	-2564
▁timitindug	-2565
▁biyutawanan	-2566
▁makabichara	-2567
,'	-2568
kā	-2569
āt	-2570
ayt	-2571
bāy	-2572
bīn	-2573
lim	-2574
mat	-2575
pdi	-2576
tik	-2577
▁gi	-2578
ahuy	-2579
inug	-2580
jala	-2581
laga	-2582
pasu	-2583
puas	-2584
turi	-2585
uhay	-2586
▁Ini	-2587
▁Jur	-2588
▁imu	-2589
▁kad	-2590
▁mīg	-2591
▁ūhi	-2592
alang	-2593
ammal	-2594
abacha	-2595
asuchi	-2596
irnaum	-2597
tukbal	-2598
tumtum	-2599
▁Kitaa	-2600
▁biyan	-2601
▁hīndu	-2602
▁liyag	-2603
▁pagpa	-2604
aggawun	-2605
antugan	-2606
ultanan	-2607
▁Magtūy	-2608
▁kimaun	-2609
▁magkūg	-2610
▁malayu	-2611
▁sawkat	-2612
▁kiyūgan	-2613
▁magmula	-2614
▁nakapin	-2615
▁pagbunu	-2616
▁pasāran	-2617
▁pikilun	-2618
▁timukad	-2619
▁katauran	-2620
▁paghulas	-2621
▁pagpatay	-2622
▁panāiban	-2623
▁Kapirnaum	-2624
▁butawanan	-2625
▁hipaingat	-2626
▁kalanggal	-2627
▁magmakbul	-2628
▁magtangis	-2629
▁miyamanaw	-2630
▁pakadtuun	-2631
▁panagnaan	-2632
aymanghuran	-2633
▁kabantugan	-2634
▁kabuntulan	-2635
▁nagdarāsin	-2636
▁nagpapanaw	-2637
▁pagkahagad	-2638
▁nakalanggal	-2639
▁piyagbahasa	-2640
▁pagpangandul	-2641
▁nagpaparachaya	-2642
!'"	-2643
'.'	-2644
Amu	-2645
awm	-2646
būd	-2647
hat	-2648
jug	-2649
pag	-2650
sat	-2651
sus	-2652
āha	-2653
agin	-2654
akka	-2655
anaw	-2656
ilik	-2657
imus	-2658
laan	-2659
unun	-2660
īgan	-2661
▁Lid	-2662
▁Mas	-2663
▁gām	-2664
▁hir	-2665
▁pūs	-2666
▁tūy	-2667
anyan	-2668
asiya	-2669
ating	-2670
hanan	-2671
hawnu	-2672
inaat	-2673
▁Pags	-2674
▁Sadd	-2675
▁agun	-2676
▁laya	-2677
abughu	-2678
angkal	-2679
arāhan	-2680
ilawak	-2681
isahan	-2682
kawasa	-2683
▁Bakas	-2684
▁Maray	-2685
▁bīhan	-2686
▁magpī	-2687
▁patut	-2688
▁salla	-2689
▁tamak	-2690
▁utang	-2691
▁wajib	-2692
atinggi	-2693
dugaing	-2694
untutan	-2695
▁makaīg	-2696
▁malawa	-2697
▁maubus	-2698
▁piyagp	-2699
▁sakali	-2700
▁Dihilan	-2701
▁dumāsin	-2702
▁kaawnan	-2703
▁kadtuun	-2704
▁kaulung	-2705
▁natutūg	-2706
▁pangkal	-2707
▁kamanyan	-2708
▁luluunan	-2709
▁magpuasa	-2710
▁nahaylan	-2711
▁nalalaga	-2712
▁pangadji	-2713
▁pudjihun	-2714
▁saggawun	-2715
▁kalansang	-2716
▁nagtataat	-2717
▁natatantu	-2718
▁Mahatinggi	-2719
▁kabutangan	-2720
▁kiyasulutan	-2721
▁namamarinta	-2722
aj	-2723
mi	-2724
Mak	-2725
igu	-2726
Yari	-2727
anja	-2728
ihan	-2729
ipug	-2730
suku	-2731
uppa	-2732
usun	-2733
īlla	-2734
ūpun	-2735
▁Him	-2736
▁Iya	-2737
▁hih	-2738
▁iru	-2739
▁tug	-2740
aksud	-2741
angin	-2742
anyap	-2743
ayuan	-2744
bayad	-2745
hulat	-2746
tawan	-2747
uguta	-2748
uldin	-2749
▁Apul	-2750
▁Masi	-2751
▁Suba	-2752
▁bigi	-2753
▁kumu	-2754
▁naga	-2755
▁nagj	-2756
▁naīg	-2757
▁sawa	-2758
kaniya	-2759
pakain	-2760
▁daran	-2761
▁dūlan	-2762
▁kamak	-2763
▁magdā	-2764
▁magtu	-2765
▁maguy	-2766
▁mangd	-2767
▁panum	-2768
▁tunga	-2769
akkalan	-2770
jagahan	-2771
labihan	-2772
▁Jaytun	-2773
▁Jurdan	-2774
▁haggut	-2775
▁imurul	-2776
▁inumun	-2777
▁isturi	-2778
▁magdar	-2779
▁pilisu	-2780
▁sakaba	-2781
ingkuran	-2782
▁Sadduki	-2783
▁Tumtuma	-2784
▁diyūlan	-2785
▁dunguga	-2786
▁hinanga	-2787
▁kiyadtu	-2788
▁lingkat	-2789
▁mabugtu	-2790
▁maglasa	-2791
▁paghula	-2792
▁pasulig	-2793
▁simumba	-2794
▁tuburan	-2795
▁kalayuan	-2796
▁magpauli	-2797
▁makamula	-2798
▁nakaabut	-2799
▁sakahaba	-2800
▁tabangan	-2801
▁tiyabang	-2802
▁hikabayta	-2803
▁himundung	-2804
▁kiyahagad	-2805
▁lamisahan	-2806
▁mamawgbug	-2807
▁nagkakaun	-2808
▁piyasāran	-2809
▁sanglitun	-2810
▁tiyatapuk	-2811
▁hipasampay	-2812
▁panumtuman	-2813
▁kalanggalan	-2814
▁paghuhukuman	-2815
▁pamarintahan	-2816
▁piyagbichara	-2817
La	-2818
au	-2819
Nag	-2820
aws	-2821
bil	-2822
dal	-2823
lab	-2824
mpa	-2825
pik	-2826
suk	-2827
▁Ag	-2828
alak	-2829
alli	-2830
ipul	-2831
uhul	-2832
ukka	-2833
unsi	-2834
▁And	-2835
▁Mar	-2836
▁Pah	-2837
▁Pal	-2838
▁Pis	-2839
▁haw	-2840
▁hid	-2841
▁hās	-2842
▁ima	-2843
▁sug	-2844
Bakas	-2845
Laung	-2846
agara	-2847
akawa	-2848
itani	-2849
kubul	-2850
libun	-2851
tabuk	-2852
untas	-2853
uppas	-2854
▁gula	-2855
▁lung	-2856
▁nagl	-2857
▁pagm	-2858
anakaw	-2859
asihat	-2860
ilāhan	-2861
ungura	-2862
īhatan	-2863
▁Adlaw	-2864
▁Pasal	-2865
▁harga	-2866
▁hikad	-2867
▁limil	-2868
▁nakam	-2869
▁pulis	-2870
▁sakap	-2871
▁siyam	-2872
▁suntu	-2873
apanday	-2874
▁Bitani	-2875
▁Pistus	-2876
▁diyāhi	-2877
▁hikasi	-2878
▁iyampa	-2879
▁iyanun	-2880
▁kajari	-2881
▁liyāng	-2882
▁magdūl	-2883
▁masuku	-2884
amichara	-2885
anghindu	-2886
▁Apullus	-2887
▁banyaga	-2888
▁bugtuun	-2889
▁hangibu	-2890
▁kiyubul	-2891
▁liyaruk	-2892
▁maampun	-2893
▁piyatay	-2894
▁maasihat	-2895
▁mahinaat	-2896
▁malanyap	-2897
▁matampal	-2898
▁subangan	-2899
▁tabangun	-2900
▁timabang	-2901
▁magnakura	-2902
▁biyutangan	-2903
▁himumūngan	-2904
▁masannyang	-2905
▁piyatulunan	-2906
▁Manglalappas	-2907
▁nagpamahalayak	-2908
Ay	-2909
āg	-2910
',"	-2911
asu	-2912
bāk	-2913
hug	-2914
luy	-2915
rul	-2916
tat	-2917
yup	-2918
▁Ti	-2919
Kiya	-2920
arul	-2921
ashi	-2922
haan	-2923
haya	-2924
inan	-2925
ukut	-2926
unut	-2927
utas	-2928
āira	-2929
ānag	-2930
▁Kay	-2931
▁Sar	-2932
▁Sil	-2933
▁jum	-2934
▁maw	-2935
aagad	-2936
abbut	-2937
abuhi	-2938
angad	-2939
aplag	-2940
bahun	-2941
bangi	-2942
iligr	-2943
latag	-2944
muhut	-2945
pugan	-2946
▁Biyu	-2947
▁Ikaw	-2948
a	-2949
▁	-2950
n	-2951
i	-2952
u	-2953
s	-2954
g	-2955
m	-2956
k	-2957
y	-2958
h	-2959
t	-2960
b	-2961
l	-2962
'	-2963
d	-2964
p	-2965
,	-2966
w	-2967
.	-2968
r	-2969
ā	-2970
T	-2971
-	-2972
"	-2973
ī	-2974
N	-2975
I	-2976
j	-2977
A	-2978
P	-2979
S	-2980
Ī	-2981
ū	-2982
M	-2983
B	-2984
H	-2985
K	-2986
c	-2987
L	-2988
Y	-2989
D	-2990
?	-2991
!	-2992
(	-2993
)	-2994
R	-2995
J	-2996
