<unk>	0
<s>	0
</s>	0
an	-0
▁n	-1
▁h	-2
ga	-3
in	-4
▁nga	-5
▁m	-6
▁k	-7
ag	-8
▁han	-9
on	-10
▁p	-11
▁an	-12
▁i	-13
ra	-14
▁ka	-15
ak	-16
▁mga	-17
▁ha	-18
ya	-19
▁hin	-20
gan	-21
ta	-22
▁d	-23
▁g	-24
▁ngan	-25
▁hi	-26
▁b	-27
la	-28
▁s	-29
▁gin	-30
at	-31
▁pag	-32
un	-33
▁t	-34
as	-35
mo	-36
to	-37
▁ni	-38
da	-39
ang	-40
yo	-41
li	-42
▁a	-43
▁ma	-44
▁di	-45
pa	-46
▁na	-47
▁nag	-48
▁ak	-49
ma	-50
ba	-51
di	-52
ri	-53
▁iya	-54
hi	-55
ug	-56
▁pa	-57
sa	-58
ha	-59
wa	-60
od	-61
dto	-62
▁in	-63
▁ta	-64
lo	-65
tan	-66
ing	-67
wo	-68
ina	-69
bu	-70
▁tawo	-71
▁hiya	-72
▁mag	-73
▁hira	-74
▁u	-75
ka	-76
aka	-77
▁j	-78
▁ba	-79
ana	-80
▁ira	-81
▁akon	-82
oo	-83
ro	-84
▁su	-85
▁ginoo	-86
bo	-87
▁imo	-88
▁la	-89
▁ini	-90
yos	-91
▁da	-92
▁ako	-93
su	-94
ung	-95
is	-96
▁diri	-97
hat	-98
▁ig	-99
ray	-100
ir	-101
▁ko	-102
▁bu	-103
▁kon	-104
tanan	-105
waray	-106
▁ngatanan	-107
▁dyos	-108
ik	-109
▁waray	-110
una	-111
▁iyo	-112
▁niya	-113
ugo	-114
▁kamo	-115
po	-116
ru	-117
▁sa	-118
it	-119
han	-120
gad	-121
ong	-122
iring	-123
undi	-124
▁kundi	-125
bi	-126
▁usa	-127
▁tu	-128
▁didto	-129
tu	-130
▁ngadto	-131
▁hini	-132
yan	-133
mat	-134
▁kan	-135
ud	-136
▁l	-137
asa	-138
aki	-139
yon	-140
ran	-141
do	-142
el	-143
man	-144
agi	-145
▁o	-146
▁igin	-147
▁kay	-148
hu	-149
▁sugad	-150
hon	-151
▁e	-152
siring	-153
ikang	-154
▁je	-155
▁nira	-156
▁amo	-157
▁gud	-158
law	-159
▁hadi	-160
asi	-161
▁anak	-162
pay	-163
tay	-164
yaw	-165
▁ug	-166
lan	-167
ko	-168
en	-169
▁mo	-170
▁pagka	-171
▁ad	-172
▁mak	-173
▁kina	-174
mon	-175
▁tikang	-176
▁li	-177
was	-178
bot	-179
lit	-180
▁kam	-181
▁is	-182
uda	-183
tang	-184
ungod	-185
▁sang	-186
id	-187
▁dida	-188
▁man	-189
buhat	-190
em	-191
uha	-192
ig	-193
og	-194
▁para	-195
▁sanglit	-196
lu	-197
wat	-198
▁ga	-199
inu	-200
▁isra	-201
▁tuna	-202
▁nas	-203
isan	-204
▁niyo	-205
ho	-206
himo	-207
pi	-208
▁nagsiring	-209
▁bisan	-210
▁at	-211
▁pan	-212
way	-213
ot	-214
ton	-215
▁tungod	-216
es	-217
▁adlaw	-218
ban	-219
ita	-220
pod	-221
upay	-222
lad	-223
▁pina	-224
yuda	-225
▁ano	-226
mu	-227
bay	-228
▁kas	-229
lin	-230
hang	-231
hatag	-232
ako	-233
▁kata	-234
sus	-235
▁israel	-236
▁liwat	-237
lak	-238
pu	-239
▁pana	-240
▁bin	-241
yada	-242
▁y	-243
ti	-244
ron	-245
▁basi	-246
▁niyan	-247
dan	-248
yag	-249
hanglan	-250
huna	-251
▁amon	-252
▁nak	-253
dara	-254
hin	-255
ul	-256
yudad	-257
▁syudad	-258
pit	-259
▁bala	-260
er	-261
▁maka	-262
▁ti	-263
▁jo	-264
▁kami	-265
▁pinaagi	-266
▁ika	-267
▁paga	-268
▁jesus	-269
uro	-270
▁ginpa	-271
▁kin	-272
bat	-273
▁kada	-274
▁kinahanglan	-275
▁iba	-276
▁mayada	-277
▁ayaw	-278
▁yana	-279
pos	-280
▁aton	-281
▁tin	-282
▁sala	-283
▁mahi	-284
matay	-285
▁kaa	-286
▁maa	-287
▁pagpa	-288
ram	-289
buhi	-290
dian	-291
he	-292
na	-293
mpo	-294
ugos	-295
ad	-296
▁naka	-297
▁nat	-298
raot	-299
agan	-300
mala	-301
akita	-302
lik	-303
dalo	-304
akan	-305
ondalo	-306
haw	-307
sal	-308
▁may	-309
sugo	-310
emp	-311
ulo	-312
▁temp	-313
▁maupay	-314
koy	-315
▁pagp	-316
ruyag	-317
▁bugos	-318
▁nagpa	-319
um	-320
mati	-321
▁panahon	-322
▁kita	-323
enan	-324
▁templo	-325
may	-326
si	-327
ring	-328
baw	-329
▁kala	-330
▁makaka	-331
▁c	-332
▁kat	-333
▁dapit	-334
▁kaba	-335
▁mata	-336
dlo	-337
▁butang	-338
vid	-339
▁david	-340
▁sin	-341
▁pagk	-342
garing	-343
▁kalu	-344
▁nasod	-345
dlok	-346
gaw	-347
▁si	-348
rang	-349
itan	-350
salem	-351
rusalem	-352
▁lu	-353
don	-354
▁jerusalem	-355
▁un	-356
eo	-357
garingon	-358
▁kali	-359
▁kalugaringon	-360
▁kaha	-361
lon	-362
▁karuyag	-363
pon	-364
om	-365
▁upod	-366
▁aa	-367
sumat	-368
▁es	-369
rag	-370
▁bung	-371
▁amay	-372
▁ginbuhat	-373
mang	-374
▁katapos	-375
▁ginp	-376
lig	-377
baro	-378
uo	-379
▁ju	-380
▁mas	-381
▁damo	-382
▁halad	-383
▁gi	-384
▁din	-385
dog	-386
▁pagtu	-387
lod	-388
ugma	-389
yakan	-390
ingba	-391
▁hino	-392
▁pagta	-393
mi	-394
dong	-395
us	-396
ling	-397
lwas	-398
▁babay	-399
▁bat	-400
halad	-401
▁nahi	-402
▁kinabuhi	-403
▁ikaw	-404
▁kama	-405
bati	-406
indog	-407
▁pagda	-408
re	-409
▁pi	-410
atu	-411
qu	-412
lala	-413
ises	-414
▁moises	-415
unod	-416
▁babaye	-417
ob	-418
▁duha	-419
▁ginta	-420
▁paki	-421
hanon	-422
ris	-423
▁pin	-424
bong	-425
▁pags	-426
las	-427
00	-428
▁pagkaon	-429
raw	-430
bangan	-431
▁gint	-432
uno	-433
eli	-434
ugto	-435
hip	-436
ero	-437
▁kapa	-438
gon	-439
asala	-440
▁kaaway	-441
igo	-442
nga	-443
hipto	-444
▁juda	-445
▁atu	-446
maton	-447
▁atubangan	-448
▁balaod	-449
▁ehipto	-450
rn	-451
hom	-452
raan	-453
ias	-454
▁binmaton	-455
▁magpa	-456
▁maaram	-457
mit	-458
▁pang	-459
se	-460
▁pagsu	-461
▁sam	-462
▁naga	-463
pan	-464
▁hito	-465
▁ngahaw	-466
gugma	-467
▁judi	-468
▁adton	-469
rat	-470
▁paghi	-471
▁bungto	-472
butan	-473
▁kab	-474
▁nan	-475
tayon	-476
anon	-477
▁unta	-478
▁lang	-479
et	-480
ago	-481
ondalohan	-482
▁kinma	-483
ay	-484
▁kasondalohan	-485
lis	-486
▁tina	-487
wag	-488
hunahuna	-489
dayon	-490
elita	-491
▁tuig	-492
▁pagbu	-493
▁israelita	-494
war	-495
pat	-496
▁nasiring	-497
tas	-498
unan	-499
tob	-500
no	-501
▁sur	-502
▁judiyo	-503
▁al	-504
tra	-505
ugoon	-506
lakenan	-507
paka	-508
▁kalalakenan	-509
▁asa	-510
▁balay	-511
▁sumala	-512
▁tinu	-513
▁buhi	-514
tar	-515
rok	-516
▁dinhe	-517
▁surugoon	-518
kas	-519
ulong	-520
dton	-521
▁tri	-522
oy	-523
▁nagka	-524
▁karn	-525
▁samtang	-526
anay	-527
▁ginsa	-528
tigo	-529
▁baraan	-530
tdo	-531
anto	-532
kitan	-533
long	-534
piri	-535
▁kalibutan	-536
ia	-537
unong	-538
▁hadton	-539
▁langit	-540
▁dako	-541
ukoy	-542
▁gahom	-543
kan	-544
or	-545
▁diin	-546
ac	-547
hanan	-548
▁ngada	-549
ria	-550
hina	-551
ab	-552
▁mana	-553
▁pani	-554
▁nakaka	-555
pis	-556
▁duro	-557
▁ngaran	-558
uma	-559
▁labi	-560
▁magma	-561
diyos	-562
▁ab	-563
hag	-564
gay	-565
uk	-566
▁lin	-567
▁iginhatag	-568
▁sugo	-569
usog	-570
▁nagt	-571
ngan	-572
manon	-573
▁tag	-574
akiana	-575
agian	-576
▁nagp	-577
▁sako	-578
▁tulin	-579
▁as	-580
rani	-581
bas	-582
bilin	-583
rawat	-584
▁ipa	-585
▁ginha	-586
lipay	-587
risto	-588
▁kahi	-589
▁padi	-590
uri	-591
ragna	-592
▁hinkitan	-593
▁ginsiring	-594
balik	-595
▁altar	-596
mabot	-597
▁manaragna	-598
▁paka	-599
hadi	-600
btob	-601
▁kinmadto	-602
▁ito	-603
ratan	-604
▁pagt	-605
▁pulong	-606
▁makak	-607
yal	-608
▁dayon	-609
mangraw	-610
dam	-611
▁puno	-612
▁tubtob	-613
▁ginhimo	-614
▁lawas	-615
▁karnero	-616
big	-617
malay	-618
▁hadto	-619
mp	-620
baya	-621
▁pamati	-622
▁gindara	-623
▁panimalay	-624
▁diyos	-625
▁espiri	-626
yop	-627
▁kwar	-628
▁labaw	-629
yonan	-630
▁opis	-631
▁opisyal	-632
▁bahin	-633
▁pu	-634
▁kau	-635
wan	-636
kod	-637
▁maga	-638
looy	-639
▁1	-640
▁buhat	-641
lawan	-642
▁pagbuhat	-643
▁espiritu	-644
▁namon	-645
il	-646
adman	-647
lake	-648
▁bulawan	-649
▁pak	-650
▁binu	-651
▁kababay	-652
▁sondalo	-653
▁kababayenan	-654
▁maraot	-655
▁pangulo	-656
uokoy	-657
▁gintu	-658
▁tribo	-659
▁kapadian	-660
▁lalake	-661
bod	-662
▁bato	-663
iran	-664
gara	-665
▁kabu	-666
ea	-667
gang	-668
▁sulod	-669
▁matadong	-670
tungod	-671
log	-672
pas	-673
▁gina	-674
▁magta	-675
gat	-676
bang	-677
▁tubig	-678
▁nagk	-679
▁kontra	-680
usa	-681
am	-682
hadlok	-683
mot	-684
bubuhat	-685
▁mahitungod	-686
gawas	-687
▁pagla	-688
eohanon	-689
▁kahu	-690
pak	-691
lakat	-692
▁nags	-693
▁mat	-694
iha	-695
yuday	-696
ikan	-697
▁dayuday	-698
▁magraot	-699
▁magk	-700
▁taga	-701
▁asawa	-702
rig	-703
lim	-704
▁ar	-705
gawan	-706
himangraw	-707
hoy	-708
▁san	-709
lagad	-710
era	-711
san	-712
rong	-713
kay	-714
▁sid	-715
op	-716
pung	-717
baton	-718
bon	-719
kom	-720
ingkas	-721
ingkasing	-722
▁f	-723
▁kal	-724
kon	-725
▁kahoy	-726
ugot	-727
▁mang	-728
▁cristo	-729
ungk	-730
olo	-731
▁ginsu	-732
ranan	-733
de	-734
▁paagi	-735
os	-736
bog	-737
▁matu	-738
▁tulo	-739
lda	-740
▁giha	-741
▁angay	-742
▁ginsugo	-743
▁ginhadian	-744
ros	-745
▁le	-746
whan	-747
▁baka	-748
▁gabi	-749
▁kamot	-750
te	-751
hel	-752
▁inmabot	-753
daog	-754
▁ang	-755
▁mapa	-756
bok	-757
▁paghu	-758
dung	-759
bilon	-760
▁se	-761
unga	-762
ripon	-763
▁binma	-764
▁gins	-765
unaan	-766
▁tulda	-767
▁katunaan	-768
▁gink	-769
liat	-770
butang	-771
ungkag	-772
▁bugto	-773
aran	-774
antos	-775
▁ginsaaran	-776
say	-777
pili	-778
▁kahadlok	-779
▁naki	-780
angyaw	-781
▁hiunong	-782
▁kaka	-783
▁buk	-784
▁tagsa	-785
▁babilon	-786
▁saul	-787
▁kataposan	-788
batian	-789
mhanan	-790
▁pagsingba	-791
▁bang	-792
▁anghel	-793
▁kinaadman	-794
bos	-795
▁patay	-796
▁katawhan	-797
asabot	-798
hinabo	-799
▁magtu	-800
sumatan	-801
▁pagd	-802
talwas	-803
lat	-804
▁jac	-805
▁men	-806
so	-807
bungkag	-808
▁bukid	-809
bido	-810
▁lev	-811
▁jacob	-812
bal	-813
unog	-814
ugtoan	-815
▁kabugtoan	-816
payon	-817
▁nagsu	-818
▁ngani	-819
▁kamaka	-820
▁jud	-821
iti	-822
gaway	-823
gamit	-824
▁kamin	-825
▁naguokoy	-826
▁lug	-827
▁bulan	-828
▁pagsa	-829
los	-830
mal	-831
▁ulo	-832
▁kamingawan	-833
▁hu	-834
agiw	-835
akit	-836
inaw	-837
yahan	-838
▁pakig	-839
▁kalayo	-840
isi	-841
▁salapi	-842
▁iginpa	-843
▁iha	-844
▁kadayonan	-845
umdo	-846
▁lugod	-847
▁pagto	-848
baroan	-849
▁karatan	-850
ham	-851
pton	-852
▁aada	-853
▁pagampo	-854
atan	-855
▁tinunan	-856
▁2	-857
kot	-858
pakita	-859
im	-860
▁tam	-861
▁aaron	-862
hum	-863
puo	-864
▁ben	-865
▁nagtu	-866
▁lain	-867
▁magt	-868
▁banay	-869
▁dalan	-870
▁gihapon	-871
▁bi	-872
▁gad	-873
▁mensa	-874
▁syahan	-875
▁ik	-876
▁mensahe	-877
▁panapton	-878
▁babilonia	-879
wayan	-880
▁pito	-881
ugpo	-882
▁nagpakiana	-883
▁kamatayon	-884
dor	-885
urog	-886
▁nagta	-887
▁naa	-888
bulig	-889
▁kasingkasing	-890
mpa	-891
yas	-892
botan	-893
pakadto	-894
yayakan	-895
be	-896
andam	-897
▁gang	-898
me	-899
▁kaapo	-900
▁eli	-901
garahum	-902
▁anay	-903
astigo	-904
▁kasina	-905
▁magpapa	-906
yapo	-907
yapoyan	-908
▁kaapoyapoyan	-909
co	-910
▁kanan	-911
▁aga	-912
pungot	-913
asidung	-914
pdan	-915
ani	-916
lipayon	-917
bit	-918
▁lig	-919
▁sakop	-920
▁nagsugo	-921
non	-922
haan	-923
ilo	-924
▁isa	-925
▁mahu	-926
▁ligid	-927
roy	-928
▁00	-929
payan	-930
surat	-931
▁nata	-932
▁hugpo	-933
▁ganghaan	-934
▁katu	-935
▁nagpapa	-936
dang	-937
agiya	-938
▁pagtoo	-939
▁oripon	-940
▁gu	-941
▁000	-942
▁solo	-943
▁salog	-944
▁solomon	-945
▁diyosdiyos	-946
▁re	-947
bihag	-948
▁pagabot	-949
▁levita	-950
uru	-951
ruhat	-952
buhaton	-953
▁bino	-954
diyosan	-955
▁mahihimo	-956
duha	-957
ngon	-958
▁nimo	-959
▁tinuod	-960
▁manana	-961
▁kak	-962
ganga	-963
za	-964
▁kadiyosan	-965
▁napu	-966
▁hig	-967
anaw	-968
▁gawas	-969
pin	-970
yawa	-971
▁kwarta	-972
byan	-973
▁jon	-974
▁naghu	-975
agko	-976
▁kamakagarahum	-977
tirok	-978
▁dagat	-979
▁pagdayaw	-980
raham	-981
hod	-982
▁jose	-983
▁ting	-984
dako	-985
▁binuhat	-986
huway	-987
urian	-988
▁bata	-989
▁abraham	-990
der	-991
▁ru	-992
▁kahadian	-993
mbong	-994
▁hinbatian	-995
▁fi	-996
hata	-997
inom	-998
lasyo	-999
ca	-1000
lag	-1001
▁nakadto	-1002
▁pagkama	-1003
▁palasyo	-1004
▁iroy	-1005
▁kasa	-1006
anhi	-1007
lagiw	-1008
▁magka	-1009
ungdan	-1010
▁hayop	-1011
▁maabot	-1012
▁tinapay	-1013
▁labot	-1014
▁sumat	-1015
dis	-1016
▁hirani	-1017
▁mags	-1018
teohanon	-1019
▁iginsiring	-1020
ol	-1021
▁pe	-1022
maya	-1023
angka	-1024
▁nahinabo	-1025
mama	-1026
▁ara	-1027
▁filis	-1028
▁pader	-1029
poran	-1030
rayaw	-1031
▁dugo	-1032
▁nang	-1033
eb	-1034
▁dada	-1035
mangno	-1036
asay	-1037
▁nagla	-1038
lot	-1039
rom	-1040
▁kahuman	-1041
▁nagpadayon	-1042
▁linm	-1043
▁nati	-1044
▁uma	-1045
▁dara	-1046
▁kamat	-1047
ding	-1048
saad	-1049
irangan	-1050
ras	-1051
gasa	-1052
ikas	-1053
▁nagukoy	-1054
ng	-1055
mok	-1056
pada	-1057
upod	-1058
▁bangin	-1059
▁nakak	-1060
irde	-1061
▁pira	-1062
▁mananap	-1063
al	-1064
go	-1065
▁but	-1066
dadara	-1067
▁paghigugma	-1068
▁ginhu	-1069
ruhaton	-1070
▁buruhaton	-1071
▁ginbubuhat	-1072
ara	-1073
baba	-1074
▁binmalik	-1075
ugon	-1076
▁magkaka	-1077
▁namatay	-1078
▁panu	-1079
▁kaupod	-1080
▁nahimo	-1081
▁nagyakan	-1082
pina	-1083
anali	-1084
▁nabu	-1085
▁tutu	-1086
▁judas	-1087
▁mahin	-1088
dro	-1089
sue	-1090
▁igk	-1091
▁bago	-1092
lubong	-1093
▁punoan	-1094
▁pagawayan	-1095
▁mabu	-1096
angkon	-1097
mayada	-1098
▁maghu	-1099
▁jonatan	-1100
▁maiha	-1101
atag	-1102
enti	-1103
▁maki	-1104
asaylo	-1105
gi	-1106
▁josue	-1107
inumanon	-1108
▁pagsulong	-1109
▁sinirangan	-1110
blo	-1111
tam	-1112
riko	-1113
▁kusog	-1114
▁gintagan	-1115
lain	-1116
dayaw	-1117
etros	-1118
▁kuma	-1119
▁pinan	-1120
▁daw	-1121
linis	-1122
▁matuod	-1123
uli	-1124
▁ra	-1125
igin	-1126
taas	-1127
▁kanay	-1128
▁pablo	-1129
▁pakigaway	-1130
▁ginnga	-1131
▁batanon	-1132
▁pamatii	-1133
agu	-1134
▁me	-1135
▁abi	-1136
hangyo	-1137
quias	-1138
▁masu	-1139
▁upat	-1140
▁sinmu	-1141
▁ginngaranan	-1142
rangdon	-1143
▁ginpatay	-1144
▁bay	-1145
▁igo	-1146
▁filisteohanon	-1147
▁paghimo	-1148
▁kakurian	-1149
▁pagpatay	-1150
▁manggad	-1151
▁am	-1152
libot	-1153
▁sinm	-1154
▁naton	-1155
▁naghimo	-1156
aw	-1157
▁ami	-1158
muban	-1159
rigon	-1160
▁ginsumatan	-1161
ini	-1162
▁tingog	-1163
▁kasangka	-1164
▁baw	-1165
▁tak	-1166
uoran	-1167
▁gamhanan	-1168
▁kahamuban	-1169
▁kamatuoran	-1170
▁jor	-1171
▁kasu	-1172
▁kampo	-1173
▁kwarto	-1174
▁paghalad	-1175
tom	-1176
▁bet	-1177
▁jordan	-1178
▁ginpili	-1179
▁ac	-1180
▁tan	-1181
▁magmama	-1182
▁sag	-1183
boron	-1184
▁bina	-1185
▁huna	-1186
tubyan	-1187
▁kaupayan	-1188
▁py	-1189
esta	-1190
orta	-1191
▁magigin	-1192
▁hunahuna	-1193
ben	-1194
▁igha	-1195
lisang	-1196
akat	-1197
▁asi	-1198
▁andam	-1199
▁ef	-1200
▁sara	-1201
▁espada	-1202
ano	-1203
ere	-1204
▁tinaporan	-1205
son	-1206
laki	-1207
▁igkasi	-1208
▁sama	-1209
▁kapawa	-1210
▁tinubod	-1211
pukan	-1212
tuman	-1213
▁pyesta	-1214
dad	-1215
tiay	-1216
gayon	-1217
gas	-1218
baho	-1219
▁pas	-1220
uhaon	-1221
ikanan	-1222
▁kabuk	-1223
▁tana	-1224
▁ubos	-1225
asalamat	-1226
▁ginikanan	-1227
rim	-1228
anabo	-1229
▁juan	-1230
▁pedro	-1231
inahanglan	-1232
ugotan	-1233
▁nagaa	-1234
▁takna	-1235
▁kalinaw	-1236
▁gintawag	-1237
▁pagkahadi	-1238
▁adto	-1239
▁maha	-1240
▁mamatay	-1241
▁kabukiran	-1242
bngan	-1243
▁lana	-1244
▁aadto	-1245
himu	-1246
▁paghatag	-1247
mas	-1248
bahin	-1249
lingo	-1250
sugot	-1251
▁ginma	-1252
▁henti	-1253
▁pagukoy	-1254
alo	-1255
isog	-1256
▁kahon	-1257
▁porta	-1258
▁bawbaw	-1259
▁hentil	-1260
▁ihahatag	-1261
umara	-1262
isingba	-1263
▁pagtuman	-1264
▁oli	-1265
▁siring	-1266
▁kalipay	-1267
▁pakabati	-1268
▁dagko	-1269
▁bana	-1270
▁sano	-1271
▁tiga	-1272
▁lalaki	-1273
lilisang	-1274
▁maghi	-1275
▁sakob	-1276
rot	-1277
▁ginka	-1278
▁nagma	-1279
▁kablas	-1280
▁amihanan	-1281
raog	-1282
▁saad	-1283
▁pagalagad	-1284
mos	-1285
▁hang	-1286
▁butnga	-1287
▁lurong	-1288
luya	-1289
▁sumati	-1290
rias	-1291
▁karu	-1292
unanhon	-1293
▁ikaduha	-1294
▁kalooy	-1295
▁metros	-1296
▁malipayon	-1297
pag	-1298
pot	-1299
anak	-1300
igon	-1301
▁nagd	-1302
▁pagsiring	-1303
lay	-1304
iton	-1305
tutdo	-1306
▁sere	-1307
tos	-1308
▁mar	-1309
▁makakag	-1310
▁uunanhon	-1311
ilala	-1312
▁napa	-1313
▁panga	-1314
▁gintindog	-1315
▁z	-1316
▁to	-1317
abot	-1318
ligya	-1319
mogan	-1320
▁panuigon	-1321
▁ban	-1322
▁basa	-1323
▁hadianon	-1324
damo	-1325
▁una	-1326
ragan	-1327
lingkod	-1328
▁ginkuha	-1329
▁paghukom	-1330
▁mi	-1331
▁tum	-1332
▁igpa	-1333
▁patu	-1334
▁lumal	-1335
▁magsa	-1336
▁naghi	-1337
bnganan	-1338
▁agaron	-1339
▁aragian	-1340
▁magturu	-1341
▁lubnganan	-1342
▁lumalangyaw	-1343
▁el	-1344
lili	-1345
▁olibo	-1346
raogdaog	-1347
ikita	-1348
▁cana	-1349
▁makas	-1350
▁simon	-1351
▁asiria	-1352
▁magupay	-1353
monyas	-1354
▁ginbu	-1355
▁kabayo	-1356
▁seremonyas	-1357
diri	-1358
tangis	-1359
▁iginsugo	-1360
▁pagbubuhaton	-1361
yen	-1362
amin	-1363
erna	-1364
▁pama	-1365
rayo	-1366
riso	-1367
▁tinm	-1368
▁magturutdo	-1369
▁papa	-1370
▁gugma	-1371
▁pagma	-1372
▁iginsaad	-1373
umhan	-1374
▁hinumdo	-1375
▁kanding	-1376
▁pinamatay	-1377
▁makakahimo	-1378
ati	-1379
▁it	-1380
▁buwa	-1381
▁nasa	-1382
▁sinu	-1383
bayaan	-1384
▁siria	-1385
ikangan	-1386
▁canaan	-1387
ungdanan	-1388
▁katungdanan	-1389
▁ku	-1390
▁kaumhan	-1391
▁du	-1392
wahe	-1393
jamin	-1394
▁magbu	-1395
ulod	-1396
undan	-1397
▁hiagi	-1398
▁araway	-1399
▁mapatay	-1400
▁ginsulong	-1401
tol	-1402
anam	-1403
iwas	-1404
himoon	-1405
▁pagba	-1406
▁benjamin	-1407
▁kasuratan	-1408
▁tiil	-1409
▁dampo	-1410
▁iginhalad	-1411
▁pagpasidung	-1412
ohon	-1413
▁bar	-1414
ronse	-1415
▁nganhi	-1416
▁karuwahe	-1417
▁nagtikang	-1418
bayo	-1419
likway	-1420
▁sakit	-1421
▁bronse	-1422
▁dampog	-1423
▁kabido	-1424
▁sidngon	-1425
akay	-1426
syen	-1427
arabot	-1428
banhaw	-1429
erador	-1430
lilipay	-1431
▁tiarabot	-1432
lawas	-1433
▁kapi	-1434
▁pagul	-1435
▁basahan	-1436
▁nagbaton	-1437
ok	-1438
uhaa	-1439
atulo	-1440
salin	-1441
wagon	-1442
gamhanan	-1443
▁timogan	-1444
▁emp	-1445
tason	-1446
▁pinm	-1447
anampan	-1448
▁buhaton	-1449
▁nabuhat	-1450
▁paglaom	-1451
▁pagbuhaton	-1452
▁naghimangraw	-1453
▁ne	-1454
wali	-1455
bayad	-1456
▁pagpaka	-1457
▁emperador	-1458
▁kamanampan	-1459
▁nagbubuhat	-1460
▁kasangkayan	-1461
dom	-1462
iban	-1463
▁igs	-1464
▁mil	-1465
▁asno	-1466
▁nahu	-1467
▁magha	-1468
▁nagbu	-1469
limbong	-1470
rahuway	-1471
▁nakasala	-1472
▁iginbutang	-1473
▁kadto	-1474
▁kanda	-1475
hitason	-1476
▁nakita	-1477
▁tutuboron	-1478
du	-1479
tod	-1480
isid	-1481
liwan	-1482
tagan	-1483
syenso	-1484
▁kadamo	-1485
▁insyenso	-1486
galo	-1487
rono	-1488
tasan	-1489
▁moab	-1490
▁pagpu	-1491
▁trono	-1492
itanhon	-1493
▁gutiay	-1494
▁makusog	-1495
onon	-1496
wara	-1497
▁tugo	-1498
▁hibaro	-1499
▁mahugaw	-1500
▁ginmawas	-1501
▁nahadlok	-1502
▁pagkastigo	-1503
yu	-1504
ena	-1505
▁be	-1506
bawi	-1507
boam	-1508
para	-1509
ronan	-1510
▁inmu	-1511
▁kabata	-1512
▁pagdara	-1513
▁pagultan	-1514
bun	-1515
akop	-1516
raka	-1517
anhan	-1518
urosa	-1519
rangan	-1520
roboam	-1521
▁masunod	-1522
▁tigaman	-1523
▁apo	-1524
▁kad	-1525
▁uru	-1526
ligan	-1527
oliat	-1528
pintas	-1529
▁nagampo	-1530
▁pakakita	-1531
larom	-1532
▁yawa	-1533
▁regalo	-1534
▁ed	-1535
▁im	-1536
asarang	-1537
inuohon	-1538
▁ginpaka	-1539
▁harangdon	-1540
▁mahinanabo	-1541
▁pagturonan	-1542
ikinahanglan	-1543
ward	-1544
▁nagu	-1545
anawon	-1546
▁sayop	-1547
isiring	-1548
▁naglala	-1549
▁kabataan	-1550
▁pagtindog	-1551
odo	-1552
▁nagba	-1553
▁umabot	-1554
▁kamatay	-1555
▁ehiptohanon	-1556
fa	-1557
aso	-1558
igan	-1559
tawo	-1560
▁heb	-1561
lagan	-1562
sugad	-1563
▁hain	-1564
▁mina	-1565
▁ubas	-1566
▁liyon	-1567
▁ginpapa	-1568
▁pagtutu	-1569
ases	-1570
rigi	-1571
yaan	-1572
logan	-1573
▁bunga	-1574
▁nakig	-1575
▁sunod	-1576
disyonan	-1577
▁nahatag	-1578
▁hihimoon	-1579
▁pagkadto	-1580
▁pagyakan	-1581
▁iparahuway	-1582
has	-1583
lam	-1584
muel	-1585
▁joab	-1586
▁makuri	-1587
pil	-1588
▁mama	-1589
▁natu	-1590
▁gward	-1591
▁himaya	-1592
akastigo	-1593
▁manases	-1594
kik	-1595
bias	-1596
▁tung	-1597
bidoon	-1598
▁hinimo	-1599
▁paglabay	-1600
akip	-1601
▁dung	-1602
▁ginu	-1603
▁tang	-1604
bantay	-1605
▁ginda	-1606
▁nagha	-1607
kikitan	-1608
▁samuel	-1609
▁sangkay	-1610
▁katungod	-1611
bad	-1612
hinu	-1613
▁kuk	-1614
▁tig	-1615
liseo	-1616
sahon	-1617
▁kitaa	-1618
▁eliseo	-1619
▁gintalwas	-1620
ze	-1621
hay	-1622
pad	-1623
taya	-1624
asawa	-1625
▁jesu	-1626
▁kilo	-1627
▁hangin	-1628
▁harigi	-1629
▁kapungot	-1630
▁ja	-1631
lolo	-1632
▁dum	-1633
▁kagu	-1634
▁tata	-1635
tagiya	-1636
▁ginhi	-1637
▁isaac	-1638
isidman	-1639
▁sadang	-1640
akianhan	-1641
▁magtadong	-1642
▁kasisidman	-1643
▁makalilisang	-1644
tio	-1645
queo	-1646
▁put	-1647
▁makag	-1648
▁singba	-1649
▁pagbalik	-1650
kad	-1651
inus	-1652
kman	-1653
osor	-1654
pang	-1655
sang	-1656
tawag	-1657
▁nala	-1658
kastigo	-1659
▁buhata	-1660
▁higayon	-1661
▁katundan	-1662
▁pagbulig	-1663
cod	-1664
saran	-1665
▁pagi	-1666
▁turu	-1667
▁magin	-1668
▁nagkaka	-1669
▁pagdada	-1670
▁tatagan	-1671
▁magtinuohon	-1672
hog	-1673
uok	-1674
▁ca	-1675
▁sus	-1676
itirok	-1677
▁gamit	-1678
▁kanta	-1679
▁palibot	-1680
▁pagantos	-1681
▁tipakadto	-1682
▁pagdaragan	-1683
▁matinumanon	-1684
wasa	-1685
▁dug	-1686
laran	-1687
manhi	-1688
▁daan	-1689
cristo	-1690
gasawa	-1691
▁gwardya	-1692
inuswagon	-1693
▁masiring	-1694
▁pagsumat	-1695
▁jesucristo	-1696
▁makasasala	-1697
bak	-1698
ugu	-1699
yog	-1700
pito	-1701
tadong	-1702
uruupay	-1703
▁kinaka	-1704
▁pagkuha	-1705
▁gintuman	-1706
▁tinikangan	-1707
yod	-1708
▁ag	-1709
basan	-1710
dawan	-1711
gatan	-1712
▁mapu	-1713
▁nahin	-1714
▁napulo	-1715
▁sinmulod	-1716
▁hinumdomi	-1717
ec	-1718
anta	-1719
codon	-1720
likay	-1721
dongan	-1722
puohon	-1723
▁antio	-1724
▁mardo	-1725
▁binmaya	-1726
▁nagdara	-1727
codonosor	-1728
▁nabucodonosor	-1729
kaw	-1730
wad	-1731
▁huk	-1732
▁uro	-1733
▁bado	-1734
▁gind	-1735
▁naghatag	-1736
▁paglakat	-1737
▁hinigugma	-1738
▁mardoqueo	-1739
▁lima	-1740
▁pung	-1741
▁gudla	-1742
▁natoo	-1743
▁tinma	-1744
▁ikatulo	-1745
▁kapitan	-1746
▁samaria	-1747
▁singbahan	-1748
▁ginpakianhan	-1749
rio	-1750
gpit	-1751
▁gob	-1752
▁tuo	-1753
▁himo	-1754
▁mahimo	-1755
▁nagsus	-1756
analipod	-1757
▁ladawan	-1758
▁nakilala	-1759
▁iginsumat	-1760
▁kahulogan	-1761
▁panhunahuna	-1762
pe	-1763
lom	-1764
sad	-1765
ter	-1766
hara	-1767
matu	-1768
▁eze	-1769
upayi	-1770
▁kinm	-1771
▁magu	-1772
▁sion	-1773
▁elias	-1774
▁milag	-1775
▁kastigo	-1776
▁hinagian	-1777
▁nanganga	-1778
▁turumanon	-1779
daw	-1780
pig	-1781
gabi	-1782
laba	-1783
▁ging	-1784
▁mawa	-1785
alohan	-1786
hibaro	-1787
▁igbaw	-1788
atubang	-1789
▁bungsaran	-1790
▁naghuhunahuna	-1791
ili	-1792
pirde	-1793
▁acab	-1794
▁gala	-1795
▁kota	-1796
▁binmu	-1797
▁mahiba	-1798
▁milagro	-1799
▁mauruupay	-1800
rotan	-1801
▁efra	-1802
▁gini	-1803
lolooy	-1804
▁banto	-1805
hinatag	-1806
▁iginsu	-1807
▁tugoti	-1808
▁ezequias	-1809
agna	-1810
inga	-1811
▁panon	-1812
▁nakada	-1813
inaadman	-1814
▁maguokoy	-1815
tapo	-1816
roton	-1817
▁magsu	-1818
ganiban	-1819
haradlok	-1820
▁goberna	-1821
▁kukuhaon	-1822
▁bubuhaton	-1823
▁pananawon	-1824
▁hinganiban	-1825
inaadmananon	-1826
akos	-1827
▁ahi	-1828
▁ata	-1829
▁gaba	-1830
▁aanhi	-1831
▁ginpu	-1832
▁lakip	-1833
▁tanom	-1834
ruruyag	-1835
▁kanaso	-1836
▁panang	-1837
▁nahigugma	-1838
▁nahisurat	-1839
▁gobernador	-1840
▁nagpabilin	-1841
yad	-1842
luag	-1843
▁umu	-1844
▁hina	-1845
▁urubasan	-1846
▁kanasoran	-1847
rin	-1848
ubos	-1849
▁mes	-1850
▁ray	-1851
ganan	-1852
▁riko	-1853
ragman	-1854
▁surat	-1855
▁makakapa	-1856
▁kataragman	-1857
eta	-1858
ruba	-1859
inguha	-1860
▁kahim	-1861
▁magba	-1862
▁manta	-1863
hilawas	-1864
▁ihatag	-1865
▁tobias	-1866
▁binayaan	-1867
▁kaburoton	-1868
binu	-1869
▁mad	-1870
▁ginba	-1871
▁judea	-1872
▁kasay	-1873
▁pagha	-1874
▁patayon	-1875
aga	-1876
▁do	-1877
aksi	-1878
lulu	-1879
reho	-1880
umdom	-1881
▁pagu	-1882
▁pinu	-1883
▁magaa	-1884
▁tugon	-1885
▁galaad	-1886
▁panali	-1887
▁pagpakita	-1888
manan	-1889
▁baba	-1890
▁hirayo	-1891
analipdan	-1892
sias	-1893
siyo	-1894
▁sal	-1895
asias	-1896
▁balo	-1897
▁uran	-1898
limtan	-1899
▁karne	-1900
▁naghuhu	-1901
▁hinbaroan	-1902
▁igyayakan	-1903
linan	-1904
pausa	-1905
unano	-1906
▁abot	-1907
▁igsu	-1908
biling	-1909
▁gutom	-1910
▁pungtod	-1911
▁linmakat	-1912
▁pagtalwas	-1913
▁pari	-1914
▁sumu	-1915
▁mabuhi	-1916
▁natindog	-1917
▁paghibaro	-1918
▁papatayon	-1919
doy	-1920
tug	-1921
▁12	-1922
sasa	-1923
umea	-1924
▁inu	-1925
▁aman	-1926
tangan	-1927
▁makig	-1928
▁sanga	-1929
▁mamati	-1930
▁magmarang	-1931
lil	-1932
basa	-1933
umot	-1934
rabod	-1935
salon	-1936
▁masa	-1937
balhin	-1938
postol	-1939
▁efraim	-1940
▁makadto	-1941
▁pagkabu	-1942
▁binuhatan	-1943
11	-1944
▁nama	-1945
▁suru	-1946
miling	-1947
▁bulig	-1948
▁ginla	-1949
loloyon	-1950
▁salaan	-1951
▁magmarangno	-1952
mak	-1953
romp	-1954
ulos	-1955
▁bas	-1956
dakop	-1957
mando	-1958
▁lame	-1959
▁ester	-1960
▁nagsa	-1961
pakiana	-1962
▁kaupay	-1963
▁magpapadayon	-1964
ib	-1965
ian	-1966
▁baal	-1967
▁buho	-1968
▁hinma	-1969
▁nanga	-1970
▁priso	-1971
matngon	-1972
rompeta	-1973
▁burabod	-1974
▁pagsugot	-1975
▁so	-1976
daan	-1977
kita	-1978
lang	-1979
ptan	-1980
▁ina	-1981
▁sun	-1982
aniel	-1983
lilea	-1984
lwasa	-1985
▁dika	-1986
disyon	-1987
▁kinas	-1988
▁santo	-1989
▁nagsasa	-1990
▁hukmanan	-1991
▁kabidoan	-1992
▁pagdumara	-1993
▁kinasingkasing	-1994
▁makinaadmananon	-1995
hol	-1996
lid	-1997
moli	-1998
▁inm	-1999
bayan	-2000
lanat	-2001
matian	-2002
▁bihag	-2003
▁nakik	-2004
▁sagka	-2005
▁daniel	-2006
▁edumea	-2007
▁apostol	-2008
▁naghadi	-2009
himatngon	-2010
▁napakadto	-2011
▁susumatan	-2012
agmit	-2013
▁iini	-2014
▁mada	-2015
▁nagda	-2016
▁kadaman	-2017
▁minatay	-2018
▁nagsusu	-2019
▁pagkita	-2020
▁nagtindog	-2021
bag	-2022
sisa	-2023
song	-2024
tanom	-2025
▁agian	-2026
▁pulos	-2027
▁trigo	-2028
trabaho	-2029
▁ihalas	-2030
▁dikabayo	-2031
▁katulinan	-2032
▁nalingkod	-2033
▁naghunahuna	-2034
▁yu	-2035
away	-2036
elec	-2037
hing	-2038
inan	-2039
paso	-2040
dayag	-2041
emias	-2042
ugong	-2043
matuod	-2044
uokyan	-2045
▁nagin	-2046
▁naabot	-2047
▁nasina	-2048
▁natikang	-2049
▁ighahalad	-2050
▁masusugad	-2051
▁kagamhanan	-2052
lsa	-2053
tag	-2054
▁medi	-2055
▁paha	-2056
▁sumbong	-2057
▁gintirok	-2058
▁jeroboam	-2059
▁nagyayakan	-2060
▁pagdayawon	-2061
bla	-2062
kol	-2063
asig	-2064
aghat	-2065
rasya	-2066
rukom	-2067
tayan	-2068
toran	-2069
▁inop	-2070
▁luyo	-2071
▁suhag	-2072
▁absalon	-2073
▁hingpit	-2074
▁langyaw	-2075
▁katadongan	-2076
▁nakakalipay	-2077
le	-2078
basol	-2079
hinum	-2080
lawig	-2081
▁malon	-2082
▁pagli	-2083
linguha	-2084
▁ginpas	-2085
▁iginta	-2086
▁kinuha	-2087
▁lamesa	-2088
▁nagpap	-2089
▁sidnga	-2090
▁parisiyo	-2091
▁ighahatag	-2092
▁makarawat	-2093
▁maghurukom	-2094
btan	-2095
ilob	-2096
wang	-2097
▁dose	-2098
▁kamu	-2099
▁lina	-2100
▁sina	-2101
▁unom	-2102
▁buhis	-2103
▁dungog	-2104
▁kapung	-2105
▁sagdon	-2106
▁ihinatag	-2107
▁kinmanhi	-2108
▁magkalain	-2109
▁tinmindog	-2110
▁iginlubong	-2111
▁paghunahuna	-2112
211	-2113
pong	-2114
▁sapa	-2115
ikasan	-2116
▁tampo	-2117
▁ikapito	-2118
▁pakadto	-2119
▁ginpadara	-2120
fat	-2121
▁on	-2122
▁ro	-2123
dlan	-2124
▁per	-2125
pirit	-2126
moliat	-2127
ulobon	-2128
▁lalaw	-2129
itindog	-2130
asidunggan	-2131
▁lalawigan	-2132
▁kapungtoran	-2133
▁pagpasalamat	-2134
▁co	-2135
▁ge	-2136
ohan	-2137
mosta	-2138
▁tuyo	-2139
▁magla	-2140
▁nakon	-2141
▁bayhon	-2142
babaroan	-2143
reohanon	-2144
talwason	-2145
▁galilea	-2146
▁ighalad	-2147
▁pagbaya	-2148
▁pagtutdo	-2149
▁pagdadadon	-2150
▁magkalainlain	-2151
hak	-2152
hob	-2153
kar	-2154
▁esa	-2155
mokan	-2156
▁inin	-2157
▁grasya	-2158
▁pagkaaga	-2159
▁nagpadara	-2160
▁ala	-2161
▁daru	-2162
▁josa	-2163
▁rayna	-2164
▁yukot	-2165
▁inmoli	-2166
▁puthaw	-2167
▁mabalik	-2168
▁mabubuhi	-2169
▁pagandam	-2170
▁pagdayawa	-2171
ub	-2172
moo	-2173
labog	-2174
▁nagi	-2175
▁mahal	-2176
▁paglu	-2177
gamiton	-2178
▁kasamokan	-2179
▁magkakamayada	-2180
mbal	-2181
sanon	-2182
▁sime	-2183
▁tiro	-2184
bongan	-2185
▁sapit	-2186
▁tamsi	-2187
angitan	-2188
▁talwasa	-2189
▁tinagan	-2190
▁ginmoliat	-2191
▁kalangitan	-2192
que	-2193
rug	-2194
sag	-2195
waan	-2196
▁mai	-2197
rigan	-2198
▁tika	-2199
aganak	-2200
▁hatag	-2201
▁gimama	-2202
▁itugot	-2203
▁kumaon	-2204
▁antioco	-2205
▁bantogan	-2206
▁katalwas	-2207
▁nagkampo	-2208
▁sagkahon	-2209
▁hinungdan	-2210
▁pakibulig	-2211
lato	-2212
▁esau	-2213
▁lino	-2214
▁mala	-2215
▁nasu	-2216
▁tapo	-2217
sulong	-2218
unogon	-2219
▁buhok	-2220
higugma	-2221
▁makakas	-2222
▁ginagamit	-2223
▁ginbayaan	-2224
bite	-2225
labi	-2226
▁buot	-2227
▁pula	-2228
▁tagi	-2229
bunyag	-2230
▁ipapa	-2231
▁makik	-2232
▁tanan	-2233
hinumdom	-2234
▁nangung	-2235
bendisyonan	-2236
ikid	-2237
unay	-2238
▁tim	-2239
melec	-2240
ulang	-2241
ingkod	-2242
ogliat	-2243
rabaho	-2244
ugsong	-2245
umosta	-2246
▁kapat	-2247
▁saksi	-2248
▁nagtit	-2249
▁patubo	-2250
▁pinili	-2251
himutang	-2252
▁kaganak	-2253
▁malinis	-2254
▁ginpirde	-2255
▁pagtahod	-2256
▁binubuhat	-2257
▁nahisalin	-2258
▁katalwasan	-2259
msi	-2260
oli	-2261
kiti	-2262
pulo	-2263
digon	-2264
▁bara	-2265
▁ihina	-2266
▁pagano	-2267
▁pagpuo	-2268
▁ipakita	-2269
▁magbuhat	-2270
▁magsugot	-2271
▁mahinabo	-2272
▁nagaampo	-2273
▁nakabati	-2274
▁gagamiton	-2275
▁kapatagan	-2276
▁naglalakat	-2277
▁nagkamayada	-2278
tro	-2279
dlay	-2280
puno	-2281
rimo	-2282
litan	-2283
▁naha	-2284
▁pako	-2285
▁urok	-2286
longan	-2287
nganga	-2288
ugtang	-2289
▁atabay	-2290
▁urokyan	-2291
▁paggawas	-2292
▁pagsulod	-2293
▁apostoles	-2294
▁pagkamatadong	-2295
▁pagpasidungog	-2296
dak	-2297
▁20	-2298
▁her	-2299
▁buma	-2300
▁jehu	-2301
mamatayon	-2302
▁mapintas	-2303
▁nagsumat	-2304
▁magdadara	-2305
akastigohon	-2306
▁tatalwason	-2307
▁paghimangraw	-2308
ugop	-2309
msihan	-2310
▁sinma	-2311
anapulo	-2312
▁pagkat	-2313
▁dadadon	-2314
▁pagsugo	-2315
▁katamsihan	-2316
▁amoreohanon	-2317
▁pagkakastigohon	-2318
igu	-2319
mag	-2320
nan	-2321
rog	-2322
zar	-2323
▁jeri	-2324
▁kros	-2325
▁garam	-2326
▁kauro	-2327
▁magda	-2328
▁nanhi	-2329
▁ilarom	-2330
▁tanawa	-2331
asayloon	-2332
▁tangkod	-2333
▁garamiton	-2334
▁nalilipay	-2335
▁pagtutumanon	-2336
rona	-2337
▁nau	-2338
ikway	-2339
lapas	-2340
tapos	-2341
▁masi	-2342
oripon	-2343
▁balik	-2344
▁barko	-2345
▁hinga	-2346
▁tinmu	-2347
▁makita	-2348
▁magpaka	-2349
▁nasarig	-2350
▁tanaman	-2351
bungkagon	-2352
dungganan	-2353
▁pakasala	-2354
▁kahimtang	-2355
▁mahibabaro	-2356
▁pagpanalipod	-2357
ni	-2358
tok	-2359
aram	-2360
bayon	-2361
▁buta	-2362
▁tagiya	-2363
▁mahibaro	-2364
▁naghalad	-2365
▁ikanapulo	-2366
▁iginpakita	-2367
iri	-2368
▁baga	-2369
▁maba	-2370
▁kalag	-2371
▁pagng	-2372
▁tagan	-2373
rawaton	-2374
▁nakuha	-2375
▁higdaan	-2376
▁mahatag	-2377
▁ginsunog	-2378
▁kabaraka	-2379
▁kakaonon	-2380
▁nagbuhat	-2381
▁trompeta	-2382
▁ihinahatag	-2383
▁nagkamatay	-2384
▁magkakamatay	-2385
fer	-2386
ila	-2387
res	-2388
kdaw	-2389
wata	-2390
anias	-2391
isina	-2392
malooy	-2393
mangnoan	-2394
▁gintata	-2395
▁baybayon	-2396
▁kahilaba	-2397
▁kahitaas	-2398
kastigohon	-2399
▁kauropdan	-2400
▁nagsingba	-2401
▁pananglitan	-2402
▁kakastigohon	-2403
ino	-2404
pasi	-2405
pati	-2406
▁ada	-2407
▁bis	-2408
▁kum	-2409
▁min	-2410
▁joas	-2411
▁suga	-2412
buhian	-2413
▁banwa	-2414
▁dinma	-2415
▁dinmi	-2416
▁kuhaa	-2417
▁ruben	-2418
▁tigda	-2419
▁larang	-2420
▁naganak	-2421
▁namamati	-2422
▁paglinis	-2423
▁tapotapo	-2424
▁pinanmatay	-2425
▁asiriahanon	-2426
min	-2427
sia	-2428
toon	-2429
▁hia	-2430
▁mal	-2431
sayan	-2432
tdoan	-2433
wadan	-2434
▁gima	-2435
▁irim	-2436
hirayo	-2437
tongan	-2438
▁biray	-2439
▁kaban	-2440
▁linmu	-2441
▁maupod	-2442
▁nagdud	-2443
▁taming	-2444
▁hikitan	-2445
▁makasabot	-2446
▁pagkabuwas	-2447
▁gimamaupayi	-2448
▁nagpapadayon	-2449
▁nakahunahuna	-2450
uf	-2451
bsa	-2452
won	-2453
yam	-2454
akas	-2455
▁pai	-2456
▁nagg	-2457
▁sede	-2458
▁tipa	-2459
▁sidro	-2460
▁tulan	-2461
libotan	-2462
▁mapina	-2463
▁nakapa	-2464
▁tumana	-2465
▁nasunod	-2466
▁pangaro	-2467
▁iginsurat	-2468
▁nagdadara	-2469
▁nakarawat	-2470
▁pagkalooy	-2471
▁igsisiring	-2472
hal	-2473
▁mu	-2474
▁wa	-2475
lump	-2476
▁bal	-2477
dahan	-2478
yopan	-2479
▁elea	-2480
▁baton	-2481
▁binhe	-2482
▁ipina	-2483
▁hebron	-2484
▁pagkas	-2485
▁pareho	-2486
tutubyan	-2487
▁dinmiri	-2488
▁josafat	-2489
▁bungbong	-2490
▁kadungganan	-2491
wod	-2492
▁um	-2493
anyag	-2494
haduha	-2495
▁ginbi	-2496
▁ikina	-2497
lumpigo	-2498
▁goliat	-2499
▁katunga	-2500
▁surudlan	-2501
▁urosahon	-2502
▁maghahadi	-2503
▁maloloyon	-2504
▁sedequias	-2505
▁hinkikitan	-2506
▁kagurangan	-2507
▁siriahanon	-2508
▁magpapabilin	-2509
iya	-2510
mad	-2511
isip	-2512
unot	-2513
▁dan	-2514
▁job	-2515
hoban	-2516
satag	-2517
▁todo	-2518
akanta	-2519
gangan	-2520
▁batid	-2521
akilala	-2522
satagsa	-2523
▁bitoon	-2524
▁igpapa	-2525
▁natawo	-2526
▁pilato	-2527
▁dinmaop	-2528
▁padayon	-2529
▁paghadi	-2530
▁paggamit	-2531
▁pinmakita	-2532
▁ginbungkag	-2533
▁igintubyan	-2534
▁pinulongan	-2535
▁tagsatagsa	-2536
▁nagsisingba	-2537
tal	-2538
▁ke	-2539
tugi	-2540
▁dina	-2541
▁puro	-2542
ikilala	-2543
▁hirimo	-2544
▁josias	-2545
▁talwas	-2546
babatian	-2547
▁kinmuha	-2548
▁pagkiton	-2549
rd	-2550
mara	-2551
ukbo	-2552
▁mac	-2553
yawon	-2554
▁baya	-2555
angbit	-2556
▁betel	-2557
▁nagti	-2558
▁ngadi	-2559
▁sayod	-2560
lalabawi	-2561
▁inmupod	-2562
▁magukoy	-2563
▁marigon	-2564
▁ginbihag	-2565
▁ginhatag	-2566
▁pagtangis	-2567
uy	-2568
aca	-2569
nes	-2570
sok	-2571
rung	-2572
▁gid	-2573
▁pat	-2574
hinga	-2575
kanta	-2576
▁bubu	-2577
▁saka	-2578
rayhak	-2579
▁halas	-2580
▁lagas	-2581
▁linain	-2582
▁eleazar	-2583
▁katirok	-2584
▁matuman	-2585
▁nagsaad	-2586
▁nagtiti	-2587
▁pupuohon	-2588
bahinbahin	-2589
▁gilalabawi	-2590
▁pamamatayon	-2591
nit	-2592
tak	-2593
bano	-2594
lanan	-2595
▁arin	-2596
▁asay	-2597
▁bena	-2598
▁levi	-2599
▁igins	-2600
▁nagbi	-2601
▁sirot	-2602
hataasi	-2603
himulos	-2604
▁jerico	-2605
▁katigu	-2606
▁higugma	-2607
▁nagtata	-2608
▁aringasa	-2609
▁makilala	-2610
▁magsarang	-2611
▁pakasabot	-2612
▁naghuhulat	-2613
▁pagbungkag	-2614
▁gihahataasi	-2615
dab	-2616
▁jez	-2617
rabot	-2618
▁holo	-2619
fernes	-2620
hukman	-2621
pugong	-2622
saysay	-2623
akasala	-2624
▁balaam	-2625
▁pagsus	-2626
▁patuko	-2627
bantayan	-2628
butangan	-2629
▁bangkaw	-2630
▁sinurat	-2631
▁binmuhat	-2632
▁hibaroan	-2633
▁hirimosan	-2634
▁paghikiti	-2635
▁holofernes	-2636
▁kasaysayan	-2637
▁nagaalagad	-2638
▁nagtutuman	-2639
eon	-2640
kat	-2641
ura	-2642
ksan	-2643
mumu	-2644
ngoy	-2645
quem	-2646
upat	-2647
▁dem	-2648
bitik	-2649
rates	-2650
▁buwas	-2651
▁judit	-2652
▁nagpu	-2653
▁salmo	-2654
▁tatay	-2655
▁pagiha	-2656
▁sungay	-2657
▁bumalik	-2658
▁ginandam	-2659
▁pagkanta	-2660
▁pagsabot	-2661
▁canaanhon	-2662
▁hikikitan	-2663
▁kalipayan	-2664
▁naruruyag	-2665
ngangaranan	-2666
▁kinikilala	-2667
▁katigurangan	-2668
bis	-2669
elo	-2670
uel	-2671
▁no	-2672
lsan	-2673
sing	-2674
▁sem	-2675
sunod	-2676
akitan	-2677
▁gideon	-2678
▁libano	-2679
lumpigos	-2680
▁kumadto	-2681
▁paginom	-2682
▁sakayan	-2683
▁ginbaton	-2684
▁magtuman	-2685
▁nagsumpa	-2686
▁mawawaray	-2687
▁pagbantay	-2688
▁magpadayon	-2689
ipa	-2690
a	-2691
▁	-2692
n	-2693
i	-2694
g	-2695
o	-2696
h	-2697
m	-2698
t	-2699
k	-2700
u	-2701
d	-2702
s	-2703
y	-2704
r	-2705
p	-2706
l	-2707
b	-2708
w	-2709
e	-2710
j	-2711
c	-2712
0	-2713
v	-2714
f	-2715
1	-2716
z	-2717
q	-2718
—	-2719
2	-2720
