<unk>	0
<s>	0
</s>	0
an	-0
▁n	-1
▁h	-2
ga	-3
in	-4
▁nga	-5
▁m	-6
ka	-7
ag	-8
▁han	-9
on	-10
▁an	-11
ra	-12
▁p	-13
▁i	-14
▁ka	-15
▁mga	-16
ya	-17
▁ha	-18
ta	-19
gan	-20
▁hin	-21
▁a	-22
▁ngan	-23
la	-24
▁hi	-25
di	-26
da	-27
ba	-28
▁k	-29
▁pag	-30
un	-31
sa	-32
mo	-33
to	-34
pa	-35
ma	-36
ang	-37
▁ma	-38
▁na	-39
ha	-40
yo	-41
▁t	-42
▁ni	-43
▁g	-44
li	-45
wa	-46
bu	-47
su	-48
▁ak	-49
ri	-50
▁di	-51
▁gin	-52
▁iya	-53
hi	-54
▁G	-55
od	-56
dto	-57
▁pa	-58
▁ta	-59
▁nag	-60
si	-61
▁in	-62
▁u	-63
▁Gin	-64
tan	-65
lo	-66
ina	-67
ing	-68
▁N	-69
▁D	-70
▁ba	-71
wo	-72
▁tawo	-73
▁hiya	-74
▁A	-75
▁hira	-76
ana	-77
▁mag	-78
▁J	-79
ki	-80
tu	-81
▁ira	-82
▁akon	-83
ro	-84
oo	-85
▁K	-86
bi	-87
▁Ginoo	-88
▁S	-89
bo	-90
▁su	-91
▁"	-92
▁bu	-93
ti	-94
▁imo	-95
yos	-96
▁ini	-97
▁M	-98
ton	-99
ung	-100
▁H	-101
▁ako	-102
▁la	-103
ray	-104
ring	-105
ru	-106
▁s	-107
▁ko	-108
go	-109
tanan	-110
▁I	-111
▁ngatanan	-112
ko	-113
▁Dyos	-114
una	-115
▁niya	-116
▁da	-117
▁iyo	-118
po	-119
▁kamo	-120
hat	-121
han	-122
pi	-123
▁diri	-124
▁ig	-125
ong	-126
gad	-127
undi	-128
siring	-129
▁b	-130
▁ngadto	-131
ran	-132
▁tu	-133
▁sa	-134
▁hini	-135
waray	-136
▁usa	-137
▁didto	-138
▁ti	-139
do	-140
yan	-141
▁B	-142
lu	-143
san	-144
▁waray	-145
▁kan	-146
▁P	-147
mi	-148
ud	-149
tay	-150
▁kon	-151
."	-152
man	-153
el	-154
▁T	-155
▁Nag	-156
hu	-157
agi	-158
▁d	-159
pay	-160
▁pagka	-161
▁maka	-162
hon	-163
kang	-164
ak	-165
▁nira	-166
▁Je	-167
▁gud	-168
law	-169
▁Ma	-170
▁ug	-171
yaw	-172
en	-173
uda	-174
▁sugad	-175
▁igin	-176
lan	-177
inu	-178
mon	-179
lit	-180
was	-181
▁E	-182
▁o	-183
bot	-184
tang	-185
ungod	-186
▁kay	-187
▁anak	-188
yon	-189
inma	-190
▁li	-191
em	-192
▁tikang	-193
anglit	-194
▁Is	-195
▁An	-196
og	-197
uha	-198
▁Na	-199
es	-200
▁kina	-201
▁ad	-202
▁man	-203
▁Ka	-204
▁bi	-205
▁tuna	-206
▁Isra	-207
▁para	-208
▁kundi	-209
as	-210
kan	-211
▁niyo	-212
wat	-213
ho	-214
▁amo	-215
himo	-216
▁dida	-217
lin	-218
ada	-219
mu	-220
buhat	-221
ot	-222
▁hadi	-223
way	-224
bay	-225
▁Ha	-226
upay	-227
▁pan	-228
pod	-229
▁pagpa	-230
▁naka	-231
▁bisan	-232
yuda	-233
lad	-234
▁Kundi	-235
▁ga	-236
▁mo	-237
pu	-238
▁adlaw	-239
hatag	-240
▁pina	-241
hang	-242
is	-243
ban	-244
▁may	-245
▁Israel	-246
matay	-247
os	-248
▁liwat	-249
▁L	-250
▁Sanglit	-251
▁pana	-252
▁Da	-253
▁tungod	-254
ug	-255
▁Di	-256
▁Sa	-257
ron	-258
id	-259
papa	-260
sus	-261
ul	-262
▁ano	-263
sing	-264
yag	-265
lala	-266
▁basi	-267
hanglan	-268
▁Ni	-269
kita	-270
huna	-271
ara	-272
▁bug	-273
dara	-274
yudad	-275
ita	-276
▁kata	-277
er	-278
pit	-279
▁syudad	-280
▁Niyan	-281
mpo	-282
▁kami	-283
▁ika	-284
ad	-285
▁Jesus	-286
▁kada	-287
sugo	-288
▁Ba	-289
hin	-290
▁makaka	-291
▁amon	-292
▁iba	-293
▁pinaagi	-294
▁y	-295
may	-296
▁ginpa	-297
▁aton	-298
ig	-299
dan	-300
▁l	-301
▁sala	-302
▁kas	-303
na	-304
lay	-305
uro	-306
▁kaa	-307
mat	-308
▁lu	-309
he	-310
▁Pag	-311
▁Kon	-312
▁Han	-313
buhi	-314
dian	-315
Wa	-316
sal	-317
Waray	-318
tag	-319
kit	-320
emp	-321
▁nas	-322
▁mahi	-323
▁Jo	-324
▁nagsiring	-325
▁Pa	-326
raot	-327
lik	-328
haw	-329
dalo	-330
ondalo	-331
koy	-332
ruyag	-333
mati	-334
▁kaba	-335
ini	-336
emplo	-337
▁panahon	-338
sul	-339
baw	-340
▁C	-341
▁yana	-342
▁Waray	-343
dlo	-344
rang	-345
rag	-346
ay	-347
▁butang	-348
so	-349
vid	-350
▁David	-351
gaw	-352
garing	-353
kig	-354
▁Mo	-355
ku	-356
▁nasod	-357
▁kalu	-358
▁kita	-359
▁Nagsiring	-360
rat	-361
▁Ngan	-362
salem	-363
rusalem	-364
it	-365
lipay	-366
▁dapit	-367
▁Jerusalem	-368
▁Diri	-369
eo	-370
▁mata	-371
pos	-372
▁un	-373
garingon	-374
▁Juda	-375
▁kalugaringon	-376
▁kat	-377
dlok	-378
▁Hadi	-379
pon	-380
▁kinahanglan	-381
mang	-382
▁Templo	-383
▁bung	-384
lon	-385
▁maupay	-386
kaka	-387
baro	-388
indo	-389
om	-390
▁Ju	-391
yakan	-392
▁halad	-393
aram	-394
tuman	-395
lig	-396
abot	-397
▁upod	-398
ugma	-399
▁kapa	-400
▁nagpa	-401
no	-402
▁Hi	-403
indog	-404
iha	-405
▁kama	-406
dong	-407
ling	-408
ulo	-409
halad	-410
▁kinabuhi	-411
▁Si	-412
sid	-413
▁babay	-414
▁pagta	-415
bati	-416
haton	-417
ises	-418
▁Mag	-419
▁Moises	-420
unod	-421
▁Ig	-422
▁pi	-423
▁Su	-424
hanon	-425
▁babaye	-426
▁damo	-427
▁duha	-428
bong	-429
▁kaha	-430
qu	-431
▁kali	-432
00	-433
▁O	-434
▁ginbuhat	-435
▁karuyag	-436
▁pagkaon	-437
nga	-438
sala	-439
um	-440
bangan	-441
?"	-442
uno	-443
▁paka	-444
▁tin	-445
eli	-446
lwas	-447
ero	-448
gon	-449
pto	-450
▁ku	-451
▁pagbu	-452
!"	-453
pan	-454
don	-455
hipto	-456
re	-457
las	-458
▁kaaway	-459
laod	-460
▁atu	-461
▁kabu	-462
singba	-463
▁Ehipto	-464
▁atubangan	-465
▁R	-466
hom	-467
▁'	-468
inmaton	-469
▁La	-470
▁ikaw	-471
▁Amo	-472
sawa	-473
▁sanglit	-474
et	-475
▁din	-476
▁suru	-477
▁pagda	-478
kon	-479
dton	-480
▁ngahaw	-481
uo	-482
mtang	-483
hina	-484
▁pang	-485
▁nakaka	-486
▁Judi	-487
▁bungto	-488
wag	-489
▁tag	-490
raw	-491
gugma	-492
ob	-493
lalak	-494
tindog	-495
▁unta	-496
▁tina	-497
say	-498
ondalohan	-499
rn	-500
butan	-501
▁amay	-502
sya	-503
▁kasondalohan	-504
min	-505
mala	-506
ima	-507
hunahuna	-508
lis	-509
elita	-510
▁lang	-511
▁paghi	-512
kuha	-513
▁lala	-514
lod	-515
dayon	-516
▁Israelita	-517
war	-518
▁nahi	-519
▁May	-520
tra	-521
goon	-522
▁tuig	-523
tob	-524
ampo	-525
▁Judiyo	-526
inahanglan	-527
▁Hin	-528
lalaken	-529
ris	-530
ab	-531
▁ginta	-532
▁kalalaken	-533
▁pagtu	-534
▁balay	-535
lag	-536
kat	-537
tar	-538
ac	-539
raan	-540
at	-541
rok	-542
sog	-543
▁surugoon	-544
tigo	-545
anay	-546
▁Ayaw	-547
▁karn	-548
mit	-549
tdo	-550
anto	-551
▁buhi	-552
ala	-553
▁adton	-554
piri	-555
▁kalibutan	-556
unong	-557
▁dinhe	-558
▁Kay	-559
ias	-560
kop	-561
▁hadton	-562
kiana	-563
ukoy	-564
▁tinu	-565
ria	-566
▁tri	-567
▁gahom	-568
hanan	-569
▁nagka	-570
kadto	-571
▁langit	-572
▁U	-573
▁ngada	-574
kay	-575
▁pagba	-576
hag	-577
rig	-578
diyos	-579
▁ngaran	-580
▁sumala	-581
▁diin	-582
sumat	-583
loo	-584
ia	-585
or	-586
▁hito	-587
gay	-588
▁al	-589
sulong	-590
rani	-591
▁pakig	-592
▁dako	-593
▁mana	-594
▁Ab	-595
ngan	-596
▁sugo	-597
agian	-598
▁nan	-599
▁ayaw	-600
sasa	-601
▁tulin	-602
bilin	-603
tas	-604
risto	-605
▁kahi	-606
▁kinma	-607
▁magpa	-608
ragna	-609
▁duro	-610
hadi	-611
▁altar	-612
▁bin	-613
mabot	-614
ulong	-615
btob	-616
▁Igin	-617
te	-618
▁Binmaton	-619
aw	-620
ke	-621
mangraw	-622
▁baraan	-623
▁ito	-624
▁dayon	-625
dam	-626
▁manaragna	-627
tagan	-628
▁pu	-629
▁lawas	-630
▁pulong	-631
big	-632
imalay	-633
▁karnero	-634
kod	-635
▁panimalay	-636
yop	-637
syal	-638
▁opi	-639
▁opisyal	-640
yonan	-641
▁du	-642
▁diyos	-643
usa	-644
▁puno	-645
looy	-646
▁kwar	-647
▁1	-648
lawan	-649
▁magma	-650
tub	-651
piritu	-652
▁maaram	-653
▁bahin	-654
▁namon	-655
adman	-656
▁Ti	-657
away	-658
▁bulawan	-659
ea	-660
▁es	-661
bayen	-662
gawas	-663
▁sondalo	-664
▁kababayen	-665
upod	-666
uokoy	-667
hadian	-668
kuri	-669
▁tribo	-670
▁lalake	-671
▁pangulo	-672
▁Es	-673
sang	-674
sabot	-675
rawat	-676
▁tubtob	-677
▁maraot	-678
▁kapadian	-679
log	-680
rong	-681
kas	-682
gara	-683
▁bato	-684
tungod	-685
du	-686
▁taga	-687
▁kala	-688
▁iginhatag	-689
too	-690
kid	-691
se	-692
.'	-693
▁mapa	-694
▁tubig	-695
tapos	-696
bung	-697
▁binu	-698
▁kamatay	-699
mot	-700
▁samtang	-701
bubuhat	-702
▁kontra	-703
tirok	-704
eohanon	-705
awa	-706
▁ginsa	-707
▁hadto	-708
▁tagsa	-709
lim	-710
mpa	-711
▁Ginpa	-712
yuday	-713
hadlok	-714
himangraw	-715
▁asawa	-716
▁pagla	-717
▁magraot	-718
hoy	-719
gawan	-720
▁matadong	-721
▁patay	-722
alagad	-723
suma	-724
de	-725
▁hu	-726
pung	-727
▁Dida	-728
inan	-729
kasing	-730
▁Balaod	-731
balik	-732
singkasing	-733
▁F	-734
kom	-735
▁mahitungod	-736
talwas	-737
▁kahoy	-738
▁nagpapa	-739
wan	-740
sunod	-741
gang	-742
▁Cristo	-743
surat	-744
bod	-745
ranan	-746
gto	-747
lang	-748
▁In	-749
bog	-750
▁paagi	-751
olo	-752
bungka	-753
▁kinmadto	-754
gi	-755
bos	-756
▁sulod	-757
Di	-758
whan	-759
▁baka	-760
rangan	-761
unga	-762
▁kamot	-763
hel	-764
aran	-765
tikang	-766
daog	-767
dad	-768
baton	-769
▁padi	-770
▁magta	-771
inmu	-772
▁gab	-773
bilon	-774
bok	-775
ros	-776
ripon	-777
▁mang	-778
Ma	-779
manon	-780
posan	-781
sumatan	-782
poy	-783
antos	-784
unaan	-785
▁katunaan	-786
▁Le	-787
para	-788
butang	-789
▁ang	-790
▁ginhimo	-791
▁hinkit	-792
▁nasiring	-793
An	-794
▁gindara	-795
kot	-796
pili	-797
era	-798
iya	-799
▁bugto	-800
kilala	-801
gu	-802
▁Ta	-803
▁angay	-804
▁Kinahanglan	-805
pat	-806
▁Aa	-807
▁Saul	-808
▁ginsiring	-809
gat	-810
baya	-811
liat	-812
mara	-813
batian	-814
mhanan	-815
▁Babilon	-816
op	-817
eb	-818
▁Ga	-819
tubo	-820
▁hiunong	-821
▁pagsu	-822
il	-823
tinu	-824
▁anghel	-825
hinabo	-826
▁pagsingba	-827
▁kataposan	-828
im	-829
lat	-830
▁Jac	-831
got	-832
bido	-833
dor	-834
▁Lev	-835
▁san	-836
▁tulo	-837
rom	-838
ihapon	-839
▁Tungod	-840
gtoan	-841
▁katawhan	-842
▁lin	-843
▁Jacob	-844
sugot	-845
▁magpapa	-846
▁kahu	-847
▁Sugad	-848
▁paghu	-849
los	-850
tuod	-851
Diri	-852
▁Nagpa	-853
▁balaod	-854
mingawan	-855
▁ulo	-856
▁Labi	-857
anhon	-858
▁iginpa	-859
▁pagbuhat	-860
▁ar	-861
yahan	-862
▁kalayo	-863
lagi	-864
▁salapi	-865
ani	-866
pton	-867
baroan	-868
lina	-869
▁(	-870
▁karat	-871
▁kadayonan	-872
Kon	-873
▁ngani	-874
bal	-875
▁tinun	-876
▁kamingawan	-877
▁sid	-878
lagiw	-879
▁2	-880
gamit	-881
hum	-882
maka	-883
pina	-884
▁Aaron	-885
▁kahadlok	-886
▁gu	-887
▁Abra	-888
▁pagsa	-889
puo	-890
▁Bu	-891
sahe	-892
▁gihapon	-893
angka	-894
unog	-895
hahatag	-896
▁dayuday	-897
ensahe	-898
rot	-899
▁si	-900
tutdo	-901
▁panapton	-902
▁bulan	-903
isan	-904
bulig	-905
▁Babilonia	-906
▁tam	-907
sulod	-908
kusog	-909
▁kaka	-910
▁lain	-911
▁Katapos	-912
▁kasa	-913
▁buhat	-914
Gin	-915
▁kasingkasing	-916
mata	-917
▁dalan	-918
,"	-919
me	-920
yas	-921
botan	-922
▁pito	-923
yayakan	-924
▁syahan	-925
▁banay	-926
▁mensahe	-927
apo	-928
andam	-929
▁kamatayon	-930
anon	-931
garahum	-932
ham	-933
▁Eli	-934
▁kabugtoan	-935
▁anay	-936
apoyan	-937
sidung	-938
▁kaapoy	-939
▁kasina	-940
co	-941
▁pamati	-942
Yana	-943
pungot	-944
pdan	-945
▁ipa	-946
bas	-947
haan	-948
lipayon	-949
▁Se	-950
▁dugo	-951
al	-952
gid	-953
dang	-954
am	-955
non	-956
▁Mga	-957
▁hug	-958
▁bata	-959
▁ligid	-960
ilo	-961
anak	-962
roy	-963
▁00	-964
payan	-965
▁hugpo	-966
ona	-967
▁pagtoo	-968
▁000	-969
▁Solo	-970
▁labaw	-971
▁magka	-972
▁Solomon	-973
▁diyosdiyos	-974
pag	-975
huhu	-976
bihag	-977
ed	-978
gin	-979
▁aada	-980
▁oripon	-981
▁binma	-982
▁Levita	-983
bang	-984
buhaton	-985
duha	-986
▁bino	-987
diyosan	-988
▁Kamaka	-989
ngon	-990
susu	-991
▁nimo	-992
▁napa	-993
▁sakop	-994
ganga	-995
▁Naka	-996
▁kadiyosan	-997
ose	-998
dayaw	-999
bungkag	-1000
▁manana	-1001
agko	-1002
▁kanan	-1003
▁kwarta	-1004
Na	-1005
ar	-1006
▁Anak	-1007
▁ginhadian	-1008
▁Kamakagarahum	-1009
hod	-1010
kob	-1011
tawag	-1012
▁kam	-1013
huway	-1014
▁Jose	-1015
▁Isa	-1016
mbong	-1017
kurian	-1018
god	-1019
▁Fi	-1020
▁kinaadman	-1021
der	-1022
lasyo	-1023
▁Abraham	-1024
▁palasyo	-1025
Pag	-1026
▁hig	-1027
▁gang	-1028
▁gintu	-1029
▁uma	-1030
▁ting	-1031
▁gawas	-1032
angin	-1033
ungdan	-1034
▁lugod	-1035
dis	-1036
ruba	-1037
ulda	-1038
▁buru	-1039
▁hayop	-1040
▁kau	-1041
▁Espiritu	-1042
▁Tulda	-1043
maya	-1044
saad	-1045
pukan	-1046
▁Filis	-1047
▁inmabot	-1048
poran	-1049
▁labi	-1050
▁pader	-1051
bon	-1052
awayan	-1053
▁iroy	-1054
pada	-1055
mangno	-1056
▁iginsiring	-1057
▁gi	-1058
▁Didto	-1059
anali	-1060
▁katapos	-1061
▁Ben	-1062
▁bag	-1063
▁gad	-1064
linaw	-1065
▁nati	-1066
adto	-1067
▁Nasiring	-1068
▁ganghaan	-1069
ding	-1070
▁katu	-1071
▁tinapay	-1072
▁Me	-1073
kina	-1074
mok	-1075
umdo	-1076
▁sini	-1077
▁pagtuman	-1078
▁but	-1079
▁igo	-1080
▁mahu	-1081
▁Amay	-1082
▁dara	-1083
rde	-1084
▁Tikang	-1085
▁mananap	-1086
pak	-1087
▁paghigugma	-1088
▁ginsugo	-1089
▁buruhaton	-1090
Pa	-1091
yawa	-1092
▁espiritu	-1093
son	-1094
dadara	-1095
▁aga	-1096
▁pira	-1097
▁pagpatay	-1098
urog	-1099
▁hirani	-1100
Ayaw	-1101
Nag	-1102
▁Ad	-1103
itan	-1104
▁panu	-1105
sue	-1106
▁Ako	-1107
labay	-1108
stigo	-1109
▁Judas	-1110
inm	-1111
baba	-1112
kman	-1113
lubong	-1114
onatan	-1115
anan	-1116
angkon	-1117
▁punoan	-1118
▁Jonatan	-1119
sina	-1120
tubyan	-1121
enti	-1122
▁Usa	-1123
▁nagta	-1124
saylo	-1125
▁Josue	-1126
▁pagsulong	-1127
pe	-1128
▁Ac	-1129
▁Abi	-1130
▁kuma	-1131
▁ginbubuhat	-1132
blo	-1133
ram	-1134
pirde	-1135
▁lana	-1136
▁Bisan	-1137
▁nagti	-1138
▁pagdayaw	-1139
lain	-1140
etros	-1141
ago	-1142
linis	-1143
▁kusog	-1144
uli	-1145
▁Pablo	-1146
▁panga	-1147
▁kahadian	-1148
▁binmaton	-1149
▁mahihimo	-1150
alo	-1151
tuo	-1152
sias	-1153
taas	-1154
hangyo	-1155
ngaranan	-1156
mub	-1157
riko	-1158
▁baw	-1159
quias	-1160
▁igka	-1161
▁tipa	-1162
rangdon	-1163
▁Filist	-1164
▁batan	-1165
▁magsa	-1166
▁Filisteohanon	-1167
le	-1168
kastigo	-1169
▁sinirangan	-1170
sta	-1171
endis	-1172
▁Labaw	-1173
▁kakurian	-1174
pin	-1175
▁upat	-1176
▁Ginsa	-1177
▁naton	-1178
iban	-1179
▁maiha	-1180
▁nahinabo	-1181
▁Yana	-1182
▁magtu	-1183
hahalad	-1184
▁Maaram	-1185
▁tinuod	-1186
▁nagyakan	-1187
▁3	-1188
▁nata	-1189
tuoran	-1190
▁kanay	-1191
▁kaupod	-1192
▁tingog	-1193
▁nakadto	-1194
inom	-1195
▁Jor	-1196
▁paki	-1197
▁Adlaw	-1198
▁kwarto	-1199
▁manggad	-1200
▁ginsaaran	-1201
▁kamatuoran	-1202
tom	-1203
inga	-1204
pulo	-1205
▁Iya	-1206
▁nagsu	-1207
▁Jordan	-1208
esta	-1209
lakat	-1210
▁kampo	-1211
yu	-1212
unahuna	-1213
lili	-1214
▁Asi	-1215
▁Bet	-1216
▁ara	-1217
▁daw	-1218
lisang	-1219
▁ginpapa	-1220
▁kaupayan	-1221
▁Ra	-1222
▁To	-1223
ikan	-1224
▁tak	-1225
ere	-1226
miton	-1227
▁nagtu	-1228
sag	-1229
uru	-1230
anhi	-1231
kanta	-1232
yesta	-1233
swag	-1234
▁tul	-1235
▁espada	-1236
▁igkasi	-1237
▁nagsugo	-1238
.)	-1239
▁bay	-1240
▁luma	-1241
▁sinu	-1242
mihanan	-1243
▁kapawa	-1244
▁tinubod	-1245
▁kasangka	-1246
dud	-1247
tiay	-1248
▁por	-1249
▁pagdu	-1250
hata	-1251
gayon	-1252
▁labot	-1253
▁paghalad	-1254
▁tinaporan	-1255
▁sag	-1256
▁mahin	-1257
sangyaw	-1258
▁nahimo	-1259
kinahanglan	-1260
baho	-1261
edro	-1262
himu	-1263
▁kab	-1264
anabo	-1265
ikanan	-1266
huhunahuna	-1267
▁mabu	-1268
tuboron	-1269
▁ginikanan	-1270
gas	-1271
sura	-1272
gotan	-1273
▁Juan	-1274
▁Pedro	-1275
▁pagkahadi	-1276
kiran	-1277
▁hunahuna	-1278
bngan	-1279
▁ubos	-1280
▁takna	-1281
▁nagpakiana	-1282
▁ginngaranan	-1283
ii	-1284
lwa	-1285
▁dagat	-1286
anas	-1287
lingo	-1288
▁Henti	-1289
▁kalinaw	-1290
isog	-1291
▁adto	-1292
▁Hentil	-1293
▁bawbaw	-1294
▁mamatay	-1295
lea	-1296
libo	-1297
▁pinan	-1298
▁porta	-1299
▁naglala	-1300
mdo	-1301
pang	-1302
mawas	-1303
sisingba	-1304
▁sing	-1305
▁nagma	-1306
▁kalipay	-1307
▁gamhanan	-1308
▁paghatag	-1309
ec	-1310
▁lalaki	-1311
lilisang	-1312
▁Nahi	-1313
inumdo	-1314
▁dagko	-1315
▁Maupay	-1316
Amo	-1317
Kay	-1318
bit	-1319
bahin	-1320
be	-1321
▁bana	-1322
▁nasa	-1323
▁tini	-1324
▁bukid	-1325
▁sakob	-1326
▁pagkama	-1327
Ka	-1328
luya	-1329
rias	-1330
▁saad	-1331
suratan	-1332
▁butnga	-1333
▁pakabati	-1334
kaw	-1335
ksi	-1336
linguha	-1337
unanhon	-1338
▁ginpatay	-1339
▁kabukiran	-1340
Ano	-1341
▁Makaka	-1342
▁metros	-1343
▁templo	-1344
▁paghimo	-1345
▁binmalik	-1346
pot	-1347
tos	-1348
▁as	-1349
raog	-1350
▁maa	-1351
patay	-1352
▁mina	-1353
▁ginka	-1354
▁kaga	-1355
▁im	-1356
kyan	-1357
tulo	-1358
libot	-1359
▁karu	-1360
▁amihanan	-1361
▁pagsiring	-1362
igon	-1363
lagan	-1364
ligya	-1365
▁Kahon	-1366
▁kablas	-1367
▁ikaduha	-1368
Hin	-1369
kip	-1370
wad	-1371
mogan	-1372
▁Kina	-1373
▁Bukid	-1374
▁lurong	-1375
▁panuigon	-1376
langyaw	-1377
▁magmama	-1378
▁hadianon	-1379
damo	-1380
▁nang	-1381
lingkod	-1382
▁siring	-1383
▁Samtang	-1384
▁naa	-1385
hihimo	-1386
bnganan	-1387
▁magkaka	-1388
ano	-1389
▁Cana	-1390
▁namatay	-1391
▁lumalangyaw	-1392
ub	-1393
yad	-1394
amin	-1395
rayo	-1396
▁Sama	-1397
▁sere	-1398
monyas	-1399
tangis	-1400
▁sinmu	-1401
▁Asiria	-1402
▁matuod	-1403
▁ginpili	-1404
▁seremonyas	-1405
!'	-1406
sunog	-1407
▁Pina	-1408
▁pagpaka	-1409
▁lubnganan	-1410
yen	-1411
erna	-1412
riso	-1413
rutdo	-1414
salamat	-1415
▁Ginsaaran	-1416
▁maghu	-1417
raogdaog	-1418
▁iginsugo	-1419
mba	-1420
▁una	-1421
▁maha	-1422
▁natu	-1423
▁kabayo	-1424
▁iginsaad	-1425
▁re	-1426
umhan	-1427
▁Nagka	-1428
▁gugma	-1429
▁binuhat	-1430
anam	-1431
diri	-1432
sahan	-1433
kangan	-1434
▁Simon	-1435
▁Siria	-1436
▁pinma	-1437
ungdanan	-1438
▁kanding	-1439
rim	-1440
▁Ef	-1441
▁mi	-1442
▁Ano	-1443
mamati	-1444
tik	-1445
wahe	-1446
▁kad	-1447
rayaw	-1448
salin	-1449
tubang	-1450
▁andam	-1451
▁pagpu	-1452
▁maabot	-1453
▁kaumhan	-1454
undan	-1455
▁gima	-1456
bayaan	-1457
▁hiagi	-1458
▁araway	-1459
▁Ginsiring	-1460
tod	-1461
▁Tu	-1462
▁gintagan	-1463
▁hinbatian	-1464
tol	-1465
igin	-1466
ronse	-1467
sahon	-1468
▁bina	-1469
▁tiil	-1470
▁dampo	-1471
▁aragian	-1472
▁nagkaka	-1473
▁katungdanan	-1474
rog	-1475
▁nganhi	-1476
▁karuwahe	-1477
▁nagpadayon	-1478
tawo	-1479
▁buwa	-1480
▁masu	-1481
likway	-1482
▁olibo	-1483
▁sakit	-1484
lilipay	-1485
mamatay	-1486
▁dampog	-1487
▁sidngon	-1488
ohon	-1489
syen	-1490
tago	-1491
▁kapi	-1492
arabot	-1493
banhaw	-1494
erador	-1495
▁bronse	-1496
▁kabido	-1497
▁malipayon	-1498
▁pagp	-1499
▁salog	-1500
▁makakag	-1501
asawa	-1502
▁kahuman	-1503
▁Mar	-1504
▁tiga	-1505
anampan	-1506
▁buhaton	-1507
▁nabuhat	-1508
▁timogan	-1509
▁tiarabot	-1510
▁pagbuhaton	-1511
awon	-1512
wali	-1513
▁ban	-1514
▁Padi	-1515
▁Kinma	-1516
▁aadto	-1517
higugma	-1518
▁naghimo	-1519
▁pagpasidung	-1520
Ha	-1521
ena	-1522
onon	-1523
lawas	-1524
▁Amon	-1525
▁asno	-1526
himoon	-1527
limbong	-1528
▁paglaom	-1529
parahuway	-1530
▁paghukom	-1531
▁kamanampan	-1532
▁Mi	-1533
hitas	-1534
▁kalooy	-1535
tugot	-1536
syenso	-1537
▁ihina	-1538
▁kanda	-1539
▁insyenso	-1540
▁tutuboron	-1541
aa	-1542
.'"	-1543
galo	-1544
rono	-1545
unan	-1546
ultan	-1547
sasala	-1548
▁kadamo	-1549
▁ihahatag	-1550
gos	-1551
ila	-1552
mag	-1553
▁Ne	-1554
bubu	-1555
wara	-1556
▁Moab	-1557
bawi	-1558
boam	-1559
▁trono	-1560
▁Pamati	-1561
▁bangin	-1562
▁kabata	-1563
▁basahan	-1564
▁to	-1565
ting	-1566
anhan	-1567
bahan	-1568
▁gintawag	-1569
▁pagkastigo	-1570
sol	-1571
▁Be	-1572
raka	-1573
ligan	-1574
liwan	-1575
▁naki	-1576
pintas	-1577
▁makag	-1578
ib	-1579
▁do	-1580
▁Asa	-1581
▁gina	-1582
▁agaron	-1583
▁hibaro	-1584
▁magigin	-1585
kad	-1586
alohan	-1587
▁pagturon	-1588
kikinahanglan	-1589
bag	-1590
rigi	-1591
ward	-1592
▁kasi	-1593
▁ginsu	-1594
▁regalo	-1595
tinuohon	-1596
▁kabataan	-1597
▁nagbubuhat	-1598
▁pagbubuhaton	-1599
▁Ed	-1600
▁Ro	-1601
hara	-1602
larom	-1603
swagon	-1604
▁nakig	-1605
aalagad	-1606
▁tigaman	-1607
▁Ginbuhat	-1608
▁Ehiptohanon	-1609
ca	-1610
kos	-1611
pas	-1612
igan	-1613
inmi	-1614
yaan	-1615
layan	-1616
▁ubas	-1617
▁liyon	-1618
▁kasangkayan	-1619
▁Heb	-1620
▁dad	-1621
▁tan	-1622
human	-1623
logan	-1624
sarang	-1625
▁pagti	-1626
▁masunod	-1627
tinumanon	-1628
▁pagkadto	-1629
uu	-1630
za	-1631
muel	-1632
urosa	-1633
▁Hito	-1634
▁Joab	-1635
▁Nabu	-1636
anases	-1637
▁bunga	-1638
▁umabot	-1639
▁mapatay	-1640
▁pagtindog	-1641
hay	-1642
▁masa	-1643
▁ginti	-1644
▁Manases	-1645
▁mahugaw	-1646
fa	-1647
aga	-1648
dag	-1649
ras	-1650
bias	-1651
angkay	-1652
bidoon	-1653
unggan	-1654
▁Karuyag	-1655
▁pagkuha	-1656
▁pakakita	-1657
▁iginhalad	-1658
▁Iparahuway	-1659
ir	-1660
gda	-1661
pil	-1662
long	-1663
kikit	-1664
▁Kaha	-1665
▁tung	-1666
bantay	-1667
▁Salog	-1668
▁gward	-1669
▁sayop	-1670
▁himaya	-1671
▁Gindara	-1672
▁katungod	-1673
kastigohon	-1674
▁ginsumatan	-1675
bad	-1676
▁Ja	-1677
liseo	-1678
sidman	-1679
kianhan	-1680
▁Eliseo	-1681
▁pinamatay	-1682
▁bar	-1683
▁kag	-1684
▁Jesu	-1685
▁kilo	-1686
▁Samuel	-1687
▁gutiay	-1688
▁makusog	-1689
▁pagdara	-1690
▁kapungot	-1691
pad	-1692
ter	-1693
▁Bara	-1694
▁sina	-1695
▁Isaac	-1696
▁harigi	-1697
▁sadang	-1698
tio	-1699
bayo	-1700
queo	-1701
▁Hinkit	-1702
▁pagyakan	-1703
▁kasisidman	-1704
▁As	-1705
▁Ez	-1706
osor	-1707
kanhi	-1708
saran	-1709
▁mada	-1710
endisyonan	-1711
-1	-1712
Su	-1713
cod	-1714
lob	-1715
▁hangin	-1716
gurangan	-1717
▁higayon	-1718
hog	-1719
▁Ama	-1720
▁put	-1721
Cristo	-1722
▁pagbulig	-1723
▁pagdarag	-1724
▁magtinuohon	-1725
tapo	-1726
manhi	-1727
▁tang	-1728
▁turu	-1729
▁Ginhimo	-1730
inuswagon	-1731
▁pagsumat	-1732
▁magtadong	-1733
▁tipakadto	-1734
▁makakahimo	-1735
pito	-1736
turog	-1737
▁kana	-1738
▁makig	-1739
uruupay	-1740
▁Kinmadto	-1741
▁pagbalik	-1742
▁tinikangan	-1743
ol	-1744
ino	-1745
lom	-1746
sad	-1747
yod	-1748
▁yu	-1749
▁dug	-1750
dawan	-1751
likay	-1752
▁maki	-1753
hahadi	-1754
hibaro	-1755
▁Sumat	-1756
▁gwardya	-1757
▁Nagpakiana	-1758
▁makasasala	-1759
Mag	-1760
dako	-1761
goti	-1762
codon	-1763
dongan	-1764
puohon	-1765
▁Antio	-1766
▁Mardo	-1767
▁tulda	-1768
analipod	-1769
codonosor	-1770
▁Nabucodonosor	-1771
lam	-1772
dudu	-1773
▁sumat	-1774
sisiring	-1775
▁Mardoqueo	-1776
sig	-1777
▁gudla	-1778
▁magba	-1779
patayon	-1780
▁Inmabot	-1781
▁Samaria	-1782
▁pamatii	-1783
▁singbahan	-1784
▁mahinanabo	-1785
rio	-1786
aghat	-1787
hatan	-1788
oliat	-1789
▁Sara	-1790
▁bado	-1791
▁pini	-1792
▁tinag	-1793
▁ladawan	-1794
▁Ginhadian	-1795
▁kahulogan	-1796
▁makalilisang	-1797
buru	-1798
laba	-1799
▁Eze	-1800
lagro	-1801
upayi	-1802
▁Sion	-1803
▁ikatulo	-1804
▁milagro	-1805
bun	-1806
daw	-1807
has	-1808
▁tuo	-1809
kuhaon	-1810
▁kanta	-1811
▁kapitan	-1812
▁bungsaran	-1813
▁ginsulong	-1814
▁panhunahuna	-1815
:"	-1816
▁Acab	-1817
▁Gala	-1818
▁kota	-1819
▁lima	-1820
▁Elias	-1821
▁ginba	-1822
▁igbaw	-1823
▁nagba	-1824
▁nahatag	-1825
▁turumanon	-1826
▁matinumanon	-1827
doy	-1828
hihi	-1829
lulu	-1830
▁Efra	-1831
▁pung	-1832
lolooy	-1833
▁ginha	-1834
▁panan	-1835
tumanon	-1836
▁nakita	-1837
babaroan	-1838
▁Ginsugo	-1839
▁Ezequias	-1840
tam	-1841
iwas	-1842
kdaw	-1843
▁umu	-1844
▁magin	-1845
▁napulo	-1846
haradlok	-1847
luag	-1848
▁gra	-1849
oberna	-1850
ganiban	-1851
▁palibot	-1852
admananon	-1853
▁Nagbaton	-1854
▁hinganiban	-1855
tama	-1856
▁magti	-1857
▁pagma	-1858
▁panon	-1859
▁tanom	-1860
ruruyag	-1861
tinguha	-1862
▁hinimo	-1863
obernador	-1864
▁Ahi	-1865
▁Ini	-1866
▁Jud	-1867
▁uro	-1868
laran	-1869
soran	-1870
▁daan	-1871
▁lina	-1872
▁magsu	-1873
▁uruba	-1874
▁urubasan	-1875
▁gintindog	-1876
▁magturutdo	-1877
asa	-1878
usi	-1879
▁iha	-1880
ragman	-1881
▁surat	-1882
▁makuri	-1883
▁sangkay	-1884
▁katundan	-1885
▁kanasoran	-1886
▁ru	-1887
binu	-1888
rawa	-1889
tangan	-1890
▁manta	-1891
▁mahimo	-1892
▁kataragman	-1893
kinaadmananon	-1894
loy	-1895
sab	-1896
▁inmu	-1897
▁sumu	-1898
▁Judea	-1899
▁ginbu	-1900
hilawas	-1901
▁Paglabay	-1902
anat	-1903
▁Nan	-1904
dayag	-1905
umdom	-1906
▁Para	-1907
▁kati	-1908
▁Galaad	-1909
▁pyesta	-1910
analipdan	-1911
▁makakapa	-1912
▁nagtikang	-1913
isi	-1914
aampo	-1915
gatan	-1916
▁natoo	-1917
trabaho	-1918
▁kaburot	-1919
▁nahadlok	-1920
▁pagpakita	-1921
puno	-1922
reho	-1923
siyo	-1924
▁pinu	-1925
▁uran	-1926
larang	-1927
limtan	-1928
▁nahin	-1929
▁igyayakan	-1930
ubos	-1931
kasan	-1932
▁hing	-1933
biling	-1934
▁Pagda	-1935
▁ginpu	-1936
▁gutom	-1937
▁karne	-1938
▁niyan	-1939
▁tugon	-1940
inmakat	-1941
▁Tobias	-1942
▁nagsasa	-1943
▁nakilala	-1944
mad	-1945
▁balo	-1946
▁riko	-1947
itanhon	-1948
▁Efraim	-1949
▁Kahamub	-1950
▁ginkuha	-1951
▁kastigo	-1952
▁pagkaga	-1953
▁hinigugma	-1954
umea	-1955
▁Ira	-1956
lipod	-1957
▁Aman	-1958
▁ginhu	-1959
▁sinma	-1960
▁sunod	-1961
▁hirayo	-1962
pupungot	-1963
ungganan	-1964
▁binuhatan	-1965
rabod	-1966
salon	-1967
▁Bala	-1968
▁Jero	-1969
▁kini	-1970
postol	-1971
rangno	-1972
▁banto	-1973
▁ginda	-1974
▁mamati	-1975
▁patayon	-1976
▁masiring	-1977
▁pagtalwas	-1978
mas	-1979
taw	-1980
loloy	-1981
▁Dani	-1982
▁abot	-1983
▁dung	-1984
miling	-1985
▁sanga	-1986
▁pungtod	-1987
▁ginmawas	-1988
▁paghibaro	-1989
agaw	-1990
peta	-1991
mando	-1992
▁Damo	-1993
▁Ester	-1994
rompeta	-1995
▁kaupay	-1996
▁Dayuday	-1997
▁kahamub	-1998
▁Kasuratan	-1999
0,	-2000
kbo	-2001
▁ag	-2002
ulos	-2003
▁apo	-2004
▁Baal	-2005
▁pagsi	-2006
matngon	-2007
▁nakada	-2008
matadong	-2009
▁pagsugot	-2010
ok	-2011
asi	-2012
dig	-2013
lum	-2014
kaon	-2015
mias	-2016
ptan	-2017
lilea	-2018
tayan	-2019
▁buho	-2020
▁dika	-2021
kmanan	-2022
▁lakip	-2023
▁priso	-2024
dayawon	-2025
susugad	-2026
▁gobernador	-2027
hol	-2028
pig	-2029
ugu	-2030
yog	-2031
Anak	-2032
moli	-2033
linan	-2034
▁Gaba	-2035
▁kinu	-2036
▁matu	-2037
▁bihag	-2038
himatngon	-2039
▁se	-2040
song	-2041
tanom	-2042
▁baba	-2043
▁Binma	-2044
▁kadam	-2045
▁Edumea	-2046
▁minatay	-2047
▁kabidoan	-2048
▁iginsumat	-2049
▁nahigugma	-2050
lid	-2051
miri	-2052
bayad	-2053
▁Pari	-2054
▁Santo	-2055
▁pulos	-2056
▁Canaan	-2057
▁salaan	-2058
▁pagkita	-2059
▁dikabayo	-2060
▁naghatag	-2061
▁Kinaadman	-2062
▁pagdumara	-2063
21	-2064
▁So	-2065
elec	-2066
hing	-2067
lwasa	-2068
▁inop	-2069
aantos	-2070
uokyan	-2071
▁paglu	-2072
▁trigo	-2073
▁apostol	-2074
▁nagdara	-2075
sidunggan	-2076
▁nanganga	-2077
▁Iginhatag	-2078
▁katulinan	-2079
▁makinaadmananon	-2080
May	-2081
gong	-2082
▁Sal	-2083
toran	-2084
▁Medi	-2085
▁buma	-2086
▁mapu	-2087
▁tinma	-2088
▁ihalas	-2089
▁sumbong	-2090
▁Jeroboam	-2091
▁iginbutang	-2092
rukom	-2093
▁luyo	-2094
ingasa	-2095
▁Daniel	-2096
▁Absalon	-2097
▁gintalwas	-2098
▁kagamhanan	-2099
▁katadongan	-2100
bug	-2101
adad	-2102
mesa	-2103
▁dum	-2104
labog	-2105
lawig	-2106
▁yawa	-2107
▁ipapa	-2108
▁suhag	-2109
hinumdo	-2110
▁igpapa	-2111
▁lamesa	-2112
emperador	-2113
▁Parisiyo	-2114
▁bubuhaton	-2115
kol	-2116
▁Ar	-2117
▁is	-2118
ilob	-2119
tung	-2120
▁sin	-2121
▁paha	-2122
▁Gintu	-2123
▁buhis	-2124
inmanhi	-2125
▁Baraan	-2126
▁dungog	-2127
▁kapung	-2128
▁sagdon	-2129
▁Kahuman	-2130
▁burabod	-2131
▁langyaw	-2132
▁magmarangno	-2133
1;	-2134
lsa	-2135
211;	-2136
daan	-2137
itaa	-2138
mama	-2139
taya	-2140
▁Imo	-2141
Kundi	-2142
rotan	-2143
ungay	-2144
▁kamu	-2145
▁nagsa	-2146
▁nanga	-2147
lainlain	-2148
▁ikapito	-2149
▁pagkabu	-2150
aca	-2151
tak	-2152
araw	-2153
mana	-2154
pirit	-2155
▁nala	-2156
moliat	-2157
▁sagka	-2158
lawigan	-2159
▁ihatag	-2160
▁naghuhu	-2161
▁Nagpadayon	-2162
▁kapungtoran	-2163
Mga	-2164
kar	-2165
▁12	-2166
dlan	-2167
mosta	-2168
ulang	-2169
▁tinm	-2170
▁unom	-2171
babaro	-2172
▁agian	-2173
▁hikit	-2174
▁malon	-2175
▁pagha	-2176
▁tampo	-2177
▁Nakaka	-2178
reohanon	-2179
talwason	-2180
▁emperador	-2181
▁kinasingkasing	-2182
hob	-2183
oli	-2184
ihaw	-2185
▁Esa	-2186
lanat	-2187
mokan	-2188
▁Tawo	-2189
▁dose	-2190
balhin	-2191
▁gamit	-2192
▁nakon	-2193
▁bayhon	-2194
▁grasya	-2195
▁Galilea	-2196
▁uunanhon	-2197
Hi	-2198
toon	-2199
pausa	-2200
▁gara	-2201
matinu	-2202
▁Adton	-2203
▁Bangin	-2204
▁puthaw	-2205
▁hingpit	-2206
▁pagkaaga	-2207
▁sinmulod	-2208
▁maghurukom	-2209
moo	-2210
▁Co	-2211
uhaa	-2212
wang	-2213
▁Josa	-2214
▁tuyo	-2215
pakita	-2216
▁aanhi	-2217
▁yukot	-2218
inumdomi	-2219
▁pagbaya	-2220
▁pagpapa	-2221
matinumanon	-2222
▁magkalainlain	-2223
mp	-2224
kayan	-2225
umosta	-2226
▁tamsi	-2227
▁Pyesta	-2228
▁kalang	-2229
▁mabuhi	-2230
▁tatagan	-2231
▁natindog	-2232
▁pagtutdo	-2233
▁lalawigan	-2234
▁kalangitan	-2235
ni	-2236
▁Pu	-2237
▁ala	-2238
rigan	-2239
▁Sime	-2240
▁bayba	-2241
▁bulig	-2242
▁kumaon	-2243
▁Antioco	-2244
▁binmaya	-2245
▁nakasala	-2246
▁natikang	-2247
▁paglakat	-2248
▁sagkahon	-2249
▁hinungdan	-2250
▁makarawat	-2251
▁papatayon	-2252
Kinahanglan	-2253
ng	-2254
tina	-2255
waan	-2256
▁Joa	-2257
▁Pan	-2258
▁Elea	-2259
▁Esau	-2260
▁sapa	-2261
▁buhok	-2262
▁nagda	-2263
▁gimama	-2264
▁magpaka	-2265
▁Hinbatian	-2266
▁kasamokan	-2267
▁pakibulig	-2268
dak	-2269
nan	-2270
ngu	-2271
rug	-2272
bite	-2273
labi	-2274
pong	-2275
sanon	-2276
▁Hini	-2277
▁lino	-2278
bunyag	-2279
lwasan	-2280
▁linmu	-2281
gamiton	-2282
endisyon	-2283
hinumdom	-2284
▁makadto	-2285
▁nagyayakan	-2286
msi	-2287
sia	-2288
▁Ge	-2289
kana	-2290
unay	-2291
▁Nga	-2292
melec	-2293
tabay	-2294
▁ging	-2295
ingkod	-2296
▁hatag	-2297
▁sapit	-2298
▁pinili	-2299
himutang	-2300
▁pagtahod	-2301
▁hinbaroan	-2302
▁nahisalin	-2303
hihimangraw	-2304
▁paghunahuna	-2305
tri	-2306
▁buot	-2307
▁nasi	-2308
▁tapo	-2309
saysay	-2310
▁Dagat	-2311
▁mahal	-2312
▁pagano	-2313
▁naghadi	-2314
▁magbuhat	-2315
▁magsugot	-2316
?'	-2317
gop	-2318
▁Hu	-2319
dlay	-2320
rimo	-2321
inang	-2322
litan	-2323
▁Maka	-2324
▁maba	-2325
▁mawa	-2326
▁urok	-2327
longan	-2328
nganga	-2329
ugtang	-2330
▁binmu	-2331
▁pagli	-2332
▁itugot	-2333
▁pagpuo	-2334
▁Pamatii	-2335
▁urokyan	-2336
▁mahinabo	-2337
▁paggawas	-2338
▁napakadto	-2339
▁katalwasan	-2340
▁nagpabilin	-2341
▁ginpakianhan	-2342
▁pagpasidungog	-2343
fat	-2344
▁Ca	-2345
▁lan	-2346
gsong	-2347
▁Jehu	-2348
▁malinis	-2349
mamatayon	-2350
▁kapatagan	-2351
▁nalingkod	-2352
▁magpapadayon	-2353
yn	-2354
agna	-2355
mita	-2356
▁Her	-2357
▁nahu	-2358
▁pako	-2359
aagian	-2360
msihan	-2361
▁barko	-2362
susumat	-2363
tutdoan	-2364
umdoman	-2365
kanapulo	-2366
▁Magkaka	-2367
▁pamatay	-2368
▁katamsihan	-2369
▁Amoreohanon	-2370
▁naghimangraw	-2371
▁pagkamatadong	-2372
Ba	-2373
▁Per	-2374
▁Jeri	-2375
▁kros	-2376
▁patu	-2377
oripon	-2378
rongan	-2379
▁kauro	-2380
sayloon	-2381
▁atabay	-2382
▁iginta	-2383
▁inmoli	-2384
▁apostoles	-2385
▁garamiton	-2386
▁iginlubong	-2387
bat	-2388
lyo	-2389
men	-2390
rin	-2391
saw	-2392
kway	-2393
rona	-2394
▁Sid	-2395
▁inu	-2396
anaman	-2397
parayaw	-2398
▁naabot	-2399
▁pamata	-2400
bungkagon	-2401
▁mapintas	-2402
▁pagsulod	-2403
▁pakasala	-2404
▁binubuhat	-2405
▁kahimtang	-2406
▁paghimangraw	-2407
▁pagpanalipod	-2408
Ti	-2409
hak	-2410
hal	-2411
lot	-2412
zar	-2413
pupu	-2414
▁nau	-2415
hinga	-2416
▁Mata	-2417
▁himo	-2418
bongan	-2419
matuod	-2420
▁nagbu	-2421
▁saksi	-2422
Sanglit	-2423
▁ilarom	-2424
▁sumati	-2425
▁linmakat	-2426
▁mahibaro	-2427
▁Harangdon	-2428
▁ginagamit	-2429
▁nakakalipay	-2430
▁ki	-2431
sara	-2432
▁daru	-2433
▁sara	-2434
dagmit	-2435
karaot	-2436
▁hinga	-2437
▁kalag	-2438
▁panang	-2439
▁tugoti	-2440
mangnoan	-2441
▁higdaan	-2442
▁baybayon	-2443
▁kabaraka	-2444
▁kukuhaon	-2445
▁trompeta	-2446
fer	-2447
que	-2448
tok	-2449
tugi	-2450
uben	-2451
sayan	-2452
▁buta	-2453
malooy	-2454
▁kabab	-2455
rawaton	-2456
hahadlok	-2457
▁hihimoon	-2458
▁ihinatag	-2459
▁kahilaba	-2460
▁kahitaas	-2461
▁mabubuhi	-2462
▁ighahalad	-2463
▁ikanapulo	-2464
goy	-2465
sok	-2466
awod	-2467
▁Gad	-2468
▁Joas	-2469
▁sako	-2470
angkaw	-2471
buhian	-2472
sikway	-2473
▁bantogan	-2474
▁binayaan	-2475
▁Hinumdomi	-2476
▁Asiriahanon	-2477
▁Lug	-2478
hugaw	-2479
lapas	-2480
▁Hiya	-2481
▁Ikaw	-2482
▁irim	-2483
▁suga	-2484
▁Dapit	-2485
▁Ruben	-2486
▁banwa	-2487
▁biray	-2488
▁kaban	-2489
sangkay	-2490
▁larang	-2491
▁pagsugo	-2492
▁tangkod	-2493
▁kauropdan	-2494
yam	-2495
▁Li	-2496
▁Re	-2497
sinu	-2498
dahan	-2499
inuod	-2500
▁masi	-2501
rabaho	-2502
rayhak	-2503
▁ipina	-2504
▁sidro	-2505
libotan	-2506
▁kinaka	-2507
▁taming	-2508
▁tanaman	-2509
▁nagkampo	-2510
▁tapotapo	-2511
▁makasabot	-2512
▁igsisiring	-2513
eso	-2514
tid	-2515
yopan	-2516
▁Sede	-2517
hirayo	-2518
tongan	-2519
▁Ginta	-2520
▁Lugod	-2521
▁binhe	-2522
▁dinma	-2523
▁Hebron	-2524
kaalohan	-2525
tutubyan	-2526
▁Josafat	-2527
▁Nagsugo	-2528
▁katunga	-2529
▁bungbong	-2530
▁gimamaupayi	-2531
▁kadungganan	-2532
▁pananglitan	-2533
▁pagpasalamat	-2534
ksan	-2535
anyag	-2536
lumpi	-2537
wason	-2538
▁Giha	-2539
haduha	-2540
baligya	-2541
susumpa	-2542
babatian	-2543
▁Magpapa	-2544
▁ginpirde	-2545
▁surudlan	-2546
▁ighahatag	-2547
▁pagkalooy	-2548
▁tinmindog	-2549
▁Siriahanon	-2550
abi	-2551
tad	-2552
uel	-2553
▁Job	-2554
Ginoo	-2555
hoban	-2556
ilato	-2557
layon	-2558
tagsa	-2559
▁todo	-2560
gangan	-2561
sipara	-2562
▁manga	-2563
▁Maabot	-2564
▁Pilato	-2565
▁bitoon	-2566
▁pagkit	-2567
saysayan	-2568
▁paggamit	-2569
▁paglinis	-2570
▁Sedequias	-2571
▁ginpadara	-2572
▁Ginsumatan	-2573
▁pinulongan	-2574
tal	-2575
▁Eu	-2576
ulod	-2577
▁San	-2578
▁Nang	-2579
▁kapu	-2580
angbit	-2581
inmuha	-2582
kaupay	-2583
▁ikina	-2584
▁Josias	-2585
▁hirimo	-2586
▁patubo	-2587
▁paghadi	-2588
pinahitas	-2589
▁hukmanan	-2590
mos	-2591
▁20	-2592
▁Mak	-2593
kahan	-2594
▁hain	-2595
▁inin	-2596
▁Betel	-2597
▁ngadi	-2598
▁tanan	-2599
sabotan	-2600
lalabawi	-2601
▁nagdudu	-2602
ato	-2603
nes	-2604
tig	-2605
ura	-2606
onga	-2607
▁Gid	-2608
▁Mac	-2609
dakop	-2610
tubod	-2611
uhata	-2612
▁baga	-2613
▁ginp	-2614
▁Pinma	-2615
▁linain	-2616
▁Eleazar	-2617
▁Pinaagi	-2618
▁katirok	-2619
▁nagtiti	-2620
▁nasarig	-2621
▁nagkamay	-2622
▁urosahon	-2623
▁ihinahatag	-2624
▁Naghimangraw	-2625
▁Y	-2626
nit	-2627
pis	-2628
▁wa	-2629
ktas	-2630
tana	-2631
▁mai	-2632
kitan	-2633
usisa	-2634
▁Levi	-2635
▁Tiro	-2636
▁nabu	-2637
▁pula	-2638
▁puro	-2639
▁tika	-2640
▁Sinmu	-2641
▁baton	-2642
▁halas	-2643
▁sirot	-2644
hataasi	-2645
himulos	-2646
▁Jerico	-2647
▁kinuha	-2648
▁pagdad	-2649
▁mabalik	-2650
▁nagtata	-2651
▁nasunod	-2652
▁pangaro	-2653
▁tinagan	-2654
▁aringasa	-2655
▁gintuman	-2656
▁nakakapa	-2657
▁magsarang	-2658
▁nahisurat	-2659
▁pagbungkag	-2660
▁tagsatagsa	-2661
eon	-2662
lia	-2663
mga	-2664
mun	-2665
odo	-2666
top	-2667
unot	-2668
urang	-2669
yawon	-2670
▁Holo	-2671
▁Mahi	-2672
▁Sina	-2673
agigin	-2674
fernes	-2675
mingaw	-2676
▁batid	-2677
▁pagbi	-2678
▁Balaam	-2679
bantayan	-2680
▁bangkaw	-2681
▁nakikig	-2682
▁sinurat	-2683
▁nagbuhat	-2684
▁paghikit	-2685
▁hirimosan	-2686
▁magdadara	-2687
▁nagpadara	-2688
▁pakasabot	-2689
bendisyonan	-2690
▁Holofernes	-2691
▁kagurangan	-2692
▁nagkamatay	-2693
▁pagkabuwas	-2694
Da	-2695
laan	-2696
▁Jez	-2697
rates	-2698
sumpa	-2699
yngoy	-2700
▁Judit	-2701
▁Liban	-2702
▁ginbi	-2703
▁marig	-2704
▁Sumati	-2705
▁patuko	-2706
▁sungay	-2707
▁Namatay	-2708
▁bumalik	-2709
▁ginsunog	-2710
▁hibaroan	-2711
▁Canaanhon	-2712
▁kalipayan	-2713
▁masusugad	-2714
▁nagsingba	-2715
▁nalilipay	-2716
ngangaranan	-2717
▁naglalakat	-2718
▁katigurangan	-2719
elo	-2720
rub	-2721
▁No	-2722
mbal	-2723
mumu	-2724
katon	-2725
▁hina	-2726
goliat	-2727
kasala	-2728
lipdan	-2729
▁Hadto	-2730
▁Gideon	-2731
▁Libano	-2732
▁buhata	-2733
▁nakapa	-2734
lumpigos	-2735
▁kumadto	-2736
▁mahatag	-2737
▁sakayan	-2738
▁magtuman	-2739
▁makilala	-2740
▁ginmoliat	-2741
▁nagdadara	-2742
▁nakarawat	-2743
▁mu	-2744
daot	-2745
elyo	-2746
ihap	-2747
lsan	-2748
quem	-2749
▁Edo	-2750
▁Sam	-2751
adlaw	-2752
agoga	-2753
▁mala	-2754
▁ngay	-2755
tanhon	-2756
▁Nakig	-2757
▁Pagpa	-2758
▁dadad	-2759
pakadto	-2760
▁Persia	-2761
▁makita	-2762
▁nakuha	-2763
▁talwas	-2764
▁Nagpapa	-2765
▁namamati	-2766
▁pagsabot	-2767
▁sinagoga	-2768
▁mahibabaro	-2769
▁pinanmatay	-2770
▁tatalwason	-2771
▁nagsisingba	-2772
▁nagpapadayon	-2773
Ig	-2774
hot	-2775
kre	-2776
tug	-2777
emet	-2778
iisi	-2779
pati	-2780
hoyan	-2781
sulob	-2782
Pamati	-2783
frates	-2784
▁Demet	-2785
▁Salmo	-2786
▁sekre	-2787
tugotan	-2788
▁dughan	-2789
▁korona	-2790
▁ighalad	-2791
▁padayon	-2792
▁tungkod	-2793
▁Demetrio	-2794
▁Gintagan	-2795
▁Uunanhon	-2796
▁kakahoyan	-2797
▁mauruupay	-2798
▁nagtindog	-2799
▁pagtangis	-2800
▁magpadayon	-2801
kim	-2802
rod	-2803
sur	-2804
▁Ara	-2805
▁Emp	-2806
bigan	-2807
▁lung	-2808
▁Maria	-2809
▁hinma	-2810
▁kadto	-2811
▁maghi	-2812
unumdom	-2813
▁Siquem	-2814
▁tambok	-2815
▁maloloy	-2816
▁gintirok	-2817
▁kakaonon	-2818
bahinbahin	-2819
▁Emperador	-2820
▁gagamiton	-2821
▁magkakamay	-2822
▁nagtutuman	-2823
▁pagkarawat	-2824
▁patukoranan	-2825
luob	-2826
rana	-2827
upat	-2828
▁ina	-2829
▁ray	-2830
supak	-2831
▁arpa	-2832
▁linm	-2833
▁pasa	-2834
dugang	-2835
kikita	-2836
pugong	-2837
▁Labot	-2838
▁nanhi	-2839
acarias	-2840
lantugi	-2841
pangulo	-2842
▁buwaon	-2843
▁dugnit	-2844
▁pakaka	-2845
▁tinago	-2846
▁higrani	-2847
▁iginpapa	-2848
▁magyakan	-2849
▁pagpakiana	-2850
▁tungtongan	-2851
▁pagkakastigohon	-2852
can	-2853
dok	-2854
gog	-2855
sai	-2856
yai	-2857
▁or	-2858
Igin	-2859
rina	-2860
sgan	-2861
▁kom	-2862
Kadto	-2863
inano	-2864
koran	-2865
▁Bina	-2866
▁isda	-2867
▁yelo	-2868
matian	-2869
ralwas	-2870
▁Sulod	-2871
▁magla	-2872
▁magli	-2873
▁kamaka	-2874
▁nasina	-2875
▁pareho	-2876
salikway	-2877
▁pagkaba	-2878
▁pagwali	-2879
limbongan	-2880
▁Eufrates	-2881
▁hinkikit	-2882
▁kahiluag	-2883
▁Gintindog	-2884
▁ginbayaan	-2885
▁iginpakita	-2886
▁Amonitanhon	-2887
▁kasangkapan	-2888
▁pagtutumanon	-2889
?""	-2890
gawi	-2891
rael	-2892
▁bal	-2893
husay	-2894
▁asay	-2895
▁dyos	-2896
▁tata	-2897
langan	-2898
▁Joram	-2899
▁Pagka	-2900
▁tigda	-2901
gogliat	-2902
unongon	-2903
▁Isaias	-2904
▁butkon	-2905
▁hitaas	-2906
bubutang	-2907
butangan	-2908
▁dinmiri	-2909
▁irimnon	-2910
▁kabulig	-2911
▁kamelyo	-2912
▁kinaiya	-2913
▁kombite	-2914
▁matuman	-2915
▁talwasa	-2916
▁Mahihimo	-2917
▁kamaraot	-2918
▁naghalad	-2919
▁pagtapod	-2920
▁maghahadi	-2921
▁nahibilin	-2922
▁kinikilala	-2923
▁pagkabihag	-2924
oy	-2925
Ako	-2926
day	-2927
res	-2928
dina	-2929
mpor	-2930
udno	-2931
uuna	-2932
siyas	-2933
a	-2934
▁	-2935
n	-2936
i	-2937
g	-2938
o	-2939
h	-2940
m	-2941
t	-2942
k	-2943
u	-2944
d	-2945
s	-2946
y	-2947
r	-2948
p	-2949
l	-2950
b	-2951
,	-2952
.	-2953
w	-2954
e	-2955
-	-2956
"	-2957
G	-2958
N	-2959
D	-2960
A	-2961
K	-2962
J	-2963
S	-2964
M	-2965
H	-2966
I	-2967
;	-2968
P	-2969
B	-2970
T	-2971
!	-2972
E	-2973
?	-2974
c	-2975
'	-2976
0	-2977
L	-2978
:	-2979
v	-2980
W	-2981
C	-2982
f	-2983
O	-2984
1	-2985
q	-2986
R	-2987
—	-2988
2	-2989
U	-2990
z	-2991
F	-2992
)	-2993
Y	-2994
(	-2995
3	-2996
