<unk>	0
<s>	0
</s>	0
an	-0
in	-1
▁s	-2
▁m	-3
▁k	-4
▁p	-5
▁si	-6
▁d	-7
am	-8
iy	-9
▁b	-10
ag	-11
ang	-12
ak	-13
al	-14
ne	-15
▁du	-16
at	-17
as	-18
ah	-19
▁t	-20
we	-21
ab	-22
uh	-23
▁me	-24
▁duk	-25
un	-26
de	-27
▁ka	-28
▁iy	-29
iya	-30
▁we	-31
▁l	-32
▁n	-33
uhan	-34
hin	-35
▁iye	-36
▁T	-37
te	-38
uw	-39
ga	-40
is	-41
▁ne	-42
▁P	-43
▁I	-44
ar	-45
▁mag	-46
▁Tuhan	-47
ye	-48
▁in	-49
▁a	-50
ey	-51
ku	-52
ay	-53
sa	-54
▁h	-55
ap	-56
▁ga	-57
▁siye	-58
ul	-59
us	-60
uwa	-61
▁S	-62
amb	-63
▁ku	-64
en	-65
il	-66
▁M	-67
ut	-68
ge	-69
▁Isa	-70
▁Tuhanin	-71
▁bi	-72
gge	-73
▁"	-74
▁A	-75
um	-76
▁pe	-77
▁pa	-78
nen	-79
ew	-80
▁inin	-81
ahin	-82
ub	-83
ad	-84
ite	-85
it	-86
em	-87
aguwa	-88
▁bang	-89
angan	-90
▁pin	-91
ata	-92
ik	-93
el	-94
aya	-95
▁niya	-96
on	-97
ed	-98
ell	-99
amban	-100
ur	-101
▁D	-102
ung	-103
."	-104
uk	-105
▁amban	-106
▁te	-107
jar	-108
bi	-109
jari	-110
▁is	-111
▁pag	-112
ande	-113
▁miya	-114
mon	-115
▁kam	-116
▁isab	-117
ihin	-118
▁ak	-119
ēmon	-120
uhut	-121
anjari	-122
atey	-123
angk	-124
▁pegge	-125
ahan	-126
▁pu	-127
▁N	-128
▁B	-129
up	-130
ud	-131
▁kuwe	-132
▁hin	-133
mas	-134
▁dem	-135
abab	-136
▁pī	-137
▁kēmon	-138
▁Al	-139
▁Y	-140
▁Almas	-141
▁Saguwa	-142
▁K	-143
▁Manjari	-144
▁kite	-145
▁la	-146
▁ng	-147
lo	-148
akas	-149
si	-150
▁sabab	-151
adj	-152
im	-153
āp	-154
ng	-155
ka	-156
ala	-157
▁kami	-158
iss	-159
inde	-160
anin	-161
▁Pa	-162
inne	-163
issā	-164
ubey	-165
angkan	-166
akan	-167
ek	-168
amp	-169
wa	-170
ine	-171
▁man	-172
▁H	-173
ara	-174
ahat	-175
itu	-176
▁mak	-177
▁Duk	-178
olo	-179
▁bakas	-180
han	-181
uku	-182
ale	-183
uhin	-184
andel	-185
▁bal	-186
▁kew	-187
bin	-188
▁Pe	-189
▁an	-190
▁subey	-191
▁hadj	-192
▁aku	-193
den	-194
▁kap	-195
▁pan	-196
ina	-197
▁Almasi	-198
▁sa	-199
▁Yah	-200
▁ell	-201
es	-202
▁Pag	-203
▁saguwa	-204
urung	-205
uwe	-206
enn	-207
▁as	-208
upaya	-209
▁bu	-210
▁supaya	-211
ambuwa	-212
se	-213
▁hadja	-214
ant	-215
Ga	-216
ōng	-217
▁pas	-218
▁kin	-219
▁tak	-220
▁kata	-221
da	-222
ali	-223
ep	-224
isan	-225
▁lahat	-226
▁sin	-227
▁mas	-228
▁iyan	-229
▁mab	-230
ten	-231
▁pīsi	-232
aw	-233
uma	-234
▁de	-235
kun	-236
ti	-237
ama	-238
▁pat	-239
ma	-240
tan	-241
▁tin	-242
▁pang	-243
▁Hangkan	-244
▁tap	-245
▁Niya	-246
▁Yahud	-247
▁hep	-248
▁Pegge	-249
ahāp	-250
▁Ga	-251
▁bin	-252
▁balik	-253
▁Bang	-254
▁Is	-255
atan	-256
▁mang	-257
▁mala	-258
amin	-259
agad	-260
▁anak	-261
nu	-262
▁magp	-263
uwas	-264
edd	-265
▁g	-266
ura	-267
▁dambuwa	-268
▁sandel	-269
et	-270
aman	-271
ili	-272
ikil	-273
▁bisan	-274
▁asal	-275
aka	-276
▁dun	-277
▁ellew	-278
'.	-279
▁duma	-280
▁tah	-281
▁duny	-282
▁hinangan	-283
▁hinang	-284
indeg	-285
▁atey	-286
angg	-287
▁da	-288
▁Almasihin	-289
▁pina	-290
▁ine	-291
▁U	-292
kka	-293
▁magt	-294
▁tindeg	-295
▁hangkan	-296
atu	-297
ulat	-298
āku	-299
ennal	-300
ende	-301
▁diy	-302
asa	-303
ih	-304
eng	-305
usiya	-306
'-	-307
anne	-308
alil	-309
ing	-310
uwal	-311
▁ata	-312
▁atawa	-313
▁sara	-314
akura	-315
▁duse	-316
▁kab	-317
ēn	-318
▁mam	-319
inen	-320
',	-321
▁hāp	-322
▁bissā	-323
ase	-324
▁dende	-325
▁mags	-326
ro	-327
▁L	-328
▁hap	-329
▁magb	-330
▁kal	-331
▁'	-332
bus	-333
duwe	-334
and	-335
ubus	-336
▁pitu	-337
▁pal	-338
use	-339
▁matey	-340
▁Ubus	-341
▁luma	-342
nun	-343
na	-344
▁Mag	-345
▁takite	-346
▁Me	-347
▁iyehin	-348
▁nuhut	-349
▁maka	-350
▁E	-351
ahagad	-352
,"	-353
tu	-354
abi	-355
▁pam	-356
tina	-357
ungtina	-358
▁samp	-359
alem	-360
ekka	-361
▁nakura	-362
▁tag	-363
tel	-364
▁Paul	-365
▁sawe	-366
▁tu	-367
▁magd	-368
▁masandel	-369
akale	-370
▁Pan	-371
annen	-372
inang	-373
▁manusiya	-374
bu	-375
dd	-376
?"	-377
▁maghin	-378
▁kas	-379
▁map	-380
▁An	-381
▁ta	-382
▁pinap	-383
▁tab	-384
▁Panuhut	-385
▁diyata	-386
▁um	-387
ip	-388
urungan	-389
▁Na	-390
▁bar	-391
▁ma	-392
▁pangan	-393
▁J	-394
oh	-395
▁Isahin	-396
▁akuhin	-397
▁mahāp	-398
ahinang	-399
▁kaw	-400
▁ke	-401
ambung	-402
▁il	-403
ahal	-404
anggal	-405
uli	-406
anen	-407
yu	-408
iye	-409
▁dina	-410
ampun	-411
▁Si	-412
ayu	-413
▁tas	-414
▁pagk	-415
eyit	-416
ihan	-417
▁Da	-418
▁Yahudihin	-419
▁seyit	-420
▁Niyawa	-421
ros	-422
ellum	-423
anten	-424
ultan	-425
bb	-426
blo	-427
▁kamihin	-428
▁pasōng	-429
.'	-430
udj	-431
▁mangga	-432
▁Yus	-433
ān	-434
▁puwe	-435
ukum	-436
▁puweblo	-437
▁Yusup	-438
▁dunya	-439
▁Pet	-440
▁mal	-441
▁luwal	-442
▁Petros	-443
ug	-444
eddili	-445
▁dalil	-446
▁hininang	-447
▁Iye	-448
isi	-449
enna	-450
āt	-451
any	-452
ekk	-453
urga	-454
▁pikil	-455
▁sinduwe	-456
▁surga	-457
ikat	-458
āti	-459
▁tekka	-460
▁missā	-461
seb	-462
▁mat	-463
entel	-464
▁langgal	-465
▁lell	-466
igge	-467
itab	-468
▁bangsa	-469
eg	-470
▁pap	-471
▁sal	-472
▁sas	-473
▁sine	-474
apal	-475
▁Sam	-476
▁ubus	-477
▁dara	-478
▁kitab	-479
la	-480
alam	-481
▁bah	-482
▁sampay	-483
anda	-484
▁bul	-485
akite	-486
bul	-487
akat	-488
asahan	-489
▁ekka	-490
anden	-491
▁tindegnen	-492
ilew	-493
▁sak	-494
▁tolo	-495
ra	-496
▁j	-497
adje	-498
ēnan	-499
ayak	-500
engng	-501
asag	-502
▁Anak	-503
anan	-504
alew	-505
▁maghinang	-506
amal	-507
▁mangan	-508
▁panganda	-509
ahadje	-510
ahalayak	-511
▁magm	-512
▁manamal	-513
▁seddili	-514
▁dunyahin	-515
▁umul	-516
▁kahagad	-517
iyan	-518
kolo	-519
ta	-520
atut	-521
uwan	-522
abaya	-523
▁suku	-524
iyu	-525
rus	-526
baya	-527
▁kat	-528
▁sinduwehin	-529
ebb	-530
▁im	-531
anun	-532
esseb	-533
ahu	-534
anta	-535
▁sōng	-536
jud	-537
abut	-538
▁magl	-539
ēg	-540
tip	-541
awus	-542
▁seyitanin	-543
▁bino	-544
ātinen	-545
▁Yahudi	-546
br	-547
anku	-548
▁boh	-549
angkew	-550
▁inēnan	-551
▁ellum	-552
▁duwe	-553
▁lapal	-554
sal	-555
ane	-556
iku	-557
usih	-558
▁para	-559
uhanbi	-560
akun	-561
▁pungtina	-562
ol	-563
ujud	-564
▁bohe	-565
ig	-566
▁Aw	-567
tipun	-568
▁kapatut	-569
▁tahinang	-570
ubu	-571
unt	-572
▁lu	-573
▁Awrus	-574
▁Yahiya	-575
▁Panuhutanten	-576
emm	-577
▁aka	-578
ellu	-579
▁Pin	-580
▁panolo	-581
▁takale	-582
ene	-583
ett	-584
▁mahāpin	-585
▁tuhut	-586
▁makajari	-587
▁pags	-588
▁akahan	-589
akin	-590
anbi	-591
▁magk	-592
▁bentel	-593
▁pagkas	-594
diy	-595
▁magbaya	-596
emmek	-597
iggel	-598
aye	-599
▁mabennal	-600
abey	-601
alata	-602
sihin	-603
usihat	-604
▁kan	-605
▁hadje	-606
▁kahāp	-607
▁ēn	-608
akub	-609
▁Pagk	-610
▁tahala	-611
▁kinakan	-612
ayaw	-613
▁add	-614
▁salama	-615
▁siyehin	-616
▁dendehin	-617
▁and	-618
▁Subey	-619
We	-620
▁pab	-621
▁Yakub	-622
▁matu	-623
▁sul	-624
imbul	-625
▁balakat	-626
▁hātinen	-627
sine	-628
andal	-629
▁baran	-630
ingkolo	-631
▁kabaya	-632
umb	-633
▁ko	-634
abang	-635
▁magpa	-636
▁taga	-637
▁Am	-638
ahim	-639
▁Ibr	-640
▁Ibrahim	-641
▁Kuwe	-642
▁Kata	-643
▁tubu	-644
▁tagna	-645
▁Kēmon	-646
▁mabaya	-647
imm	-648
▁In	-649
antag	-650
▁kinabaya	-651
▁pangurung	-652
inku	-653
iyawa	-654
anj	-655
ulut	-656
▁pinak	-657
▁taman	-658
utsihin	-659
▁tiggel	-660
▁bayu	-661
▁Nambung	-662
▁ngal	-663
engngan	-664
abo	-665
▁pakale	-666
īn	-667
aga	-668
agi	-669
del	-670
ingge	-671
atin	-672
ikk	-673
ley	-674
amikk	-675
▁tasulat	-676
amikkiyan	-677
aku	-678
dan	-679
lama	-680
▁Awrusalam	-681
▁addat	-682
eddo	-683
▁sīn	-684
akil	-685
uhanku	-686
▁kamatey	-687
apu	-688
dem	-689
▁po	-690
sahan	-691
tanin	-692
▁damb	-693
▁māku	-694
▁dangan	-695
▁manjari	-696
usa	-697
▁Isra	-698
▁pagbaya	-699
▁patenna	-700
▁sultanin	-701
ūs	-702
ohin	-703
▁disi	-704
angurung	-705
ibu	-706
ole	-707
Bang	-708
ante	-709
▁lum	-710
▁lella	-711
▁kapungtina	-712
▁kitehin	-713
pu	-714
anes	-715
akahan	-716
▁pinas	-717
abangan	-718
▁bennal	-719
ariy	-720
▁bat	-721
▁nap	-722
ankun	-723
▁pinapatey	-724
immatan	-725
▁binissā	-726
āk	-727
ipat	-728
ayaman	-729
▁Ka	-730
▁sasuku	-731
▁tangan	-732
▁manuhut	-733
wal	-734
ēgan	-735
▁dahu	-736
aluwas	-737
tag	-738
▁olo	-739
kahan	-740
▁bant	-741
▁Bisan	-742
▁tanda	-743
dj	-744
▁G	-745
wak	-746
▁hukum	-747
add	-748
▁Man	-749
tekka	-750
▁Magt	-751
itan	-752
▁gur	-753
ulali	-754
▁Sultan	-755
Da	-756
ana	-757
▁Par	-758
▁Damikkiyan	-759
▁lam	-760
anggup	-761
▁magtawus	-762
alik	-763
▁las	-764
▁basag	-765
▁pinag	-766
▁tapene	-767
▁magduse	-768
▁mabennalin	-769
āg	-770
ise	-771
abus	-772
▁lān	-773
▁tat	-774
▁Parise	-775
▁magmahalayak	-776
teg	-777
▁aw	-778
arap	-779
udji	-780
▁sulat	-781
▁kahāpan	-782
▁ningkolo	-783
▁olom	-784
▁tahun	-785
▁akahante	-786
om	-787
▁El	-788
ukan	-789
▁lim	-790
▁min	-791
▁tum	-792
indew	-793
▁diyalem	-794
▁Sutsihin	-795
hellu	-796
ess	-797
▁nen	-798
▁sum	-799
ihanku	-800
wangan	-801
▁lellahin	-802
▁inurungan	-803
▁pinangurung	-804
ot	-805
apit	-806
inun	-807
▁paluwas	-808
▁maghinangan	-809
▁ba	-810
▁na	-811
▁Asal	-812
▁paguwa	-813
▁La	-814
Tuwan	-815
andey	-816
▁bulak	-817
▁nakan	-818
▁nengge	-819
▁semmek	-820
▁kawakil	-821
ubas	-822
▁kar	-823
ampat	-824
▁Duma	-825
▁batu	-826
▁imam	-827
dangan	-828
▁kitabin	-829
ōk	-830
amu	-831
ate	-832
ikatin	-833
▁kinal	-834
▁duwangan	-835
▁di	-836
andi	-837
▁bag	-838
bissā	-839
▁bett	-840
▁tabo	-841
anyaga	-842
▁tinuhut	-843
iki	-844
▁bo	-845
▁pah	-846
▁guru	-847
arayaw	-848
walley	-849
angsahan	-850
▁ateybin	-851
atus	-852
ilin	-853
ugtu	-854
▁sam	-855
asek	-856
bayu	-857
utsi	-858
▁sama	-859
ilihin	-860
angandel	-861
kal	-862
▁be	-863
▁kayu	-864
▁lang	-865
▁piyu	-866
▁tahāti	-867
▁kalahat	-868
und	-869
māku	-870
▁lah	-871
▁kapag	-872
▁awwalley	-873
▁magtipun	-874
Ka	-875
ales	-876
▁tal	-877
▁baya	-878
▁Tuwan	-879
▁kēgan	-880
akitehan	-881
ke	-882
pa	-883
▁sā	-884
▁alata	-885
diyalem	-886
lam	-887
abin	-888
▁ī	-889
▁āg	-890
anji	-891
egga	-892
▁langit	-893
▁magdambuwa	-894
awal	-895
sang	-896
▁kōk	-897
▁pikilan	-898
abusu	-899
▁sali	-900
▁antag	-901
▁pasōngan	-902
isir	-903
▁Pil	-904
▁Sas	-905
▁nga	-906
uhande	-907
▁Misir	-908
inum	-909
▁wak	-910
▁batang	-911
▁malasa	-912
▁tinalew	-913
▁Manusiya	-914
urul	-915
▁ase	-916
▁nge	-917
emuwe	-918
▁magj	-919
apatey	-920
▁Pagubus	-921
▁magtuhut	-922
er	-923
ok	-924
▁li	-925
ahay	-926
ayam	-927
ayep	-928
▁Tin	-929
▁pagl	-930
▁Mariy	-931
ddo	-932
▁to	-933
atul	-934
ingan	-935
▁naps	-936
abennal	-937
▁bettis	-938
▁Dambuwa	-939
▁Sa	-940
agna	-941
illa	-942
▁kul	-943
ateyin	-944
▁makap	-945
▁Magtawus	-946
▁mo	-947
ayim	-948
ebbut	-949
▁Musa	-950
▁Jalil	-951
▁danta	-952
▁sampū	-953
▁bahang	-954
▁lumengngan	-955
▁Aku	-956
▁suk	-957
undal	-958
uhante	-959
▁ebbut	-960
▁pinat	-961
▁Karayaw	-962
▁banyaga	-963
▁ngampun	-964
▁patuhut	-965
▁padiyalem	-966
▁We	-967
aksi	-968
▁ujud	-969
iyahin	-970
uhanne	-971
ekkahan	-972
▁sultan	-973
▁seyitan	-974
upama	-975
▁bili	-976
▁andang	-977
▁kapapu	-978
▁Mariyam	-979
▁Pagtekka	-980
ero	-981
▁Sin	-982
▁buwa	-983
▁hayep	-984
▁magis	-985
▁sundal	-986
▁kapandey	-987
▁pinakellum	-988
ir	-989
or	-990
alin	-991
siye	-992
▁kag	-993
▁mad	-994
ungan	-995
amanen	-996
▁Simon	-997
▁magusihat	-998
pi	-999
iha	-1000
▁Bin	-1001
▁Ine	-1002
▁Pas	-1003
▁pīdem	-1004
▁pīiye	-1005
▁waktu	-1006
▁imamin	-1007
▁Pagkale	-1008
▁Pariseohin	-1009
▁Panuhutanin	-1010
me	-1011
ayi	-1012
▁pak	-1013
▁Ekka	-1014
uhanin	-1015
▁sakali	-1016
ibi	-1017
▁Es	-1018
anti	-1019
buwa	-1020
umbas	-1021
▁pīpu	-1022
▁magaka	-1023
▁missāsi	-1024
ati	-1025
gas	-1026
ukul	-1027
wang	-1028
ahukum	-1029
▁makas	-1030
▁kinimmatan	-1031
agan	-1032
inbi	-1033
▁Hero	-1034
▁lasa	-1035
▁lebb	-1036
▁bagay	-1037
▁hukuman	-1038
nal	-1039
usun	-1040
▁laha	-1041
▁hawal	-1042
▁tahik	-1043
umantag	-1044
▁Akahan	-1045
▁Pilatus	-1046
▁bahangi	-1047
▁tapikil	-1048
▁hinangne	-1049
os	-1050
▁Sine	-1051
▁Bakas	-1052
▁Sabab	-1053
▁ampat	-1054
Na	-1055
▁Ng	-1056
udas	-1057
iggew	-1058
▁masa	-1059
▁kagun	-1060
▁bantuk	-1061
▁kemuwe	-1062
▁Bar	-1063
ayiku	-1064
hinang	-1065
▁esseb	-1066
▁ngite	-1067
▁kasuse	-1068
▁Samakun	-1069
▁tamanan	-1070
pū	-1071
ita	-1072
udju	-1073
▁Mus	-1074
▁sang	-1075
ahalga	-1076
akannen	-1077
▁Musahin	-1078
▁kapandeyan	-1079
att	-1080
gad	-1081
kul	-1082
▁Bu	-1083
akne	-1084
▁amu	-1085
▁gun	-1086
▁pil	-1087
ahala	-1088
anbin	-1089
ayima	-1090
untut	-1091
▁duseden	-1092
▁mahadje	-1093
▁hinangbi	-1094
Me	-1095
Ine	-1096
dja	-1097
hāp	-1098
iyas	-1099
ādja	-1100
▁Nabi	-1101
▁pote	-1102
▁Judas	-1103
▁pasal	-1104
ambahay	-1105
▁anakne	-1106
▁kaluma	-1107
ayamanun	-1108
▁langkew	-1109
▁kagunahan	-1110
pe	-1111
anak	-1112
unsi	-1113
▁kah	-1114
ahāti	-1115
indem	-1116
ulutan	-1117
▁ngatu	-1118
▁mabanes	-1119
▁pagtipun	-1120
▁kamateynen	-1121
.'"	-1122
inin	-1123
▁Amb	-1124
▁bahi	-1125
▁kapp	-1126
▁pagt	-1127
▁tibu	-1128
▁ubas	-1129
anakan	-1130
▁tuhan	-1131
▁takitede	-1132
▁kalasahan	-1133
▁nakanakin	-1134
▁hi	-1135
ohan	-1136
▁lug	-1137
angka	-1138
ōngan	-1139
ahande	-1140
▁Herod	-1141
▁talew	-1142
▁tabang	-1143
ayikutan	-1144
▁Pagkite	-1145
▁magtolo	-1146
▁kinalasahan	-1147
unu	-1148
Niya	-1149
ewwa	-1150
▁sap	-1151
▁nabi	-1152
▁pade	-1153
akatan	-1154
▁ngibu	-1155
addatan	-1156
▁sinulat	-1157
▁urungan	-1158
▁barannen	-1159
▁minahalayak	-1160
▁pinapanjari	-1161
uban	-1162
▁pala	-1163
▁tapī	-1164
ahatul	-1165
▁napsu	-1166
▁karayaw	-1167
▁takitene	-1168
yap	-1169
unus	-1170
▁gin	-1171
▁suw	-1172
▁pagm	-1173
▁suse	-1174
▁inaka	-1175
▁janji	-1176
▁tudju	-1177
▁kasusehan	-1178
▁pananggup	-1179
,'	-1180
ib	-1181
abb	-1182
uyu	-1183
alip	-1184
asar	-1185
ānan	-1186
▁pad	-1187
engge	-1188
ansang	-1189
▁lamew	-1190
▁Samaku	-1191
▁pangal	-1192
▁panuhut	-1193
▁makakale	-1194
▁kasulutan	-1195
ahi	-1196
▁en	-1197
akey	-1198
untar	-1199
uwang	-1200
▁pagp	-1201
▁pata	-1202
▁higad	-1203
▁sinna	-1204
▁teteg	-1205
▁anaknen	-1206
▁sandelbi	-1207
▁pinahadje	-1208
būs	-1209
ote	-1210
▁To	-1211
anem	-1212
duse	-1213
heng	-1214
inep	-1215
ipun	-1216
teng	-1217
▁nar	-1218
ahagi	-1219
akkal	-1220
aning	-1221
▁āgam	-1222
▁kawul	-1223
▁makat	-1224
▁pinab	-1225
essuwang	-1226
▁dehellu	-1227
▁nambung	-1228
▁samanta	-1229
angandelan	-1230
nab	-1231
nul	-1232
angis	-1233
anyap	-1234
kēmon	-1235
ubnul	-1236
▁hāti	-1237
▁tiya	-1238
▁kanaw	-1239
▁tuman	-1240
Tuhanin	-1241
▁diyawa	-1242
▁ngeddo	-1243
▁bissāhan	-1244
ambahayang	-1245
▁kawakilan	-1246
isk	-1247
sin	-1248
▁Pī	-1249
ella	-1250
ilik	-1251
▁Pat	-1252
lahat	-1253
▁kabin	-1254
▁narka	-1255
bilihin	-1256
▁bahagi	-1257
▁ateynen	-1258
▁makahagad	-1259
▁kabinasahan	-1260
ubul	-1261
▁jān	-1262
tanan	-1263
▁Pags	-1264
alamin	-1265
uhannu	-1266
▁harap	-1267
akasuwa	-1268
▁kawuli	-1269
▁hadjehin	-1270
▁takiteku	-1271
▁balakatan	-1272
▁kinahagad	-1273
aba	-1274
ass	-1275
ono	-1276
pat	-1277
apas	-1278
awuli	-1279
▁meke	-1280
▁tellu	-1281
aningkolo	-1282
▁magsukul	-1283
▁magsandal	-1284
ss	-1285
▁Ep	-1286
bili	-1287
▁Tim	-1288
hatul	-1289
▁Pagt	-1290
▁ipat	-1291
▁mata	-1292
▁bangka	-1293
▁gawang	-1294
▁suwala	-1295
▁samanen	-1296
▁āgamahin	-1297
▁ngahinang	-1298
▁pinaluwas	-1299
hun	-1300
usta	-1301
▁saki	-1302
alabey	-1303
ayahan	-1304
▁ampun	-1305
▁lugal	-1306
▁pahāp	-1307
▁paman	-1308
▁panyap	-1309
▁magjina	-1310
▁pamikil	-1311
▁pinasuku	-1312
Aku	-1313
ampay	-1314
apitu	-1315
▁Pili	-1316
▁Siye	-1317
▁pagj	-1318
▁sābu	-1319
akanne	-1320
▁dambūs	-1321
▁sangem	-1322
▁usihat	-1323
▁ellewin	-1324
▁palabey	-1325
▁tasabut	-1326
▁inanakan	-1327
▁panabang	-1328
▁mabanesin	-1329
eb	-1330
gu	-1331
li	-1332
abbu	-1333
aley	-1334
atag	-1335
essa	-1336
unen	-1337
▁hati	-1338
▁malu	-1339
▁mura	-1340
▁pagb	-1341
▁pīne	-1342
▁Luwal	-1343
▁tewwa	-1344
▁tinanem	-1345
▁tuhutbi	-1346
▁lebbahan	-1347
ide	-1348
pan	-1349
▁Bo	-1350
agga	-1351
awan	-1352
hing	-1353
▁Mis	-1354
▁papī	-1355
▁tana	-1356
abasag	-1357
▁binin	-1358
▁makag	-1359
▁upama	-1360
kēmonin	-1361
▁Timote	-1362
▁bihing	-1363
▁timbul	-1364
▁duseten	-1365
▁pasujud	-1366
▁pateyin	-1367
▁sinōngan	-1368
▁kalahatan	-1369
▁magpalata	-1370
igp	-1371
udd	-1372
Sine	-1373
aked	-1374
ulig	-1375
▁Inin	-1376
▁satt	-1377
▁sedd	-1378
aliput	-1379
▁guwal	-1380
▁kubul	-1381
▁tapit	-1382
▁tilew	-1383
▁magpas	-1384
▁Sambung	-1385
▁andanen	-1386
▁dusebin	-1387
▁dusehan	-1388
▁hinangku	-1389
▁kalabusu	-1390
▁nabangan	-1391
angsahanin	-1392
▁hinangande	-1393
mā	-1394
'."	-1395
antu	-1396
anjal	-1397
angkat	-1398
angkun	-1399
▁Amban	-1400
▁Pilip	-1401
▁pinda	-1402
▁Takite	-1403
▁ineddo	-1404
▁mahalga	-1405
▁malangkew	-1406
▁Awrusalamin	-1407
▁kapangandelan	-1408
ada	-1409
asig	-1410
▁beh	-1411
ngase	-1412
▁Kana	-1413
▁sapi	-1414
anyang	-1415
asulat	-1416
etteng	-1417
▁astel	-1418
▁puwas	-1419
▁urung	-1420
inganan	-1421
▁nganda	-1422
▁Timoteo	-1423
▁inampun	-1424
▁pagubus	-1425
▁tinilew	-1426
▁kimmatan	-1427
ihi	-1428
nel	-1429
usb	-1430
▁Ar	-1431
iksa	-1432
ohun	-1433
pāku	-1434
sali	-1435
ulak	-1436
ulan	-1437
▁Hāp	-1438
ekkat	-1439
▁dapu	-1440
▁lime	-1441
▁miha	-1442
▁pāku	-1443
uwasan	-1444
▁magka	-1445
▁masak	-1446
▁sukey	-1447
▁sutsi	-1448
▁ulali	-1449
▁Sasang	-1450
▁Sasuku	-1451
▁kulang	-1452
▁makapag	-1453
▁patapit	-1454
▁umantag	-1455
▁mabentel	-1456
▁bessuwang	-1457
▁tamananne	-1458
▁pagtipunan	-1459
amā	-1460
anu	-1461
one	-1462
tiy	-1463
ula	-1464
Duma	-1465
ahun	-1466
akku	-1467
aran	-1468
usan	-1469
▁din	-1470
▁Dina	-1471
▁Saul	-1472
ayedan	-1473
ihanin	-1474
▁lalem	-1475
lahatan	-1476
▁binihi	-1477
▁ilegga	-1478
▁Misirin	-1479
▁ateyden	-1480
▁dalilan	-1481
▁magdusta	-1482
▁padeheng	-1483
▁tabangan	-1484
▁takitebi	-1485
▁seddilihin	-1486
duk	-1487
hal	-1488
tin	-1489
Asal	-1490
aget	-1491
eteg	-1492
etto	-1493
▁Ell	-1494
▁kay	-1495
ariya	-1496
▁mayam	-1497
▁sasew	-1498
kuluban	-1499
▁Nakura	-1500
▁amunen	-1501
▁ateybi	-1502
▁lindem	-1503
▁nginum	-1504
▁maganda	-1505
▁papatey	-1506
▁bininasa	-1507
▁takasuwa	-1508
In	-1509
Pī	-1510
bo	-1511
edj	-1512
▁nu	-1513
adju	-1514
aten	-1515
ikun	-1516
ulka	-1517
uwey	-1518
▁kak	-1519
▁kur	-1520
▁pay	-1521
▁pīm	-1522
nabas	-1523
tuhan	-1524
▁Masa	-1525
▁dine	-1526
▁labo	-1527
gindew	-1528
ituhin	-1529
udjite	-1530
ellumin	-1531
▁kannal	-1532
▁kasigp	-1533
▁nakanak	-1534
untarahan	-1535
▁Barnabas	-1536
▁hinangde	-1537
▁kappalin	-1538
▁langitin	-1539
▁pagkasibi	-1540
▁pangandel	-1541
▁sandelbin	-1542
▁makagindew	-1543
Si	-1544
tt	-1545
',"	-1546
ami	-1547
kew	-1548
man	-1549
pas	-1550
akup	-1551
ssek	-1552
▁Mal	-1553
▁ley	-1554
▁Este	-1555
▁Pang	-1556
▁teng	-1557
agadan	-1558
▁manuk	-1559
anganin	-1560
▁Anaknen	-1561
▁harapan	-1562
▁inakahan	-1563
▁tahātibi	-1564
▁hinanganne	-1565
dda	-1566
gtu	-1567
uka	-1568
ābu	-1569
aleg	-1570
amba	-1571
enno	-1572
onga	-1573
▁baw	-1574
▁kuw	-1575
▁usa	-1576
Bakas	-1577
issāp	-1578
unggu	-1579
alakat	-1580
▁badju	-1581
▁patut	-1582
▁gubnul	-1583
▁ateyten	-1584
▁betteng	-1585
▁ngurung	-1586
▁pinudji	-1587
▁Yahudiya	-1588
▁tindegne	-1589
▁masakihin	-1590
▁tangannen	-1591
▁mabentelin	-1592
puk	-1593
▁iya	-1594
angin	-1595
▁Bili	-1596
▁duwa	-1597
ampang	-1598
▁pasti	-1599
▁takil	-1600
▁ininum	-1601
▁pahali	-1602
▁dambiya	-1603
▁mamissā	-1604
▁pahadje	-1605
▁pateteg	-1606
▁sundalu	-1607
▁Akahante	-1608
▁Sabennal	-1609
▁pagsusun	-1610
▁pinapitu	-1611
▁ngalingan	-1612
▁pamapatey	-1613
▁urunganne	-1614
ddi	-1615
elli	-1616
ggel	-1617
▁sah	-1618
annun	-1619
antan	-1620
tiyok	-1621
▁Mags	-1622
▁anda	-1623
▁behe	-1624
▁liku	-1625
▁mato	-1626
▁punu	-1627
▁sala	-1628
akanin	-1629
▁legga	-1630
▁magbo	-1631
▁matan	-1632
▁ēnnen	-1633
ambanan	-1634
▁Samate	-1635
▁bengng	-1636
▁pessek	-1637
▁sasang	-1638
▁Antiyok	-1639
▁dambuli	-1640
▁masaley	-1641
▁matetto	-1642
▁magbissā	-1643
▁ngakahan	-1644
alakatanin	-1645
▁kapagduse	-1646
▁mangurung	-1647
▁kinalabusu	-1648
Pag	-1649
anat	-1650
ayin	-1651
▁bay	-1652
▁ente	-1653
▁pana	-1654
ahuhin	-1655
▁magmā	-1656
▁naksi	-1657
▁ngata	-1658
▁pilak	-1659
▁lasane	-1660
▁Pariseo	-1661
▁antanan	-1662
▁pagkite	-1663
▁papales	-1664
▁pasakey	-1665
▁sumiyan	-1666
▁takaleku	-1667
▁Sambungan	-1668
▁ilinganan	-1669
▁mamateyin	-1670
▁pasayedan	-1671
▁mahadjehin	-1672
▁bissāTuhanin	-1673
ād	-1674
kus	-1675
▁As	-1676
amas	-1677
buyu	-1678
eddi	-1679
▁Apu	-1680
ilasa	-1681
▁diki	-1682
▁sass	-1683
▁bangs	-1684
▁pabāk	-1685
▁peddi	-1686
▁āgama	-1687
▁kahaba	-1688
▁tumbas	-1689
▁bulawan	-1690
▁hinukum	-1691
▁pinandi	-1692
▁magislam	-1693
▁takalebi	-1694
▁Yahiyahin	-1695
▁magtangis	-1696
▁pagsultan	-1697
Awe	-1698
ssa	-1699
▁Ad	-1700
alep	-1701
ayed	-1702
▁bas	-1703
akali	-1704
sihal	-1705
▁pagh	-1706
▁tada	-1707
akasan	-1708
amāhan	-1709
asaret	-1710
▁Puwas	-1711
▁baytu	-1712
▁bilik	-1713
▁kakun	-1714
akellum	-1715
▁jānnen	-1716
▁matuyu	-1717
▁olomin	-1718
▁tapīsi	-1719
▁tayima	-1720
Sabennal	-1721
▁Estepan	-1722
▁Nasaret	-1723
▁Tasulat	-1724
▁maglasa	-1725
▁ngabasag	-1726
▁siniggew	-1727
▁tahātide	-1728
▁kakunsihal	-1729
▁hinanganbin	-1730
▁kawakilanin	-1731
di	-1732
Iye	-1733
ape	-1734
innu	-1735
itun	-1736
ttad	-1737
ukut	-1738
umey	-1739
utan	-1740
▁Kaw	-1741
▁māk	-1742
▁siy	-1743
angsa	-1744
bagan	-1745
▁Amma	-1746
▁Matu	-1747
▁masi	-1748
▁pīme	-1749
▁Misil	-1750
▁bahan	-1751
▁bugtu	-1752
▁isell	-1753
▁karut	-1754
dambuwa	-1755
ekkahin	-1756
inettad	-1757
▁Eliyas	-1758
▁kabahi	-1759
▁kasany	-1760
▁mamisk	-1761
▁pināku	-1762
▁sahaya	-1763
▁ellanen	-1764
▁sambung	-1765
▁talabey	-1766
▁bissānen	-1767
▁mamapitu	-1768
▁manimbul	-1769
▁pakitehan	-1770
▁sundaluhin	-1771
▁kabangsahan	-1772
nga	-1773
oto	-1774
tey	-1775
etan	-1776
isab	-1777
▁Dem	-1778
▁Kor	-1779
▁usb	-1780
alang	-1781
ginep	-1782
hande	-1783
hanin	-1784
▁bala	-1785
▁pudj	-1786
alamat	-1787
alilan	-1788
▁Esseb	-1789
▁Lapal	-1790
▁kenna	-1791
▁sukal	-1792
▁kanabi	-1793
▁payita	-1794
▁magabbu	-1795
▁paturul	-1796
▁tatuhut	-1797
▁tuhutde	-1798
▁baranten	-1799
▁kabangsa	-1800
▁maglilla	-1801
▁pagtekka	-1802
▁paningkolo	-1803
▁pinakitehan	-1804
Am	-1805
op	-1806
ist	-1807
ode	-1808
tus	-1809
win	-1810
ēbb	-1811
annu	-1812
ketan	-1813
▁Pagp	-1814
▁Sābu	-1815
▁lekk	-1816
edjiki	-1817
iyalem	-1818
tiggel	-1819
▁mapat	-1820
▁suwal	-1821
ellihan	-1822
uddihan	-1823
▁gunane	-1824
▁tellum	-1825
▁Yusupin	-1826
▁bulakin	-1827
▁magisun	-1828
▁mapatey	-1829
▁tahikin	-1830
▁tuhutne	-1831
▁hinangun	-1832
▁kasigpitan	-1833
▁magpungtina	-1834
An	-1835
og	-1836
ani	-1837
▁Ak	-1838
▁pū	-1839
hell	-1840
ukal	-1841
ukun	-1842
usin	-1843
▁And	-1844
▁Bet	-1845
▁Hap	-1846
▁Mar	-1847
▁Sil	-1848
▁Tap	-1849
▁sab	-1850
agala	-1851
annal	-1852
balik	-1853
ēbbeg	-1854
▁Pagl	-1855
▁balu	-1856
▁mole	-1857
▁napa	-1858
alegga	-1859
anakin	-1860
diyata	-1861
▁Pagla	-1862
▁bangk	-1863
▁dinen	-1864
▁inase	-1865
▁nilew	-1866
▁salla	-1867
▁tabat	-1868
ngampun	-1869
▁Kabaya	-1870
▁Pakale	-1871
▁baliyu	-1872
▁nganak	-1873
▁pinapī	-1874
▁Sinduwe	-1875
▁Tinilew	-1876
▁dayahan	-1877
▁duwehin	-1878
▁isellan	-1879
▁magella	-1880
▁matekka	-1881
▁sanggup	-1882
▁ilakasan	-1883
▁ilansang	-1884
▁palanjal	-1885
▁bangsahan	-1886
▁langgalin	-1887
▁pikilannen	-1888
▁hinanganden	-1889
▁pinangandel	-1890
▁magpasalamat	-1891
▁mabangsahanin	-1892
ea	-1893
lu	-1894
▁W	-1895
aps	-1896
inu	-1897
nem	-1898
amey	-1899
angl	-1900
ohap	-1901
pang	-1902
umba	-1903
ūtan	-1904
▁Kap	-1905
▁dus	-1906
▁lep	-1907
asuwa	-1908
ellal	-1909
▁ling	-1910
▁tepe	-1911
ayinge	-1912
ulatan	-1913
▁Sulat	-1914
diyahin	-1915
▁Hinang	-1916
▁anakku	-1917
▁dehell	-1918
▁pagmat	-1919
▁bangkey	-1920
▁kabugtu	-1921
▁magpāku	-1922
▁magubas	-1923
▁pabalik	-1924
▁paharap	-1925
▁papīhan	-1926
▁pinikil	-1927
▁tayinge	-1928
▁tengnga	-1929
▁Akahanun	-1930
▁pinakita	-1931
▁sandelde	-1932
▁kahagadbi	-1933
▁pagkasite	-1934
▁magdusehin	-1935
▁pagaddatan	-1936
▁tinabangan	-1937
▁hinangannen	-1938
▁kinalasahankun	-1939
eh	-1940
agay	-1941
ahak	-1942
aram	-1943
asum	-1944
uley	-1945
▁Kin	-1946
▁den	-1947
▁kad	-1948
▁mel	-1949
▁pīn	-1950
Kēmon	-1951
ambat	-1952
asōng	-1953
bidda	-1954
dende	-1955
ettad	-1956
ungku	-1957
iyuhin	-1958
untara	-1959
▁Ellew	-1960
▁Yunus	-1961
▁pange	-1962
▁penno	-1963
▁saksi	-1964
adiyawa	-1965
▁mapitu	-1966
▁pīsiye	-1967
▁bissāku	-1968
▁dusenen	-1969
▁patulak	-1970
▁binettad	-1971
▁pagkādja	-1972
▁sandelne	-1973
▁takilale	-1974
▁Payamanun	-1975
▁kanawanan	-1976
▁pikilanden	-1977
▁kakunsihalanin	-1978
id	-1979
bat	-1980
egg	-1981
ila	-1982
omi	-1983
▁Il	-1984
adup	-1985
ekin	-1986
lali	-1987
▁luh	-1988
arang	-1989
elnel	-1990
uwase	-1991
▁Bino	-1992
▁budj	-1993
▁inal	-1994
▁kura	-1995
▁libr	-1996
▁mabo	-1997
▁tell	-1998
▁unus	-1999
▁Dalil	-2000
▁Taman	-2001
▁dibin	-2002
▁donga	-2003
▁duwem	-2004
▁nagna	-2005
▁pinal	-2006
▁tinap	-2007
untutan	-2008
▁Kannal	-2009
▁Takale	-2010
▁inapas	-2011
▁magkēg	-2012
▁Hātinen	-2013
▁bissāne	-2014
▁magbono	-2015
▁matahan	-2016
▁ngandel	-2017
▁tasangk	-2018
▁magpandi	-2019
▁Pangesseb	-2020
▁magsemmek	-2021
▁mamiskinin	-2022
▁kagunahanne	-2023
▁guwaldiyahin	-2024
?'	-2025
gg	-2026
kk	-2027
Mag	-2028
oma	-2029
oso	-2030
ubi	-2031
asan	-2032
edde	-2033
ihup	-2034
inaw	-2035
ubin	-2036
unit	-2037
▁Mab	-2038
▁kēg	-2039
▁luk	-2040
▁piy	-2041
▁saw	-2042
Subey	-2043
immat	-2044
manuk	-2045
utang	-2046
▁guna	-2047
▁luwe	-2048
▁tala	-2049
Saguwa	-2050
akedon	-2051
▁Ulali	-2052
▁banes	-2053
▁ginun	-2054
▁makab	-2055
▁pagtu	-2056
akawuli	-2057
akkalan	-2058
unsihan	-2059
▁Isahak	-2060
▁ateyde	-2061
▁dupang	-2062
▁nandal	-2063
▁pinene	-2064
anggalan	-2065
▁Makedon	-2066
▁bagayku	-2067
▁mamatey	-2068
▁sababnen	-2069
▁inambanan	-2070
▁pangahukum	-2071
▁kasanyangan	-2072
▁tinayikutan	-2073
▁Mabalakatanin	-2074
ko	-2075
imb	-2076
int	-2077
jam	-2078
omo	-2079
abtu	-2080
apat	-2081
inte	-2082
ātine	-2083
▁Epes	-2084
▁Magd	-2085
▁lahi	-2086
▁paga	-2087
uwahin	-2088
▁basta	-2089
▁bulan	-2090
▁hatus	-2091
▁mudji	-2092
ahanden	-2093
adiyalem	-2094
asumuhin	-2095
▁Pudjite	-2096
▁ateykun	-2097
▁bengngi	-2098
▁mabasag	-2099
▁pagjamu	-2100
▁sattuwa	-2101
▁sumakup	-2102
▁tuhutte	-2103
Payamanun	-2104
▁akahanku	-2105
▁akahanun	-2106
▁baranbin	-2107
▁dendangan	-2108
▁pagkasine	-2109
▁mangahukum	-2110
▁pagmatahan	-2111
▁mangurungan	-2112
du	-2113
umu	-2114
abil	-2115
aden	-2116
awab	-2117
edin	-2118
enun	-2119
ggas	-2120
iman	-2121
iyus	-2122
▁Hin	-2123
▁dag	-2124
▁tar	-2125
ellew	-2126
▁Malk	-2127
▁Sōng	-2128
▁Wass	-2129
▁asig	-2130
▁eddo	-2131
▁jamb	-2132
▁mamo	-2133
▁papu	-2134
Akahan	-2135
akande	-2136
omahin	-2137
umbali	-2138
▁Sabtu	-2139
▁bukut	-2140
▁daran	-2141
▁kakan	-2142
▁melli	-2143
▁ngand	-2144
▁panin	-2145
▁utang	-2146
Hangkan	-2147
alingan	-2148
lamahin	-2149
▁kappal	-2150
▁nabang	-2151
▁ngangg	-2152
▁sassat	-2153
▁tuntut	-2154
▁ēnande	-2155
usihatan	-2156
▁Essebun	-2157
▁kinubul	-2158
▁kuntara	-2159
▁mangata	-2160
▁padurul	-2161
▁pahatul	-2162
▁umulnen	-2163
▁Wassalam	-2164
▁gubnulin	-2165
▁limbagan	-2166
▁maglahat	-2167
▁ngahukum	-2168
▁takalede	-2169
▁Ibrahimin	-2170
▁pamahadje	-2171
▁hinanganbi	-2172
▁hininangin	-2173
▁malangkewin	-2174
Pa	-2175
Sa	-2176
gi	-2177
oy	-2178
ime	-2179
ind	-2180
▁Ja	-2181
ahil	-2182
dayi	-2183
diya	-2184
ebba	-2185
emes	-2186
eyat	-2187
kala	-2188
mata	-2189
▁Jor	-2190
▁Kal	-2191
▁Tit	-2192
assat	-2193
owang	-2194
▁Amin	-2195
▁Kite	-2196
▁magg	-2197
angdan	-2198
asarus	-2199
pateng	-2200
sangem	-2201
▁Isaya	-2202
▁Sutsi	-2203
▁ambat	-2204
▁billa	-2205
▁kanab	-2206
▁mamal	-2207
▁ngase	-2208
elnelin	-2209
essekin	-2210
▁inusan	-2211
▁maniya	-2212
▁ubasin	-2213
bissāhan	-2214
▁bissāsi	-2215
▁dembuwa	-2216
▁kapitan	-2217
▁pagkale	-2218
▁palkala	-2219
▁palmata	-2220
▁sinessa	-2221
▁tinagna	-2222
▁madiyawa	-2223
▁magsulut	-2224
▁magsusun	-2225
▁sandelte	-2226
▁tindegku	-2227
▁baliyuhin	-2228
▁kahāpanbi	-2229
▁pagkasiku	-2230
▁Pagtekkade	-2231
▁Sinduwehin	-2232
▁hininangne	-2233
▁lebbahanun	-2234
▁magdalilan	-2235
▁mapessekin	-2236
▁sattuwahin	-2237
▁tahinangne	-2238
▁tamanannen	-2239
▁kanabihanin	-2240
uy	-2241
▁o	-2242
aha	-2243
akk	-2244
hap	-2245
isu	-2246
ron	-2247
uwi	-2248
ahap	-2249
akap	-2250
andu	-2251
asew	-2252
asin	-2253
ulid	-2254
▁Pab	-2255
ampuk	-2256
eggas	-2257
sulut	-2258
▁Pitu	-2259
▁hatu	-2260
▁legg	-2261
ahanne	-2262
ujudan	-2263
▁Bugtu	-2264
▁Damas	-2265
▁kursi	-2266
▁lepas	-2267
▁mulka	-2268
alkahan	-2269
▁Paulin	-2270
▁ateyne	-2271
▁kasuwa	-2272
▁lowang	-2273
▁nindew	-2274
▁papitu	-2275
▁tungan	-2276
apanjari	-2277
▁Lasarus	-2278
▁dusehin	-2279
▁katiksa	-2280
▁luwasan	-2281
▁magsali	-2282
▁malalem	-2283
▁tuhutun	-2284
▁magtilew	-2285
▁makakite	-2286
▁manganda	-2287
▁panumbas	-2288
▁tanganne	-2289
▁binissāsi	-2290
▁mapaliput	-2291
▁paghinang	-2292
▁pakalehun	-2293
▁semmeknen	-2294
▁dehelluhin	-2295
▁lebbahande	-2296
▁mamuddihan	-2297
▁masutsihin	-2298
▁pamikilbin	-2299
ūd	-2300
dde	-2301
unj	-2302
▁Ap	-2303
▁Hi	-2304
adji	-2305
akte	-2306
ampū	-2307
esar	-2308
miya	-2309
pung	-2310
siya	-2311
ukup	-2312
▁Awe	-2313
▁Isk	-2314
▁Pes	-2315
▁kūd	-2316
addat	-2317
iskin	-2318
wanen	-2319
yamin	-2320
▁Libi	-2321
▁Magk	-2322
▁magn	-2323
▁pama	-2324
akanku	-2325
asekan	-2326
bahagi	-2327
gketan	-2328
itanin	-2329
tengge	-2330
▁Kesar	-2331
▁Missā	-2332
▁Pinas	-2333
▁Silas	-2334
▁Titus	-2335
▁hinin	-2336
▁libru	-2337
▁magte	-2338
▁mikil	-2339
▁namba	-2340
▁sakan	-2341
▁sessa	-2342
▁sīnin	-2343
dehellu	-2344
lasahan	-2345
▁Sakali	-2346
▁Tiggel	-2347
▁inenna	-2348
▁inānan	-2349
▁kitebi	-2350
▁missāp	-2351
▁pandey	-2352
▁patala	-2353
▁sampuk	-2354
▁essebku	-2355
▁pasulig	-2356
▁sanyang	-2357
▁Binyamin	-2358
▁binahagi	-2359
▁kelnelin	-2360
▁pagbidda	-2361
▁paghukum	-2362
▁pamanolo	-2363
▁patahala	-2364
▁magpahāti	-2365
▁pagkaside	-2366
▁pangantin	-2367
▁duwanganin	-2368
▁maningkolo	-2369
▁hininangkun	-2370
do	-2371
ket	-2372
mam	-2373
oku	-2374
pak	-2375
una	-2376
▁am	-2377
▁ey	-2378
adik	-2379
adja	-2380
agen	-2381
alla	-2382
inda	-2383
irik	-2384
tala	-2385
utne	-2386
▁Kab	-2387
▁Mas	-2388
▁hal	-2389
▁nim	-2390
▁pīp	-2391
ampal	-2392
ellig	-2393
ilbin	-2394
kulub	-2395
matey	-2396
▁Māku	-2397
▁kamb	-2398
▁siya	-2399
▁tamb	-2400
▁tuli	-2401
atanun	-2402
isadik	-2403
▁Kēgan	-2404
▁Pinag	-2405
▁bunsi	-2406
▁ennem	-2407
▁ganti	-2408
▁kuwit	-2409
▁pamin	-2410
▁tantu	-2411
▁tuwas	-2412
▁Pasōng	-2413
▁Samabi	-2414
▁ginuna	-2415
▁kinata	-2416
▁lanyap	-2417
▁lasabi	-2418
▁maghāp	-2419
▁tabuli	-2420
▁Kesarea	-2421
▁ineggas	-2422
▁kuluban	-2423
▁ledjiki	-2424
▁likusin	-2425
▁magsasa	-2426
▁maluwas	-2427
▁pataked	-2428
▁tapudji	-2429
▁tumuhut	-2430
▁Dalilnen	-2431
▁Hininang	-2432
▁Pasampay	-2433
▁gawangin	-2434
▁hinangte	-2435
▁katindeg	-2436
▁lapalnen	-2437
▁missāiye	-2438
▁paglahat	-2439
▁pamakite	-2440
▁tarangka	-2441
▁Pagkalede	-2442
▁hinangkun	-2443
▁kanawanin	-2444
▁magbennal	-2445
▁magsultan	-2446
▁pinagbaya	-2447
▁tinanemin	-2448
▁Makedoniya	-2449
▁damikkiyan	-2450
▁kabunsihan	-2451
▁magkuluban	-2452
▁pagkuluban	-2453
▁pagsultanan	-2454
ll	-2455
agg	-2456
don	-2457
imp	-2458
kot	-2459
leh	-2460
ong	-2461
reg	-2462
▁ul	-2463
Tiya	-2464
ambi	-2465
egge	-2466
ggew	-2467
uhun	-2468
▁iyu	-2469
▁kil	-2470
▁nab	-2471
▁sil	-2472
agang	-2473
akole	-2474
astel	-2475
kanat	-2476
lehem	-2477
missā	-2478
pandi	-2479
regse	-2480
▁Hatu	-2481
▁ahil	-2482
▁inis	-2483
▁labi	-2484
▁ūtan	-2485
ahanun	-2486
aniyas	-2487
atanku	-2488
atawak	-2489
ddatan	-2490
▁Ambat	-2491
▁Banes	-2492
▁Kādja	-2493
▁Sinna	-2494
▁Tagna	-2495
▁antan	-2496
▁hunit	-2497
▁jukup	-2498
▁kuwat	-2499
▁magsa	-2500
▁makah	-2501
▁pagka	-2502
▁pīmag	-2503
adupang	-2504
ahannen	-2505
akajari	-2506
jamuhan	-2507
▁Pestus	-2508
▁inumey	-2509
▁kaduwe	-2510
▁kitede	-2511
▁kitene	-2512
▁miskin	-2513
▁tapiyu	-2514
▁umasek	-2515
▁umulin	-2516
▁ampatpū	-2517
▁anakkun	-2518
▁baluhin	-2519
▁inantan	-2520
▁lumuwas	-2521
▁magsuse	-2522
atawakkal	-2523
bangsahan	-2524
▁Betlehem	-2525
▁Samariya	-2526
▁bissākun	-2527
▁magpikil	-2528
▁mamalasa	-2529
▁ngeregse	-2530
▁pabagala	-2531
▁pagkulub	-2532
▁pagtuhan	-2533
▁pinanyap	-2534
▁takalene	-2535
▁guwaldiya	-2536
▁makapagka	-2537
▁mamahalga	-2538
▁padehellu	-2539
▁pahalihan	-2540
▁pangampun	-2541
▁tapapatey	-2542
▁tellungan	-2543
▁Malkisadik	-2544
▁hininangku	-2545
▁iningketan	-2546
▁kamalkahan	-2547
▁katindegan	-2548
▁makasangka	-2549
▁pikilanbin	-2550
▁tahinangbi	-2551
▁Yahudiyahin	-2552
▁kalasahanne	-2553
▁mangantanan	-2554
▁Pagsasumuhin	-2555
▁pinabellihan	-2556
od	-2557
bbi	-2558
lun	-2559
min	-2560
pād	-2561
tem	-2562
▁Mo	-2563
atas	-2564
bang	-2565
enan	-2566
erna	-2567
imam	-2568
ipul	-2569
isin	-2570
isun	-2571
ompa	-2572
rung	-2573
tana	-2574
▁goy	-2575
▁isi	-2576
▁lin	-2577
tellu	-2578
▁Sara	-2579
▁jumu	-2580
▁mapī	-2581
Pakale	-2582
abutas	-2583
alebbi	-2584
amanun	-2585
ernaum	-2586
ikilun	-2587
inawag	-2588
isahan	-2589
▁Girik	-2590
▁bawag	-2591
▁dagey	-2592
▁katas	-2593
▁kayat	-2594
▁likus	-2595
▁makip	-2596
▁piyem	-2597
▁pokot	-2598
▁sabet	-2599
▁sinag	-2600
Karayaw	-2601
akilale	-2602
ēbbegan	-2603
▁bahani	-2604
▁inalak	-2605
▁kamany	-2606
▁lingab	-2607
▁mabata	-2608
▁salung	-2609
▁sandal	-2610
angkewin	-2611
anglitan	-2612
▁Patenna	-2613
▁Tamanan	-2614
▁pagatey	-2615
▁paliput	-2616
▁panessa	-2617
▁patipun	-2618
▁pinadem	-2619
▁sakahin	-2620
▁samaden	-2621
▁Pagpuwas	-2622
▁baranden	-2623
▁inamāhan	-2624
▁kursihin	-2625
▁magmatey	-2626
▁pagkawin	-2627
▁tatabang	-2628
▁tatunggu	-2629
▁tiggelan	-2630
▁Kapernaum	-2631
▁Ngalingan	-2632
▁madayahan	-2633
▁magtengge	-2634
▁makasulut	-2635
▁mamissāsi	-2636
▁ngurungan	-2637
▁pasanyang	-2638
▁sandelden	-2639
▁tangannun	-2640
▁katekkahan	-2641
▁tahinangku	-2642
▁makahagadin	-2643
▁mangahinang	-2644
▁pamapateyan	-2645
▁makatawakkal	-2646
▁pagsusunande	-2647
to	-2648
▁-	-2649
ans	-2650
ebe	-2651
ela	-2652
ena	-2653
mes	-2654
pad	-2655
pen	-2656
▁ay	-2657
Dayi	-2658
Pīka	-2659
alat	-2660
awag	-2661
esse	-2662
imbū	-2663
issa	-2664
iyam	-2665
liyu	-2666
sabi	-2667
uwat	-2668
▁Epr	-2669
▁Jak	-2670
▁Jop	-2671
▁Per	-2672
▁gam	-2673
▁nag	-2674
▁ora	-2675
▁sāb	-2676
▁ten	-2677
Pegge	-2678
agadd	-2679
ampak	-2680
antey	-2681
asuku	-2682
engan	-2683
salla	-2684
subey	-2685
ādpād	-2686
▁Apol	-2687
▁Magl	-2688
▁asip	-2689
▁bahu	-2690
▁bigi	-2691
▁mana	-2692
▁piye	-2693
▁puyu	-2694
▁tomo	-2695
▁ulan	-2696
akanan	-2697
umanan	-2698
umbaya	-2699
▁Manas	-2700
▁Marta	-2701
▁eggas	-2702
▁ganta	-2703
▁haram	-2704
▁hatul	-2705
▁kādja	-2706
▁lamma	-2707
▁limem	-2708
▁mapas	-2709
▁nulig	-2710
▁panas	-2711
▁peyat	-2712
▁pingg	-2713
▁sakup	-2714
▁sangl	-2715
▁tapag	-2716
akannun	-2717
antanan	-2718
duwehan	-2719
ellalin	-2720
seddili	-2721
▁Jordan	-2722
▁Kemuwe	-2723
▁Kornel	-2724
▁anakde	-2725
▁bettad	-2726
▁dusene	-2727
▁magdem	-2728
▁magtew	-2729
▁niyawa	-2730
▁siggew	-2731
▁takole	-2732
▁umulne	-2733
hinangan	-2734
unjungku	-2735
▁ateynun	-2736
▁barante	-2737
▁kambing	-2738
▁magmula	-2739
▁nangkew	-2740
▁panaksi	-2741
▁samabin	-2742
▁tinipun	-2743
ujudannen	-2744
▁addatbin	-2745
▁ginellal	-2746
▁kannalbi	-2747
▁magbayed	-2748
▁mapakale	-2749
▁napsuden	-2750
▁pakellum	-2751
▁pangadji	-2752
▁pinahāti	-2753
▁tasandal	-2754
▁Inurungan	-2755
▁Niyawanen	-2756
▁hinangnen	-2757
▁jambangan	-2758
▁makalabey	-2759
▁mākanakin	-2760
▁ngaddatan	-2761
▁suwalahin	-2762
▁balakatnen	-2763
▁hininangnen	-2764
▁nambahayang	-2765
▁pangurungun	-2766
▁Pangessebanin	-2767
ūk	-2768
Hāp	-2769
los	-2770
tap	-2771
uhi	-2772
ūng	-2773
Inin	-2774
Kata	-2775
Pitu	-2776
angd	-2777
arak	-2778
asti	-2779
atsa	-2780
ayun	-2781
essi	-2782
iten	-2783
labi	-2784
▁Kah	-2785
▁Nin	-2786
▁Pal	-2787
▁bib	-2788
▁eyu	-2789
▁ing	-2790
▁mah	-2791
▁wal	-2792
akkes	-2793
eddut	-2794
hadja	-2795
hompa	-2796
innen	-2797
janji	-2798
lamin	-2799
tedde	-2800
▁Baya	-2801
▁Hibr	-2802
▁Kami	-2803
▁Pina	-2804
▁Sadd	-2805
▁dadd	-2806
▁ngag	-2807
▁pagd	-2808
▁pind	-2809
▁pīng	-2810
▁tine	-2811
abilon	-2812
ariyas	-2813
ilahap	-2814
issāne	-2815
iyamat	-2816
ākuhan	-2817
▁Betan	-2818
▁Dende	-2819
▁dikun	-2820
▁dukka	-2821
▁kahun	-2822
▁kapam	-2823
▁kōkne	-2824
▁layun	-2825
▁pīhap	-2826
▁pīkew	-2827
▁sahay	-2828
▁Epesus	-2829
▁astana	-2830
▁ateyte	-2831
▁kuntar	-2832
▁pabuyu	-2833
▁pasape	-2834
▁Apollos	-2835
▁Babilon	-2836
▁Sadduse	-2837
▁Yakubin	-2838
▁bissāde	-2839
▁daddali	-2840
▁essebde	-2841
▁lasanen	-2842
▁magdayi	-2843
▁magipat	-2844
▁mangite	-2845
▁mapatut	-2846
▁matanun	-2847
▁mayaman	-2848
▁nagahin	-2849
▁ngasuwa	-2850
▁pabasag	-2851
▁pangase	-2852
▁patekka	-2853
▁sakanen	-2854
▁tangdan	-2855
▁Ananiyas	-2856
▁Damaskus	-2857
▁Magbissā	-2858
▁addatnen	-2859
▁lekkakan	-2860
▁mamangan	-2861
▁mintedde	-2862
▁pagbissā	-2863
▁paglilla	-2864
▁pakalebi	-2865
▁pinakale	-2866
▁pīdiyata	-2867
▁takitete	-2868
▁Andariyas	-2869
▁Panuhutan	-2870
▁inaddatan	-2871
▁kalanggal	-2872
▁mangantan	-2873
▁pakahagad	-2874
▁pangesseb	-2875
▁papateyde	-2876
▁pinapales	-2877
▁pinapeddi	-2878
▁tinapukan	-2879
▁tumananne	-2880
▁bagellalin	-2881
▁hinangante	-2882
▁hininangde	-2883
▁pasōnganin	-2884
▁pinatengge	-2885
▁puweblohin	-2886
▁tinuhutbin	-2887
▁magtingkolo	-2888
apī	-2889
bil	-2890
din	-2891
ege	-2892
eln	-2893
enu	-2894
idj	-2895
ret	-2896
tul	-2897
▁Ma	-2898
▁Po	-2899
▁Ta	-2900
agal	-2901
ampu	-2902
ayan	-2903
ettu	-2904
kuwe	-2905
tekk	-2906
▁Sal	-2907
▁gub	-2908
abayu	-2909
abbas	-2910
adjak	-2911
inkun	-2912
talew	-2913
tuhut	-2914
usaka	-2915
āgama	-2916
▁Imam	-2917
▁hell	-2918
▁kale	-2919
▁tabu	-2920
▁taha	-2921
atanne	-2922
ellang	-2923
ubakan	-2924
uhulan	-2925
▁Joppa	-2926
▁Nuhut	-2927
▁Pagta	-2928
▁Sidon	-2929
▁Tomas	-2930
▁akaku	-2931
▁dinun	-2932
▁hebba	-2933
▁iliki	-2934
▁kohap	-2935
▁kulub	-2936
▁lamud	-2937
▁linug	-2938
▁magge	-2939
▁memes	-2940
▁pitun	-2941
Pudjite	-2942
ennahin	-2943
essebbi	-2944
ikatnen	-2945
samanen	-2946
▁	-2947
a	-2948
n	-2949
i	-2950
e	-2951
u	-2952
'	-2953
s	-2954
k	-2955
m	-2956
g	-2957
t	-2958
l	-2959
b	-2960
d	-2961
p	-2962
h	-2963
y	-2964
w	-2965
.	-2966
,	-2967
o	-2968
r	-2969
"	-2970
T	-2971
P	-2972
I	-2973
j	-2974
ā	-2975
-	-2976
S	-2977
M	-2978
A	-2979
ē	-2980
D	-2981
ī	-2982
B	-2983
N	-2984
K	-2985
Y	-2986
H	-2987
G	-2988
?	-2989
ō	-2990
U	-2991
ū	-2992
L	-2993
E	-2994
J	-2995
W	-2996
