<unk>	0
<s>	0
</s>	0
an	-0
in	-1
▁s	-2
▁m	-3
▁p	-4
▁k	-5
▁d	-6
▁si	-7
▁t	-8
▁b	-9
am	-10
iy	-11
al	-12
ag	-13
▁du	-14
ak	-15
ang	-16
▁n	-17
at	-18
as	-19
ah	-20
we	-21
ab	-22
▁me	-23
is	-24
en	-25
▁duk	-26
uh	-27
un	-28
▁ka	-29
▁h	-30
▁iy	-31
▁l	-32
▁we	-33
iya	-34
ga	-35
▁iye	-36
uhan	-37
▁is	-38
ain	-39
de	-40
uw	-41
it	-42
▁mag	-43
▁ne	-44
▁a	-45
▁in	-46
▁ga	-47
▁tuhan	-48
ar	-49
ay	-50
ey	-51
▁kaam	-52
us	-53
ul	-54
hin	-55
▁siy	-56
ap	-57
▁siye	-58
▁ku	-59
▁pe	-60
ne	-61
amb	-62
ku	-63
il	-64
uwa	-65
ut	-66
ge	-67
▁bang	-68
▁isa	-69
▁pain	-70
ub	-71
▁tuhanin	-72
▁bi	-73
▁aa	-74
gge	-75
▁niya	-76
▁pag	-77
ad	-78
el	-79
▁man	-80
▁gai	-81
▁inin	-82
▁pin	-83
ew	-84
ahin	-85
um	-86
em	-87
angan	-88
ed	-89
ik	-90
aguwa	-91
▁saguwa	-92
ata	-93
on	-94
ite	-95
▁pegge	-96
ell	-97
nen	-98
aya	-99
amban	-100
▁ak	-101
ur	-102
▁amban	-103
ung	-104
▁te	-105
ai	-106
jar	-107
jari	-108
iyaan	-109
ant	-110
bi	-111
▁kam	-112
▁miyaan	-113
mon	-114
▁kē	-115
▁isab	-116
asi	-117
▁kuwe	-118
uhut	-119
atey	-120
▁kēmon	-121
▁pu	-122
angk	-123
▁sab	-124
▁kami	-125
ande	-126
▁al	-127
▁manjari	-128
▁hin	-129
▁pī	-130
up	-131
ud	-132
si	-133
▁dem	-134
▁ng	-135
aak	-136
▁y	-137
ahan	-138
masi	-139
▁sabab	-140
▁teed	-141
▁almasi	-142
▁kite	-143
▁pan	-144
ek	-145
akas	-146
adj	-147
lo	-148
▁tin	-149
āp	-150
im	-151
ka	-152
▁lai	-153
es	-154
iss	-155
▁sub	-156
▁sin	-157
▁subey	-158
issā	-159
and	-160
▁painne	-161
angkan	-162
▁bakas	-163
▁hangkan	-164
anak	-165
anin	-166
▁mak	-167
ng	-168
amp	-169
▁aku	-170
ahat	-171
wa	-172
▁bal	-173
ep	-174
itu	-175
uhin	-176
andel	-177
▁as	-178
han	-179
▁kew	-180
▁hadj	-181
olo	-182
oo	-183
▁kap	-184
▁bu	-185
uk	-186
▁mal	-187
bin	-188
▁ell	-189
▁kata	-190
▁aahin	-191
▁yah	-192
uku	-193
te	-194
urung	-195
ubus	-196
▁anak	-197
▁tak	-198
▁pas	-199
enn	-200
▁katauhan	-201
upaya	-202
▁supaya	-203
▁damb	-204
▁kin	-205
▁magt	-206
▁sa	-207
▁hadja	-208
ale	-209
▁da	-210
▁bin	-211
▁pat	-212
tin	-213
ōng	-214
▁mab	-215
▁dum	-216
▁bis	-217
▁mas	-218
▁asal	-219
▁lahat	-220
et	-221
▁dumain	-222
▁pang	-223
▁iyan	-224
▁bisan	-225
▁ubus	-226
▁pīsi	-227
alam	-228
▁g	-229
ip	-230
▁de	-231
▁tap	-232
den	-233
aw	-234
uu	-235
▁ine	-236
ahal	-237
anan	-238
▁pa	-239
▁yahud	-240
uwe	-241
▁hep	-242
ib	-243
ahāp	-244
kun	-245
ihin	-246
▁balik	-247
ara	-248
atan	-249
▁mang	-250
eng	-251
▁nak	-252
▁sam	-253
▁sul	-254
▁pal	-255
se	-256
ekka	-257
▁j	-258
edd	-259
▁magp	-260
▁lum	-261
agad	-262
▁sandel	-263
▁hinang	-264
uwas	-265
▁ellew	-266
aan	-267
ikil	-268
▁dun	-269
▁na	-270
▁pagk	-271
▁duny	-272
▁hinangan	-273
aakan	-274
ing	-275
▁atey	-276
deg	-277
▁mat	-278
▁daa	-279
▁dambuwa	-280
ine	-281
angg	-282
uwal	-283
▁kab	-284
▁kau	-285
ali	-286
▁almasihin	-287
▁hāp	-288
anen	-289
▁mags	-290
▁pam	-291
▁den	-292
▁painde	-293
ro	-294
▁tindeg	-295
ih	-296
▁mam	-297
▁diy	-298
ennal	-299
nu	-300
āku	-301
▁din	-302
▁kal	-303
▁hap	-304
▁ata	-305
▁atawa	-306
usiya	-307
▁magb	-308
▁dende	-309
ēn	-310
▁pitu	-311
alil	-312
ene	-313
▁manusiya	-314
ayaan	-315
▁bissā	-316
abi	-317
▁matey	-318
▁pinain	-319
ante	-320
▁pagt	-321
▁nakur	-322
duwe	-323
▁nuhut	-324
tan	-325
▁mala	-326
▁bar	-327
▁panuhut	-328
▁tag	-329
use	-330
▁samp	-331
▁magd	-332
urungan	-333
▁iyehin	-334
▁maka	-335
ahagad	-336
ti	-337
asa	-338
▁kaw	-339
ungtin	-340
ane	-341
dd	-342
sa	-343
▁pak	-344
▁paul	-345
▁pinap	-346
▁sawe	-347
▁tab	-348
alem	-349
▁sas	-350
angand	-351
▁masandel	-352
▁dinaak	-353
▁maghin	-354
▁kuweitu	-355
ase	-356
▁ta	-357
▁il	-358
▁map	-359
▁um	-360
nun	-361
▁tah	-362
▁tas	-363
▁takite	-364
▁luwal	-365
▁tuu	-366
tel	-367
▁ke	-368
▁diyata	-369
▁mahāp	-370
▁akuhin	-371
▁isahin	-372
▁ekka	-373
ahinang	-374
anun	-375
eddil	-376
▁hinin	-377
anten	-378
ambung	-379
▁aw	-380
ampun	-381
tu	-382
anggal	-383
▁niyawa	-384
▁pasōng	-385
▁kas	-386
▁ma	-387
ulat	-388
▁dalil	-389
▁sak	-390
akan	-391
eyit	-392
▁sara	-393
▁seyit	-394
▁hā	-395
▁pap	-396
▁hininang	-397
▁sinduwe	-398
▁yahudihin	-399
ros	-400
ellum	-401
uli	-402
web	-403
▁puweb	-404
▁mangga	-405
bb	-406
atin	-407
▁kamihin	-408
▁puweblo	-409
ān	-410
▁missā	-411
▁kaamin	-412
▁dar	-413
ekk	-414
anne	-415
▁nakura	-416
▁pet	-417
▁yus	-418
▁manusiyain	-419
ukum	-420
▁pikil	-421
▁dunya	-422
▁yusup	-423
kka	-424
▁petros	-425
any	-426
isi	-427
▁tekka	-428
▁seddil	-429
ett	-430
oh	-431
▁kit	-432
antag	-433
ol	-434
urga	-435
▁bat	-436
▁pags	-437
▁surga	-438
eg	-439
abin	-440
▁lell	-441
▁luma	-442
esse	-443
▁langgal	-444
utsi	-445
annen	-446
▁magm	-447
ug	-448
▁sampay	-449
ipun	-450
entel	-451
▁bangsa	-452
apal	-453
▁malaik	-454
igge	-455
▁duse	-456
▁kan	-457
na	-458
▁bul	-459
▁pagb	-460
▁sōng	-461
▁bah	-462
esseb	-463
bul	-464
iye	-465
aaka	-466
▁pangand	-467
udj	-468
ayak	-469
▁and	-470
▁maghinang	-471
▁kahagad	-472
▁magk	-473
▁tolo	-474
▁lapal	-475
▁sinduwehin	-476
▁pinak	-477
▁tindegnen	-478
ilew	-479
engng	-480
yu	-481
▁bay	-482
▁im	-483
akat	-484
ingk	-485
asag	-486
▁manggai	-487
▁magl	-488
▁binoo	-489
▁seddili	-490
alew	-491
ahadj	-492
ra	-493
▁la	-494
amal	-495
ahalayak	-496
▁umul	-497
asahan	-498
ēnan	-499
▁dunyahin	-500
ayam	-501
ahala	-502
▁manamal	-503
▁daraakan	-504
▁pangandaakan	-505
iyan	-506
▁hātin	-507
ebb	-508
uwan	-509
▁pil	-510
▁ellum	-511
ungtinai	-512
rus	-513
uan	-514
▁kar	-515
▁sultan	-516
▁pab	-517
▁duwe	-518
▁mangan	-519
atut	-520
▁boh	-521
▁magtaw	-522
ingkolo	-523
▁inēnan	-524
▁nambung	-525
aku	-526
▁tuwan	-527
jud	-528
ahadje	-529
▁seyitanin	-530
▁kat	-531
▁magtawus	-532
ahu	-533
dem	-534
ten	-535
▁bil	-536
▁dus	-537
▁suku	-538
unt	-539
▁yahudi	-540
anden	-541
angkew	-542
▁hātinen	-543
ibr	-544
akun	-545
enna	-546
▁imam	-547
▁makajari	-548
▁tahinang	-549
▁ineine	-550
▁tam	-551
all	-552
▁ko	-553
ellu	-554
▁weey	-555
anda	-556
usih	-557
▁para	-558
▁bohe	-559
▁tuhut	-560
emm	-561
▁ēn	-562
iyu	-563
▁am	-564
abang	-565
▁kapatut	-566
▁awrus	-567
▁awrusalam	-568
▁yahiya	-569
abut	-570
▁ngal	-571
ahante	-572
▁panuhutanten	-573
umb	-574
▁bentel	-575
ess	-576
▁laat	-577
▁sine	-578
▁tasulat	-579
▁pad	-580
engge	-581
āti	-582
▁sasuku	-583
▁tahala	-584
iggel	-585
▁akaaka	-586
▁pakale	-587
▁takale	-588
▁mahāpin	-589
▁katauhanbi	-590
▁luu	-591
▁sain	-592
▁sutsi	-593
▁sar	-594
emmek	-595
▁add	-596
gan	-597
▁dam	-598
▁hadje	-599
ubu	-600
▁kahāp	-601
▁mabaya	-602
▁tiggel	-603
▁mabennal	-604
abey	-605
anku	-606
usihat	-607
▁taga	-608
▁salam	-609
▁pagl	-610
akub	-611
▁las	-612
▁dendehin	-613
▁salamalam	-614
dj	-615
ayaw	-616
▁karayaw	-617
▁siyehin	-618
▁yakub	-619
▁kabayaan	-620
unen	-621
▁mus	-622
▁kinakan	-623
▁akahante	-624
▁pangurung	-625
imbul	-626
▁māku	-627
andal	-628
▁matu	-629
▁balakat	-630
ujud	-631
angande	-632
ahim	-633
▁ibr	-634
▁pinas	-635
▁ibrahim	-636
▁sulat	-637
▁tamanan	-638
imm	-639
▁po	-640
eddo	-641
▁kinab	-642
▁o	-643
ala	-644
esine	-645
▁bennal	-646
▁sinesine	-647
▁daak	-648
▁bett	-649
ama	-650
ayi	-651
ulut	-652
▁magpain	-653
anj	-654
▁malai	-655
▁inak	-656
▁addat	-657
iyawa	-658
ulali	-659
▁panolo	-660
▁baran	-661
▁pungtin	-662
īn	-663
hanku	-664
▁bant	-665
▁nap	-666
▁bulak	-667
ikk	-668
anbi	-669
▁duw	-670
ikkiyan	-671
angandel	-672
▁damikkiyan	-673
▁salamalama	-674
ta	-675
▁sā	-676
▁malaikat	-677
▁sīn	-678
tanin	-679
engngan	-680
▁hat	-681
▁kamatey	-682
akil	-683
▁saingge	-684
▁pinag	-685
▁pagubus	-686
sahan	-687
bu	-688
▁w	-689
▁isra	-690
▁disi	-691
▁nabi	-692
▁binissā	-693
▁sultanin	-694
▁pinapatey	-695
▁kinabayaan	-696
eo	-697
ibu	-698
▁kapungtinai	-699
▁min	-700
ambuwa	-701
▁kitab	-702
▁kitehin	-703
▁inurungan	-704
aden	-705
▁sarain	-706
▁magbaya	-707
dew	-708
anes	-709
ariy	-710
▁tal	-711
▁tat	-712
▁hukum	-713
angurung	-714
▁katauhanku	-715
pu	-716
ipat	-717
▁par	-718
iyalem	-719
▁pinal	-720
▁basag	-721
āk	-722
add	-723
ibil	-724
▁bag	-725
▁gur	-726
▁lella	-727
▁tanda	-728
▁israil	-729
▁manuhut	-730
▁ningkolo	-731
▁olo	-732
▁dahu	-733
itan	-734
▁too	-735
▁magmahalayak	-736
▁lam	-737
abangan	-738
immatan	-739
▁tangan	-740
▁bilibil	-741
ole	-742
▁kēgan	-743
▁di	-744
▁boo	-745
tuhan	-746
▁tubu	-747
▁dambuw	-748
▁paluwas	-749
▁lim	-750
▁tum	-751
▁kahāpan	-752
▁magduse	-753
▁matuuhin	-754
▁pagtekka	-755
▁pinangurung	-756
agi	-757
ate	-758
▁sum	-759
anggup	-760
▁lān	-761
▁mabennalin	-762
āg	-763
und	-764
abus	-765
iseo	-766
▁kawakil	-767
▁pariseo	-768
▁tinuhut	-769
arap	-770
asig	-771
▁batu	-772
▁masa	-773
▁olom	-774
▁akahan	-775
▁patenna	-776
▁urungan	-777
▁lellahin	-778
▁be	-779
udji	-780
▁sal	-781
▁antag	-782
▁diyalem	-783
▁ba	-784
ukan	-785
indew	-786
iyahin	-787
▁kinal	-788
▁paguwa	-789
▁semmek	-790
▁sutsihin	-791
teg	-792
alik	-793
inen	-794
hellu	-795
▁nakanak	-796
anyag	-797
itene	-798
▁tahun	-799
▁maghinangan	-800
▁taboo	-801
andey	-802
andi	-803
ubas	-804
▁nengge	-805
▁kitabin	-806
ōk	-807
kal	-808
ihan	-809
▁aww	-810
▁pagp	-811
▁pikilan	-812
▁duwangan	-813
▁ī	-814
▁guru	-815
▁batang	-816
▁ateybin	-817
▁malaikatin	-818
iki	-819
alley	-820
▁esseb	-821
▁tahāti	-822
▁tinalew	-823
om	-824
▁gin	-825
▁lang	-826
asek	-827
▁piyu	-828
▁tapene	-829
▁awwalley	-830
▁magtipun	-831
ma	-832
ubay	-833
ampat	-834
▁anaknen	-835
▁kalahat	-836
▁malaihin	-837
apit	-838
māku	-839
anjari	-840
▁kapag	-841
▁kauhin	-842
▁sakali	-843
▁bayubay	-844
▁kōk	-845
▁ujud	-846
ekkahan	-847
▁pagkasi	-848
▁malaatin	-849
▁nakurain	-850
▁pagbayaan	-851
abo	-852
enen	-853
ulub	-854
▁nga	-855
akale	-856
▁langit	-857
▁malasa	-858
▁patuhut	-859
▁magtuhut	-860
▁bayubayuan	-861
▁magdambuwa	-862
anta	-863
▁ant	-864
▁kayu	-865
▁tagna	-866
da	-867
ok	-868
▁āg	-869
egga	-870
▁wak	-871
▁magj	-872
▁surgain	-873
▁pungtinain	-874
▁nge	-875
▁naps	-876
▁tiya	-877
▁bagay	-878
▁pinat	-879
▁padiyalem	-880
hun	-881
▁suk	-882
abusu	-883
▁sama	-884
▁maase	-885
▁mākumāku	-886
▁pasōngan	-887
awal	-888
isir	-889
▁lah	-890
▁moo	-891
▁misir	-892
▁pīiye	-893
▁andang	-894
▁pagkale	-895
ot	-896
ura	-897
eden	-898
▁kem	-899
▁makap	-900
▁lumengngan	-901
urul	-902
ariyam	-903
▁kemuwe	-904
▁mariyam	-905
▁ngampun	-906
▁li	-907
ahay	-908
ayep	-909
ateyin	-910
▁pinab	-911
▁suwal	-912
▁bettis	-913
▁magusihat	-914
apu	-915
upama	-916
▁banyag	-917
ir	-918
atu	-919
ebbut	-920
itehan	-921
▁hawal	-922
▁magis	-923
▁seyitan	-924
▁el	-925
iyas	-926
sang	-927
▁musa	-928
▁ebbut	-929
▁jalil	-930
▁simon	-931
▁bahang	-932
▁israilin	-933
▁sabennal	-934
ayed	-935
undal	-936
▁baya	-937
▁dambuwain	-938
ayim	-939
siye	-940
▁kah	-941
▁tapikil	-942
▁panuhutanin	-943
aka	-944
ian	-945
▁mad	-946
ingan	-947
▁hayep	-948
▁payam	-949
▁waktu	-950
▁sasang	-951
▁sundal	-952
▁pinakellum	-953
ero	-954
nal	-955
alin	-956
▁daud	-957
▁pina	-958
antaan	-959
▁puwas	-960
atauhan	-961
▁hukuman	-962
▁samakun	-963
▁sambung	-964
▁kapandey	-965
▁katauhande	-966
dan	-967
usin	-968
▁kag	-969
▁taabut	-970
▁us	-971
amin	-972
▁ampat	-973
▁pīdem	-974
▁imamin	-975
▁pagkas	-976
▁painku	-977
▁pariseohin	-978
▁pīm	-979
▁ngite	-980
▁sinna	-981
▁anakne	-982
▁dangand	-983
▁magtolo	-984
▁missāsi	-985
▁pagkite	-986
▁hinangne	-987
▁dangandangan	-988
une	-989
umbas	-990
▁lebb	-991
▁maum	-992
▁pudj	-993
▁pīpu	-994
▁sang	-995
▁tahik	-996
▁katauhante	-997
▁kinimmatan	-998
la	-999
iha	-1000
ukul	-1001
wang	-1002
▁pah	-1003
ahukum	-1004
▁pasal	-1005
▁tinilew	-1006
pi	-1007
gas	-1008
agan	-1009
erod	-1010
usun	-1011
▁tau	-1012
▁herod	-1013
▁makas	-1014
angandelan	-1015
▁gun	-1016
▁suse	-1017
▁pilat	-1018
▁bahangi	-1019
▁kaurungan	-1020
akkal	-1021
▁bantuk	-1022
▁langkew	-1023
ig	-1024
uy	-1025
udas	-1026
▁hāti	-1027
▁pade	-1028
▁tagn	-1029
unahan	-1030
▁ulali	-1031
▁kannal	-1032
▁tabang	-1033
▁takitede	-1034
▁takitene	-1035
os	-1036
unu	-1037
▁pes	-1038
ayiku	-1039
bissā	-1040
▁kalum	-1041
▁ngatu	-1042
▁kasuse	-1043
angsahan	-1044
▁pinainku	-1045
▁kalasahan	-1046
▁kapandeyan	-1047
yap	-1048
anem	-1049
▁mis	-1050
▁bahi	-1051
▁pagm	-1052
▁pata	-1053
ahalga	-1054
apatey	-1055
▁danta	-1056
▁dangan	-1057
▁mahadje	-1058
▁musahin	-1059
▁pilatus	-1060
▁hinangbi	-1061
▁kagunahan	-1062
▁minahalayak	-1063
er	-1064
abb	-1065
▁en	-1066
olon	-1067
udju	-1068
▁gub	-1069
▁lug	-1070
▁tim	-1071
untut	-1072
▁pīne	-1073
▁talew	-1074
▁duseden	-1075
▁pagtipun	-1076
ādj	-1077
▁kapp	-1078
▁judas	-1079
ambahay	-1080
▁pangal	-1081
▁sinōng	-1082
▁kasulut	-1083
▁sinulat	-1084
▁akahanun	-1085
▁maumantag	-1086
▁	-1087
a	-1088
n	-1089
i	-1090
e	-1091
u	-1092
s	-1093
k	-1094
m	-1095
g	-1096
t	-1097
d	-1098
b	-1099
p	-1100
l	-1101
h	-1102
y	-1103
w	-1104
o	-1105
r	-1106
j	-1107
ā	-1108
ē	-1109
ī	-1110
ō	-1111
