<unk>	0
<s>	0
</s>	0
an	-0
▁n	-1
▁a	-2
▁d	-3
▁t	-4
ka	-5
ma	-6
▁s	-7
ya	-8
ng	-9
▁na	-10
▁o	-11
▁do	-12
ra	-13
▁ta	-14
▁am	-15
ey	-16
▁ni	-17
▁ka	-18
en	-19
yo	-20
▁j	-21
ang	-22
▁no	-23
▁m	-24
ana	-25
▁so	-26
▁ma	-27
ci	-28
▁A	-29
ay	-30
ri	-31
pa	-32
▁k	-33
▁i	-34
▁si	-35
▁da	-36
▁to	-37
▁ji	-38
▁tao	-39
wa	-40
la	-41
ta	-42
▁r	-43
▁Y	-44
▁rana	-45
ani	-46
▁ya	-47
▁Ama	-48
ring	-49
ano	-50
▁M	-51
so	-52
va	-53
▁ko	-54
▁nyo	-55
▁S	-56
▁jya	-57
pey	-58
li	-59
to	-60
yan	-61
▁pa	-62
▁Ye	-63
▁T	-64
in	-65
▁mey	-66
mo	-67
▁Yeso	-68
sa	-69
wan	-70
ken	-71
ten	-72
ong	-73
zi	-74
▁Am	-75
▁sira	-76
ke	-77
angay	-78
si	-79
▁Ta	-80
ha	-81
nyo	-82
▁"	-83
man	-84
▁ci	-85
▁O	-86
vo	-87
▁va	-88
▁ori	-89
na	-90
lo	-91
rara	-92
aniring	-93
▁p	-94
no	-95
zay	-96
▁kano	-97
▁So	-98
▁K	-99
."	-100
ro	-101
eng	-102
za	-103
▁N	-104
▁mo	-105
▁ak	-106
▁Maniring	-107
men	-108
bo	-109
ko	-110
ne	-111
tan	-112
han	-113
mi	-114
▁maci	-115
yong	-116
tao	-117
lam	-118
▁P	-119
▁jinyo	-120
▁ciring	-121
▁nya	-122
pan	-123
anga	-124
kwa	-125
▁ika	-126
kem	-127
ngen	-128
▁pey	-129
▁vazay	-130
▁Ma	-131
cya	-132
▁maka	-133
▁I	-134
anoyong	-135
he	-136
kan	-137
anao	-138
▁an	-139
▁sang	-140
po	-141
▁sya	-142
te	-143
▁nima	-144
pya	-145
ga	-146
▁mangay	-147
pi	-148
▁No	-149
▁tey	-150
sir	-151
▁Yo	-152
▁akman	-153
▁jira	-154
ran	-155
▁mapa	-156
izi	-157
rsir	-158
▁namen	-159
sto	-160
▁Kizi	-161
▁Kizisto	-162
rsirngen	-163
anirsirngen	-164
▁kapa	-165
now	-166
▁jyaken	-167
di	-168
lay	-169
nga	-170
ina	-171
ji	-172
ned	-173
rahe	-174
nowned	-175
raraten	-176
▁onowned	-177
mey	-178
ango	-179
ngan	-180
▁kamo	-181
tay	-182
hap	-183
▁aro	-184
nanao	-185
panci	-186
nong	-187
law	-188
▁ra	-189
se	-190
▁nipa	-191
▁Si	-192
▁kara	-193
▁man	-194
▁kak	-195
wakwa	-196
▁asa	-197
ray	-198
da	-199
▁om	-200
cita	-201
ciring	-202
▁yama	-203
zing	-204
taotao	-205
▁kataotao	-206
mizing	-207
riciring	-208
hay	-209
kad	-210
oy	-211
akem	-212
kenakem	-213
▁Yotay	-214
▁b	-215
▁kapey	-216
▁kani	-217
▁y	-218
▁Ya	-219
▁karawan	-220
wakwak	-221
kman	-222
▁nga	-223
▁nakem	-224
▁Sey	-225
eken	-226
▁Pa	-227
yay	-228
saray	-229
▁ipey	-230
▁jyaten	-231
kong	-232
▁nakenakem	-233
walam	-234
▁ng	-235
yat	-236
▁raraten	-237
▁kaji	-238
raralay	-239
ek	-240
anak	-241
▁dang	-242
▁amyan	-243
teng	-244
▁ipa	-245
▁abo	-246
angayan	-247
wyat	-248
teneng	-249
▁yam	-250
▁J	-251
▁Ka	-252
rwa	-253
wang	-254
▁manoyong	-255
vyay	-256
hen	-257
tenngan	-258
lamso	-259
rahet	-260
▁C	-261
rwan	-262
▁kan	-263
toro	-264
mne	-265
▁mapey	-266
▁iwa	-267
kongo	-268
ngi	-269
▁ipanci	-270
▁iwawalam	-271
dong	-272
▁ciriciring	-273
lis	-274
min	-275
▁mina	-276
cici	-277
▁Sa	-278
lolo	-279
▁inyo	-280
angain	-281
▁anak	-282
rahan	-283
▁beken	-284
▁vahay	-285
teh	-286
ngaran	-287
om	-288
▁mava	-289
▁Panirsirngen	-290
lim	-291
▁ik	-292
▁rako	-293
limwang	-294
▁key	-295
kes	-296
▁yaken	-297
kay	-298
▁tangain	-299
▁akma	-300
moz	-301
ze	-302
way	-303
▁meyngaran	-304
▁icya	-305
las	-306
wlo	-307
▁ang	-308
▁oma	-309
▁li	-310
eh	-311
▁Pi	-312
oya	-313
▁ili	-314
yowyat	-315
hanhan	-316
mnekan	-317
nak	-318
▁jimo	-319
mozong	-320
▁'	-321
lamozong	-322
▁mavakes	-323
▁katenngan	-324
▁Ji	-325
▁kakteh	-326
tey	-327
▁manci	-328
▁Seyzi	-329
mimin	-330
ngato	-331
▁teyngato	-332
▁macinanao	-333
▁ney	-334
▁nanao	-335
.'	-336
▁Pawlo	-337
dan	-338
raw	-339
cyan	-340
▁apya	-341
▁pang	-342
angnanao	-343
▁Mey	-344
key	-345
▁mango	-346
rilaw	-347
▁maniring	-348
▁oyowyat	-349
▁apo	-350
▁Maka	-351
eya	-352
vat	-353
▁kap	-354
▁ala	-355
▁Ori	-356
▁manga	-357
angan	-358
wen	-359
zway	-360
▁kad	-361
▁Na	-362
▁Ni	-363
▁eya	-364
▁ikanoyong	-365
lamsoy	-366
▁meyyo	-367
vi	-368
▁nika	-369
zwa	-370
raraw	-371
▁panirsirngen	-372
op	-373
vazay	-374
syo	-375
▁araraw	-376
kaday	-377
▁sicya	-378
▁sa	-379
had	-380
lamlamsoy	-381
▁Ci	-382
▁nim	-383
▁V	-384
▁Ko	-385
anara	-386
zo	-387
▁kapaka	-388
oyse	-389
▁Moyse	-390
tanang	-391
▁Satan	-392
deng	-393
▁Pite	-394
▁ninyo	-395
kaop	-396
▁lamlamsoy	-397
▁kakwa	-398
es	-399
lawan	-400
▁meyyonong	-401
san	-402
▁kangay	-403
▁yako	-404
▁akmey	-405
piya	-406
▁tana	-407
rilawan	-408
sya	-409
▁Tana	-410
▁nipey	-411
▁cina	-412
▁itoro	-413
anaralay	-414
▁mai	-415
▁yana	-416
sal	-417
livo	-418
Mo	-419
▁yan	-420
▁panganga	-421
anoy	-422
mao	-423
▁alalaw	-424
insi	-425
▁Karahan	-426
▁nipamnekan	-427
▁kato	-428
▁pahad	-429
▁tinsi	-430
ngwa	-431
nozi	-432
wani	-433
kwaya	-434
nas	-435
yob	-436
voy	-437
▁myan	-438
od	-439
▁kanen	-440
▁Akman	-441
▁Yowani	-442
▁macita	-443
tana	-444
ranes	-445
▁yamey	-446
de	-447
nan	-448
▁mahap	-449
▁ngaran	-450
▁mak	-451
nonong	-452
ney	-453
say	-454
pangayan	-455
zpi	-456
panirsirngen	-457
▁ten	-458
pwan	-459
▁ina	-460
▁Amyan	-461
knak	-462
rata	-463
▁To	-464
▁ipaka	-465
ratateng	-466
▁peypey	-467
talamozong	-468
▁Meyratateng	-469
Ya	-470
▁ip	-471
▁peypeypangayan	-472
▁nira	-473
▁mi	-474
▁Tao	-475
▁araw	-476
angozay	-477
▁sicyai	-478
diya	-479
▁pani	-480
▁makakaday	-481
lit	-482
sang	-483
▁pan	-484
▁jyamen	-485
No	-486
ve	-487
▁nang	-488
▁ikavyay	-489
▁Seysyo	-490
▁mavyay	-491
▁sicyaikwaya	-492
ing	-493
rahem	-494
▁mata	-495
▁nizpi	-496
tanatanang	-497
losal	-498
losaleng	-499
▁Yelosaleng	-500
lovo	-501
▁Ciriciring	-502
pin	-503
knakmen	-504
▁marahet	-505
▁pangangarilawan	-506
▁mapatanatanang	-507
▁L	-508
▁(	-509
jya	-510
zya	-511
▁teyrahem	-512
maog	-513
▁cinai	-514
▁karwan	-515
dke	-516
ba	-517
▁keyyan	-518
▁maha	-519
hang	-520
▁imo	-521
anngwa	-522
sing	-523
▁kapaci	-524
kow	-525
▁omanoyong	-526
gli	-527
oli	-528
waw	-529
▁yani	-530
▁jyabo	-531
gom	-532
▁nito	-533
▁pano	-534
▁nyaken	-535
▁Mamizing	-536
oma	-537
tak	-538
vahay	-539
▁toma	-540
tlo	-541
▁ba	-542
rana	-543
▁mana	-544
on	-545
▁ab	-546
▁macya	-547
▁Cya	-548
anoyngan	-549
noy	-550
▁Mapa	-551
▁macikaop	-552
anaralayan	-553
hey	-554
▁Iya	-555
▁Sira	-556
▁italamozong	-557
haka	-558
mina	-559
zwazway	-560
▁meyraraten	-561
rek	-562
▁kado	-563
▁kaka	-564
▁yamyan	-565
▁panaralayan	-566
vang	-567
angozayan	-568
anom	-569
gling	-570
▁D	-571
pen	-572
rawa	-573
▁karara	-574
▁Makarahan	-575
▁Mapasaray	-576
maha	-577
mong	-578
taza	-579
hapen	-580
▁iya	-581
yonoy	-582
yonoywan	-583
▁panoyonoywan	-584
oyyan	-585
anod	-586
pyan	-587
hza	-588
▁vo	-589
kza	-590
▁Va	-591
sidong	-592
yangay	-593
yongkad	-594
▁makateneng	-595
▁pangozayan	-596
sina	-597
▁malas	-598
napo	-599
tatao	-600
ziman	-601
▁soma	-602
▁toda	-603
▁ranom	-604
lamsoyan	-605
▁icyatatao	-606
▁Manngwa	-607
raherahet	-608
▁kalamsoyan	-609
▁meylimwang	-610
day	-611
▁Anak	-612
▁mang	-613
▁rara	-614
▁yarana	-615
▁mangnanao	-616
taw	-617
anay	-618
▁rarwa	-619
▁nimawakwak	-620
dwa	-621
▁Apo	-622
pza	-623
▁Ina	-624
▁ayob	-625
▁nimey	-626
rawat	-627
▁koma	-628
▁icici	-629
▁icicirawat	-630
vey	-631
lili	-632
▁wan	-633
▁nyaten	-634
hakawan	-635
▁Ikongo	-636
▁macyagom	-637
kab	-638
lang	-639
zyak	-640
▁mam	-641
hapan	-642
yahey	-643
▁nitoro	-644
▁kapanci	-645
▁anoyngan	-646
cin	-647
ino	-648
lyan	-649
rako	-650
▁ngo	-651
livon	-652
▁Macita	-653
▁jyatenngi	-654
▁Ise	-655
ti	-656
▁kab	-657
▁nip	-658
zngen	-659
▁yasa	-660
▁yanan	-661
▁mahakay	-662
▁nipanci	-663
cy	-664
dep	-665
dna	-666
wey	-667
zeb	-668
vonas	-669
▁meyka	-670
tanek	-671
▁yato	-672
▁ikabo	-673
▁makwa	-674
00	-675
yabo	-676
lahan	-677
▁kasa	-678
▁yaji	-679
▁Inaoy	-680
ni	-681
lan	-682
▁pala	-683
▁nimaka	-684
▁Apolahan	-685
▁baka	-686
sinaoli	-687
▁kadwan	-688
▁meyhanhan	-689
▁naknakmen	-690
?"	-691
gan	-692
▁mangononong	-693
nay	-694
▁Inyo	-695
▁paka	-696
▁isaray	-697
▁meynozi	-698
dang	-699
hani	-700
▁Isedi	-701
tatanek	-702
▁ikongo	-703
▁meyya	-704
▁yaten	-705
kai	-706
▁oya	-707
disay	-708
▁lima	-709
▁Vadisay	-710
▁kagling	-711
keh	-712
yod	-713
zan	-714
▁itay	-715
▁omala	-716
▁yangay	-717
▁itaysang	-718
▁omraralay	-719
Ko	-720
▁Nipa	-721
▁yamen	-722
▁mamimin	-723
em	-724
myan	-725
twaw	-726
cicin	-727
lisna	-728
vango	-729
▁yada	-730
angangay	-731
livolivon	-732
bot	-733
▁jyo	-734
▁mala	-735
▁apiya	-736
▁macit	-737
▁yapya	-738
▁karatan	-739
▁makdeng	-740
▁pancyan	-741
▁amraralay	-742
Ji	-743
gami	-744
jika	-745
zang	-746
hanit	-747
yokay	-748
▁mano	-749
midong	-750
▁hanit	-751
▁nipan	-752
▁ahapen	-753
▁jyojika	-754
▁azwazway	-755
▁nihakawan	-756
▁ipakateneng	-757
pong	-758
vong	-759
lovot	-760
▁tamo	-761
▁tenngi	-762
zai	-763
lololo	-764
rateng	-765
▁yanyo	-766
▁kakzeb	-767
▁dey	-768
▁kai	-769
▁kayo	-770
▁Jyabo	-771
▁kana	-772
▁nimamizing	-773
sey	-774
▁po	-775
▁Vey	-776
▁awa	-777
▁rala	-778
▁kapya	-779
elo	-780
noz	-781
Ikongo	-782
▁icyak	-783
▁yongkad	-784
▁nimacita	-785
eb	-786
ed	-787
tok	-788
zat	-789
king	-790
lato	-791
vangon	-792
eteneng	-793
▁kanima	-794
tod	-795
▁mong	-796
▁paci	-797
lololos	-798
▁kararay	-799
▁mawakwak	-800
ngay	-801
▁kabo	-802
▁kahap	-803
▁kanoyong	-804
▁Loma	-805
▁apoy	-806
tazadang	-807
▁kakzeben	-808
0)	-809
pito	-810
tahen	-811
▁iney	-812
▁macitangayan	-813
▁pam	-814
ngong	-815
zokab	-816
nozyan	-817
▁peycya	-818
et	-819
nek	-820
sin	-821
zanod	-822
vatkan	-823
▁rarahan	-824
ib	-825
jin	-826
▁iyan	-827
▁nimaci	-828
▁nipaka	-829
ngongyod	-830
▁ineynapo	-831
▁makacita	-832
pat	-833
▁za	-834
syasi	-835
▁yabo	-836
izngen	-837
keykai	-838
kowbot	-839
▁Cyadi	-840
▁Pilato	-841
▁inawan	-842
▁kyokay	-843
▁peyney	-844
▁Nipamnekan	-845
ket	-846
ton	-847
▁ve	-848
blis	-849
manma	-850
▁masa	-851
▁nimo	-852
▁sara	-853
▁tomi	-854
karwan	-855
▁Simong	-856
▁kanang	-857
▁yamaci	-858
▁nitovoy	-859
▁mapeyvazay	-860
▁ipeylimwang	-861
nya	-862
▁Tawey	-863
▁Makaranes	-864
ngeh	-865
sayya	-866
▁yata	-867
maring	-868
▁sidong	-869
▁Cyadidi	-870
▁monganay	-871
▁tomalamozong	-872
To	-873
▁Mo	-874
▁Yaken	-875
▁kanakan	-876
kaw	-877
linas	-878
▁vayo	-879
▁icyakman	-880
▁kawakwak	-881
▁marateng	-882
go	-883
▁Mi	-884
tasa	-885
wata	-886
anala	-887
likey	-888
▁wakwa	-889
Si	-890
▁ai	-891
vovo	-892
lalas	-893
sngen	-894
▁mapasa	-895
▁omalalam	-896
▁peyneynozyan	-897
hep	-898
eyka	-899
▁Yake	-900
▁mavo	-901
hahapan	-902
▁Madiya	-903
▁yamapa	-904
▁apyapya	-905
▁macihza	-906
▁iraralay	-907
reh	-908
▁map	-909
siring	-910
▁mapaka	-911
▁wanjin	-912
▁yamaka	-913
▁angayan	-914
▁meytatanek	-915
▁teneteneng	-916
kat	-917
zik	-918
▁Ti	-919
sava	-920
▁nimapo	-921
▁vakong	-922
angononong	-923
▁makaranes	-924
Ma	-925
.'"	-926
tek	-927
pzatan	-928
▁yaman	-929
vatvatkan	-930
gaz	-931
anop	-932
▁abne	-933
zezyak	-934
nyapwan	-935
vovoong	-936
▁tomita	-937
kon	-938
vay	-939
lavi	-940
▁cya	-941
gpyan	-942
pirwa	-943
▁yaom	-944
▁cyaha	-945
▁yanima	-946
▁pacicin	-947
▁inyapwan	-948
not	-949
▁An	-950
glaw	-951
mdep	-952
mnek	-953
pisa	-954
▁Nyo	-955
tawan	-956
▁ipaci	-957
▁makasi	-958
▁peyoya	-959
▁yapwan	-960
▁ipeyhanhan	-961
▁meyngongyod	-962
lima	-963
▁Abo	-964
▁ama	-965
▁sin	-966
lisnan	-967
sangib	-968
anoyngi	-969
▁peyoyaoyyan	-970
anam	-971
zavo	-972
tokto	-973
▁Manga	-974
▁avang	-975
▁sinjya	-976
▁ikakman	-977
mowa	-978
odan	-979
ttan	-980
minamina	-981
▁icyakma	-982
▁ahahapan	-983
▁amizngen	-984
▁nivatvatkan	-985
ge	-986
dek	-987
nen	-988
inan	-989
limo	-990
vaza	-991
kehan	-992
▁Veydi	-993
▁tokon	-994
dekdeng	-995
▁ikakza	-996
▁mangozay	-997
▁manaralay	-998
vos	-999
zaw	-1000
▁Da	-1001
hese	-1002
▁Pey	-1003
elote	-1004
pyapya	-1005
minaminasi	-1006
▁amlololos	-1007
kod	-1008
rya	-1009
cyey	-1010
▁yai	-1011
▁mani	-1012
▁niko	-1013
▁mancyan	-1014
▁mangozai	-1015
syan	-1016
▁tovo	-1017
▁aktokto	-1018
▁lilisnan	-1019
it	-1020
kyo	-1021
nongan	-1022
▁kapan	-1023
▁koman	-1024
▁meypa	-1025
▁apyahen	-1026
▁marilaw	-1027
▁yamapey	-1028
raratenan	-1029
▁ipangnanao	-1030
mat	-1031
▁omo	-1032
▁arya	-1033
▁pasa	-1034
pinpin	-1035
tengan	-1036
▁Namen	-1037
▁nimapa	-1038
▁masaray	-1039
▁raralay	-1040
▁makeykai	-1041
▁nimangay	-1042
▁yamraralay	-1043
▁omlivolivon	-1044
cir	-1045
paw	-1046
zak	-1047
Inyo	-1048
anig	-1049
dayan	-1050
▁adan	-1051
▁saon	-1052
saodan	-1053
▁peycyey	-1054
rarakehan	-1055
▁sidongen	-1056
Na	-1057
zom	-1058
▁zi	-1059
hara	-1060
nakem	-1061
▁Nima	-1062
lilyan	-1063
▁kaman	-1064
▁Mangay	-1065
▁komaro	-1066
▁somaray	-1067
▁somidong	-1068
▁Naknakmen	-1069
▁aryarilaw	-1070
▁nganoyngi	-1071
▁kapakacita	-1072
▁kapeyhanhan	-1073
▁peycyeylilyan	-1074
▁kamanrarakehan	-1075
tai	-1076
seyvo	-1077
▁kava	-1078
▁yamo	-1079
anakem	-1080
▁ngyan	-1081
▁Yoseyvo	-1082
▁mapasyasi	-1083
▁peyraratenan	-1084
den	-1085
miz	-1086
dket	-1087
kmey	-1088
kapya	-1089
▁Sila	-1090
▁asyo	-1091
mahamaha	-1092
▁ikakarwan	-1093
geg	-1094
cyaka	-1095
kdeng	-1096
notan	-1097
▁kala	-1098
▁nyoy	-1099
pangay	-1100
▁katey	-1101
▁yajya	-1102
dadayan	-1103
▁kabwan	-1104
▁Misayya	-1105
▁peyvaza	-1106
ki	-1107
sip	-1108
▁wa	-1109
▁Ika	-1110
▁law	-1111
▁lawpan	-1112
▁mavota	-1113
▁wakwaken	-1114
▁mapeyzokab	-1115
▁kapakateneng	-1116
nap	-1117
▁koy	-1118
hangh	-1119
heseb	-1120
▁Sino	-1121
▁pong	-1122
▁heseb	-1123
▁yatey	-1124
▁kaidan	-1125
▁mowyat	-1126
▁nyangay	-1127
▁teygami	-1128
▁mapacici	-1129
hanghangan	-1130
▁meyzezyak	-1131
▁omamizing	-1132
dam	-1133
Sino	-1134
voso	-1135
▁Kay	-1136
vatek	-1137
▁nazi	-1138
▁ngar	-1139
▁sino	-1140
▁mirwa	-1141
▁panga	-1142
▁tatasa	-1143
singsing	-1144
▁meylimo	-1145
▁yamanci	-1146
▁ikarilaw	-1147
▁meyvazay	-1148
▁Mangnanao	-1149
▁nganoyong	-1150
▁mapatazadang	-1151
cyo	-1152
ked	-1153
ley	-1154
kala	-1155
▁peh	-1156
anood	-1157
inara	-1158
▁Yota	-1159
▁pamem	-1160
▁ipeywalam	-1161
▁kangangay	-1162
▁nipancyan	-1163
▁yamanoyong	-1164
▁pamemtengan	-1165
mahamahatawan	-1166
Ka	-1167
pod	-1168
▁oo	-1169
lala	-1170
dketan	-1171
▁wanan	-1172
balinas	-1173
▁mamlis	-1174
▁mamizing	-1175
▁kahanghangan	-1176
hag	-1177
mek	-1178
twa	-1179
vya	-1180
yyan	-1181
nekan	-1182
sinmo	-1183
tarek	-1184
zwain	-1185
▁ipan	-1186
▁lila	-1187
▁mangap	-1188
▁citahen	-1189
sirsiring	-1190
▁meysinaoli	-1191
▁meylimoteng	-1192
gi	-1193
Imo	-1194
gaw	-1195
kas	-1196
sob	-1197
yop	-1198
▁La	-1199
▁ap	-1200
▁vat	-1201
hagna	-1202
kanen	-1203
▁omagaz	-1204
▁kasaray	-1205
▁meyvahay	-1206
kapyapinpin	-1207
het	-1208
ngo	-1209
▁Di	-1210
▁adwa	-1211
▁yaro	-1212
▁yaso	-1213
lilitod	-1214
▁katoro	-1215
▁tovoin	-1216
masaodan	-1217
▁amlisna	-1218
▁sarayan	-1219
yangangay	-1220
▁ngaranan	-1221
▁raralayan	-1222
dey	-1223
tem	-1224
▁Ay	-1225
▁la	-1226
000)	-1227
lwan	-1228
neng	-1229
vayo	-1230
▁Par	-1231
▁pag	-1232
▁ran	-1233
▁Maci	-1234
▁ikan	-1235
anadna	-1236
teygami	-1237
▁pongso	-1238
▁somdep	-1239
▁Parnapo	-1240
▁myanpaw	-1241
vil	-1242
sozi	-1243
veyvo	-1244
▁kata	-1245
▁nimi	-1246
anawen	-1247
hagnat	-1248
▁manma	-1249
anazang	-1250
▁Taosya	-1251
▁yakmey	-1252
▁abneken	-1253
▁ikapiya	-1254
▁manngwa	-1255
▁ngarnan	-1256
▁kapeylimwang	-1257
kep	-1258
lwa	-1259
sen	-1260
angi	-1261
kzan	-1262
▁mya	-1263
rahen	-1264
votan	-1265
▁meyb	-1266
mamaog	-1267
▁Kaysa	-1268
▁ipeypa	-1269
sivovoong	-1270
▁kararatan	-1271
yab	-1272
zng	-1273
kwan	-1274
lasan	-1275
▁Ayci	-1276
▁ingi	-1277
▁zivo	-1278
▁arako	-1279
▁makan	-1280
▁oyyan	-1281
▁manakem	-1282
▁meyngen	-1283
▁nimanga	-1284
▁ikamimin	-1285
▁peyvazain	-1286
re	-1287
dom	-1288
bwan	-1289
mlis	-1290
sala	-1291
yang	-1292
dedna	-1293
tazak	-1294
domket	-1295
gegcin	-1296
▁nimai	-1297
▁niman	-1298
▁ananak	-1299
▁Veydipo	-1300
▁meynakem	-1301
▁Katenngan	-1302
▁meypangay	-1303
▁iraherahet	-1304
▁pangangasyan	-1305
le	-1306
rai	-1307
▁Po	-1308
hama	-1309
▁Aro	-1310
▁asi	-1311
movoy	-1312
ngnen	-1313
zavoz	-1314
zikna	-1315
angday	-1316
vangan	-1317
anaktak	-1318
cirngan	-1319
▁macipa	-1320
▁meybeb	-1321
▁kapanga	-1322
▁makowbot	-1323
▁ingingnen	-1324
▁nimakacita	-1325
lak	-1326
soy	-1327
kasa	-1328
mase	-1329
teyka	-1330
zakat	-1331
▁Yako	-1332
leylam	-1333
ngayan	-1334
▁kakan	-1335
▁ngaro	-1336
▁potaw	-1337
▁ranaw	-1338
▁abwata	-1339
▁meycya	-1340
▁meykey	-1341
▁onotan	-1342
▁peymey	-1343
▁Kagling	-1344
▁manakaw	-1345
madadayan	-1346
▁kararalay	-1347
▁meybebneng	-1348
▁nipeylimwang	-1349
▁peymeymasaodan	-1350
neb	-1351
salo	-1352
tkeh	-1353
▁vaz	-1354
kadwa	-1355
wawan	-1356
▁komo	-1357
▁mako	-1358
▁ovay	-1359
cittan	-1360
nakman	-1361
▁Sawlo	-1362
▁Teyka	-1363
▁Karwan	-1364
▁makahap	-1365
▁pehngeh	-1366
▁vazangay	-1367
▁macitarek	-1368
vosivovoong	-1369
▁kapacikaop	-1370
lab	-1371
ven	-1372
beng	-1373
ehan	-1374
vava	-1375
vood	-1376
gagan	-1377
kayan	-1378
rwaro	-1379
▁kaha	-1380
▁vato	-1381
▁yapa	-1382
dketen	-1383
wanood	-1384
▁Ipanci	-1385
▁masangib	-1386
▁ikanyahey	-1387
▁meyyangay	-1388
▁sarasaray	-1389
▁makamizing	-1390
▁katalamozong	-1391
mta	-1392
tet	-1393
▁Se	-1394
▁at	-1395
▁ze	-1396
rang	-1397
sale	-1398
wnay	-1399
▁ito	-1400
▁zom	-1401
▁yapo	-1402
▁Ipisa	-1403
▁Yamyan	-1404
▁awawan	-1405
▁inanao	-1406
▁nipaci	-1407
wakwakan	-1408
▁deyking	-1409
▁macilolo	-1410
▁yadomket	-1411
▁sivosivovoong	-1412
Pa	-1413
kba	-1414
omo	-1415
pay	-1416
▁ha	-1417
hesa	-1418
sdep	-1419
wasi	-1420
▁ayo	-1421
▁vao	-1422
Yaken	-1423
harag	-1424
tetng	-1425
▁cita	-1426
▁nyai	-1427
ekanen	-1428
tovong	-1429
veyvow	-1430
▁among	-1431
▁nioya	-1432
▁raney	-1433
zimanen	-1434
▁kakman	-1435
▁kapasa	-1436
▁keypong	-1437
▁macioya	-1438
▁nanawen	-1439
tetngehan	-1440
▁sicyaraw	-1441
▁vatvatek	-1442
▁peycirngan	-1443
▁yamakakaday	-1444
hes	-1445
kta	-1446
lag	-1447
pit	-1448
wad	-1449
moro	-1450
toko	-1451
bwata	-1452
lavat	-1453
motay	-1454
rarwa	-1455
rayan	-1456
▁avya	-1457
▁masi	-1458
▁wari	-1459
eyngen	-1460
oyaoya	-1461
totwaw	-1462
▁patwa	-1463
▁tomao	-1464
▁yaoma	-1465
Manngwa	-1466
▁ikadwa	-1467
▁macika	-1468
▁omahap	-1469
▁yakman	-1470
▁yatoma	-1471
hanghang	-1472
langinan	-1473
▁Apyapya	-1474
▁Timotay	-1475
▁kapeypa	-1476
▁nginara	-1477
lek	-1478
lon	-1479
vek	-1480
yak	-1481
bsoy	-1482
kasi	-1483
▁Ala	-1484
▁tawa	-1485
anovoy	-1486
▁makza	-1487
mizngen	-1488
▁Nasale	-1489
▁komala	-1490
▁ngamiz	-1491
savasava	-1492
vilangan	-1493
▁apzatan	-1494
▁makapey	-1495
▁nyamaog	-1496
▁ikarahet	-1497
▁manazang	-1498
▁oyaoyyan	-1499
▁mangalalas	-1500
Iya	-1501
nag	-1502
tap	-1503
vot	-1504
vwa	-1505
▁Ke	-1506
ryan	-1507
▁Idi	-1508
▁dom	-1509
yokod	-1510
▁apza	-1511
anawan	-1512
angked	-1513
taktak	-1514
vonong	-1515
▁ikaro	-1516
▁mamya	-1517
▁mimin	-1518
▁todey	-1519
▁vehan	-1520
vahayan	-1521
▁Ikadwa	-1522
▁Yakebo	-1523
▁nyamen	-1524
cicicyan	-1525
manoyong	-1526
▁nimahap	-1527
▁nimirwa	-1528
▁yamahap	-1529
▁nazibwan	-1530
▁kanekanen	-1531
▁karilawan	-1532
▁mangonong	-1533
ye	-1534
bed	-1535
lin	-1536
liw	-1537
zag	-1538
▁Do	-1539
▁as	-1540
bobo	-1541
hawa	-1542
tare	-1543
zwaw	-1544
▁Isa	-1545
▁rak	-1546
salap	-1547
▁niso	-1548
▁yaka	-1549
kyokyo	-1550
littan	-1551
rapong	-1552
▁Idiya	-1553
▁kanyo	-1554
▁niyan	-1555
▁kagagan	-1556
▁teyhesa	-1557
▁yanamen	-1558
taretarek	-1559
▁Manoyong	-1560
▁tomaotao	-1561
▁macizanod	-1562
kyokyokayan	-1563
ar	-1564
pow	-1565
▁Te	-1566
laka	-1567
siya	-1568
tata	-1569
twan	-1570
wara	-1571
▁cyo	-1572
▁han	-1573
▁kat	-1574
rareh	-1575
▁kama	-1576
vozwaw	-1577
▁inozi	-1578
▁kolit	-1579
▁mahep	-1580
lakayob	-1581
▁haneng	-1582
▁ikeyka	-1583
▁kapanta	-1584
▁makongo	-1585
▁kasidong	-1586
▁kapakahap	-1587
▁milakayob	-1588
▁angangayan	-1589
▁apzapzatan	-1590
▁meylilitod	-1591
▁amlivolivon	-1592
▁yatomalamozong	-1593
Ni	-1594
pe	-1595
lyo	-1596
pos	-1597
yai	-1598
zam	-1599
▁zo	-1600
lida	-1601
lita	-1602
lwen	-1603
risa	-1604
siri	-1605
vaha	-1606
▁kow	-1607
▁mao	-1608
hekas	-1609
litan	-1610
rakep	-1611
valiw	-1612
▁Anti	-1613
▁Yabo	-1614
▁kwan	-1615
▁pato	-1616
hangno	-1617
matmat	-1618
vilang	-1619
▁ngoso	-1620
▁domket	-1621
▁ikatlo	-1622
analahen	-1623
kdekdeng	-1624
ngeyngen	-1625
tanangen	-1626
▁Maciton	-1627
▁Mateyka	-1628
▁ipeynozi	-1629
▁manmanma	-1630
▁patwawen	-1631
▁peyrareh	-1632
matmatngeh	-1633
▁sivovoong	-1634
▁sicyakwaya	-1635
▁yamacikaop	-1636
angononongan	-1637
▁ipeyminaminasi	-1638
gen	-1639
pag	-1640
▁jy	-1641
▁ny	-1642
syay	-1643
yaha	-1644
kadan	-1645
liman	-1646
▁ikey	-1647
cilolo	-1648
lanlag	-1649
zyakan	-1650
▁apito	-1651
▁ikasi	-1652
▁manok	-1653
▁manow	-1654
▁nitai	-1655
▁peyka	-1656
▁peypa	-1657
▁tamek	-1658
vosoyan	-1659
▁Lasalo	-1660
▁omaing	-1661
risaryan	-1662
▁Citahen	-1663
▁jyablis	-1664
▁kasaraw	-1665
▁manovoy	-1666
▁mapeyka	-1667
kowyowyat	-1668
nakenakem	-1669
▁icyakmey	-1670
▁mateneng	-1671
▁pasingsing	-1672
▁meykeyngeyngen	-1673
Do	-1674
vin	-1675
▁pi	-1676
oden	-1677
sapa	-1678
tiya	-1679
▁poo	-1680
Namen	-1681
pinan	-1682
sobna	-1683
vagan	-1684
zazat	-1685
▁Amin	-1686
▁Ipey	-1687
▁amya	-1688
lolwen	-1689
napnap	-1690
zngang	-1691
▁Antia	-1692
▁sahad	-1693
▁velek	-1694
anidong	-1695
tomovoy	-1696
▁macima	-1697
▁mazway	-1698
▁ngaroi	-1699
▁omonot	-1700
▁oyatan	-1701
▁pagpag	-1702
▁pantaw	-1703
▁cinalab	-1704
▁matarek	-1705
▁nipanta	-1706
tataziman	-1707
▁kapyapya	-1708
▁manyahey	-1709
▁manganoyong	-1710
▁kasarisaryan	-1711
▁pehngehngayan	-1712
Ci	-1713
kze	-1714
lik	-1715
▁yo	-1716
kete	-1717
moon	-1718
nara	-1719
pwen	-1720
seng	-1721
sete	-1722
veze	-1723
vito	-1724
▁ngi	-1725
sipzo	-1726
takan	-1727
vosan	-1728
yanen	-1729
▁nita	-1730
▁Cyaha	-1731
▁manta	-1732
kwakwan	-1733
lovotan	-1734
sasalap	-1735
▁Isayya	-1736
▁alikey	-1737
▁ikapya	-1738
▁kowyat	-1739
zwazwain	-1740
▁isidong	-1741
▁karilaw	-1742
▁maniray	-1743
▁panadna	-1744
vahavahay	-1745
▁kataktak	-1746
▁keypirwa	-1747
▁mapazway	-1748
▁omalalas	-1749
▁mangamaog	-1750
▁ngamiznga	-1751
▁todamimin	-1752
▁katovangan	-1753
▁macinapnap	-1754
▁yasomidong	-1755
▁ipeyteygami	-1756
▁kapeyraraten	-1757
Nyo	-1758
cil	-1759
ovo	-1760
rap	-1761
zap	-1762
anow	-1763
seto	-1764
yeci	-1765
▁tan	-1766
Amyan	-1767
vitos	-1768
▁Seti	-1769
▁siri	-1770
anahet	-1771
ancyan	-1772
vinyay	-1773
▁Iyeci	-1774
▁kakma	-1775
▁mangi	-1776
▁avyain	-1777
▁kapiya	-1778
▁macira	-1779
▁teneng	-1780
makarwan	-1781
monganay	-1782
▁anyahey	-1783
▁kalahen	-1784
▁kalasan	-1785
▁kovotan	-1786
▁vowawan	-1787
▁ipakahap	-1788
▁malavang	-1789
▁nipatwaw	-1790
▁nisidong	-1791
▁niwakwak	-1792
▁Kakwakwan	-1793
▁arakorako	-1794
▁nimamimin	-1795
▁patanangen	-1796
▁kapakamizing	-1797
▁meyyangangay	-1798
▁meyyasasalap	-1799
▁yameylimwang	-1800
▁macisirsiring	-1801
▁meycyamadadayan	-1802
,"	-1803
wag	-1804
yok	-1805
▁ga	-1806
dain	-1807
▁kas	-1808
katlo	-1809
nongo	-1810
pitlo	-1811
vakes	-1812
▁Adam	-1813
▁apat	-1814
▁king	-1815
▁niom	-1816
mangan	-1817
nownay	-1818
tawwen	-1819
▁Ivoso	-1820
knakman	-1821
linasen	-1822
▁ipanta	-1823
▁kaglaw	-1824
▁taosya	-1825
▁torwan	-1826
angonong	-1827
▁makanet	-1828
▁meykala	-1829
limwangan	-1830
▁ikararwa	-1831
▁inarahen	-1832
▁kingking	-1833
▁mamaring	-1834
▁mapacita	-1835
▁meydedna	-1836
▁ngonongo	-1837
▁nikapwan	-1838
▁nioyatan	-1839
▁padketen	-1840
sirisiring	-1841
▁ipacikaop	-1842
▁meygegcin	-1843
▁Meysinaoli	-1844
▁makasidong	-1845
▁yamonganay	-1846
▁makatenngan	-1847
▁peylimwangan	-1848
▁pasingsingtan	-1849
,'	-1850
god	-1851
vak	-1852
vyo	-1853
Tana	-1854
ming	-1855
tnek	-1856
voyo	-1857
▁vey	-1858
Angay	-1859
kaban	-1860
keteh	-1861
vezed	-1862
▁Sama	-1863
▁ioya	-1864
▁maza	-1865
Mangay	-1866
Yamyan	-1867
mahama	-1868
tenngi	-1869
vavaga	-1870
zwayan	-1871
▁kawan	-1872
▁likta	-1873
▁meyha	-1874
▁zezak	-1875
▁Yakman	-1876
▁ahapan	-1877
▁ikanig	-1878
▁kavyay	-1879
▁ngahap	-1880
▁rakpen	-1881
▁ipacita	-1882
▁keylyan	-1883
▁vavagan	-1884
▁Samadiya	-1885
▁mahangno	-1886
▁meyyayob	-1887
cyakarilaw	-1888
lamozongan	-1889
▁balinasen	-1890
▁nikamimin	-1891
▁nyamamaog	-1892
▁yamarilaw	-1893
▁kakdekdeng	-1894
▁mapatanang	-1895
▁nimanaktak	-1896
▁yaomanoyong	-1897
▁kapeysinaoli	-1898
rem	-1899
tad	-1900
tas	-1901
yaw	-1902
zev	-1903
Cita	-1904
dtod	-1905
raka	-1906
snek	-1907
veve	-1908
▁Imo	-1909
▁nge	-1910
▁nio	-1911
vilan	-1912
yongo	-1913
zakza	-1914
▁000)	-1915
▁Tamo	-1916
▁lovo	-1917
kowyat	-1918
podpod	-1919
ponged	-1920
▁makas	-1921
▁moing	-1922
▁yaomo	-1923
cicinda	-1924
mizngan	-1925
▁Yasiya	-1926
▁amlavi	-1927
▁kapwan	-1928
▁malala	-1929
▁omanop	-1930
▁papito	-1931
hanhanan	-1932
locilolo	-1933
▁Setiven	-1934
▁icyarwa	-1935
▁kamolay	-1936
▁komovot	-1937
▁masalit	-1938
▁masngen	-1939
▁miminen	-1940
▁nimapey	-1941
▁nipeypa	-1942
▁omlisna	-1943
angoyongo	-1944
kownongan	-1945
leylamdam	-1946
savasavak	-1947
▁kalittan	-1948
▁kanimaka	-1949
▁katangked	-1950
▁kavosoyan	-1951
▁mavavakes	-1952
▁naknakman	-1953
▁nipadketan	-1954
▁mapasagpyan	-1955
▁yameyraraten	-1956
▁pangononongan	-1957
Am	-1958
do	-1959
00)	-1960
ded	-1961
dma	-1962
ese	-1963
kop	-1964
leb	-1965
mpo	-1966
ywa	-1967
lisi	-1968
pzat	-1969
tani	-1970
yapo	-1971
yoko	-1972
▁Ney	-1973
angaw	-1974
boten	-1975
kapat	-1976
katen	-1977
magen	-1978
neban	-1979
visan	-1980
voyan	-1981
▁Sipo	-1982
▁amin	-1983
▁tata	-1984
dednan	-1985
nekane	-1986
zangan	-1987
▁Diwey	-1988
▁Sicya	-1989
▁hapen	-1990
▁ipisa	-1991
▁pango	-1992
▁tawaz	-1993
liliman	-1994
▁Cyapay	-1995
▁kakaro	-1996
▁mamnek	-1997
▁naknak	-1998
▁nyahap	-1999
▁pamsan	-2000
▁veysen	-2001
▁vinyay	-2002
Manoyong	-2003
cyakaban	-2004
rakarang	-2005
▁jyakzan	-2006
▁kamimin	-2007
▁lovoten	-2008
▁ngotoko	-2009
▁yamalas	-2010
lovolovot	-2011
yanwanood	-2012
▁kapamnek	-2013
▁mapatwaw	-2014
▁yatatasa	-2015
▁Kaysadiya	-2016
▁ikeykakza	-2017
▁kamamagen	-2018
▁mapasobna	-2019
singsingkad	-2020
▁minapodpod	-2021
▁kapakaranes	-2022
▁peymakarwan	-2023
▁yanitomovoy	-2024
▁yamapeyvazay	-2025
▁meymatmatngeh	-2026
▁meypanirsirngen	-2027
is	-2028
iz	-2029
bon	-2030
dag	-2031
kap	-2032
kos	-2033
lma	-2034
veh	-2035
zos	-2036
gyan	-2037
kaji	-2038
kzeb	-2039
onay	-2040
vota	-2041
▁Kan	-2042
▁Oma	-2043
▁avo	-2044
▁pow	-2045
Manga	-2046
anini	-2047
pitay	-2048
teyne	-2049
voyog	-2050
▁Moci	-2051
▁Tito	-2052
▁itey	-2053
▁saki	-2054
kbakan	-2055
temtem	-2056
zagpit	-2057
▁alima	-2058
▁omzat	-2059
▁pipya	-2060
▁zampo	-2061
lamsoin	-2062
singkad	-2063
zevngen	-2064
▁Mownay	-2065
▁Somdep	-2066
▁ikaoya	-2067
▁ikatey	-2068
▁nivood	-2069
▁yapiya	-2070
▁Mangday	-2071
▁ipangan	-2072
▁kahakay	-2073
▁malavat	-2074
▁nimapya	-2075
▁ninanao	-2076
▁rarakeh	-2077
nekanekad	-2078
▁Mocisete	-2079
▁kamizing	-2080
▁nikarwan	-2081
▁nitorwan	-2082
▁palolwen	-2083
▁sidongan	-2084
▁vilangan	-2085
▁yamangay	-2086
▁kapacihza	-2087
▁kazwazway	-2088
▁mamyapyan	-2089
▁nipaziman	-2090
▁nimanmanma	-2091
▁meyyonownay	-2092
▁yamakateneng	-2093
▁iteytetngehan	-2094
Pey	-2095
gag	-2096
ili	-2097
kma	-2098
leh	-2099
lya	-2100
mya	-2101
peh	-2102
vis	-2103
zda	-2104
kteh	-2105
sazi	-2106
vaod	-2107
yana	-2108
zici	-2109
▁Ken	-2110
▁kom	-2111
Sijya	-2112
angai	-2113
goman	-2114
lolos	-2115
manga	-2116
nowji	-2117
panam	-2118
pilon	-2119
▁Kamo	-2120
▁Sato	-2121
▁Yama	-2122
▁pacy	-2123
▁yala	-2124
engkad	-2125
keykay	-2126
lamnay	-2127
seysan	-2128
veyvek	-2129
wazway	-2130
▁inaoy	-2131
▁kajya	-2132
▁kakey	-2133
▁kakza	-2134
▁ngapa	-2135
▁tatlo	-2136
▁Ahapen	-2137
▁littan	-2138
▁mabsoy	-2139
▁makcin	-2140
▁mangin	-2141
▁maoran	-2142
▁nazibo	-2143
▁nitaid	-2144
▁papwen	-2145
engneban	-2146
sinsinmo	-2147
▁Manakem	-2148
▁Papilon	-2149
▁Veyseto	-2150
▁lalitan	-2151
▁malovot	-2152
▁nikoman	-2153
▁Amizngen	-2154
▁manidong	-2155
▁meypinan	-2156
tazadangen	-2157
▁azwazwain	-2158
▁makayokod	-2159
▁mangzakza	-2160
▁meyoyaoya	-2161
▁nimacihza	-2162
▁pacioyyan	-2163
▁somagpyan	-2164
▁taotawwen	-2165
▁Cyapaynong	-2166
▁kapeyvazay	-2167
▁makatenngi	-2168
▁mangarilaw	-2169
▁kamamagenan	-2170
▁kapangnanao	-2171
▁meypahagnat	-2172
▁peyrarehten	-2173
▁nimeycicinda	-2174
▁pangengneban	-2175
▁patazadangen	-2176
▁kapangononong	-2177
▁mapeycyakaban	-2178
bey	-2179
rta	-2180
sne	-2181
son	-2182
soz	-2183
wao	-2184
▁ao	-2185
kamo	-2186
kzes	-2187
ngat	-2188
nton	-2189
vwak	-2190
zong	-2191
▁Jya	-2192
▁mow	-2193
▁pay	-2194
Jyabo	-2195
dkeci	-2196
kawan	-2197
kehen	-2198
mavos	-2199
yalak	-2200
▁Solo	-2201
▁avok	-2202
▁kada	-2203
▁karo	-2204
▁kois	-2205
▁macy	-2206
▁nici	-2207
▁tong	-2208
maseke	-2209
paring	-2210
sipzot	-2211
wangan	-2212
▁Yamen	-2213
▁kapak	-2214
▁macip	-2215
▁maraw	-2216
▁nitak	-2217
angyang	-2218
rarahet	-2219
▁ivonas	-2220
▁kosozi	-2221
▁makata	-2222
▁meypan	-2223
▁mimong	-2224
▁nyahey	-2225
▁payyai	-2226
▁takzes	-2227
▁tomoro	-2228
kingking	-2229
vatvatek	-2230
▁Mamimin	-2231
▁amnanao	-2232
▁ikaglaw	-2233
▁ikazyak	-2234
▁mahataw	-2235
▁meykete	-2236
▁yamanta	-2237
▁Tamaseke	-2238
▁kakakteh	-2239
▁kakeykai	-2240
▁kapacici	-2241
▁ngotokot	-2242
▁peyyanen	-2243
keykaygyan	-2244
teneteneng	-2245
▁ipamaring	-2246
▁nyangayan	-2247
▁yamamimin	-2248
▁kapangozay	-2249
▁mangakaday	-2250
▁mapangyang	-2251
▁nisidongan	-2252
▁nitaktakan	-2253
▁pacicicyan	-2254
▁panadnaden	-2255
▁pangavosan	-2256
▁yamangozay	-2257
▁maraherahet	-2258
▁meyhanhanan	-2259
▁pangonongan	-2260
▁yamangnanao	-2261
▁macilocilolo	-2262
▁meyketeketeh	-2263
▁ngonongonong	-2264
▁peykeykaygyan	-2265
▁mapangyangyalak	-2266
cik	-2267
mip	-2268
moy	-2269
mwa	-2270
pis	-2271
pse	-2272
zey	-2273
▁Lo	-2274
Yabo	-2275
gaga	-2276
kana	-2277
kata	-2278
kcin	-2279
mang	-2280
mwad	-2281
noci	-2282
rain	-2283
sovo	-2284
wain	-2285
yani	-2286
zaka	-2287
▁Asa	-2288
▁kao	-2289
▁mag	-2290
▁moy	-2291
▁nib	-2292
gonag	-2293
koman	-2294
liliw	-2295
linga	-2296
liway	-2297
nasan	-2298
ongoy	-2299
penan	-2300
pinda	-2301
▁Pala	-2302
▁amiz	-2303
▁cici	-2304
▁kang	-2305
▁paro	-2306
▁yami	-2307
angana	-2308
koyoko	-2309
lolwan	-2310
mozwaw	-2311
nanala	-2312
▁Marta	-2313
▁Yotan	-2314
▁katlo	-2315
▁paglo	-2316
▁peyya	-2317
▁ratan	-2318
▁vonas	-2319
lalasan	-2320
toktwan	-2321
▁Nimaci	-2322
▁arwaro	-2323
▁ikarwa	-2324
▁kabnek	-2325
▁makaha	-2326
▁mangoz	-2327
▁mitkeh	-2328
▁norwan	-2329
▁omanam	-2330
▁omanod	-2331
tanangan	-2332
wasiwasi	-2333
▁Nipanci	-2334
▁Satokay	-2335
▁adketan	-2336
▁jyakman	-2337
▁mangday	-2338
▁mapeypa	-2339
▁ngongoy	-2340
▁nipteng	-2341
▁tovoyan	-2342
▁yamanga	-2343
anazangan	-2344
gonagonay	-2345
veyveknen	-2346
zavozavoz	-2347
▁bakbakan	-2348
▁kapacita	-2349
▁makakala	-2350
▁naknakma	-2351
▁wakwakan	-2352
▁yaomanam	-2353
▁kapyapyan	-2354
▁meytotwaw	-2355
▁nimatazak	-2356
▁zomwazway	-2357
▁pangarilawan	-2358
Abo	-2359
Ala	-2360
bab	-2361
bob	-2362
lat	-2363
mai	-2364
rey	-2365
Maka	-2366
bneb	-2367
goga	-2368
heng	-2369
mala	-2370
maro	-2371
olin	-2372
woya	-2373
zaza	-2374
▁Adi	-2375
▁Mai	-2376
beken	-2377
glipa	-2378
palit	-2379
patak	-2380
▁Ikey	-2381
▁ngan	-2382
▁vaha	-2383
▁zaza	-2384
teynep	-2385
▁Yaten	-2386
▁isovo	-2387
▁kalwa	-2388
▁kango	-2389
▁kazng	-2390
▁nioma	-2391
▁odong	-2392
▁voovo	-2393
▁yamap	-2394
▁yazaw	-2395
cirngen	-2396
▁Aglipa	-2397
▁Ikatlo	-2398
▁Potani	-2399
▁amlida	-2400
▁ipanga	-2401
▁keytey	-2402
▁makana	-2403
▁manara	-2404
▁masaod	-2405
▁nikaro	-2406
▁palolo	-2407
▁tomazo	-2408
▁yangaw	-2409
bengbeng	-2410
riparing	-2411
▁Sipolay	-2412
▁jyacita	-2413
▁kakdain	-2414
▁karahet	-2415
▁karwaro	-2416
▁macipey	-2417
▁manowji	-2418
▁mapanop	-2419
▁mapeyni	-2420
▁meyyasi	-2421
▁ngonoci	-2422
▁yameyka	-2423
▁alalasan	-2424
▁amizngan	-2425
▁ikabeken	-2426
▁kazyakan	-2427
▁nipadket	-2428
▁nipamowa	-2429
▁powboten	-2430
▁yaomonot	-2431
▁ikapyapya	-2432
▁kapasaway	-2433
▁macilovot	-2434
▁makavonas	-2435
▁nikovotan	-2436
▁nitovoyan	-2437
▁peydednan	-2438
▁kazngangan	-2439
▁macitovong	-2440
▁makdekdeng	-2441
▁nikawakwak	-2442
▁peylamsoin	-2443
▁keyteytawan	-2444
▁meycicicyan	-2445
▁pakacirngen	-2446
▁kanimakacita	-2447
▁mapeynihakawan	-2448
▁yameyminaminasi	-2449
.)	-2450
Ta	-2451
gal	-2452
ini	-2453
met	-2454
pad	-2455
pet	-2456
ris	-2457
yas	-2458
yey	-2459
▁Om	-2460
Asyo	-2461
ciga	-2462
eban	-2463
kbak	-2464
mtam	-2465
tele	-2466
zain	-2467
▁aob	-2468
▁aza	-2469
▁ova	-2470
▁pat	-2471
▁sey	-2472
▁tod	-2473
aniya	-2474
aylyo	-2475
hakaw	-2476
kanig	-2477
loran	-2478
mangi	-2479
papen	-2480
vonag	-2481
vozaw	-2482
▁Cita	-2483
▁Make	-2484
▁ahep	-2485
▁apwa	-2486
▁atlo	-2487
▁kapo	-2488
▁mowa	-2489
▁sima	-2490
▁tomo	-2491
▁zozo	-2492
cikcil	-2493
sobnan	-2494
zamzat	-2495
▁Apolo	-2496
▁Idisa	-2497
▁Siton	-2498
▁Yatey	-2499
▁ihawa	-2500
▁kanim	-2501
▁likod	-2502
▁mapan	-2503
▁panay	-2504
▁rakeh	-2505
▁yamai	-2506
bnebnek	-2507
keylyan	-2508
taodtod	-2509
▁Antele	-2510
▁Palapa	-2511
▁Sicyai	-2512
▁abneka	-2513
▁kakmey	-2514
▁komwan	-2515
▁nimyan	-2516
▁omalam	-2517
▁wakwak	-2518
maniring	-2519
miwakwak	-2520
nonongan	-2521
rakorako	-2522
▁abnekan	-2523
▁kakdeng	-2524
▁kananao	-2525
▁kapangi	-2526
▁kapeyya	-2527
▁kapirwa	-2528
▁katovoy	-2529
▁makoyab	-2530
▁pazwain	-2531
▁tomawag	-2532
▁Kenaylyo	-2533
▁ikasaray	-2534
▁kanyahey	-2535
▁kapangay	-2536
▁katovong	-2537
▁mapahama	-2538
▁vahalang	-2539
▁ipanazang	-2540
▁macipayok	-2541
▁macisngen	-2542
▁mamzamzat	-2543
▁ngamizing	-2544
▁nimeyyaha	-2545
▁palololwa	-2546
▁tataloran	-2547
▁yamakdeng	-2548
▁apyapyahen	-2549
▁ipanlanlag	-2550
▁kapacilolo	-2551
▁nipakacita	-2552
▁nivilangan	-2553
▁peyvahayan	-2554
angoyongoyod	-2555
▁nimakaranes	-2556
▁niomanoyong	-2557
▁nipangnanao	-2558
▁pacyangayan	-2559
▁kalwalovotan	-2560
▁keyleylamdam	-2561
▁macihanghang	-2562
▁meylovolovot	-2563
▁macinekanekad	-2564
▁ipangoyongoyod	-2565
il	-2566
ow	-2567
Mey	-2568
Oya	-2569
kto	-2570
mar	-2571
nao	-2572
naw	-2573
pas	-2574
sok	-2575
tow	-2576
yar	-2577
yon	-2578
▁Ip	-2579
▁Vo	-2580
▁ag	-2581
Nima	-2582
Noon	-2583
Sira	-2584
anad	-2585
dwan	-2586
hana	-2587
igeg	-2588
inay	-2589
ktak	-2590
nges	-2591
polo	-2592
sino	-2593
song	-2594
tong	-2595
voga	-2596
ywen	-2597
zeng	-2598
▁Man	-2599
▁ape	-2600
▁ipi	-2601
▁reh	-2602
dicya	-2603
eyyak	-2604
limot	-2605
lisan	-2606
malit	-2607
ngain	-2608
salan	-2609
salit	-2610
sanga	-2611
sovoy	-2612
tekan	-2613
vatan	-2614
▁Mate	-2615
▁Yasa	-2616
▁Yedi	-2617
▁kasi	-2618
▁kaza	-2619
▁livo	-2620
▁ngai	-2621
▁paha	-2622
Yarana	-2623
igegen	-2624
korako	-2625
maogan	-2626
sirsir	-2627
taptap	-2628
vyotan	-2629
▁000).	-2630
▁Tayar	-2631
▁angay	-2632
▁jyapa	-2633
▁kalas	-2634
▁kamoy	-2635
▁macyo	-2636
▁malma	-2637
▁marai	-2638
▁ngala	-2639
▁ngina	-2640
▁pasya	-2641
▁rahet	-2642
▁tanyo	-2643
Pancyan	-2644
anadnad	-2645
cyadiya	-2646
mtamkan	-2647
vongwan	-2648
wakawan	-2649
zyazyak	-2650
▁Ciring	-2651
▁Kanlan	-2652
▁Tomase	-2653
▁makala	-2654
▁malasi	-2655
▁ngepen	-2656
▁nidong	-2657
▁nipasa	-2658
▁pakaka	-2659
▁patana	-2660
▁rehreh	-2661
▁vonong	-2662
▁yapito	-2663
▁yasoma	-2664
Amizngen	-2665
cyakavat	-2666
leylamda	-2667
ngesngen	-2668
▁Solomen	-2669
▁ingaran	-2670
▁ipacici	-2671
▁kazakat	-2672
▁kokoman	-2673
▁nameney	-2674
▁ngolala	-2675
▁nikapya	-2676
▁peyvong	-2677
▁talinga	-2678
▁tawagan	-2679
▁Idisapay	-2680
▁Inarahen	-2681
▁Makowbot	-2682
▁Marateng	-2683
▁Matelyan	-2684
▁cicilwan	-2685
▁ipaziman	-2686
▁kakarwan	-2687
▁kapadket	-2688
▁kazwayan	-2689
▁malalayo	-2690
▁manaktak	-2691
▁mapalolo	-2692
▁mapasala	-2693
▁masingat	-2694
▁pasawain	-2695
▁peykabob	-2696
Yamaniring	-2697
sirsirngan	-2698
▁icyakatlo	-2699
▁kakcikcil	-2700
▁kavavahay	-2701
▁makanakem	-2702
▁manokdwan	-2703
▁peyvazaya	-2704
▁vatvatkan	-2705
▁kapanazang	-2706
▁kapanidong	-2707
▁mangozayan	-2708
▁kakawakawan	-2709
▁kanakenakem	-2710
▁kapakanakem	-2711
▁makabnebnek	-2712
▁nipeyvangon	-2713
▁omraherahet	-2714
▁kapeylilitod	-2715
▁nimakamizing	-2716
▁ipeytataziman	-2717
▁meykamadadayan	-2718
▁patanatanangan	-2719
▁peyvongvongwan	-2720
be	-2721
ila	-2722
teb	-2723
toy	-2724
▁ke	-2725
Ipey	-2726
Kamo	-2727
Yama	-2728
Yana	-2729
ayci	-2730
bong	-2731
bway	-2732
eseh	-2733
goro	-2734
koko	-2735
kpan	-2736
meng	-2737
mway	-2738
ngit	-2739
rapa	-2740
rwen	-2741
sleb	-2742
syam	-2743
toma	-2744
tyan	-2745
▁Oya	-2746
▁Say	-2747
▁Tey	-2748
▁Yen	-2749
▁ino	-2750
▁ita	-2751
▁pai	-2752
▁pao	-2753
▁tom	-2754
cyadi	-2755
hahap	-2756
hesep	-2757
kasan	-2758
mowan	-2759
nezak	-2760
patan	-2761
santa	-2762
walit	-2763
▁Apya	-2764
▁Kedi	-2765
▁Mina	-2766
▁Noya	-2767
▁Vato	-2768
▁Yana	-2769
▁Yoda	-2770
▁atbo	-2771
▁avak	-2772
▁azaw	-2773
▁kaci	-2774
▁lavi	-2775
▁nisa	-2776
▁novo	-2777
bakbak	-2778
bedbed	-2779
dangan	-2780
dnadna	-2781
lalayo	-2782
manngo	-2783
polose	-2784
seyrem	-2785
tengen	-2786
towang	-2787
zasing	-2788
▁Yepey	-2789
▁agaga	-2790
▁kaoya	-2791
▁maoya	-2792
▁papat	-2793
▁seyvo	-2794
▁yadwa	-2795
▁yakan	-2796
▁yopen	-2797
gorogod	-2798
tapatak	-2799
zizikna	-2800
▁kasina	-2801
▁keyyop	-2802
▁paolin	-2803
▁talili	-2804
hanhanen	-2805
lwalovot	-2806
penpenan	-2807
vonongan	-2808
▁Ananiya	-2809
▁Pancyan	-2810
▁Sipitay	-2811
▁Veydise	-2812
▁karakep	-2813
▁mavonas	-2814
▁narayan	-2815
▁nimimin	-2816
▁nimvood	-2817
▁omnanao	-2818
▁rarahen	-2819
▁simaraw	-2820
▁todapya	-2821
▁zakaten	-2822
anownowji	-2823
▁Isecyadi	-2824
▁agagazan	-2825
▁aptengen	-2826
▁jyavonas	-2827
▁kabtekan	-2828
▁komakzeb	-2829
▁macirapa	-2830
▁malavayo	-2831
▁mapakaro	-2832
▁mazngang	-2833
▁meyhekas	-2834
▁meyyaven	-2835
▁nimablis	-2836
▁nimvoyog	-2837
▁nipacita	-2838
▁nirakpan	-2839
▁pamnekan	-2840
▁yanimapa	-2841
Yamanoyong	-2842
▁Sacyadiya	-2843
▁Saypolose	-2844
▁amyongkad	-2845
▁anyaheyan	-2846
▁ikawakwak	-2847
▁ipeypapya	-2848
▁kalalasan	-2849
▁kapeynozi	-2850
▁kayongkad	-2851
▁livolivon	-2852
▁macipanad	-2853
▁magorogod	-2854
▁nipanovoy	-2855
savasavakan	-2856
▁ipasingkad	-2857
▁isavasavak	-2858
▁kapamaring	-2859
▁karakorako	-2860
▁makacittan	-2861
▁nipatanang	-2862
▁pahanhanen	-2863
▁yameyvazay	-2864
sicyakarilaw	-2865
▁Nimacipinda	-2866
▁amnakenakem	-2867
▁ikakdekdeng	-2868
▁kapacizanod	-2869
▁kapeyvangon	-2870
▁peyhanhanan	-2871
▁mapeyraraten	-2872
▁meyyanwanood	-2873
▁nalamozongan	-2874
▁nipariparing	-2875
▁pehngehngain	-2876
▁peyveyveknen	-2877
▁yamapeyzokab	-2878
▁macivahavahay	-2879
▁meyminaminasi	-2880
▁nisavasavakan	-2881
▁meykataretarek	-2882
Tan	-2883
don	-2884
let	-2885
pil	-2886
sak	-2887
sna	-2888
swa	-2889
vaz	-2890
voz	-2891
waz	-2892
anai	-2893
hayo	-2894
ngon	-2895
sepo	-2896
tala	-2897
ttow	-2898
vaka	-2899
▁ahe	-2900
▁api	-2901
▁gom	-2902
▁nik	-2903
▁ozi	-2904
▁zik	-2905
Yatey	-2906
cihza	-2907
dahen	-2908
depan	-2909
kakan	-2910
kokok	-2911
koris	-2912
lakan	-2913
manig	-2914
mirwa	-2915
mogaw	-2916
neken	-2917
ngbey	-2918
nicya	-2919
vayan	-2920
veveh	-2921
wadwa	-2922
zapen	-2923
zomsi	-2924
▁Podi	-2925
▁Yadi	-2926
▁aywa	-2927
▁gaza	-2928
▁irey	-2929
▁jyan	-2930
▁mogi	-2931
▁ngak	-2932
▁veze	-2933
kalima	-2934
labyab	-2935
taosya	-2936
yavayo	-2937
yeyyan	-2938
▁amyop	-2939
▁ikasa	-2940
▁kalya	-2941
▁manen	-2942
▁nipya	-2943
▁raten	-2944
▁somip	-2945
▁teyka	-2946
▁yanim	-2947
▁zomsi	-2948
cyangay	-2949
nanahet	-2950
▁	-2951
a	-2952
n	-2953
o	-2954
i	-2955
m	-2956
y	-2957
k	-2958
t	-2959
e	-2960
s	-2961
r	-2962
g	-2963
d	-2964
p	-2965
.	-2966
w	-2967
l	-2968
j	-2969
c	-2970
z	-2971
A	-2972
v	-2973
h	-2974
,	-2975
Y	-2976
M	-2977
"	-2978
b	-2979
S	-2980
T	-2981
O	-2982
N	-2983
K	-2984
I	-2985
P	-2986
'	-2987
J	-2988
C	-2989
?	-2990
V	-2991
0	-2992
L	-2993
D	-2994
(	-2995
)	-2996
