<unk>	0
<s>	0
</s>	0
▁a	-0
an	-1
▁n	-2
▁t	-3
▁m	-4
▁d	-5
▁s	-6
▁k	-7
▁am	-8
ya	-9
▁o	-10
ng	-11
▁ta	-12
▁na	-13
▁do	-14
ra	-15
ey	-16
▁ka	-17
▁ni	-18
yo	-19
en	-20
▁no	-21
▁j	-22
▁so	-23
▁ma	-24
ang	-25
▁i	-26
ci	-27
ay	-28
pa	-29
ana	-30
ri	-31
▁si	-32
ka	-33
▁ji	-34
▁da	-35
▁to	-36
▁tao	-37
la	-38
wa	-39
ta	-40
▁ya	-41
ma	-42
▁r	-43
▁rana	-44
▁ama	-45
ani	-46
ring	-47
▁p	-48
▁ko	-49
va	-50
▁y	-51
ano	-52
so	-53
▁pa	-54
▁nyo	-55
▁jya	-56
li	-57
to	-58
▁mey	-59
na	-60
▁ye	-61
yan	-62
no	-63
mo	-64
▁yeso	-65
sa	-66
wan	-67
ken	-68
ten	-69
si	-70
▁sira	-71
zi	-72
ke	-73
▁ci	-74
ha	-75
▁mo	-76
angay	-77
▁ori	-78
nyo	-79
vo	-80
pey	-81
man	-82
▁va	-83
lo	-84
ko	-85
mi	-86
▁mani	-87
rara	-88
▁maniring	-89
▁ak	-90
zay	-91
▁kano	-92
ro	-93
▁maci	-94
eng	-95
za	-96
bo	-97
men	-98
ne	-99
tan	-100
▁maka	-101
han	-102
in	-103
yong	-104
tao	-105
lam	-106
▁jinyo	-107
cya	-108
▁ika	-109
▁ciring	-110
ngen	-111
▁nya	-112
pan	-113
▁pey	-114
kwa	-115
anga	-116
he	-117
kem	-118
▁vazay	-119
po	-120
anoyong	-121
▁an	-122
▁akman	-123
kan	-124
▁nima	-125
anao	-126
▁sang	-127
ngan	-128
▁mangay	-129
▁sya	-130
te	-131
▁mapa	-132
pya	-133
ga	-134
▁tey	-135
pi	-136
▁namen	-137
▁yo	-138
sir	-139
▁kara	-140
ong	-141
▁jira	-142
ran	-143
▁ki	-144
rsir	-145
sto	-146
zisto	-147
▁kizisto	-148
rsirngen	-149
▁man	-150
anirsirngen	-151
▁kapa	-152
▁ono	-153
nga	-154
▁jyaken	-155
di	-156
lay	-157
▁nipa	-158
ji	-159
ned	-160
▁kamo	-161
▁aro	-162
wned	-163
raraten	-164
▁onowned	-165
▁yam	-166
ango	-167
nak	-168
rahe	-169
tay	-170
hap	-171
nanao	-172
panci	-173
law	-174
▁ra	-175
▁amyan	-176
se	-177
▁mi	-178
▁asa	-179
▁sa	-180
▁kak	-181
▁b	-182
wakwa	-183
▁panirsirngen	-184
▁om	-185
▁yama	-186
ray	-187
da	-188
zing	-189
ciring	-190
taotao	-191
▁kataotao	-192
mizing	-193
riciring	-194
hay	-195
▁ciriciring	-196
nong	-197
▁inyo	-198
akem	-199
kenakem	-200
mey	-201
▁yotay	-202
▁abo	-203
▁ipey	-204
▁kapey	-205
kad	-206
▁kani	-207
▁karawan	-208
▁sey	-209
wakwak	-210
▁nga	-211
▁anak	-212
▁nakem	-213
eken	-214
yay	-215
▁manoyong	-216
saray	-217
▁tana	-218
▁nakenakem	-219
▁jyaten	-220
▁ng	-221
kong	-222
walam	-223
yat	-224
▁yaken	-225
▁beken	-226
▁raraten	-227
▁ipa	-228
ek	-229
▁kaji	-230
raralay	-231
cita	-232
▁dang	-233
teng	-234
▁ang	-235
wyat	-236
teneng	-237
▁ipanci	-238
rwa	-239
wang	-240
▁kan	-241
vyay	-242
hen	-243
tenngan	-244
lamso	-245
rwan	-246
toro	-247
▁iwa	-248
mne	-249
▁apo	-250
▁mapey	-251
rahet	-252
ngi	-253
kongo	-254
▁iwawalam	-255
▁mina	-256
lis	-257
▁ik	-258
cici	-259
kay	-260
lolo	-261
min	-262
angain	-263
angayan	-264
▁vahay	-265
▁pi	-266
▁katenngan	-267
teh	-268
ngaran	-269
▁mava	-270
▁rako	-271
lim	-272
▁oma	-273
▁akma	-274
▁manga	-275
limwang	-276
▁key	-277
kes	-278
▁tangain	-279
om	-280
moz	-281
ze	-282
▁mang	-283
▁apya	-284
way	-285
▁icya	-286
▁meyngaran	-287
wlo	-288
▁li	-289
las	-290
eh	-291
oya	-292
▁ili	-293
yowyat	-294
▁ina	-295
hanhan	-296
mnekan	-297
▁macita	-298
▁ney	-299
▁jimo	-300
lamoz	-301
▁mavakes	-302
▁ikongo	-303
▁ala	-304
▁iya	-305
▁kakteh	-306
tey	-307
▁manci	-308
▁seyzi	-309
mimin	-310
ngato	-311
▁teyngato	-312
▁macinanao	-313
▁mango	-314
▁nanao	-315
▁pang	-316
▁nipamnekan	-317
lamozong	-318
▁pawlo	-319
oy	-320
cyan	-321
dan	-322
raw	-323
▁mak	-324
▁v	-325
▁oyowyat	-326
dong	-327
rilaw	-328
do	-329
▁sicya	-330
▁yako	-331
noy	-332
▁mana	-333
eya	-334
vat	-335
wen	-336
▁nika	-337
▁jyabo	-338
zway	-339
▁eya	-340
▁ikanoyong	-341
▁kap	-342
lamsoy	-343
▁kakwa	-344
▁meyyo	-345
zwa	-346
angan	-347
▁moy	-348
raraw	-349
▁nim	-350
op	-351
vazay	-352
▁araraw	-353
syo	-354
kaday	-355
▁kapaka	-356
lamlamsoy	-357
had	-358
zo	-359
▁mai	-360
kman	-361
ralay	-362
▁yana	-363
▁moyse	-364
tanang	-365
▁satan	-366
deng	-367
▁pite	-368
▁ninyo	-369
▁lamlamsoy	-370
kaop	-371
es	-372
lawan	-373
▁akmey	-374
▁nipey	-375
▁kangay	-376
▁itoro	-377
nas	-378
piya	-379
▁yan	-380
rilawan	-381
sya	-382
▁imo	-383
▁cina	-384
▁cya	-385
▁meyyonong	-386
▁pan	-387
vi	-388
▁nak	-389
▁manng	-390
sal	-391
livo	-392
▁panganga	-393
▁kato	-394
▁alalaw	-395
▁karahan	-396
san	-397
▁tin	-398
▁pahad	-399
ayan	-400
▁tinsi	-401
nozi	-402
wani	-403
kwaya	-404
▁naknak	-405
yob	-406
voy	-407
▁myan	-408
▁kanen	-409
▁yamey	-410
od	-411
▁karwan	-412
▁mahap	-413
▁yowani	-414
▁manngwa	-415
▁mamizing	-416
tana	-417
ranes	-418
▁toma	-419
de	-420
▁sicyai	-421
nan	-422
▁ip	-423
▁ngaran	-424
▁yamyan	-425
ney	-426
key	-427
pangayan	-428
zpi	-429
▁meyra	-430
panirsirngen	-431
▁ten	-432
say	-433
pwan	-434
▁meyrata	-435
▁mata	-436
▁ipaka	-437
▁peypey	-438
▁meyratateng	-439
▁araw	-440
▁pana	-441
▁peypeypangayan	-442
▁nira	-443
talamozong	-444
angozay	-445
diya	-446
▁makakaday	-447
▁sicyaikwaya	-448
▁pani	-449
lit	-450
lovo	-451
sang	-452
▁jyamen	-453
▁nang	-454
▁mangnanao	-455
▁ikavyay	-456
▁marahet	-457
▁mavyay	-458
▁seysyo	-459
rahem	-460
▁nizpi	-461
og	-462
tanatanang	-463
losal	-464
losaleng	-465
▁yelosaleng	-466
pin	-467
▁kag	-468
▁naknakmen	-469
▁pangangarilawan	-470
▁ab	-471
▁mapatanatanang	-472
▁maha	-473
▁omanoyong	-474
jya	-475
zya	-476
▁yani	-477
▁teyrahem	-478
dke	-479
▁cinai	-480
ba	-481
ki	-482
▁keyyan	-483
dwa	-484
▁kapaci	-485
hang	-486
sing	-487
▁pano	-488
kow	-489
▁nito	-490
oli	-491
waw	-492
mina	-493
▁makara	-494
gom	-495
▁nyaken	-496
maog	-497
tak	-498
▁ba	-499
vahay	-500
nonong	-501
ralayan	-502
tlo	-503
ling	-504
rana	-505
▁sino	-506
▁makaranes	-507
▁macya	-508
▁vo	-509
▁yarana	-510
▁macikaop	-511
hey	-512
▁cita	-513
▁kaka	-514
▁mapasaray	-515
▁meyraraten	-516
▁italamozong	-517
zwazway	-518
rek	-519
▁kado	-520
▁panaralayan	-521
haka	-522
▁he	-523
angozayan	-524
anom	-525
hapen	-526
▁kagling	-527
maha	-528
▁karara	-529
▁makarahan	-530
rawa	-531
▁toda	-532
on	-533
pen	-534
yonoy	-535
▁inaoy	-536
yonoywan	-537
▁panoyonoywan	-538
▁ap	-539
▁pangozayan	-540
taza	-541
oyyan	-542
▁soma	-543
anod	-544
▁anoy	-545
▁koma	-546
▁nipanci	-547
hza	-548
vang	-549
▁po	-550
▁nimey	-551
cy	-552
kza	-553
▁yasa	-554
▁wan	-555
▁malas	-556
▁ranom	-557
yongkad	-558
▁makateneng	-559
sina	-560
▁nimawakwak	-561
napo	-562
tatao	-563
ziman	-564
▁rara	-565
lamsoyan	-566
▁anoyngan	-567
▁icyatatao	-568
yokay	-569
▁kalamsoyan	-570
▁meylimwang	-571
▁oya	-572
taw	-573
pyan	-574
▁ami	-575
▁pala	-576
▁yabo	-577
▁rarwa	-578
▁vey	-579
dwan	-580
▁mam	-581
▁ayob	-582
▁mamimin	-583
raherahet	-584
rawat	-585
▁icici	-586
▁pancyan	-587
▁icicirawat	-588
lili	-589
▁nyaten	-590
▁paka	-591
yangay	-592
▁meyka	-593
▁yamen	-594
▁yaten	-595
hakawan	-596
▁nitoro	-597
▁kapanci	-598
▁macyagom	-599
lang	-600
hapan	-601
yahey	-602
cin	-603
lyan	-604
rako	-605
▁ngo	-606
livon	-607
▁yato	-608
▁isaray	-609
▁jyatenngi	-610
▁nip	-611
▁tamo	-612
▁nimaka	-613
et	-614
eyka	-615
▁ise	-616
▁kab	-617
▁ahapen	-618
kab	-619
zngen	-620
▁kasa	-621
▁yanan	-622
▁mahakay	-623
dep	-624
dna	-625
wey	-626
zeb	-627
mong	-628
vonas	-629
sidong	-630
zyak	-631
▁yaji	-632
▁lo	-633
tanek	-634
nongan	-635
▁ikabo	-636
▁makwa	-637
▁meynozi	-638
ni	-639
lahan	-640
angnanao	-641
▁mangononong	-642
lan	-643
zat	-644
▁mano	-645
▁apolahan	-646
▁ipi	-647
▁baka	-648
▁meyya	-649
▁omala	-650
sinaoli	-651
▁kadwan	-652
▁apyapya	-653
▁meyhanhan	-654
zan	-655
▁yada	-656
▁yangay	-657
gan	-658
▁apiya	-659
nay	-660
dang	-661
hani	-662
nganay	-663
▁isedi	-664
tatanek	-665
▁omraralay	-666
▁nimamizing	-667
▁mara	-668
disay	-669
▁lima	-670
▁cyaha	-671
▁yapya	-672
▁vadisay	-673
keh	-674
yod	-675
lisna	-676
▁itay	-677
▁mala	-678
▁pacici	-679
▁itaysang	-680
em	-681
▁paci	-682
twaw	-683
▁nipan	-684
▁yanyo	-685
▁nimaci	-686
angangay	-687
▁makdeng	-688
livolivon	-689
▁mawakwak	-690
bot	-691
▁la	-692
▁jyo	-693
▁macit	-694
▁karatan	-695
▁amraralay	-696
gami	-697
jika	-698
zang	-699
hanit	-700
midong	-701
▁hanit	-702
▁jyojika	-703
▁azwazway	-704
▁nihakawan	-705
▁ipakateneng	-706
lovot	-707
▁kakzeb	-708
▁tenngi	-709
ve	-710
zai	-711
lololo	-712
▁nimacita	-713
▁dey	-714
▁kai	-715
vango	-716
▁kayo	-717
▁kapya	-718
▁amizngen	-719
▁kana	-720
ti	-721
sey	-722
▁awa	-723
▁rala	-724
▁icyak	-725
noz	-726
▁yongkad	-727
ed	-728
king	-729
vong	-730
eteneng	-731
▁kanima	-732
kto	-733
vey	-734
pong	-735
vangon	-736
lololos	-737
▁kararay	-738
▁marateng	-739
anoy	-740
▁kabo	-741
▁kahap	-742
▁kakzeben	-743
▁kanoyong	-744
lato	-745
▁apoy	-746
▁loma	-747
▁peycya	-748
tazadang	-749
sin	-750
▁za	-751
pito	-752
▁pam	-753
▁iney	-754
▁yata	-755
▁makacita	-756
▁macitangayan	-757
eb	-758
ehng	-759
zokab	-760
nozyan	-761
▁nipaka	-762
▁ipeylimwang	-763
tod	-764
eykai	-765
ngong	-766
zanod	-767
▁yamo	-768
vatkan	-769
▁rarahan	-770
ib	-771
jin	-772
▁iyan	-773
▁masa	-774
▁nimo	-775
▁peyney	-776
ngongyod	-777
▁nitovoy	-778
▁ineynapo	-779
linas	-780
syasi	-781
kowbot	-782
▁cyadi	-783
▁wakwa	-784
▁inawan	-785
▁kyokay	-786
▁pilato	-787
▁wanjin	-788
▁yamaci	-789
go	-790
ket	-791
ton	-792
manma	-793
▁sara	-794
▁tomi	-795
karwan	-796
▁kanang	-797
▁simong	-798
▁	-799
a	-800
n	-801
o	-802
i	-803
m	-804
y	-805
k	-806
t	-807
e	-808
s	-809
r	-810
g	-811
d	-812
p	-813
w	-814
l	-815
j	-816
c	-817
z	-818
v	-819
h	-820
b	-821
